// Generator Weights - Q4.12 (16-bit)
// Fractional bits: 12
// Integer bits: 3 + 1 sign
// Total: 45 parameters × 16-bit = 90 bytes
// Memory Organization:
//   Address 0x00-0x05: Wg2 (6 values)
//   Address 0x06-0x08: bg2 (3 values)
//   Address 0x09-0x23: Wg3 (27 values)
//   Address 0x24-0x2C: bg3 (9 values)

0075
02B3
FC83
010B
0071
FDF6
070F
0328
FE3D
FF46
02C0
058A
064F
FDBB
06C0
013A
021E
0113
FFA8
00C8
024C
030A
0238
01DE
FE19
0214
0294
00CD
0119
0135
FF1E
0081
FE58
0168
FDB0
FE4D
FE21
091E
0056
08EF
FF06
0966
FFA3
0B26
FFF4
