FFFFFFE9
00000003
FFFFFFFE
FFFFFFBA
FFFFFF88
FFFFFFA6
FFFFFFF1
FFFFFFCE
FFFFFFB0
FFFFFFBC
FFFFFFE4
FFFFFFFB
FFFFFFFD
FFFFFFF3
FFFFFFE6
FFFFFFB3
FFFFFFCF
FFFFFFFC
FFFFFFCD
FFFFFFDA
00000013
FFFFFFD2
FFFFFFC9
FFFFFFEF
FFFFFFE2
FFFFFFC7
FFFFFFCD
FFFFFFF4
FFFFFFE7
FFFFFFD2
00000000
0000001A
00000008
FFFFFFF2
FFFFFFBD
00000017
FFFFFFFD
FFFFFFD0
FFFFFFC9
FFFFFFCB
FFFFFFB7
FFFFFFD2
FFFFFFC5
FFFFFFEA
0000001B
0000004F
00000058
0000003F
00000007
0000000C
0000002C
0000001A
FFFFFFEE
00000019
0000000F
FFFFFFE6
00000030
00000044
00000018
FFFFFFBA
00000017
00000032
00000012
0000000D
00000028
0000001F
00000001
00000017
0000001F
00000010
0000004C
0000005A
0000001D
FFFFFFE9
FFFFFFFE
FFFFFFE5
0000000E
00000017
0000004E
00000018
FFFFFFA5
FFFFFFEE
00000010
FFFFFFC8
FFFFFFF5
FFFFFFF7
00000001
00000020
0000002A
00000017
00000000
00000012
00000022
00000001
FFFFFFF5
00000003
00000023
00000001
0000001A
00000019
00000028
00000033
0000003A
0000003F
0000002C
00000004
00000028
00000048
00000041
00000020
00000014
FFFFFFEB
