0000001D
FFFFFFE4
00000048
FFFFFFC6
FFFFFFE3
00000038
FFFFFFDB
FFFFFFDF
00000006
FFFFFFDD
00000018
FFFFFFFB
FFFFFFD1
00000022
00000035
FFFFFFF2
00000029
FFFFFFBE
00000009
00000021
FFFFFFCE
00000004
FFFFFFFA
FFFFFFFA
00000024
FFFFFFE6
0000001E
FFFFFFDD
00000001
00000012
FFFFFFD7
FFFFFFC7
0000002B
FFFFFFC5
FFFFFFCE
0000000F
00000006
00000025
FFFFFFDD
0000002B
FFFFFFD1
00000017
00000011
FFFFFFDF
0000003F
FFFFFFEC
00000001
FFFFFFDE
00000023
FFFFFFF4
00000026
FFFFFFF9
FFFFFFD9
00000024
00000022
FFFFFFF8
00000015
FFFFFFE9
0000001D
FFFFFFF4
FFFFFFE3
00000038
FFFFFFD6
FFFFFFE8
0000001F
00000023
0000001E
0000003F
FFFFFFF4
FFFFFFF4
FFFFFFC7
0000000F
FFFFFFB7
FFFFFFD8
00000015
FFFFFFD2
00000017
FFFFFFE6
FFFFFFED
00000009
FFFFFFFC
FFFFFFCF
FFFFFFEB
00000021
00000024
FFFFFFC7
FFFFFFCD
00000002
00000004
0000001C
00000021
00000040
0000000A
FFFFFFD8
00000011
FFFFFFE5
FFFFFFF5
00000015
0000001F
00000024
00000004
00000001
FFFFFFC7
00000016
FFFFFFD5
FFFFFFD5
00000024
FFFFFFE1
0000000F
00000012
00000007
FFFFFFDB
0000000A
00000006
00000022
00000003
FFFFFFE7
0000002A
0000001C
FFFFFFF4
FFFFFFD9
00000023
FFFFFFFA
00000016
00000025
00000005
00000036
00000040
FFFFFFBC
00000020
00000006
00000020
00000018
00000014
00000002
00000018
00000023
FFFFFFD9
FFFFFFEB
0000001C
FFFFFFF8
00000026
FFFFFFF1
00000036
FFFFFFE7
0000002F
FFFFFFFC
FFFFFFCF
0000002A
00000023
FFFFFFE7
FFFFFFF4
FFFFFFDB
FFFFFFF1
FFFFFFF6
FFFFFFDB
00000056
FFFFFFFF
0000002E
00000009
00000007
00000027
FFFFFFEE
00000046
00000032
00000001
FFFFFFDF
00000003
FFFFFFDC
FFFFFFEA
00000021
0000000C
00000025
0000003A
00000036
FFFFFFE1
00000002
FFFFFFC2
00000039
FFFFFFD6
00000028
FFFFFFCD
00000015
00000025
FFFFFFF1
00000002
FFFFFFBD
FFFFFFD5
FFFFFFE4
0000002B
FFFFFFEB
FFFFFFDA
00000001
FFFFFFDE
FFFFFFD4
00000000
FFFFFFC6
00000005
00000021
00000012
FFFFFFF2
FFFFFFE5
0000002A
00000009
00000022
FFFFFFD6
FFFFFFCF
FFFFFFEF
FFFFFFE9
00000004
0000001C
FFFFFFFD
FFFFFFF0
00000027
FFFFFFEF
0000002D
00000043
00000003
FFFFFFCD
FFFFFFDA
00000017
00000014
FFFFFFDB
00000025
0000002F
FFFFFFE8
FFFFFFF9
0000000E
0000001D
00000021
0000002A
FFFFFFF1
FFFFFFF9
FFFFFFA9
FFFFFFF7
FFFFFFEA
00000050
FFFFFFEE
0000003F
FFFFFFF4
FFFFFFD2
FFFFFFE6
FFFFFFA9
00000032
FFFFFFD2
0000000B
FFFFFFF8
00000039
FFFFFFF8
FFFFFFF2
0000001F
0000002A
FFFFFFF4
0000003A
00000015
0000001A
FFFFFFD3
00000004
FFFFFFC8
0000001C
00000010
FFFFFFFC
0000002F
00000032
FFFFFFF7
0000003B
0000001E
FFFFFFF3
FFFFFFDF
FFFFFFF3
00000011
FFFFFFE2
0000001A
FFFFFFF8
0000002A
FFFFFFEC
FFFFFFE0
FFFFFFEE
FFFFFFF1
00000011
00000052
FFFFFFEE
FFFFFFED
00000005
00000000
00000017
00000029
FFFFFFFE
FFFFFFE9
FFFFFFE1
0000001E
FFFFFFDD
FFFFFFFD
00000023
FFFFFFF3
00000028
FFFFFFCE
00000043
00000033
00000003
FFFFFFF6
FFFFFFEE
0000003F
0000001C
0000000B
0000003B
FFFFFFB9
FFFFFFCF
0000000D
00000014
FFFFFFFA
FFFFFFF0
FFFFFFD3
FFFFFFCF
FFFFFFE5
FFFFFFE6
0000003A
0000001F
0000000C
0000000A
00000035
0000000C
FFFFFFEF
00000033
FFFFFFC8
FFFFFFE4
FFFFFFFE
00000005
00000011
FFFFFF9F
00000024
0000001F
FFFFFFE8
FFFFFFE8
FFFFFFE0
FFFFFFF3
FFFFFFE0
00000025
0000001D
FFFFFFEE
FFFFFFEC
FFFFFFEE
FFFFFFF9
0000000D
FFFFFFD8
00000006
FFFFFFE3
FFFFFFE1
FFFFFFEC
FFFFFFF1
0000002B
FFFFFFD3
0000001C
FFFFFFD6
FFFFFFFD
0000000F
FFFFFFF2
FFFFFFF7
0000000A
00000020
FFFFFFF7
FFFFFFEA
FFFFFFCF
0000001E
00000007
FFFFFFED
0000002C
00000022
0000001C
00000030
FFFFFFD3
0000000D
FFFFFFF6
00000029
FFFFFFD3
00000007
00000030
00000020
00000033
00000023
00000019
00000037
FFFFFFFA
FFFFFFD4
FFFFFFDC
00000020
00000013
0000001A
00000000
FFFFFFE1
0000000E
00000012
FFFFFFE1
00000013
00000025
FFFFFFDA
0000000B
FFFFFFFD
0000002E
00000001
00000020
0000000D
FFFFFFE2
0000000F
FFFFFFE8
FFFFFFDB
FFFFFFD4
FFFFFFD8
FFFFFFEC
FFFFFFFF
00000026
00000019
FFFFFFE7
FFFFFFF2
FFFFFFF2
0000000F
00000009
FFFFFFED
FFFFFFC3
FFFFFFE0
FFFFFFE6
0000001F
0000000F
FFFFFFFF
00000039
FFFFFFD3
FFFFFFFF
FFFFFFE9
FFFFFFF3
FFFFFFCE
FFFFFFE9
FFFFFFFC
FFFFFFD3
FFFFFFE4
FFFFFFFC
00000007
FFFFFFE9
00000026
00000011
FFFFFFEC
0000002F
FFFFFFF2
FFFFFFD7
FFFFFFEA
FFFFFFF2
FFFFFFD6
00000019
FFFFFFFC
00000023
00000017
FFFFFFEB
FFFFFFFD
00000024
00000025
FFFFFFDB
0000001A
0000000C
0000003A
FFFFFFFE
FFFFFFDF
00000041
FFFFFFFB
00000005
00000003
FFFFFFF2
0000002F
FFFFFFD9
0000003A
00000035
FFFFFFE0
00000001
0000000D
FFFFFFBF
FFFFFFF5
FFFFFFFA
0000001F
0000001F
FFFFFFE8
00000045
FFFFFFDB
00000002
0000001E
FFFFFFE7
00000022
00000020
0000000C
FFFFFFBE
00000020
00000003
FFFFFFDF
FFFFFFDD
0000001B
FFFFFFAF
FFFFFFDF
FFFFFFFE
FFFFFFF9
FFFFFFBD
0000000E
FFFFFFCB
FFFFFFE9
FFFFFFC9
00000038
FFFFFFE2
00000000
FFFFFFDA
0000000C
00000028
FFFFFFDF
FFFFFFFD
FFFFFFDD
FFFFFFF3
00000022
00000017
00000031
FFFFFFFA
00000026
00000007
00000041
00000012
0000002E
00000015
0000000A
00000014
FFFFFFEE
0000000D
0000000A
FFFFFFE7
00000033
00000006
FFFFFFFB
00000018
FFFFFFD6
FFFFFFEA
00000002
FFFFFFE9
FFFFFFE2
FFFFFFE4
FFFFFFFA
00000030
00000034
FFFFFFFE
0000002B
FFFFFFFD
FFFFFFEB
FFFFFFF7
0000001D
00000010
FFFFFFDB
00000026
FFFFFFFF
FFFFFFE6
00000000
00000029
0000000B
00000018
0000000B
00000007
00000010
FFFFFFEB
0000002A
FFFFFFEF
00000022
FFFFFFF0
00000000
FFFFFFE7
FFFFFFE4
00000021
00000008
FFFFFFF9
0000002D
FFFFFFF4
0000001A
FFFFFFFE
00000014
00000020
FFFFFFF7
FFFFFFEF
0000000A
FFFFFFFF
FFFFFFC1
FFFFFFF0
FFFFFFF3
00000011
00000023
FFFFFFD5
0000001E
FFFFFFF5
00000026
FFFFFFEC
00000023
FFFFFFF5
FFFFFFFD
0000001B
00000007
00000011
00000008
0000002D
00000007
00000008
00000013
0000001E
FFFFFFFB
FFFFFFD4
0000000C
00000021
FFFFFFE4
FFFFFFE1
FFFFFFEC
00000009
00000012
FFFFFFF2
0000000B
00000007
FFFFFFFA
0000001C
FFFFFFF6
FFFFFFE6
FFFFFFD3
00000017
00000042
0000001A
00000010
FFFFFFD6
0000002D
00000037
FFFFFFE6
00000025
FFFFFFF5
FFFFFFD4
FFFFFFD5
FFFFFFB4
00000030
FFFFFFE6
FFFFFFEE
FFFFFFC8
FFFFFFCE
00000013
0000001E
FFFFFFFA
0000003F
FFFFFFE7
FFFFFFF2
00000000
0000002C
FFFFFFDC
FFFFFFCF
FFFFFFF2
00000000
00000011
0000002F
FFFFFFE3
00000010
FFFFFFC3
00000008
FFFFFFFD
00000006
FFFFFFCF
00000011
FFFFFFDC
00000000
00000012
FFFFFFF0
FFFFFFF5
0000000E
00000016
FFFFFFE8
FFFFFFC4
0000000A
FFFFFFFF
00000040
FFFFFFEB
0000001D
00000006
00000009
00000026
FFFFFFCC
00000005
FFFFFFFB
00000010
FFFFFFD7
0000000B
FFFFFFFD
FFFFFFFC
FFFFFFFF
FFFFFFE1
FFFFFFE1
FFFFFFD6
00000039
00000011
00000031
FFFFFFCE
FFFFFFF3
FFFFFFC1
FFFFFFD6
FFFFFFF3
0000000F
0000000C
FFFFFFBD
FFFFFFD8
00000015
00000038
FFFFFFF0
00000014
FFFFFFE0
00000030
00000015
FFFFFFE3
FFFFFFF1
FFFFFFFE
FFFFFFE4
00000032
00000026
FFFFFFEE
FFFFFFFE
00000010
FFFFFFD8
FFFFFFDD
FFFFFFEE
00000016
00000040
00000019
FFFFFFCF
0000000A
FFFFFFDE
00000001
FFFFFFE6
00000036
FFFFFFFF
00000020
FFFFFFD0
FFFFFFDF
FFFFFFFB
0000001B
0000000C
00000034
00000021
0000001B
FFFFFFC3
0000001D
FFFFFFE2
00000009
FFFFFFE5
0000002B
FFFFFFF5
FFFFFFF9
FFFFFFEA
00000009
FFFFFFEC
FFFFFFE8
FFFFFFF2
FFFFFFE6
00000016
FFFFFFE9
0000001B
00000001
00000009
FFFFFFEB
FFFFFFE1
FFFFFFEB
00000042
FFFFFFEA
00000025
FFFFFFEB
FFFFFFCE
0000001C
00000019
00000033
0000003F
00000012
00000003
00000015
0000001B
0000001F
00000045
00000019
00000004
00000001
00000015
00000013
00000010
FFFFFFE3
00000022
00000002
0000000C
FFFFFFD5
FFFFFFD8
00000027
0000000A
00000001
FFFFFFD3
00000003
FFFFFFF9
0000005E
00000032
00000018
00000022
0000001A
00000003
00000030
0000001A
0000000C
00000024
FFFFFFD2
FFFFFFE6
FFFFFFDD
0000000F
0000002E
00000032
FFFFFFEC
00000008
00000004
FFFFFFE5
FFFFFFDF
00000017
0000001A
00000009
00000022
00000049
00000002
FFFFFFE4
FFFFFFFF
00000008
FFFFFFD6
FFFFFFEB
FFFFFFEA
00000037
FFFFFFDC
00000000
00000025
00000017
0000002B
0000002C
0000002B
FFFFFFE8
FFFFFFC4
FFFFFFF7
FFFFFFEB
FFFFFFE1
0000001A
0000001E
FFFFFFE8
0000001A
00000027
FFFFFFFF
FFFFFFE7
00000001
00000009
0000001F
FFFFFFE1
00000021
0000000E
0000000F
00000001
FFFFFFEE
0000001A
FFFFFFF8
FFFFFFE3
00000015
00000001
00000030
0000002E
00000041
00000036
00000009
0000000E
00000000
0000001E
00000023
FFFFFFF2
0000000F
00000000
FFFFFFC4
00000021
00000044
00000015
00000040
FFFFFFEB
00000013
00000009
FFFFFFEA
FFFFFFDD
00000022
FFFFFFF0
FFFFFFF5
00000021
0000000C
FFFFFFC3
00000015
00000043
0000001E
0000001A
00000028
FFFFFFDC
FFFFFFF1
00000012
FFFFFFEF
FFFFFFFF
0000002C
FFFFFFD3
FFFFFFF9
00000022
00000040
FFFFFFEC
FFFFFFFA
00000028
FFFFFFD8
FFFFFFEC
FFFFFFE6
00000012
FFFFFFF6
00000012
FFFFFFDE
FFFFFFEF
00000030
00000013
00000020
FFFFFFEA
0000001F
FFFFFFDB
00000011
0000000D
00000006
00000009
00000015
FFFFFFC6
FFFFFFFA
FFFFFFF4
FFFFFFF7
FFFFFFE3
00000011
00000010
FFFFFFA4
00000034
FFFFFFF0
FFFFFFEB
FFFFFFD5
FFFFFFC4
00000021
00000012
FFFFFFE7
00000012
FFFFFFE7
0000003F
00000017
FFFFFFFD
0000003C
00000035
FFFFFFF8
0000001C
0000000D
0000001C
00000004
FFFFFFC5
FFFFFFDF
FFFFFFE1
00000012
0000001E
00000000
0000002D
0000000C
00000066
FFFFFFFE
FFFFFFE7
0000000F
00000010
00000004
00000003
FFFFFFE5
0000000E
FFFFFFE2
0000001F
FFFFFFFD
FFFFFFF0
FFFFFFD9
FFFFFFEE
00000025
0000001F
0000001D
FFFFFFFB
0000001D
0000001E
FFFFFFE8
FFFFFFD2
FFFFFFDD
FFFFFFDA
FFFFFFF7
00000045
0000002C
FFFFFFD4
00000011
FFFFFFE4
FFFFFFE4
00000005
FFFFFFDB
00000017
00000029
00000021
00000005
FFFFFFE5
00000027
FFFFFFF7
0000001D
00000001
FFFFFFED
FFFFFFEF
FFFFFFDE
FFFFFFCB
FFFFFFDD
FFFFFFEB
FFFFFFF5
00000003
FFFFFFEE
FFFFFFBE
0000000A
00000013
00000011
0000000A
FFFFFFF6
0000000D
00000026
FFFFFFED
0000000D
00000009
FFFFFFFD
FFFFFFD4
0000002F
00000039
00000018
FFFFFFD6
0000002D
FFFFFFEB
00000030
00000001
FFFFFFD6
FFFFFFF4
00000022
FFFFFFFA
00000024
0000002E
0000002A
0000004A
FFFFFFD9
0000002C
00000037
0000001D
FFFFFFD8
00000023
00000018
00000047
00000031
00000030
FFFFFFBA
00000044
00000020
FFFFFFD2
00000021
0000002B
0000000F
FFFFFFD7
00000010
FFFFFFED
0000002B
FFFFFFDA
00000037
FFFFFFE9
00000024
0000000E
00000033
FFFFFFE2
0000001A
FFFFFFA7
FFFFFFFF
0000000B
00000019
0000000B
00000015
00000021
00000003
00000015
FFFFFFE2
FFFFFFEA
FFFFFFFE
FFFFFFF9
FFFFFFFA
FFFFFFE9
00000017
00000015
FFFFFFEA
FFFFFFF1
FFFFFFF0
FFFFFFEE
0000001B
0000000B
FFFFFFC3
FFFFFFF6
FFFFFFF7
FFFFFFF7
00000026
FFFFFFCE
0000002B
00000034
FFFFFFE8
FFFFFFE9
FFFFFFFA
00000032
0000001F
FFFFFFD1
0000003A
FFFFFFE2
0000001C
FFFFFFEB
FFFFFFE5
FFFFFFDB
0000000E
00000013
00000018
FFFFFFC7
FFFFFFFD
FFFFFFE1
0000003F
00000030
FFFFFFEA
FFFFFFC6
FFFFFFF0
00000016
00000026
FFFFFFC2
00000041
FFFFFFB2
00000021
FFFFFFEB
0000000E
00000077
FFFFFFF2
FFFFFFF0
FFFFFFDE
00000023
0000000B
0000000C
00000031
00000030
FFFFFFEA
FFFFFFCD
00000001
0000002A
FFFFFFDC
00000045
0000001C
00000000
FFFFFFE1
0000000C
FFFFFFED
FFFFFFFD
00000036
FFFFFFE3
00000009
00000019
0000003A
FFFFFFF2
FFFFFFC2
FFFFFFEA
0000002D
FFFFFFE7
0000002A
00000030
00000009
FFFFFFC6
FFFFFFFF
0000000F
00000048
0000000F
FFFFFFF9
00000011
00000016
FFFFFFF8
FFFFFFE6
00000009
00000000
FFFFFFE6
00000027
00000015
00000030
FFFFFFDE
FFFFFFE7
00000033
FFFFFFD4
0000002E
0000001C
FFFFFFE4
FFFFFFF0
FFFFFFF3
0000000F
FFFFFFF8
FFFFFFC2
FFFFFFF4
FFFFFFF4
00000030
00000003
FFFFFFD1
FFFFFFF9
00000002
0000003E
FFFFFFEC
0000003F
00000015
FFFFFFF1
FFFFFFE9
0000000E
00000026
00000022
0000002F
00000016
FFFFFFFB
FFFFFFC6
00000036
00000000
FFFFFFC6
0000001F
FFFFFFEC
FFFFFFD4
0000000C
0000000F
FFFFFFF9
00000025
FFFFFFD4
FFFFFFE5
FFFFFFFA
0000001A
00000026
FFFFFFFD
00000000
FFFFFFE7
FFFFFFEF
0000001A
FFFFFFF3
00000011
FFFFFFF6
00000044
00000016
00000034
FFFFFFF8
0000001B
FFFFFFF5
FFFFFFE8
00000026
00000026
FFFFFFFE
0000005F
FFFFFFE9
0000001B
00000026
00000033
0000000E
00000048
00000014
FFFFFFDE
FFFFFFFF
00000013
00000034
00000017
FFFFFFD8
FFFFFFA7
00000006
FFFFFFF2
FFFFFFF8
00000022
0000005F
00000013
FFFFFFDF
00000024
FFFFFFE6
00000000
FFFFFFD4
FFFFFFD6
FFFFFFF1
FFFFFFFB
00000016
00000027
00000038
FFFFFFF4
FFFFFFD0
00000034
00000003
0000001D
FFFFFFD1
FFFFFFEC
00000005
FFFFFFCE
00000037
0000000D
FFFFFFCB
FFFFFFE0
FFFFFFEE
0000003F
FFFFFFF7
FFFFFFF9
FFFFFFE6
00000027
FFFFFFEF
00000014
0000001E
FFFFFFF5
FFFFFFEA
00000015
00000017
00000046
0000001D
00000009
0000000C
00000031
FFFFFFF3
FFFFFFFA
FFFFFFDC
FFFFFFF0
00000016
FFFFFFD7
FFFFFFD5
FFFFFFF6
00000020
00000021
0000003A
FFFFFFFE
00000018
00000010
FFFFFFEA
FFFFFFEA
FFFFFFFA
00000022
0000001C
FFFFFFEC
FFFFFFC9
00000010
00000013
FFFFFFF4
FFFFFFEF
00000005
FFFFFFCB
0000003B
00000038
00000014
FFFFFFFD
FFFFFFCD
FFFFFFFC
FFFFFFF0
00000013
00000002
00000021
0000000B
00000030
00000001
00000019
FFFFFFC2
FFFFFFE9
0000001E
FFFFFFEC
00000039
FFFFFFC9
FFFFFFD5
00000029
0000001D
FFFFFFEA
FFFFFFFA
FFFFFFE8
FFFFFFE2
00000021
FFFFFFDB
00000011
00000011
FFFFFFFB
00000003
FFFFFFFE
00000031
00000001
00000028
FFFFFFBB
00000039
FFFFFFD8
FFFFFFF4
00000031
00000005
FFFFFFC9
00000004
0000002E
FFFFFFFF
00000020
FFFFFFE8
00000015
00000009
00000046
FFFFFFD8
FFFFFFFF
FFFFFFE7
00000028
FFFFFFD4
FFFFFFE5
00000005
FFFFFFE2
0000001F
FFFFFFEA
0000001B
0000002E
FFFFFFEC
FFFFFFCD
00000007
FFFFFFF7
FFFFFFF9
FFFFFFC3
00000004
00000007
FFFFFFFD
FFFFFFDA
00000000
FFFFFFD9
0000000C
00000003
00000018
0000001A
FFFFFFE1
00000021
00000014
0000000C
FFFFFFE8
0000000B
FFFFFFF5
00000000
FFFFFFD3
00000023
0000000F
00000016
00000025
FFFFFFFB
00000002
0000002D
0000003A
00000009
00000018
FFFFFFF0
0000003B
0000001B
FFFFFFF9
00000023
00000006
00000025
00000005
FFFFFFFA
00000018
FFFFFFE3
00000012
00000000
00000025
00000007
00000048
00000009
FFFFFFFB
00000039
FFFFFFD3
FFFFFFE9
0000003F
00000031
FFFFFFDE
00000019
FFFFFFEA
FFFFFFF4
FFFFFFB8
FFFFFFD5
FFFFFFE1
0000004B
00000019
FFFFFFFF
0000000F
00000016
0000000B
FFFFFFB0
0000003A
0000001A
FFFFFFF2
FFFFFFC0
FFFFFFD3
00000033
FFFFFFE8
FFFFFFF8
FFFFFFFA
FFFFFFD9
FFFFFFFB
0000001D
FFFFFFCC
FFFFFFD8
FFFFFFD9
00000019
FFFFFFBB
FFFFFFF9
00000015
FFFFFFEB
FFFFFFF5
FFFFFFF8
00000010
0000000C
00000026
FFFFFFED
0000001C
00000002
0000000F
FFFFFFC2
FFFFFFE7
00000015
00000016
FFFFFFE6
FFFFFFE6
00000029
00000040
00000019
FFFFFFC2
0000002A
0000001E
0000001C
00000026
FFFFFFF2
FFFFFFE5
FFFFFFF2
00000026
FFFFFFDB
FFFFFFF4
00000016
00000011
00000035
FFFFFFD0
00000008
0000000E
FFFFFFCD
00000001
00000006
0000003B
FFFFFFD9
FFFFFFE7
FFFFFFEE
FFFFFFD9
FFFFFFB6
FFFFFFE8
FFFFFFF6
0000001B
FFFFFFD2
FFFFFFD2
FFFFFFE9
FFFFFFFC
00000020
FFFFFFBD
00000011
00000007
FFFFFFDD
FFFFFFD4
FFFFFFF6
FFFFFFEB
FFFFFFBE
0000002F
0000005D
FFFFFFDE
00000034
0000002A
FFFFFFE8
0000001E
FFFFFFFD
0000000A
00000021
00000000
FFFFFFF9
FFFFFFEC
FFFFFFF9
FFFFFFE5
00000007
00000022
00000003
0000003F
00000033
FFFFFFF4
FFFFFFF9
0000001A
FFFFFFD2
FFFFFFFB
00000013
FFFFFFFD
FFFFFFFF
FFFFFFE4
FFFFFFD2
FFFFFFE6
FFFFFFD3
FFFFFFD8
FFFFFFDF
00000028
FFFFFFF8
00000011
00000004
FFFFFFFD
FFFFFFE9
00000012
0000001E
0000000F
0000003E
00000028
00000015
FFFFFFBE
FFFFFFD0
00000001
00000028
FFFFFFC2
FFFFFFFF
FFFFFFDB
FFFFFFEA
0000001C
FFFFFFF9
FFFFFFF1
0000001A
0000000E
FFFFFFE3
00000038
FFFFFFC3
FFFFFFE2
00000021
0000000E
FFFFFFF0
0000001A
00000035
FFFFFFEC
0000001C
00000004
FFFFFFE3
0000001A
FFFFFFF1
0000001B
FFFFFFE5
FFFFFFFB
FFFFFFF7
00000009
00000013
00000001
00000013
FFFFFFF6
FFFFFFE1
FFFFFFE4
FFFFFFCB
FFFFFFF6
00000033
00000005
00000044
FFFFFFF6
00000016
00000016
0000001A
FFFFFFEB
FFFFFFFC
FFFFFFD7
FFFFFFF6
0000000F
00000033
FFFFFFCC
00000021
FFFFFFEC
00000027
FFFFFFEF
00000007
FFFFFFFF
FFFFFFEF
FFFFFFD4
FFFFFFFB
FFFFFFDF
FFFFFFB5
FFFFFFD6
FFFFFFD3
FFFFFFE7
FFFFFFE4
00000012
00000030
FFFFFFF8
0000001E
00000032
00000032
FFFFFFE4
0000002C
0000000B
00000013
FFFFFFDF
FFFFFFD5
00000020
FFFFFFEB
FFFFFFFD
FFFFFFE4
00000008
FFFFFFE0
00000012
00000006
FFFFFFF2
00000035
0000002D
0000002A
00000011
FFFFFFEF
FFFFFFFA
00000024
00000025
00000029
FFFFFFE1
00000009
FFFFFFE0
FFFFFFCB
FFFFFFDF
00000030
00000030
FFFFFFD3
FFFFFFB7
0000000D
FFFFFFEE
00000009
FFFFFFFA
FFFFFFEE
FFFFFFFE
FFFFFFFB
00000042
FFFFFFFD
FFFFFFF3
00000016
FFFFFFD5
FFFFFFC2
00000022
0000005B
0000001C
FFFFFFE1
0000001B
FFFFFFEA
FFFFFFF5
00000030
00000015
00000000
FFFFFFC0
0000003D
FFFFFFF2
FFFFFFDB
FFFFFFDB
00000007
FFFFFFFA
0000002C
FFFFFFCE
FFFFFFEC
00000009
0000000A
FFFFFFEB
00000018
00000002
FFFFFFD3
00000048
0000002D
00000026
FFFFFFD5
00000029
FFFFFFD7
00000014
0000003C
FFFFFFDF
FFFFFFE3
0000003F
00000005
00000000
00000004
00000025
0000002B
FFFFFFE1
FFFFFFD1
0000003C
0000000A
FFFFFFD6
0000004B
FFFFFFC3
FFFFFFFF
FFFFFFD3
00000016
0000001F
0000001E
00000006
00000024
FFFFFFD4
0000001F
0000000A
00000018
FFFFFFCD
FFFFFFD5
FFFFFFE5
00000039
00000024
0000001E
00000025
00000029
FFFFFFD5
00000015
00000024
FFFFFFFE
00000018
FFFFFFF4
00000019
0000000B
FFFFFFF7
00000017
0000001D
FFFFFFFE
00000001
00000018
FFFFFFF7
FFFFFFEF
0000000F
00000030
FFFFFFD1
FFFFFFBA
FFFFFFFD
0000002A
00000025
0000002F
0000001D
00000014
FFFFFFD6
00000033
FFFFFFDF
0000001B
FFFFFFD4
FFFFFFFD
00000004
FFFFFFD5
00000009
FFFFFFC3
00000020
FFFFFFD8
FFFFFFAD
0000002D
FFFFFFF3
0000000F
FFFFFFD8
0000001F
FFFFFFF3
FFFFFFE9
FFFFFFF8
00000028
FFFFFFFE
FFFFFFDD
00000004
FFFFFFEA
FFFFFFEC
FFFFFFF5
00000034
FFFFFFF4
FFFFFFED
00000027
00000023
FFFFFFE3
00000021
00000019
00000012
FFFFFFDF
00000019
FFFFFFEA
FFFFFFF9
00000001
00000003
00000034
FFFFFFDF
0000000F
0000002C
FFFFFFE0
FFFFFFFF
FFFFFFE7
FFFFFFF3
FFFFFFF8
0000000E
0000000F
00000045
FFFFFFDC
00000001
FFFFFFD5
00000011
FFFFFFBF
00000012
00000002
0000001D
00000022
FFFFFFFC
0000001B
FFFFFFE0
FFFFFFEA
FFFFFFEF
00000001
0000002A
00000042
00000039
FFFFFFFC
FFFFFFF0
00000018
FFFFFFF6
FFFFFFD4
00000008
0000003F
00000038
FFFFFFEC
0000003B
FFFFFFF7
FFFFFFF9
FFFFFFE9
0000003A
00000002
0000001A
00000023
FFFFFFDD
00000037
00000002
FFFFFFDB
00000016
FFFFFFFD
00000053
FFFFFFC9
FFFFFFF0
00000007
FFFFFFCE
00000000
FFFFFFF7
FFFFFFD2
FFFFFFF0
FFFFFFEA
00000008
00000006
FFFFFFE6
0000001A
FFFFFFEA
00000009
FFFFFFF5
FFFFFFD5
FFFFFFF6
00000031
FFFFFFD4
00000029
FFFFFFE0
FFFFFFE6
00000038
FFFFFFEF
00000022
FFFFFFE6
00000007
0000001B
0000000A
FFFFFFD4
FFFFFFDE
FFFFFFD2
00000027
00000057
FFFFFFEB
00000026
00000002
00000018
00000003
00000018
FFFFFFBC
00000000
00000024
00000026
FFFFFFDC
0000001B
00000010
FFFFFFE0
00000010
FFFFFFEC
FFFFFFEC
00000029
0000001E
FFFFFFDE
00000004
0000002B
FFFFFFBD
00000037
FFFFFFE3
00000028
0000001A
00000009
00000015
FFFFFFEF
FFFFFFDF
FFFFFFE7
FFFFFFF5
FFFFFFF2
FFFFFFFA
00000018
00000058
FFFFFFE1
0000001B
00000007
FFFFFFC5
00000028
FFFFFFCB
00000034
FFFFFFCE
FFFFFFFE
FFFFFFF6
FFFFFFF8
0000000E
FFFFFFE5
0000002E
00000019
FFFFFFF7
FFFFFFDE
00000013
00000015
FFFFFFF4
FFFFFFDC
FFFFFFD5
00000024
FFFFFFDA
FFFFFFF3
00000002
FFFFFFCB
FFFFFFC3
FFFFFFF3
0000000F
00000019
00000020
FFFFFFDC
00000002
FFFFFFE2
FFFFFFFD
FFFFFFE3
FFFFFFB6
00000001
00000001
0000000F
FFFFFFED
0000002F
FFFFFFEA
0000001E
FFFFFFD6
FFFFFFF9
00000002
0000000E
FFFFFFD9
00000020
00000024
FFFFFFEB
00000003
0000001C
00000001
FFFFFFAC
00000016
00000007
00000006
FFFFFFF1
FFFFFFF2
FFFFFFEC
FFFFFFF0
00000012
00000012
FFFFFFDD
FFFFFFCE
0000002F
FFFFFFE0
FFFFFFD3
FFFFFFEF
FFFFFFF4
FFFFFFD0
00000004
00000021
00000027
FFFFFFCF
FFFFFFF9
00000011
FFFFFFD6
FFFFFFEE
00000016
00000043
FFFFFFFB
FFFFFFED
FFFFFFF5
FFFFFFF8
00000011
FFFFFFFE
FFFFFFCE
FFFFFFC8
0000002B
00000019
00000005
00000034
0000002E
00000034
00000001
00000004
00000017
FFFFFFFE
FFFFFFD0
00000027
FFFFFFCE
0000000E
00000022
00000014
FFFFFFE4
00000008
00000028
0000000A
FFFFFFD7
FFFFFFEB
FFFFFFE7
FFFFFFEA
00000008
0000001C
00000027
0000001C
FFFFFFDA
0000001C
0000001B
FFFFFFEB
00000014
FFFFFFE8
00000012
00000044
00000021
FFFFFFF6
FFFFFFDF
FFFFFFC7
00000012
FFFFFFF8
0000000C
FFFFFFE6
FFFFFFF5
FFFFFFEE
0000000B
FFFFFFB9
FFFFFFF7
FFFFFFE3
00000029
0000000F
FFFFFFF4
FFFFFFFB
00000024
FFFFFFE8
00000003
00000021
FFFFFFEA
00000015
FFFFFFFB
FFFFFFF1
FFFFFFF7
00000035
0000000C
00000026
FFFFFFCD
00000031
FFFFFFEF
0000002D
0000002C
00000038
FFFFFFFA
00000004
FFFFFFD8
00000041
FFFFFFF8
FFFFFFDB
FFFFFFEA
FFFFFFF8
FFFFFFFF
00000011
FFFFFFFE
0000003F
00000001
00000015
FFFFFFF4
FFFFFFFE
0000001C
0000000C
0000003C
00000030
FFFFFFC9
FFFFFFDC
0000001E
00000018
00000005
00000029
FFFFFFF8
00000012
FFFFFFF1
FFFFFFE0
FFFFFFC1
00000023
FFFFFFFA
00000010
0000001C
00000011
00000011
00000012
FFFFFFFB
00000024
00000011
00000017
00000003
00000026
00000019
FFFFFFDC
00000012
0000000F
0000001B
FFFFFFE1
FFFFFFE3
00000023
FFFFFFC5
00000020
FFFFFFB8
FFFFFFFB
0000001A
00000012
00000037
FFFFFFDC
00000044
FFFFFFC0
FFFFFFD9
0000002B
00000018
00000008
FFFFFFFC
0000001F
00000033
00000012
00000014
00000041
FFFFFFE3
FFFFFFDA
FFFFFFCC
FFFFFFD5
00000009
FFFFFFAF
FFFFFFDA
FFFFFFF8
00000003
00000019
00000024
0000002E
FFFFFFEC
FFFFFFE7
00000009
FFFFFFE6
FFFFFFEF
00000038
00000028
00000011
00000006
00000003
FFFFFFF9
FFFFFFD7
0000001D
FFFFFFF2
FFFFFFF5
FFFFFFF4
00000009
00000005
FFFFFFFE
00000005
FFFFFFEC
0000002A
00000020
FFFFFFD6
00000006
FFFFFFCE
FFFFFFCB
00000010
00000026
FFFFFFE4
00000017
00000013
FFFFFFF9
FFFFFFFA
FFFFFFD5
00000026
00000027
FFFFFFC7
00000036
FFFFFFE0
FFFFFFF7
FFFFFFF5
0000001E
FFFFFFF7
00000038
FFFFFFF0
FFFFFFFC
FFFFFFFA
00000027
0000003A
0000000E
FFFFFFF0
FFFFFFD2
FFFFFFDC
0000002B
FFFFFFFD
FFFFFFDA
FFFFFFDE
0000004C
00000014
FFFFFFD9
0000001C
00000004
00000004
00000030
0000002D
0000000D
00000008
00000015
00000017
FFFFFFF3
00000030
0000000E
FFFFFFFA
FFFFFFFC
0000004F
00000004
0000002C
00000035
FFFFFFEF
00000053
FFFFFFF5
0000000D
00000006
00000022
FFFFFFFA
FFFFFFE1
00000030
00000029
FFFFFFD4
00000016
FFFFFFD7
FFFFFFCE
00000015
FFFFFFFD
FFFFFFE1
0000000A
0000000B
0000002B
FFFFFFF5
00000014
00000028
FFFFFFDA
FFFFFFD2
FFFFFFE3
FFFFFFF1
00000017
FFFFFFFC
FFFFFFE1
FFFFFFE7
00000022
00000004
0000000F
FFFFFFD1
FFFFFFD7
FFFFFFE3
FFFFFFCC
FFFFFFE9
FFFFFFC8
FFFFFFD7
FFFFFFC3
FFFFFFD8
FFFFFFDF
0000001D
00000008
FFFFFFF3
00000041
FFFFFFC8
0000004B
00000000
FFFFFFED
00000029
FFFFFFBF
0000002B
00000026
00000013
FFFFFFDC
FFFFFFFC
0000000A
0000003F
FFFFFFE5
FFFFFFF7
00000024
FFFFFFC3
0000002E
FFFFFFF8
00000001
0000001D
0000001B
FFFFFFFD
0000001F
FFFFFFD9
00000031
FFFFFFF7
00000029
FFFFFFF5
FFFFFFFE
FFFFFFB3
0000000F
00000011
00000027
FFFFFFF2
FFFFFFF7
FFFFFFF4
FFFFFFD4
FFFFFFDA
00000004
0000002A
FFFFFFF5
FFFFFFF2
00000015
0000003D
00000018
00000045
FFFFFFE6
0000003A
FFFFFFD3
FFFFFFEB
FFFFFFDD
0000000F
FFFFFFFA
0000000F
0000001C
FFFFFFD9
FFFFFFF7
00000020
00000062
00000023
FFFFFFF3
FFFFFFDE
FFFFFFFC
00000024
FFFFFFFA
00000026
FFFFFFE7
FFFFFFD6
FFFFFFE3
0000000C
00000023
00000023
FFFFFFE0
FFFFFFEC
FFFFFFD6
FFFFFFE5
FFFFFFE7
0000001C
00000016
FFFFFFFF
00000029
00000000
FFFFFFF7
FFFFFFE5
FFFFFFDD
00000004
00000006
0000001D
FFFFFFC7
00000004
0000001F
FFFFFFFA
00000029
00000019
FFFFFFE8
0000000A
00000020
FFFFFFDC
0000001A
FFFFFFED
00000000
0000002F
0000002B
FFFFFFCC
00000014
00000028
FFFFFFFC
FFFFFFE6
FFFFFFDF
FFFFFFC9
00000013
0000000F
00000004
0000001E
0000002B
FFFFFFC9
00000053
FFFFFFE9
0000000C
00000014
00000017
00000012
00000031
00000013
00000047
FFFFFFBB
00000025
00000015
00000017
FFFFFFEB
00000001
00000015
FFFFFFFB
FFFFFFE5
FFFFFFD2
FFFFFFE4
00000005
FFFFFFD9
FFFFFFDF
00000028
00000028
0000000F
0000000D
FFFFFFC8
00000005
00000032
FFFFFFF0
0000003B
0000000B
FFFFFFEF
FFFFFFCB
00000013
FFFFFFC2
FFFFFFDF
FFFFFFD9
00000018
00000002
FFFFFFEF
FFFFFFE5
00000040
00000029
FFFFFFCD
FFFFFFFD
0000003E
FFFFFFD0
00000021
00000011
0000000C
00000020
00000023
0000006F
0000000B
00000016
FFFFFFD7
00000000
0000001A
FFFFFFE4
00000032
0000002A
00000002
FFFFFFD2
00000037
00000006
0000001B
FFFFFFFB
FFFFFFC0
00000004
FFFFFFE8
00000019
FFFFFFF2
00000018
FFFFFFFD
FFFFFFDC
00000031
FFFFFFEA
0000000B
FFFFFFE8
0000003B
FFFFFFDF
00000023
0000002F
FFFFFFFE
0000000D
00000005
FFFFFFE2
FFFFFFCB
00000002
0000002F
00000009
FFFFFFE6
00000005
0000001A
0000002F
FFFFFFD5
00000045
FFFFFFD4
0000001D
00000013
00000030
00000016
0000004E
0000002D
FFFFFFFE
00000004
00000019
00000027
00000020
0000000F
FFFFFFDE
FFFFFFE5
FFFFFFCF
FFFFFFFA
FFFFFFEF
FFFFFFEF
FFFFFFE7
FFFFFFD2
0000004B
00000011
0000001D
0000000F
FFFFFFEA
0000001F
FFFFFFFE
00000001
0000002C
0000000A
00000007
00000033
00000006
0000003B
FFFFFFD1
00000014
FFFFFFFD
FFFFFFBF
FFFFFFCB
0000000E
00000035
0000001C
00000005
00000017
FFFFFFE8
FFFFFFEC
00000004
0000000E
0000001E
0000000C
FFFFFFDE
0000003C
00000000
FFFFFFEF
FFFFFFCC
FFFFFFEA
00000007
00000008
FFFFFFD0
0000000A
FFFFFFE5
FFFFFFF8
FFFFFFEC
FFFFFFFB
FFFFFFE6
00000016
FFFFFFEC
FFFFFFF5
00000015
0000000C
00000007
0000001F
FFFFFFE7
00000000
00000012
00000012
0000002C
FFFFFFEE
FFFFFFF7
FFFFFFFB
00000028
00000007
FFFFFFDB
0000002F
0000001B
FFFFFFD8
0000000F
0000000E
FFFFFFE8
0000002B
0000000E
FFFFFFE1
00000021
FFFFFFF3
0000003B
FFFFFFF5
0000000A
0000001A
FFFFFFC8
FFFFFFD4
FFFFFFF5
00000026
FFFFFFDD
00000005
FFFFFFE6
00000014
00000027
00000034
0000001B
FFFFFFD6
FFFFFFF7
FFFFFFCA
FFFFFFE5
FFFFFFF7
FFFFFFDF
FFFFFFF1
00000011
0000003E
00000035
00000018
00000001
00000000
00000013
FFFFFFFC
FFFFFFCF
00000040
FFFFFFF7
FFFFFFF3
00000023
00000002
00000026
00000005
FFFFFFD7
00000029
0000001F
FFFFFFF1
FFFFFFCF
0000004A
FFFFFFF5
FFFFFFF4
0000001A
0000001F
FFFFFFD2
0000001D
0000000B
FFFFFFF3
0000002E
0000003E
FFFFFFE1
FFFFFFEA
0000001C
FFFFFFE5
0000003E
00000012
0000000F
00000009
0000001D
00000012
FFFFFFE2
FFFFFFEA
0000002A
00000027
00000027
FFFFFFEB
FFFFFFC6
FFFFFFF0
FFFFFFE9
00000042
00000009
00000013
FFFFFFC7
FFFFFFED
00000025
00000031
FFFFFFE1
00000010
FFFFFFEF
FFFFFFE0
FFFFFFF9
00000025
FFFFFFD8
FFFFFFF1
FFFFFFC1
FFFFFFCF
FFFFFFDC
0000001C
FFFFFFF7
00000011
00000027
FFFFFFDC
FFFFFFF9
00000048
0000003E
0000000B
00000020
00000028
00000036
00000015
00000016
00000005
00000006
0000001C
00000033
00000014
0000002A
FFFFFFF6
FFFFFFC9
00000017
00000039
FFFFFFF3
00000037
00000017
00000003
FFFFFFE6
00000001
FFFFFFFD
FFFFFFF0
0000001C
00000019
FFFFFFFD
00000032
00000011
0000001E
00000005
FFFFFFFF
FFFFFFF8
FFFFFFE4
FFFFFFE0
00000034
FFFFFFCD
00000004
FFFFFFE1
0000001F
FFFFFFD6
00000030
FFFFFFD5
0000001C
0000002D
0000001A
FFFFFFFB
0000003F
00000041
FFFFFFFC
FFFFFFF4
00000027
0000000F
FFFFFFCD
0000000B
FFFFFFCA
FFFFFFDC
FFFFFFEF
0000001E
FFFFFFCA
FFFFFFFF
FFFFFFE5
FFFFFFFF
00000002
FFFFFFB9
00000011
FFFFFFC1
0000000D
00000007
0000002C
FFFFFFF5
0000002F
00000027
FFFFFFF2
00000026
FFFFFFE0
FFFFFFF2
00000020
FFFFFFF6
0000001A
0000002B
00000019
FFFFFFF5
00000017
FFFFFFFC
FFFFFFE1
00000016
00000022
00000018
00000005
00000022
FFFFFFCA
FFFFFFD7
0000001D
00000016
0000002E
00000012
00000036
00000011
FFFFFFF2
FFFFFFE5
0000000A
0000001A
00000042
0000000A
0000001F
0000002C
FFFFFFE3
FFFFFFF7
FFFFFFE6
00000020
FFFFFFCF
00000002
00000011
FFFFFFC8
FFFFFFEB
00000010
00000020
0000001A
00000033
0000001E
FFFFFFF1
FFFFFFDA
00000016
FFFFFFE9
FFFFFFEC
FFFFFFC9
0000000F
FFFFFFD9
FFFFFFFF
00000042
00000014
0000001D
0000002C
00000059
FFFFFFEE
0000001F
00000025
FFFFFFFB
FFFFFFEE
00000012
00000015
0000000E
00000007
FFFFFFE6
FFFFFFFB
0000000F
0000002E
FFFFFFED
0000002A
FFFFFFFC
FFFFFFDA
0000002C
0000000D
FFFFFFF0
00000048
FFFFFFC4
0000001D
00000040
00000029
00000017
FFFFFFB9
00000021
0000000C
FFFFFFE8
FFFFFFFC
0000001D
00000027
00000025
00000026
00000026
00000001
00000032
0000004A
FFFFFFEB
FFFFFFFC
FFFFFFD2
0000000A
00000007
FFFFFFF1
FFFFFFC9
FFFFFFEE
0000004A
FFFFFFDC
FFFFFFE2
00000023
FFFFFFFB
00000028
FFFFFFE6
00000019
FFFFFFC7
00000016
FFFFFFDC
00000004
00000001
00000007
FFFFFFF2
00000016
00000021
FFFFFFF0
0000003C
FFFFFFF1
FFFFFFDD
FFFFFFF5
00000014
00000023
FFFFFFEB
FFFFFFEF
00000021
00000035
00000033
00000036
FFFFFFD5
FFFFFFCE
00000008
00000020
FFFFFFFC
00000017
00000038
00000027
FFFFFFCB
00000024
FFFFFFF0
00000011
00000021
FFFFFFC4
FFFFFFED
FFFFFFD5
00000019
FFFFFFFB
0000000E
0000002F
00000007
0000001B
00000012
FFFFFFE3
FFFFFFF1
FFFFFFDB
00000024
0000003E
FFFFFFE8
FFFFFFE8
FFFFFFF8
FFFFFFE4
00000018
0000000A
FFFFFFDB
00000008
FFFFFFF4
00000024
FFFFFFF5
FFFFFFDE
0000002A
00000023
FFFFFFD7
00000008
FFFFFFE6
FFFFFFEB
FFFFFFC1
0000000E
FFFFFFC3
FFFFFFE5
FFFFFFCB
00000010
00000015
FFFFFFD4
FFFFFFF7
0000002D
FFFFFFD0
0000001C
FFFFFFDD
FFFFFFED
0000002A
0000002F
00000025
FFFFFFD7
FFFFFFE3
00000031
FFFFFFF0
FFFFFFF9
0000000E
0000000F
FFFFFFF9
00000027
FFFFFFD6
FFFFFFCE
00000016
FFFFFFD8
FFFFFFD7
00000026
FFFFFFE3
FFFFFFDC
00000023
FFFFFFF0
FFFFFFE5
FFFFFFF7
0000001E
FFFFFFD8
00000018
FFFFFFF1
00000030
FFFFFFD5
FFFFFFED
FFFFFFDC
FFFFFFF6
FFFFFFE0
FFFFFFF0
FFFFFFD5
FFFFFFE1
00000018
FFFFFFDD
FFFFFFFD
FFFFFFCE
0000000E
FFFFFFEA
FFFFFFF9
FFFFFFE0
FFFFFFF8
0000000B
FFFFFFED
0000002A
FFFFFFE8
00000039
00000020
00000004
0000000E
FFFFFFD7
00000001
FFFFFFDD
0000000F
00000004
00000039
FFFFFFFF
FFFFFFEE
00000005
0000000B
FFFFFFD6
0000003C
FFFFFFEC
FFFFFFFB
FFFFFFF6
FFFFFFF9
00000034
FFFFFFEC
00000040
FFFFFFEC
0000002C
FFFFFFD8
00000019
FFFFFFE9
FFFFFFB0
FFFFFFC4
0000001F
FFFFFFB8
00000006
FFFFFFD3
FFFFFFF9
FFFFFFC8
0000000A
00000001
FFFFFFD5
0000001A
0000000A
00000031
FFFFFFFE
FFFFFFCA
0000001A
0000000F
FFFFFFFE
FFFFFFF4
FFFFFFAC
0000001B
FFFFFFD7
FFFFFFF3
FFFFFFEE
0000001F
00000001
FFFFFFF8
00000011
FFFFFFCC
FFFFFFF6
00000018
FFFFFFB8
00000001
0000002B
FFFFFFED
FFFFFFD8
FFFFFFEE
FFFFFFFB
FFFFFFD5
00000008
0000000B
00000007
0000001B
00000020
FFFFFFA7
00000013
00000047
00000052
FFFFFFED
FFFFFFAD
FFFFFFE2
FFFFFFF2
FFFFFFE6
00000004
00000025
00000003
00000032
FFFFFFAD
0000001D
0000001F
00000005
00000031
FFFFFFD2
FFFFFFE0
FFFFFFF7
00000001
FFFFFFF7
00000031
00000029
0000002D
FFFFFFC7
00000025
00000009
FFFFFFD7
FFFFFFF8
FFFFFFF6
00000003
FFFFFFE6
0000002B
00000003
FFFFFFD9
FFFFFFE5
0000001C
FFFFFFEA
00000001
FFFFFFFE
00000039
0000001C
FFFFFFEE
00000000
0000002B
FFFFFFC1
00000020
00000016
FFFFFFE0
0000000D
00000002
0000003B
FFFFFFF9
00000009
FFFFFFFE
00000012
FFFFFFFE
FFFFFFE7
FFFFFFD1
FFFFFFF4
FFFFFFF6
00000024
FFFFFFE3
FFFFFFEA
FFFFFFF8
00000020
00000030
FFFFFFEE
FFFFFFE5
FFFFFFF2
FFFFFFDA
FFFFFFEE
FFFFFFF1
FFFFFFE6
0000003D
00000009
FFFFFFF1
FFFFFFE2
FFFFFFD6
00000005
FFFFFFE7
00000027
FFFFFFD2
00000033
00000057
00000003
00000017
FFFFFFBB
FFFFFFE0
FFFFFFD4
FFFFFFE5
00000002
00000046
00000006
FFFFFFE7
FFFFFFEE
00000031
00000017
00000003
FFFFFFB6
FFFFFFFF
FFFFFFE8
00000010
FFFFFFFB
FFFFFFE1
FFFFFFE4
00000028
FFFFFFB6
0000000B
FFFFFFCE
00000030
0000000D
FFFFFFF2
FFFFFFF8
FFFFFFEE
00000012
FFFFFFF9
00000010
FFFFFFC5
0000000A
0000002E
0000001C
00000005
00000017
0000000F
FFFFFFE5
00000049
00000006
FFFFFFFB
00000014
00000015
0000002B
FFFFFFB6
FFFFFFFD
00000034
00000000
00000025
00000026
0000001D
FFFFFFD0
00000028
FFFFFFC4
0000000F
FFFFFFF2
FFFFFFF9
FFFFFFF7
00000043
FFFFFFFE
FFFFFFFE
0000000D
00000025
FFFFFFFB
FFFFFFE5
FFFFFFDC
00000011
FFFFFFFC
00000006
FFFFFFD1
00000007
00000016
FFFFFFF8
FFFFFFDD
FFFFFFF9
00000020
FFFFFFFA
FFFFFFFD
00000008
FFFFFFEE
FFFFFFFD
FFFFFFDE
FFFFFFDA
00000026
FFFFFFFC
00000026
FFFFFFDF
FFFFFFE8
00000024
FFFFFFEC
FFFFFFD7
00000001
FFFFFFFE
00000016
FFFFFFD2
FFFFFFDD
FFFFFFD8
00000007
FFFFFFFF
00000038
0000002A
FFFFFFF1
FFFFFFF0
FFFFFFC7
FFFFFFFC
FFFFFFE2
00000016
FFFFFFD9
0000000E
00000011
FFFFFFE9
FFFFFFF5
FFFFFFE1
FFFFFFB4
00000016
00000019
00000026
00000010
00000028
FFFFFFD0
00000000
00000021
0000000E
FFFFFFD8
FFFFFFFE
00000029
FFFFFFEE
00000003
0000000A
FFFFFFEC
00000023
FFFFFFF1
FFFFFFDE
00000001
00000005
FFFFFFD2
00000048
FFFFFFEA
0000000B
0000003C
FFFFFFE3
0000002D
FFFFFFE5
FFFFFFE7
0000000F
00000039
00000017
0000001D
FFFFFFE4
FFFFFFD3
FFFFFFF8
0000002D
FFFFFFF9
FFFFFFFF
FFFFFFE6
00000015
00000026
FFFFFFC4
00000013
FFFFFFCE
FFFFFFDE
FFFFFFEC
FFFFFFF5
FFFFFFE8
0000000B
FFFFFFE9
00000014
0000000A
0000002F
FFFFFFF4
00000005
0000004D
0000001D
0000002F
00000027
FFFFFFD9
0000000A
FFFFFFF8
0000000D
FFFFFFF1
FFFFFFF1
FFFFFFDF
00000017
FFFFFFED
00000009
00000007
FFFFFFF0
FFFFFFE0
0000001A
FFFFFFE6
FFFFFFF5
FFFFFFD9
00000020
00000011
FFFFFFD7
0000000B
00000003
00000032
00000005
0000000B
0000000E
0000003A
FFFFFFFC
0000001D
00000019
00000016
0000002B
00000003
FFFFFFF7
0000001F
FFFFFFF8
FFFFFFDC
FFFFFFFD
FFFFFFF0
00000014
FFFFFFF1
FFFFFFEB
0000002A
FFFFFFFC
0000001F
00000037
FFFFFFBB
FFFFFFE9
00000002
FFFFFFF9
00000031
00000026
0000000F
00000006
FFFFFFD7
FFFFFFF1
0000002A
FFFFFFFB
FFFFFFDD
0000000E
00000011
00000017
FFFFFFC9
00000018
00000002
00000012
0000000E
00000006
00000008
0000002D
00000016
FFFFFFDF
FFFFFFDD
FFFFFFDF
FFFFFFEA
FFFFFFF0
FFFFFFD8
FFFFFFD9
0000001B
FFFFFFF9
FFFFFFD9
FFFFFFF5
FFFFFFE1
FFFFFFBC
00000002
00000004
FFFFFFF1
00000022
00000017
00000018
00000005
0000001A
FFFFFFF6
00000031
0000002F
FFFFFFDE
FFFFFFE0
00000014
FFFFFFBD
FFFFFFE9
FFFFFFD6
FFFFFFDF
0000000A
00000024
00000043
FFFFFFCD
FFFFFFD7
00000005
00000005
00000031
0000000F
FFFFFFCA
0000001B
FFFFFFE5
0000000F
FFFFFFE5
FFFFFFF8
FFFFFFF6
0000000F
0000001E
0000001E
00000015
00000006
0000002A
0000000E
00000012
FFFFFFE9
FFFFFFDD
FFFFFFE3
FFFFFFFB
0000000D
FFFFFFCE
FFFFFFEA
FFFFFFC6
0000001C
0000002A
FFFFFFBD
FFFFFFE3
FFFFFFE8
FFFFFFF9
FFFFFFE6
0000001E
0000000B
00000026
0000002B
00000008
FFFFFFEF
FFFFFFEA
FFFFFFB9
FFFFFFDD
FFFFFFF0
FFFFFFF7
FFFFFFEA
0000000A
00000029
FFFFFFC6
FFFFFFE8
00000019
00000030
00000023
FFFFFFFD
FFFFFFEE
FFFFFFFE
FFFFFFB9
FFFFFFEB
FFFFFFE7
FFFFFFD5
0000001D
FFFFFFFF
FFFFFFED
FFFFFFE5
FFFFFFF4
FFFFFFFA
FFFFFFFA
0000002C
FFFFFFF9
FFFFFFEE
0000000F
FFFFFFF4
FFFFFFC9
FFFFFFBC
FFFFFFE6
FFFFFFDE
FFFFFFD3
0000001F
00000021
FFFFFFF7
FFFFFFEF
FFFFFFDD
FFFFFFF9
00000028
FFFFFFD8
FFFFFFEC
00000019
FFFFFFFE
00000005
0000001B
0000001C
FFFFFFC8
0000002E
00000037
FFFFFFE8
FFFFFFD3
00000003
0000003C
00000004
0000002A
FFFFFFDC
0000001A
FFFFFFC3
00000029
00000010
FFFFFFE2
FFFFFFE8
00000010
00000020
0000003F
FFFFFFD8
FFFFFFF0
00000008
00000034
00000009
FFFFFFE0
FFFFFFF7
FFFFFFBB
00000014
00000039
FFFFFFD7
00000035
00000028
FFFFFFDA
0000002B
00000011
FFFFFFEB
00000010
FFFFFFFE
FFFFFFC6
FFFFFFE3
0000000D
FFFFFFF2
FFFFFFEF
FFFFFFE6
0000001A
0000000D
00000021
FFFFFFBC
FFFFFFF1
0000000A
FFFFFFE5
FFFFFFE6
00000021
00000026
FFFFFFE9
00000008
FFFFFFF2
FFFFFFF8
0000000D
0000001C
FFFFFFEB
00000026
00000035
00000020
FFFFFFCE
00000025
FFFFFFD7
FFFFFFF3
00000019
00000011
00000044
FFFFFFD3
0000000B
0000000C
FFFFFFED
FFFFFFC4
FFFFFFE3
0000001C
FFFFFFEE
FFFFFFCA
00000010
00000003
FFFFFFF6
0000000B
00000010
00000035
00000025
0000002D
00000032
FFFFFFDA
FFFFFFF6
00000027
00000018
FFFFFFEE
FFFFFFFC
00000001
FFFFFFDA
FFFFFFCB
FFFFFFD6
FFFFFFE3
FFFFFFF0
00000021
00000008
00000005
FFFFFFCC
FFFFFFFF
0000000C
00000027
FFFFFFF0
0000000B
FFFFFFE3
FFFFFFD6
00000020
FFFFFFD4
FFFFFFF3
FFFFFFFE
FFFFFFDE
FFFFFFDB
0000002D
00000011
00000008
0000000B
00000025
FFFFFFFA
FFFFFFDE
00000045
00000024
00000024
00000041
FFFFFFF7
00000031
FFFFFFCB
00000008
00000001
0000004A
0000004C
0000002C
00000021
00000008
FFFFFFFD
00000025
0000000F
FFFFFFD3
00000008
0000000D
FFFFFFE3
00000038
FFFFFFDF
0000002D
FFFFFFFF
FFFFFFFE
00000025
FFFFFFE5
00000026
00000023
FFFFFFF6
FFFFFFE1
00000009
FFFFFFEB
0000002C
00000042
00000006
00000013
FFFFFFC7
0000001C
00000041
00000018
FFFFFFB8
FFFFFFD7
0000005B
FFFFFFCA
FFFFFFDF
FFFFFFED
FFFFFFF9
0000000F
0000000C
FFFFFFFA
FFFFFFF3
FFFFFFDB
FFFFFFEB
FFFFFFB6
00000022
00000027
00000003
00000017
FFFFFFD5
FFFFFFF5
FFFFFFCC
00000003
00000014
FFFFFFF9
00000015
FFFFFFE8
FFFFFFFE
00000003
00000003
00000038
0000001F
FFFFFFF9
0000002D
00000014
0000001A
0000002B
0000003A
00000022
FFFFFFE8
00000031
00000027
FFFFFFFB
FFFFFFF2
FFFFFFBF
FFFFFFD6
00000016
00000012
FFFFFFDB
FFFFFFF3
00000015
FFFFFFF6
FFFFFFCE
FFFFFFFB
0000000B
FFFFFFFA
FFFFFFC0
00000027
00000021
FFFFFFEC
FFFFFFFE
0000000F
FFFFFFD2
00000001
FFFFFFD5
00000002
FFFFFFFC
00000016
FFFFFFEB
00000004
00000007
0000001C
FFFFFFE0
FFFFFFEE
00000016
00000014
FFFFFFD1
0000001C
FFFFFFEF
00000033
FFFFFFF8
0000002F
00000019
00000026
00000000
00000016
FFFFFFDB
FFFFFFC2
FFFFFFEF
FFFFFFFE
FFFFFFDB
00000034
00000024
0000001B
FFFFFFE2
FFFFFFD6
FFFFFFB8
FFFFFFFA
FFFFFFE4
00000014
FFFFFFFC
FFFFFFDE
FFFFFFCD
FFFFFFE8
0000001D
00000004
FFFFFFE1
FFFFFFDA
0000000B
00000028
FFFFFFE6
FFFFFFC9
FFFFFFBE
0000000E
00000017
00000013
FFFFFFE6
00000027
FFFFFFD7
00000008
FFFFFFF7
00000008
00000014
00000001
FFFFFFDB
00000007
FFFFFFF6
00000036
0000001C
00000026
0000002E
FFFFFFDE
FFFFFFE8
FFFFFFED
FFFFFFF4
0000002F
FFFFFFE5
00000047
FFFFFFD6
00000029
0000003D
FFFFFFDB
FFFFFFE8
FFFFFFFD
00000030
FFFFFFEF
00000009
00000029
FFFFFFE4
FFFFFFCA
00000006
0000001A
FFFFFFFB
00000048
FFFFFFEA
00000053
00000005
FFFFFFFA
FFFFFFF7
FFFFFFED
00000026
00000000
00000016
FFFFFFD3
0000000A
FFFFFFEE
0000002C
FFFFFFFF
0000002B
0000001E
00000024
00000021
FFFFFFDA
FFFFFFF0
00000004
FFFFFFDB
FFFFFFDA
0000000E
FFFFFFDC
FFFFFFEB
0000001C
0000001D
FFFFFFF1
FFFFFFE2
0000001F
00000030
FFFFFFE3
FFFFFFF9
FFFFFFF3
FFFFFFF8
00000039
00000027
00000012
FFFFFFFE
00000022
00000017
00000022
FFFFFFD2
FFFFFFD5
FFFFFFCC
0000001C
FFFFFFF5
FFFFFFEA
0000000E
00000025
00000011
0000001D
00000014
FFFFFFE5
FFFFFFF3
00000008
0000000C
FFFFFFF3
FFFFFFC8
0000003C
FFFFFFDF
FFFFFFF6
00000019
00000004
FFFFFFF6
FFFFFFE7
FFFFFFDF
FFFFFFCF
FFFFFFFC
FFFFFFE3
00000046
FFFFFFDC
FFFFFFE0
0000001A
FFFFFFDF
0000002B
00000004
00000029
00000008
FFFFFFCE
FFFFFFE8
00000008
FFFFFFE4
00000011
FFFFFFE0
00000006
FFFFFFD6
FFFFFFCC
FFFFFFEE
0000001A
FFFFFFD4
FFFFFFF2
00000016
FFFFFFF3
00000031
FFFFFFD6
00000021
FFFFFFDF
FFFFFFE3
00000006
FFFFFFFD
0000000C
00000010
00000023
FFFFFFFD
FFFFFFE6
FFFFFFEE
FFFFFFE7
FFFFFFD9
FFFFFFCF
FFFFFFE9
FFFFFFFC
FFFFFFEC
00000038
FFFFFFF8
FFFFFFE4
00000009
0000002B
FFFFFFE1
00000016
0000002C
FFFFFFDC
FFFFFFC2
FFFFFFFA
FFFFFFC8
0000000C
FFFFFFF7
00000003
00000005
FFFFFFD3
FFFFFFE3
FFFFFFF5
FFFFFFF1
0000001E
00000035
0000000B
FFFFFFE5
00000025
00000014
0000001C
00000007
00000000
00000004
00000031
FFFFFFE6
0000002F
0000000C
0000000F
00000022
00000001
0000000C
00000004
FFFFFFE1
FFFFFFD4
FFFFFFDB
FFFFFFFC
FFFFFFF2
00000025
00000003
00000024
00000045
00000001
FFFFFFEE
FFFFFFF7
00000015
00000025
0000001C
FFFFFFDC
00000003
00000008
00000000
00000003
FFFFFFD3
00000023
FFFFFFF5
00000008
00000025
FFFFFFED
0000002E
0000001A
FFFFFFF0
FFFFFFEF
FFFFFFD9
0000002B
0000001C
0000000D
00000024
0000000E
FFFFFFDD
FFFFFFFB
FFFFFFEC
FFFFFFCC
0000001D
0000001F
00000064
FFFFFFD3
0000001E
00000006
00000008
0000000F
00000011
FFFFFFB8
FFFFFFFE
FFFFFFF6
0000001C
00000002
00000013
FFFFFFDE
00000052
FFFFFFDF
FFFFFFFE
FFFFFFC7
00000019
FFFFFFC7
0000000D
00000013
00000028
FFFFFFF6
00000010
00000018
FFFFFFA1
FFFFFFFD
FFFFFFE8
FFFFFFEA
00000001
00000020
00000015
FFFFFFDD
0000002B
FFFFFFE6
FFFFFFEC
00000007
FFFFFFF9
00000020
FFFFFFFC
00000011
0000003E
FFFFFFD6
00000046
00000011
00000029
00000004
00000024
FFFFFFE5
0000003A
FFFFFFD6
FFFFFFE9
FFFFFFE1
00000022
FFFFFFD0
00000007
FFFFFFE9
FFFFFFED
FFFFFFE8
00000020
00000028
00000039
0000002D
00000005
FFFFFFDA
FFFFFFD1
FFFFFF9D
FFFFFFD8
00000001
00000022
0000000A
00000009
00000030
0000000B
FFFFFFF2
00000036
FFFFFFFF
FFFFFFD5
FFFFFFFF
00000016
FFFFFFF8
00000028
00000009
FFFFFFCF
00000043
0000001D
00000024
00000058
00000046
FFFFFFFD
00000038
00000022
FFFFFFFA
00000022
FFFFFFD4
00000004
00000015
00000011
00000043
FFFFFFDC
00000006
00000065
0000002D
00000003
FFFFFFDF
FFFFFFEC
0000003A
FFFFFFEC
FFFFFFF3
0000001E
FFFFFFD2
00000032
FFFFFFD0
00000035
00000028
00000026
FFFFFFE3
00000000
0000001B
00000010
00000001
FFFFFFF2
00000044
FFFFFFE0
0000000D
0000001C
0000003D
FFFFFFE8
FFFFFFE7
00000012
0000000F
FFFFFFFC
FFFFFFD2
00000033
0000001C
FFFFFFF7
00000005
00000008
FFFFFFFD
FFFFFFD2
00000014
00000018
00000019
FFFFFFFB
00000020
FFFFFFFD
FFFFFFE9
0000000C
00000001
00000010
FFFFFFC0
FFFFFFF1
FFFFFFFF
00000040
FFFFFFEF
FFFFFFE4
FFFFFFFE
00000022
00000011
00000017
FFFFFFDF
0000000A
00000018
FFFFFFCE
FFFFFFE3
00000011
FFFFFFCA
FFFFFFFA
FFFFFFFF
FFFFFFE9
00000008
FFFFFFE4
00000032
00000016
00000032
FFFFFFD4
00000034
0000000C
FFFFFFD7
FFFFFFF4
FFFFFFF2
00000003
00000027
FFFFFFEB
FFFFFFEB
0000003B
0000000D
FFFFFFF8
0000002F
00000017
00000050
00000001
0000003B
FFFFFFCE
FFFFFFF0
FFFFFFED
FFFFFFF0
00000017
FFFFFFC6
0000004D
00000012
00000025
00000010
00000000
0000001A
0000001F
0000000C
FFFFFFFC
00000016
00000016
FFFFFFF6
00000012
00000038
FFFFFFD3
00000001
00000004
00000021
FFFFFFF7
00000025
FFFFFFFF
00000003
00000009
0000003B
FFFFFFC5
FFFFFFF2
0000002A
00000001
00000009
0000002B
0000000F
FFFFFFF9
FFFFFFC9
00000001
00000033
FFFFFFFC
00000050
00000000
00000018
FFFFFFCC
0000001D
FFFFFFF8
0000001D
FFFFFFF9
FFFFFFF2
FFFFFFF4
FFFFFFDA
FFFFFFF0
0000003F
00000022
0000000B
00000027
00000020
00000029
FFFFFFF5
FFFFFFFB
FFFFFFF9
FFFFFFE3
00000029
FFFFFFBD
00000027
FFFFFFFD
00000003
00000001
FFFFFFF5
00000022
00000028
FFFFFFE5
FFFFFFC3
FFFFFFF8
FFFFFFDF
00000022
FFFFFFEB
FFFFFFDA
00000029
00000008
00000015
00000032
00000046
00000015
FFFFFFF1
0000000B
00000004
FFFFFFF5
FFFFFFD8
FFFFFFF5
00000004
FFFFFFCD
FFFFFFCE
0000001D
0000000F
FFFFFFFC
0000003E
00000006
FFFFFFC8
FFFFFFDD
0000001E
0000003A
FFFFFFFA
FFFFFFD1
FFFFFFE9
00000036
0000003F
FFFFFFE6
00000028
00000000
FFFFFFE3
00000000
00000010
00000005
0000000B
00000027
FFFFFFEB
FFFFFFF9
0000002E
00000024
0000000C
FFFFFFE8
0000003F
00000027
00000051
FFFFFFFB
FFFFFFED
0000000D
00000004
00000012
0000001C
00000002
FFFFFFE9
FFFFFFE8
00000047
00000010
0000001E
00000024
00000020
0000001F
FFFFFFFB
00000018
00000025
00000023
FFFFFFDE
0000002B
00000006
FFFFFFE3
00000034
0000002B
FFFFFFB6
FFFFFFE3
FFFFFFE2
00000025
FFFFFFEC
0000003D
00000000
0000001E
FFFFFFCC
00000011
0000000C
FFFFFFF7
FFFFFFE1
FFFFFFEB
00000027
00000027
FFFFFFD7
00000000
FFFFFFD6
FFFFFFB5
FFFFFFB2
FFFFFFFE
00000022
0000001D
00000015
FFFFFFEA
00000008
00000001
FFFFFFFE
FFFFFFE1
0000000C
FFFFFFF4
FFFFFFDC
FFFFFFEF
FFFFFFE9
00000015
00000045
FFFFFFFE
FFFFFFF4
00000017
0000000A
00000020
FFFFFFE9
FFFFFFE2
00000009
0000000C
00000021
00000018
FFFFFFE8
0000000E
FFFFFFE9
FFFFFFE9
FFFFFFD3
FFFFFFDB
0000002E
FFFFFFF7
FFFFFFD5
00000026
FFFFFFF4
FFFFFFFF
00000030
FFFFFFED
FFFFFFDD
FFFFFFFD
00000028
FFFFFFA1
FFFFFFDD
00000035
FFFFFFEC
FFFFFFE2
00000019
00000012
FFFFFFD7
0000003D
0000001F
00000045
00000038
FFFFFFFC
FFFFFFFA
00000053
00000006
00000031
00000018
FFFFFFBC
0000001B
00000006
FFFFFFFB
00000038
00000009
FFFFFFDF
FFFFFFC7
00000012
00000031
00000008
0000001A
0000000A
00000023
FFFFFFC2
FFFFFFF6
00000021
FFFFFFE1
00000023
00000002
FFFFFFEF
00000015
00000002
FFFFFFDC
FFFFFFDC
FFFFFFE4
0000001B
FFFFFFD1
FFFFFFCF
00000049
0000000C
0000001F
FFFFFFF1
00000013
FFFFFFEF
FFFFFFFE
FFFFFFFB
00000029
00000018
FFFFFFF6
FFFFFFC8
FFFFFFF1
00000008
0000000C
00000002
00000005
0000002D
FFFFFFC1
FFFFFFF8
00000014
FFFFFFFE
00000020
FFFFFFF2
FFFFFFCC
FFFFFFEA
00000009
0000000F
00000030
0000001B
00000022
00000022
00000012
0000000B
0000004C
00000018
FFFFFFEC
FFFFFFFB
FFFFFFE7
FFFFFFF7
00000029
FFFFFFE4
0000000D
00000031
FFFFFFDF
00000027
FFFFFFCD
00000006
0000003A
FFFFFFBE
0000000A
00000042
FFFFFFE8
FFFFFFFB
FFFFFFDF
0000003B
FFFFFFFC
0000003E
FFFFFFF9
00000033
00000000
FFFFFFFD
00000029
FFFFFFF3
FFFFFFFB
00000014
FFFFFFF8
00000014
00000010
00000021
00000033
FFFFFFCF
FFFFFFFB
00000008
FFFFFFCC
00000042
0000000B
0000002A
FFFFFFE9
0000000F
FFFFFFC5
FFFFFFDE
FFFFFFFC
FFFFFFDC
FFFFFFC1
FFFFFFF5
0000001C
0000000F
0000002C
00000007
FFFFFFE3
FFFFFFBB
FFFFFFF5
FFFFFFF6
00000013
0000003B
FFFFFFC3
00000024
00000049
FFFFFFF4
00000002
00000019
00000022
00000004
00000001
0000001E
FFFFFFFD
0000001F
00000029
0000000F
00000031
FFFFFFE6
00000035
FFFFFFAB
FFFFFFE9
FFFFFFE3
FFFFFFEB
FFFFFFE5
FFFFFFFE
FFFFFFFE
0000003F
FFFFFFFF
00000041
FFFFFFF2
FFFFFFF9
0000000A
00000009
FFFFFFD8
00000018
0000003A
FFFFFFE9
FFFFFFD6
00000027
00000005
FFFFFFFA
00000007
00000013
0000000A
FFFFFFEA
FFFFFFDE
FFFFFFD9
00000015
00000003
FFFFFFEE
00000005
FFFFFFE2
FFFFFFCF
00000009
00000038
FFFFFFD8
FFFFFFCF
00000047
FFFFFFF1
00000004
FFFFFFDB
FFFFFFED
0000001F
00000002
00000034
0000000D
FFFFFFFE
00000006
00000021
FFFFFFDB
0000005E
00000034
FFFFFFCD
0000001F
0000000F
00000042
00000013
FFFFFFCC
FFFFFFF5
0000001D
0000003A
0000000D
FFFFFFCE
FFFFFFDA
00000002
00000038
00000006
0000000F
0000000D
00000027
FFFFFFE9
FFFFFFC9
0000002A
00000004
00000009
FFFFFFD8
00000008
00000032
FFFFFFDB
00000036
FFFFFFB4
00000006
00000002
00000007
FFFFFFDF
00000010
FFFFFFDF
0000001A
00000006
0000000B
00000001
FFFFFFD4
0000003D
00000039
00000019
FFFFFFFE
00000009
FFFFFFCE
00000024
FFFFFFBB
00000044
00000002
00000024
00000015
FFFFFFEF
0000002B
FFFFFFF1
0000000D
FFFFFFCF
0000003B
0000002E
00000008
FFFFFFD2
FFFFFFEF
00000026
0000001E
FFFFFFE0
00000021
00000023
FFFFFFFF
FFFFFFF8
FFFFFFF1
00000024
00000020
00000007
00000047
00000055
FFFFFFDE
00000008
0000003B
0000003A
0000001A
0000002F
FFFFFFCD
0000000B
FFFFFFCC
FFFFFFAA
00000007
FFFFFFEE
FFFFFFE6
FFFFFFD3
FFFFFFE2
0000002E
FFFFFFE4
0000001D
FFFFFFE5
00000014
00000031
00000014
0000002E
00000012
FFFFFFDF
FFFFFFE2
FFFFFFFE
FFFFFFFC
FFFFFFDA
FFFFFFE6
FFFFFFFE
FFFFFFDB
FFFFFFEC
FFFFFFF5
00000006
00000013
FFFFFFEC
FFFFFFFB
FFFFFFA7
00000007
0000003E
00000010
00000005
00000036
00000007
00000012
00000018
FFFFFFE1
0000003E
FFFFFFD7
00000030
0000003E
FFFFFFF3
00000026
FFFFFFE6
FFFFFFF2
0000000A
FFFFFFD8
00000027
FFFFFFD2
00000023
FFFFFFD5
0000003F
0000004D
00000025
FFFFFFE4
0000001D
00000024
FFFFFFF6
0000002D
00000015
FFFFFFF5
0000003E
FFFFFFF9
00000024
00000008
0000003B
00000013
00000018
FFFFFFE2
FFFFFFC6
FFFFFFFA
FFFFFFF5
0000000B
00000000
FFFFFFE5
00000012
FFFFFFFB
00000003
00000005
FFFFFFEF
FFFFFFED
FFFFFFFC
FFFFFFF9
00000028
00000039
FFFFFFFE
FFFFFFCC
FFFFFFEF
FFFFFFEF
00000039
FFFFFFE5
00000012
FFFFFFD0
00000025
0000002B
FFFFFFDF
0000000D
00000010
FFFFFFEF
FFFFFFC0
0000000A
00000024
00000000
FFFFFFFC
FFFFFFF0
FFFFFFED
FFFFFFD8
FFFFFFFE
0000003D
FFFFFFF3
FFFFFFF9
00000017
00000033
0000002D
00000001
FFFFFFD0
00000037
FFFFFFF1
FFFFFFEE
FFFFFFCF
FFFFFFE7
00000007
FFFFFFEB
00000024
00000029
00000001
FFFFFFF1
FFFFFFCC
00000026
FFFFFFC2
00000033
00000009
FFFFFFED
FFFFFFD2
00000004
00000034
00000008
FFFFFFDA
00000038
00000013
FFFFFFDF
0000000C
FFFFFFC0
FFFFFFEF
00000027
FFFFFFE0
FFFFFFF0
00000057
0000002A
FFFFFFED
FFFFFFE3
00000021
FFFFFFDF
FFFFFFF3
FFFFFFFD
0000004F
FFFFFFFF
0000000C
0000000B
FFFFFFFD
FFFFFFFC
0000000B
FFFFFFE7
00000004
00000018
FFFFFFDD
FFFFFFD7
FFFFFFEC
FFFFFFEB
00000009
FFFFFFE2
FFFFFFCA
FFFFFFEB
00000028
00000009
0000001B
00000016
FFFFFFFE
FFFFFFED
00000021
0000002D
00000009
FFFFFFE6
00000007
FFFFFFFA
00000013
0000001E
0000002E
FFFFFFCB
FFFFFFFD
FFFFFFEB
00000026
00000016
00000000
0000003B
00000035
00000015
00000002
00000017
FFFFFFB2
FFFFFFD2
00000023
00000012
FFFFFFF7
FFFFFFFD
FFFFFFF4
FFFFFFEF
FFFFFFE7
FFFFFFE2
FFFFFFF9
00000001
FFFFFFF8
00000036
FFFFFFC1
00000019
FFFFFFC7
FFFFFFDE
0000003B
00000041
FFFFFFF1
00000020
FFFFFFFA
0000003D
0000000C
FFFFFFDF
0000001C
00000011
FFFFFFDB
FFFFFFA4
FFFFFFE2
00000015
FFFFFFDE
0000003E
00000023
FFFFFFC1
0000000F
FFFFFFDF
00000022
FFFFFFD4
00000020
FFFFFFB3
00000006
FFFFFFE5
00000021
00000043
FFFFFFD7
FFFFFFED
00000046
00000012
FFFFFFB6
FFFFFFCD
00000033
0000001A
00000031
00000033
FFFFFFE6
FFFFFFE5
FFFFFFFC
FFFFFFCB
0000000A
00000024
0000001A
00000004
FFFFFFDF
00000012
00000008
0000000E
FFFFFFF2
00000000
0000001F
FFFFFFD2
FFFFFFCF
FFFFFFDB
FFFFFFD1
0000002D
FFFFFFFF
FFFFFFF4
00000024
FFFFFFFC
00000030
00000018
00000000
0000002E
FFFFFFF5
FFFFFFB1
FFFFFFE7
00000000
0000004C
FFFFFFE1
FFFFFFE4
FFFFFFEF
0000002D
FFFFFFE1
00000016
00000017
FFFFFFC5
00000026
00000035
FFFFFFDC
0000000B
FFFFFFE9
FFFFFFF2
00000000
FFFFFFB1
00000024
00000004
FFFFFFDA
0000001F
FFFFFFEE
00000021
0000002C
00000018
0000002F
0000000E
FFFFFFF4
00000007
FFFFFFFE
FFFFFFBF
FFFFFFE0
00000029
00000010
00000021
0000001C
FFFFFFD9
FFFFFFF5
00000016
FFFFFFF2
00000014
FFFFFFED
0000000D
FFFFFFFB
FFFFFFDC
0000001A
FFFFFFBB
00000021
FFFFFFB3
FFFFFFF5
0000003D
00000003
0000000C
FFFFFFFD
FFFFFFEA
00000009
FFFFFFCA
00000038
FFFFFFC7
FFFFFFE9
FFFFFFF1
00000008
0000000E
0000000B
FFFFFFF0
FFFFFFE7
0000001A
0000001E
FFFFFFE4
00000007
00000031
00000025
FFFFFFAD
FFFFFFF8
00000027
FFFFFFFD
0000002C
00000005
FFFFFFDA
00000011
00000018
FFFFFFCA
FFFFFFEE
FFFFFFF8
00000032
00000031
0000002C
FFFFFFF9
00000016
00000001
0000001B
FFFFFFD0
FFFFFFD6
FFFFFFD2
FFFFFFEB
FFFFFFF5
FFFFFFEB
0000000D
FFFFFFF7
FFFFFFC0
00000003
FFFFFFCE
00000008
0000002D
FFFFFFE5
00000005
00000004
00000016
00000023
00000015
00000024
FFFFFFF7
FFFFFFF1
FFFFFFF4
0000002B
00000011
FFFFFFC1
00000000
FFFFFFBD
0000000C
00000003
0000001F
0000001D
0000000B
00000039
00000017
0000000A
00000002
00000024
00000027
0000000C
0000000E
00000022
FFFFFFBC
00000016
FFFFFFFB
FFFFFFDF
FFFFFFF1
00000000
FFFFFFCE
FFFFFFC6
FFFFFFEC
FFFFFFE1
00000023
00000036
00000001
00000004
00000012
FFFFFFEA
00000038
FFFFFFFC
FFFFFFFA
00000002
00000016
FFFFFFF6
FFFFFFFF
FFFFFFC2
FFFFFFCC
00000002
0000000D
00000007
FFFFFFF5
00000026
FFFFFFD1
FFFFFFCE
0000001E
FFFFFFFE
FFFFFFD5
FFFFFFD0
FFFFFFC7
FFFFFFC9
FFFFFFDE
FFFFFFE3
00000019
0000001C
00000003
0000000C
FFFFFFDB
FFFFFFF2
FFFFFFF6
00000011
FFFFFFFF
00000011
FFFFFFF5
0000000A
0000000C
FFFFFFE1
0000001A
FFFFFFF0
FFFFFFEE
0000000C
0000002C
0000001E
00000007
00000033
0000002F
00000018
00000000
00000018
00000004
FFFFFFF5
0000000B
FFFFFFE3
FFFFFFFE
0000000C
00000035
FFFFFFC8
FFFFFFE9
0000001B
FFFFFFF9
00000022
00000033
FFFFFFCE
FFFFFFEA
0000000F
FFFFFFF3
FFFFFFE3
FFFFFFE7
FFFFFFEF
00000001
FFFFFFF8
0000000E
FFFFFFC3
00000003
FFFFFFDC
00000013
FFFFFFDE
FFFFFFF7
00000001
FFFFFFF5
FFFFFFF2
00000001
0000003B
FFFFFFDA
FFFFFFD9
00000040
00000031
FFFFFFC8
0000001B
00000014
00000016
FFFFFFDC
FFFFFFF4
FFFFFFE7
FFFFFFC2
00000027
00000016
00000008
00000027
00000002
00000012
00000054
00000023
00000023
FFFFFFD3
0000000B
0000002A
00000038
0000001B
FFFFFFFD
0000001B
FFFFFFED
00000005
FFFFFFF8
FFFFFFD1
00000013
00000009
00000019
00000011
00000012
FFFFFFD2
FFFFFFE6
FFFFFFF6
00000019
FFFFFFD8
0000000D
00000027
00000029
FFFFFFEE
FFFFFFE0
00000002
FFFFFFDC
FFFFFFD6
FFFFFFE8
FFFFFFF8
00000010
FFFFFFDC
FFFFFFED
FFFFFFE4
FFFFFFF3
00000003
FFFFFFF7
FFFFFFD0
FFFFFFE7
FFFFFFE8
FFFFFFCD
0000001D
FFFFFFBF
FFFFFFEA
00000037
00000008
0000002C
FFFFFFF9
00000010
FFFFFFFF
0000003C
FFFFFFEE
FFFFFFE7
FFFFFFF8
00000000
FFFFFFD6
00000014
00000025
0000002F
00000021
FFFFFFD9
00000020
FFFFFFE5
00000013
00000011
00000007
FFFFFFF0
00000009
00000023
FFFFFFAA
FFFFFFF9
FFFFFFFE
FFFFFFF2
0000000B
FFFFFFEA
0000001F
0000004E
00000023
00000028
FFFFFFE3
00000023
00000022
00000013
FFFFFFC1
FFFFFFD2
0000003F
FFFFFFE3
00000003
00000000
FFFFFFCD
00000010
0000002B
0000002A
00000023
FFFFFFF7
FFFFFFEF
0000002F
FFFFFFD4
00000027
FFFFFFD2
FFFFFFF8
00000019
FFFFFFF7
0000002C
FFFFFFE3
FFFFFFDE
FFFFFFCF
0000001D
FFFFFFF9
FFFFFFDE
00000015
FFFFFFB7
00000005
FFFFFFF6
00000021
FFFFFFF9
FFFFFFEC
0000002D
00000025
0000002F
FFFFFFF7
0000000A
00000007
FFFFFFD1
00000023
FFFFFFC3
FFFFFFFC
00000005
0000000F
00000011
00000042
FFFFFFFB
FFFFFFE5
FFFFFFEF
00000014
0000002A
FFFFFFEF
FFFFFFD5
FFFFFFC8
FFFFFFE8
00000025
FFFFFFBF
00000011
FFFFFFD9
00000021
0000001E
FFFFFFF7
FFFFFFD0
00000015
FFFFFFCE
FFFFFFF3
00000038
0000001D
00000008
00000022
00000035
0000001A
FFFFFFFF
00000015
FFFFFFD9
00000004
FFFFFFD7
00000020
FFFFFFD0
FFFFFFCA
FFFFFFF1
FFFFFFD1
FFFFFFFE
FFFFFFC6
00000002
00000005
FFFFFFEB
FFFFFFE9
00000000
FFFFFFFF
00000017
00000006
0000002E
00000031
FFFFFFFA
FFFFFFFD
FFFFFFFC
00000028
FFFFFFD7
0000001D
00000016
FFFFFFF6
FFFFFFFD
FFFFFFE9
00000035
FFFFFFCB
FFFFFFD8
FFFFFFE5
0000001D
FFFFFFDE
FFFFFFE2
FFFFFFF0
FFFFFFEE
FFFFFFEF
0000000B
FFFFFFFC
0000000F
FFFFFFDD
00000021
0000001B
FFFFFFE2
FFFFFFC8
00000014
00000010
FFFFFFDF
00000010
FFFFFFD7
FFFFFFE1
0000000C
0000000A
FFFFFFFC
FFFFFFC3
00000008
00000024
FFFFFFFE
FFFFFFF0
0000001F
00000002
FFFFFFD7
00000029
FFFFFFFE
FFFFFFE1
0000000E
FFFFFFE5
00000004
FFFFFFCD
FFFFFFEA
00000001
FFFFFFDE
FFFFFFDA
FFFFFFE5
00000030
00000022
FFFFFFEB
00000000
00000013
FFFFFFEE
FFFFFFE2
00000010
FFFFFFE1
00000029
FFFFFFD9
0000000A
0000000A
00000007
FFFFFFDD
0000002B
0000001D
FFFFFFB4
0000002F
FFFFFFF5
FFFFFFD0
00000024
00000043
00000008
FFFFFFD4
00000023
FFFFFFEB
00000008
FFFFFFFD
00000055
0000005A
FFFFFFDA
0000001B
0000002F
FFFFFFED
00000009
FFFFFFEA
0000000F
00000034
FFFFFFFA
FFFFFFEA
FFFFFFDF
FFFFFFEC
00000001
FFFFFFD2
0000000B
00000023
0000000A
FFFFFFF5
0000002C
00000014
FFFFFFEB
00000020
00000020
00000005
0000002C
00000010
0000000B
0000003C
FFFFFFDF
00000005
FFFFFFEE
0000002A
FFFFFFE6
FFFFFFF5
0000001F
FFFFFFE4
FFFFFFFF
00000026
FFFFFFE8
00000020
0000002C
FFFFFFF2
0000003C
00000020
0000002B
00000003
0000000F
00000008
FFFFFFE3
FFFFFFFD
FFFFFFD5
FFFFFFD6
FFFFFFF3
00000007
0000000C
FFFFFFCE
FFFFFFE5
00000020
FFFFFFE7
FFFFFFCB
00000022
00000029
00000026
FFFFFFF7
0000002F
FFFFFFD6
FFFFFFF7
00000023
FFFFFFE1
0000000F
FFFFFFDF
0000000D
0000002F
FFFFFFD0
FFFFFFD8
FFFFFFF4
00000015
00000022
0000002F
00000007
00000007
FFFFFFEC
00000012
00000031
FFFFFFBE
00000018
00000012
00000030
00000009
FFFFFFCE
00000006
0000003E
FFFFFFEA
FFFFFFFF
FFFFFFEE
00000022
FFFFFFEA
00000012
FFFFFFE6
0000001C
FFFFFFF8
FFFFFFDE
FFFFFFF9
0000003F
FFFFFFCE
00000024
FFFFFFEA
00000008
FFFFFFE0
0000000C
FFFFFFF4
FFFFFFD7
0000002D
FFFFFFE1
FFFFFFF1
FFFFFFF7
FFFFFFF6
0000001B
00000017
0000000A
00000024
FFFFFFEB
FFFFFFE0
0000001F
00000000
0000000E
FFFFFFAD
FFFFFFBD
00000009
00000003
0000002B
FFFFFFF3
00000026
00000005
FFFFFFE5
0000002A
0000002A
FFFFFFF4
FFFFFFDB
00000029
00000005
FFFFFFD8
FFFFFFF2
FFFFFFE8
FFFFFFED
FFFFFFFA
FFFFFFE3
00000000
00000017
00000009
0000000C
FFFFFFE2
FFFFFFF4
FFFFFFD9
FFFFFFFA
FFFFFFFA
FFFFFFDD
FFFFFFF5
FFFFFFD7
FFFFFFED
00000003
FFFFFFCF
00000002
FFFFFFED
FFFFFFEA
FFFFFFD5
FFFFFFBE
FFFFFFD5
00000005
FFFFFFCF
00000004
00000026
FFFFFFF9
FFFFFFD8
00000025
00000014
00000014
0000001C
FFFFFFF7
FFFFFFDF
FFFFFFF1
0000001A
FFFFFFED
FFFFFFF9
FFFFFFD7
00000008
0000001F
FFFFFFD3
00000011
00000057
FFFFFFEA
FFFFFFFA
00000024
00000004
00000044
00000029
FFFFFFDE
FFFFFFF7
FFFFFFCC
00000020
00000037
0000001F
FFFFFFE3
FFFFFFFD
00000037
00000002
00000029
00000018
FFFFFFCA
00000006
FFFFFFE9
0000000F
FFFFFFD0
FFFFFFB7
00000022
0000000D
FFFFFFEE
FFFFFFC2
0000002B
00000025
FFFFFFEA
0000000A
00000007
FFFFFFF8
00000030
0000000A
FFFFFFC5
FFFFFFE3
FFFFFFE6
FFFFFFFE
0000002C
FFFFFFFD
FFFFFFF5
FFFFFFF7
0000000A
00000003
00000034
FFFFFFB6
00000017
0000000C
FFFFFFDC
0000000D
FFFFFFF6
FFFFFFB9
FFFFFFD1
0000002D
FFFFFFEF
00000035
FFFFFFEA
FFFFFFE1
FFFFFFED
00000022
FFFFFFE1
0000003F
00000021
FFFFFFBC
FFFFFFE2
FFFFFFF9
FFFFFFEB
00000006
00000011
FFFFFFD1
00000001
FFFFFFD3
FFFFFFE1
FFFFFFEE
FFFFFFD9
0000000D
0000001B
FFFFFFC8
FFFFFFF1
00000011
FFFFFFE3
FFFFFFEC
FFFFFFF4
FFFFFFEF
0000001E
FFFFFFE0
0000002D
FFFFFFDD
00000003
FFFFFFC8
00000032
00000038
0000003B
FFFFFFF3
0000004C
FFFFFFC2
FFFFFFDF
0000003C
FFFFFFE2
FFFFFFEB
00000030
0000001D
00000007
FFFFFFCF
00000006
00000003
FFFFFFCD
FFFFFFDD
00000022
00000014
FFFFFFDC
00000017
00000018
FFFFFFDA
00000001
00000008
0000000A
00000021
00000018
00000018
FFFFFFD9
FFFFFFD9
FFFFFFE9
00000021
00000016
FFFFFFE7
00000047
00000035
00000007
00000018
00000027
00000014
FFFFFFFF
00000023
00000036
00000023
00000010
0000001D
FFFFFFFD
FFFFFFEC
00000022
FFFFFFD6
FFFFFFD1
FFFFFFEF
0000000F
FFFFFFFE
FFFFFFE9
FFFFFFDA
00000022
0000004B
FFFFFFE6
0000003C
FFFFFFD6
00000026
00000001
0000000C
00000034
FFFFFFFF
0000000E
FFFFFFDA
00000026
FFFFFFDF
00000000
00000012
00000035
FFFFFFF4
FFFFFFF7
FFFFFFE3
0000001C
0000003B
00000025
00000004
FFFFFFCD
FFFFFFFB
00000038
00000025
FFFFFFDF
FFFFFFED
FFFFFFF9
FFFFFFC0
00000024
0000001C
FFFFFFDB
00000007
FFFFFFF3
0000000E
0000001D
00000029
00000013
0000001F
00000018
00000031
00000000
FFFFFFFF
FFFFFFDC
FFFFFFE7
FFFFFFDD
FFFFFFD3
00000036
00000033
FFFFFFE4
FFFFFFE0
FFFFFFD8
00000004
0000001D
00000027
00000040
FFFFFFF1
FFFFFFDA
0000003B
00000040
FFFFFFEF
00000008
00000016
00000016
FFFFFFEC
FFFFFFE4
FFFFFFE1
FFFFFFEB
00000023
00000001
FFFFFFBF
00000018
FFFFFFF9
0000000A
00000004
0000001A
FFFFFFF6
FFFFFFE5
FFFFFFF6
FFFFFFDE
FFFFFFE6
00000036
0000002D
00000046
FFFFFFDB
0000002F
0000000E
FFFFFFEA
FFFFFFF8
FFFFFFCD
00000027
FFFFFFE1
FFFFFFDF
00000014
FFFFFFF8
00000012
FFFFFFFE
0000000A
FFFFFFEA
FFFFFFB5
00000005
FFFFFFFA
00000001
FFFFFFFA
0000001D
FFFFFFF0
FFFFFFEC
00000024
FFFFFFD6
FFFFFFE6
00000012
00000022
FFFFFFDD
FFFFFFFD
FFFFFFC1
00000008
FFFFFFB6
0000002A
FFFFFFDE
00000025
00000031
FFFFFFD5
0000001D
0000002B
FFFFFFD6
00000017
FFFFFFF6
0000001D
00000041
00000011
FFFFFFC9
FFFFFFEA
FFFFFFE4
00000011
FFFFFFF2
00000000
FFFFFFE0
00000014
00000016
0000000E
FFFFFFEF
FFFFFFD9
0000000D
0000003A
00000028
00000002
00000011
00000026
0000000D
0000001A
FFFFFFEF
0000000E
00000049
FFFFFFD6
FFFFFFEB
FFFFFFF5
0000000E
00000033
FFFFFFEB
0000002F
FFFFFFF9
0000000D
FFFFFFE5
00000029
FFFFFFE7
0000000B
FFFFFFD6
0000000D
FFFFFFFD
FFFFFFD4
FFFFFFFA
00000015
00000001
0000000C
FFFFFFD1
FFFFFFFF
FFFFFFFD
00000029
0000000A
FFFFFFF4
FFFFFFF9
FFFFFFFE
00000016
00000032
00000002
FFFFFFD7
00000062
FFFFFFFD
FFFFFFDE
FFFFFFF0
FFFFFFCC
FFFFFFF1
FFFFFFE5
FFFFFFB9
00000023
FFFFFFEF
0000002D
FFFFFFDB
FFFFFFD6
FFFFFFF6
FFFFFFF7
0000001C
00000032
FFFFFFF8
0000001A
0000000F
FFFFFFFC
00000015
FFFFFFED
00000015
FFFFFFDC
0000001F
FFFFFFE5
FFFFFFF2
FFFFFFD1
0000000B
FFFFFFF3
FFFFFFFE
FFFFFFF2
00000017
FFFFFFED
00000002
0000000B
0000001C
0000003A
FFFFFFD5
0000000A
FFFFFFED
FFFFFFD0
0000002A
00000019
FFFFFFD8
0000000E
FFFFFFC7
00000000
00000003
FFFFFFDF
0000001C
FFFFFFFF
FFFFFFEB
00000005
FFFFFFEE
00000018
00000014
FFFFFFD9
00000026
00000004
FFFFFFDA
0000001D
00000012
FFFFFFCF
FFFFFFDE
0000001B
00000015
FFFFFFF7
00000033
00000018
FFFFFFD6
00000022
00000030
0000001A
00000008
FFFFFFCD
FFFFFFE2
00000003
FFFFFFD9
FFFFFFCC
00000034
0000001E
FFFFFFDC
00000012
FFFFFFE8
FFFFFFD7
FFFFFFEC
0000001E
FFFFFFEC
FFFFFFF5
FFFFFFEE
FFFFFFEC
00000012
00000036
00000025
00000014
FFFFFFF7
00000039
00000005
0000001F
00000015
FFFFFFE2
00000009
FFFFFFD8
00000028
FFFFFFFB
FFFFFFED
FFFFFFD6
FFFFFFF5
00000044
FFFFFFF1
FFFFFFD8
FFFFFFDE
FFFFFFDB
00000043
00000019
FFFFFFF7
FFFFFFF6
FFFFFFFA
FFFFFFE1
0000000C
FFFFFFCD
FFFFFFD1
FFFFFFDE
00000001
00000024
FFFFFFDB
0000001F
00000016
00000026
FFFFFFDD
0000001C
FFFFFFDB
00000007
FFFFFFED
FFFFFFF0
FFFFFFE6
0000001E
FFFFFFDB
FFFFFFCD
FFFFFFE4
FFFFFFDA
FFFFFFF7
FFFFFFED
00000000
FFFFFFC5
FFFFFFD3
00000009
00000039
0000001E
00000026
FFFFFFE2
FFFFFFEA
00000025
FFFFFFF6
FFFFFFF1
00000035
FFFFFFFF
0000001C
00000004
FFFFFFBD
00000031
0000002B
0000001A
FFFFFFEF
0000000C
FFFFFFD4
00000032
0000000B
FFFFFFD2
FFFFFFE3
0000002B
0000000E
00000035
FFFFFFF5
00000012
00000022
FFFFFFFE
0000001F
00000026
00000012
00000025
FFFFFFCF
FFFFFFE4
0000001B
FFFFFFE6
FFFFFFE1
00000004
00000009
00000033
FFFFFFEF
0000000E
0000000B
FFFFFFF7
0000001C
00000027
FFFFFFD5
FFFFFFC0
00000004
FFFFFFF0
00000004
0000005C
FFFFFFFE
FFFFFFD1
FFFFFFF5
00000002
FFFFFFFA
FFFFFFD6
FFFFFFE3
FFFFFFF6
FFFFFFDC
00000030
FFFFFFDD
00000018
0000003F
0000000D
00000003
FFFFFFD0
FFFFFFE1
FFFFFFF8
00000014
0000000D
0000002B
00000004
FFFFFFE1
FFFFFFF9
FFFFFFF1
0000000F
FFFFFFD1
00000016
FFFFFFF1
00000012
FFFFFFE1
00000051
0000000D
00000025
00000034
FFFFFFD0
00000009
0000003A
FFFFFFF5
00000009
0000001D
FFFFFFE3
FFFFFFF1
FFFFFFF5
FFFFFFE9
00000036
0000002B
00000008
00000011
00000015
00000034
FFFFFFF5
00000018
FFFFFFE6
00000007
00000002
FFFFFFF8
0000003F
FFFFFFE5
0000001D
FFFFFFC8
00000010
0000001B
00000033
00000005
0000001F
FFFFFFED
FFFFFFD3
FFFFFFEB
00000005
00000002
FFFFFFEA
FFFFFFE6
00000010
FFFFFFBE
FFFFFFE8
00000033
FFFFFFF5
FFFFFFF8
00000002
0000000D
FFFFFFFE
0000000C
00000026
FFFFFFF8
00000035
FFFFFFD0
0000002D
FFFFFFDD
0000001B
FFFFFFE2
FFFFFFE1
0000001B
0000001A
FFFFFFE1
FFFFFFF3
FFFFFFEE
0000002F
FFFFFFE9
FFFFFFF4
00000029
00000046
FFFFFFE3
0000002C
FFFFFFE1
FFFFFFFD
FFFFFFE6
FFFFFFED
0000002F
00000005
FFFFFFD3
FFFFFFF6
FFFFFFE8
00000009
FFFFFFFE
0000002E
FFFFFFD9
00000015
00000001
FFFFFFCE
0000000F
00000032
FFFFFFD7
00000026
00000049
FFFFFFFC
00000004
FFFFFFFD
FFFFFFEA
0000000F
FFFFFFDB
FFFFFFF6
00000015
0000000E
FFFFFFE2
0000000B
0000002B
FFFFFFD6
FFFFFFF3
FFFFFFF3
00000033
00000020
FFFFFFB2
FFFFFFFD
0000002F
FFFFFFFF
0000003C
FFFFFFFE
FFFFFFE5
FFFFFFEF
0000003C
FFFFFFC7
00000011
FFFFFFE4
00000008
00000024
0000000C
00000030
FFFFFFF3
FFFFFFEB
00000014
FFFFFFF7
FFFFFFDB
FFFFFFE6
00000010
0000002E
FFFFFFDA
FFFFFFF8
00000025
FFFFFFED
FFFFFFEF
FFFFFFBA
00000000
FFFFFFEE
FFFFFFE6
00000029
00000023
FFFFFFD9
00000030
00000025
00000006
00000039
FFFFFFE1
FFFFFFF5
FFFFFFB5
FFFFFFF2
FFFFFFFB
FFFFFFD7
00000007
FFFFFFC5
00000021
FFFFFFD6
FFFFFFBF
FFFFFFC2
00000024
FFFFFFC2
00000023
0000000D
0000000D
00000029
00000027
FFFFFFF8
00000008
0000000F
0000002C
FFFFFFF1
FFFFFFFB
00000024
0000002A
0000001A
FFFFFFF4
00000037
00000031
FFFFFFFA
00000027
00000015
FFFFFFD7
FFFFFFE0
00000001
00000003
FFFFFFED
00000024
FFFFFFFC
FFFFFFCA
FFFFFFE2
0000000C
FFFFFFF5
FFFFFFDF
00000019
FFFFFFEA
FFFFFFFA
00000031
00000026
FFFFFFFF
FFFFFFDA
00000043
00000027
0000001E
FFFFFFEA
FFFFFFD8
00000027
00000028
FFFFFFE7
FFFFFFCF
FFFFFFEA
00000009
0000000F
FFFFFFE4
FFFFFFFE
FFFFFFEF
00000027
FFFFFFD9
FFFFFFBD
FFFFFFE5
FFFFFFF3
FFFFFFF0
FFFFFFFE
FFFFFFF4
FFFFFFE5
FFFFFFFC
0000002B
FFFFFFEA
00000021
FFFFFFFA
0000000E
0000001A
FFFFFFF0
00000022
0000003E
FFFFFFDB
FFFFFFD4
FFFFFFD9
FFFFFFFE
FFFFFFEE
FFFFFFDD
FFFFFFD4
FFFFFFFE
FFFFFFCB
00000028
FFFFFFE5
00000001
FFFFFFEE
FFFFFFE8
FFFFFFF8
FFFFFFC5
0000000E
00000016
FFFFFFBD
FFFFFFFC
0000000A
00000022
00000002
FFFFFFF0
FFFFFFF9
00000014
0000000F
FFFFFFF9
0000002F
FFFFFFEE
0000000B
00000016
FFFFFFE1
FFFFFFBF
FFFFFFE5
00000004
FFFFFFDF
00000009
FFFFFFE2
FFFFFFE9
FFFFFFC7
FFFFFFD0
FFFFFFBD
00000009
FFFFFFB6
FFFFFFF8
FFFFFFD4
FFFFFFE6
00000041
0000000C
FFFFFFBB
00000014
FFFFFFE2
FFFFFFD4
FFFFFFC3
0000000F
FFFFFFF2
0000001E
FFFFFFC5
FFFFFFFB
00000029
FFFFFFC7
FFFFFFDB
FFFFFFDB
FFFFFFE1
FFFFFFD6
00000030
00000025
0000002C
FFFFFFFA
FFFFFFE6
00000019
0000000C
00000018
FFFFFFCE
00000035
0000001C
00000011
00000027
FFFFFFF2
00000020
FFFFFFD2
FFFFFFF2
0000000D
00000037
00000021
00000015
00000019
FFFFFFEC
FFFFFFF7
FFFFFFF3
00000024
FFFFFFD3
0000000C
00000011
FFFFFFE0
00000042
0000002F
00000027
FFFFFFF6
0000000A
0000000D
00000005
FFFFFFFE
FFFFFFDA
00000014
FFFFFFD2
FFFFFFD3
00000013
00000002
00000019
00000014
FFFFFFE5
00000013
00000028
0000000A
00000027
0000002A
00000004
FFFFFFF2
FFFFFFC1
FFFFFFD6
00000034
FFFFFFDE
0000000F
FFFFFFE7
FFFFFFFB
0000001F
00000005
FFFFFFE6
00000029
00000005
00000023
FFFFFFEA
00000008
FFFFFFDE
00000043
FFFFFFE4
0000001D
FFFFFFFD
00000023
00000027
FFFFFFD1
FFFFFFFD
FFFFFFE4
FFFFFFEE
0000001C
FFFFFFEF
00000019
00000019
FFFFFFF8
FFFFFFDA
FFFFFFEB
FFFFFFD2
FFFFFFE8
FFFFFFD0
00000008
0000002B
FFFFFFE4
FFFFFFE7
FFFFFFF7
00000004
FFFFFFDE
00000009
FFFFFFF1
FFFFFFE6
FFFFFFCB
00000020
FFFFFFA0
FFFFFFF2
FFFFFFE3
FFFFFFE7
FFFFFFD7
0000002A
00000034
FFFFFFF9
0000002A
00000007
00000007
0000000F
FFFFFFD0
0000002B
00000021
FFFFFFD6
00000029
00000024
00000050
FFFFFFCE
FFFFFFF8
0000001B
FFFFFFFD
00000029
00000029
FFFFFFC7
FFFFFFE0
FFFFFFE8
FFFFFFFB
00000014
FFFFFFE9
FFFFFFD9
00000011
FFFFFFDD
FFFFFFE6
FFFFFFF8
0000000F
FFFFFFF4
FFFFFFFD
FFFFFFD0
FFFFFFFB
FFFFFFC9
00000005
FFFFFFF0
0000002D
FFFFFFF5
00000043
FFFFFFD7
FFFFFFD7
FFFFFFCE
00000003
00000039
00000015
FFFFFFD7
0000003F
FFFFFFEE
00000018
FFFFFFEA
00000018
FFFFFFE5
0000001D
FFFFFFD9
FFFFFFFD
00000029
00000019
FFFFFFC3
FFFFFFC3
FFFFFFC6
00000022
FFFFFFE1
FFFFFFE6
00000000
00000003
FFFFFFEF
FFFFFFBD
00000008
00000003
FFFFFFD1
0000000E
00000003
00000003
FFFFFFDB
FFFFFFE4
0000001F
0000000A
0000000E
00000001
FFFFFFEA
FFFFFFEF
FFFFFFFA
00000015
00000024
00000032
0000001B
FFFFFFDC
0000001D
0000000B
FFFFFFE4
FFFFFFCD
0000002F
00000005
FFFFFFDA
00000016
0000002C
FFFFFFF9
0000002A
0000002A
FFFFFFF2
FFFFFFE2
FFFFFFEB
00000007
0000002D
FFFFFFF3
0000001F
FFFFFFD7
00000003
0000003A
00000027
0000000D
FFFFFFF4
00000014
FFFFFFDA
00000028
00000005
0000001A
00000004
FFFFFFEC
0000000F
FFFFFFCB
FFFFFFE5
00000026
FFFFFFE2
FFFFFFFE
0000002F
FFFFFFCF
0000002A
FFFFFFD2
FFFFFFE9
FFFFFFCB
FFFFFFDB
FFFFFFEE
FFFFFFE9
00000018
FFFFFFDB
00000027
FFFFFFE1
00000020
FFFFFFE1
0000000D
FFFFFFC8
00000003
0000002B
00000015
00000001
0000000C
FFFFFFCF
0000003C
00000004
FFFFFFE1
00000015
00000021
00000017
FFFFFFD7
00000003
FFFFFFE0
00000001
00000015
FFFFFFE7
00000026
FFFFFFEE
FFFFFFC0
00000028
FFFFFFF1
FFFFFFB4
FFFFFFD5
FFFFFFE6
FFFFFFE1
FFFFFFEF
FFFFFFF0
FFFFFFEA
00000026
0000001D
00000012
00000017
00000024
FFFFFFD9
00000016
0000002A
FFFFFFC7
00000020
FFFFFFCE
FFFFFFF6
FFFFFFED
00000007
FFFFFFE6
FFFFFFF3
00000004
00000027
0000002C
FFFFFFDC
00000017
0000000A
0000002C
FFFFFFED
0000003B
0000002D
00000016
FFFFFFFF
00000005
FFFFFFFF
FFFFFFEF
00000014
00000012
FFFFFFCD
FFFFFFF8
0000002D
00000004
00000003
00000026
0000002A
0000001A
FFFFFFF5
FFFFFFEC
FFFFFFCD
0000002D
00000003
FFFFFFBE
00000038
00000010
0000003E
FFFFFFF2
00000014
00000019
00000003
00000021
FFFFFFF2
FFFFFFBE
00000022
FFFFFFE4
00000025
FFFFFFF8
FFFFFFEB
FFFFFFE0
00000002
FFFFFFF3
00000005
00000017
FFFFFFE7
0000002F
FFFFFFD8
FFFFFFE2
00000025
FFFFFFE1
00000037
FFFFFFDB
FFFFFFE0
FFFFFFE9
00000003
0000002C
FFFFFFFF
FFFFFFD4
FFFFFFE0
FFFFFFFF
FFFFFFE9
00000025
00000021
0000000F
00000033
FFFFFFC4
FFFFFFD9
00000010
FFFFFFFE
0000000C
FFFFFFE1
00000019
FFFFFFB7
FFFFFFF5
FFFFFFE2
00000022
00000027
00000013
FFFFFFE3
FFFFFFF9
FFFFFFEC
00000019
FFFFFFF7
0000002F
FFFFFFE3
00000009
FFFFFFDE
FFFFFFE2
0000000A
00000009
FFFFFFD4
FFFFFFDF
FFFFFFED
FFFFFFF2
FFFFFFEA
FFFFFFA8
FFFFFFEF
FFFFFFE1
00000019
FFFFFFD3
00000021
00000023
0000003A
00000022
FFFFFFE0
00000016
00000025
FFFFFFCD
FFFFFFDC
0000002A
00000028
FFFFFFEB
FFFFFFF4
FFFFFFF3
00000029
FFFFFFF8
FFFFFFCC
FFFFFFFE
00000000
0000001B
FFFFFFC8
0000001B
00000051
FFFFFFEE
00000006
FFFFFFDE
00000002
FFFFFFF5
FFFFFFE8
00000027
0000001B
00000013
FFFFFFD1
FFFFFFAE
00000014
FFFFFFF9
FFFFFFDC
FFFFFFC2
FFFFFFDC
FFFFFFDE
0000002A
0000001D
00000001
00000026
00000048
FFFFFFFB
FFFFFFE6
00000001
00000001
00000042
00000029
0000003A
00000046
FFFFFFFA
FFFFFFE7
00000037
FFFFFFF1
FFFFFFDD
FFFFFFCE
FFFFFFC2
FFFFFFF9
00000011
00000016
0000000F
00000001
00000026
FFFFFFE5
00000016
FFFFFFDE
00000050
0000004F
FFFFFFEF
00000026
FFFFFFD1
FFFFFFF4
0000000C
0000002C
00000010
FFFFFFF7
FFFFFFCE
00000013
0000000E
00000025
FFFFFFFE
0000003E
FFFFFFBF
0000000F
0000000C
00000002
FFFFFFF5
0000001A
FFFFFFEE
00000008
0000001D
00000049
00000055
FFFFFFD5
FFFFFFEE
FFFFFFE3
00000012
0000000D
00000010
00000031
FFFFFFD6
00000018
FFFFFFEA
FFFFFFF9
FFFFFFE9
0000001A
FFFFFFE7
0000002D
0000001D
0000003E
00000035
00000000
0000003C
00000027
00000020
00000001
00000019
00000046
00000034
FFFFFFAE
00000041
00000036
00000021
00000032
00000019
FFFFFFFF
FFFFFFE5
FFFFFFD6
FFFFFFEB
00000017
FFFFFFF6
FFFFFFF8
FFFFFFE3
0000002A
FFFFFFD0
FFFFFFE0
FFFFFFB1
00000012
FFFFFFFE
FFFFFFFA
FFFFFFD5
FFFFFFE0
FFFFFFC9
0000000D
0000001E
0000001B
0000000F
0000005A
FFFFFFFA
FFFFFFFA
00000008
0000002E
FFFFFFFD
FFFFFFDC
00000000
0000001F
0000001A
0000001A
FFFFFFE2
FFFFFFED
0000000C
FFFFFFD2
00000019
FFFFFFF1
FFFFFFE3
00000027
FFFFFFED
FFFFFFD1
FFFFFFF6
00000023
FFFFFFED
FFFFFFB1
00000010
00000008
FFFFFFC9
FFFFFFD0
FFFFFFF7
FFFFFFE0
00000019
00000013
FFFFFFE0
00000030
FFFFFFD0
0000001F
FFFFFFC7
00000003
FFFFFFE7
FFFFFFD8
FFFFFFDA
FFFFFFFD
00000006
0000000C
FFFFFFED
0000000A
00000014
00000042
00000019
00000027
FFFFFFD8
0000002F
FFFFFFF0
00000019
00000001
FFFFFFF4
FFFFFFE3
FFFFFFDA
FFFFFFFB
FFFFFFC9
0000000F
FFFFFFCF
FFFFFFD6
0000000F
FFFFFFF0
00000023
0000000E
0000000A
0000001B
0000002C
0000001B
0000002F
0000000B
FFFFFFC6
FFFFFFF7
FFFFFFC5
FFFFFFE3
FFFFFFF5
0000001A
0000002F
00000025
0000001C
0000000F
FFFFFFE6
FFFFFFC2
00000027
FFFFFFEE
00000022
FFFFFFF0
FFFFFFC2
00000022
FFFFFFFA
00000003
0000001D
FFFFFFFE
0000001C
FFFFFFF8
00000002
FFFFFFF5
FFFFFFDB
FFFFFFFA
00000003
FFFFFFDA
00000043
FFFFFFF8
FFFFFFE6
FFFFFFD9
00000027
FFFFFFFC
00000022
0000000B
FFFFFFF7
00000031
FFFFFFD2
FFFFFFD7
FFFFFFDC
FFFFFFE4
FFFFFFD8
FFFFFFF1
0000000A
FFFFFFFA
00000006
0000002B
00000004
00000025
FFFFFFDF
0000004D
00000013
FFFFFFB7
0000001B
00000028
00000004
FFFFFFEE
FFFFFFFC
FFFFFFEA
FFFFFFC3
00000005
00000038
0000000E
0000000B
FFFFFFE7
00000011
00000000
0000000E
00000008
FFFFFFFD
FFFFFFE9
00000010
FFFFFFDB
0000000E
00000008
00000012
FFFFFFFC
00000019
FFFFFFF6
FFFFFFD1
0000000E
00000014
FFFFFFDD
00000013
00000005
00000012
0000004A
FFFFFFEA
FFFFFFE6
FFFFFFE7
0000002C
00000037
00000012
FFFFFFF8
00000011
00000029
00000006
00000007
FFFFFFF1
FFFFFFBA
0000001C
0000000A
FFFFFFE8
0000001D
00000029
FFFFFFF0
FFFFFFF6
00000053
FFFFFFEB
00000023
FFFFFFC6
FFFFFFBF
FFFFFFEF
0000000B
00000016
FFFFFFF2
0000002F
FFFFFFFF
00000023
FFFFFFCB
0000001D
FFFFFFDF
00000035
FFFFFFCC
00000035
FFFFFFE8
0000001E
00000033
00000021
00000023
00000034
00000010
FFFFFFCF
FFFFFFF8
00000011
0000001E
00000019
00000022
00000005
0000001A
00000000
00000016
FFFFFFFD
00000014
00000006
0000000C
FFFFFFF6
0000003D
FFFFFFE9
FFFFFFEB
00000023
FFFFFFBD
0000001D
00000002
FFFFFFFE
FFFFFFAD
00000003
FFFFFFD0
00000035
FFFFFFE2
FFFFFFDA
00000023
FFFFFFE6
FFFFFFF6
FFFFFFFB
00000005
0000002C
FFFFFFDD
00000027
FFFFFFE7
00000007
00000024
FFFFFFFE
FFFFFFE0
0000001E
0000001D
0000002E
FFFFFFF2
FFFFFFF7
FFFFFFF5
FFFFFFEC
FFFFFFF9
FFFFFFCC
FFFFFFC5
FFFFFFF9
FFFFFFE7
00000007
FFFFFFFC
00000010
00000001
FFFFFFF9
FFFFFFDA
00000036
00000011
FFFFFFEC
00000000
0000002E
00000042
FFFFFFF3
FFFFFFFD
00000010
FFFFFFF8
FFFFFFFC
00000000
FFFFFFF8
00000043
0000002D
0000001D
FFFFFFC5
FFFFFFF4
00000021
FFFFFFD9
00000042
FFFFFFFB
FFFFFFCC
0000000E
FFFFFFEA
FFFFFFC0
00000006
00000024
0000000F
FFFFFFFD
FFFFFFE5
FFFFFFC7
00000025
FFFFFFE5
00000034
FFFFFFBF
FFFFFFF8
FFFFFFDF
FFFFFFEC
FFFFFFF8
00000000
FFFFFFDC
00000022
FFFFFFE3
FFFFFFED
00000026
FFFFFFEB
00000009
FFFFFFE9
00000027
00000029
FFFFFFE7
00000002
FFFFFFAF
0000001A
00000042
FFFFFFD2
0000000F
00000027
FFFFFFF5
00000029
0000001F
00000036
00000035
FFFFFFCC
0000000F
00000022
FFFFFFF9
FFFFFFCE
00000033
FFFFFFEA
00000045
FFFFFFF3
0000000D
FFFFFFFC
FFFFFFD7
FFFFFFD8
FFFFFFD2
00000003
FFFFFFF7
FFFFFFF7
FFFFFFF3
0000002C
00000014
FFFFFFE2
FFFFFFD4
00000018
00000020
00000016
FFFFFFF5
00000033
FFFFFFE1
FFFFFFE1
FFFFFFE6
0000001D
FFFFFFDC
00000009
00000024
00000001
00000003
00000016
00000030
FFFFFFE9
00000014
FFFFFFE8
00000032
0000002C
FFFFFFFD
FFFFFFD1
00000007
FFFFFFF2
00000006
FFFFFFCE
FFFFFFD5
00000000
00000004
0000000B
00000013
00000021
FFFFFFDD
FFFFFFE2
FFFFFFEA
00000018
FFFFFFD8
FFFFFFE2
FFFFFFEC
00000033
FFFFFFEE
FFFFFFFB
00000017
FFFFFFE5
00000031
FFFFFFD6
FFFFFFFB
FFFFFFDC
00000024
FFFFFFF8
00000035
FFFFFFF3
0000000C
00000013
00000003
FFFFFFC7
FFFFFFF2
0000001F
FFFFFFEA
00000007
0000003E
FFFFFFE0
FFFFFFDF
FFFFFFF8
FFFFFFE0
00000034
FFFFFFFC
FFFFFFF1
FFFFFFC6
00000017
00000007
FFFFFFFC
0000000C
FFFFFFFF
FFFFFFE5
00000001
FFFFFFD3
FFFFFFEA
00000020
0000000A
FFFFFFF3
FFFFFFF4
FFFFFFF3
FFFFFFE1
00000027
0000002F
0000001F
FFFFFFE1
FFFFFFF3
FFFFFFEC
00000016
00000005
FFFFFFFE
0000003D
FFFFFFE2
FFFFFFF2
0000000B
FFFFFFCD
FFFFFFFB
00000014
FFFFFFF0
FFFFFFE1
FFFFFFC2
00000022
FFFFFFFB
00000000
0000002B
0000000F
FFFFFFDC
0000001E
0000001C
0000000F
00000028
0000004D
FFFFFFD6
00000004
FFFFFFBA
FFFFFFDD
00000010
0000001E
00000016
0000002C
FFFFFFEA
00000034
0000000A
FFFFFFCA
FFFFFFDB
FFFFFFF9
0000001D
FFFFFFBA
00000009
0000004A
0000000E
00000013
FFFFFFE9
00000037
00000006
00000001
FFFFFFD7
00000037
00000024
0000001E
0000000D
FFFFFFEE
00000025
00000047
FFFFFFEB
0000001E
FFFFFFFC
00000018
0000004A
FFFFFFFA
0000000F
FFFFFFDC
00000011
FFFFFFC6
FFFFFFEF
FFFFFFF5
0000000D
FFFFFFF6
FFFFFFF2
00000037
0000000C
00000002
00000005
FFFFFFEA
00000030
FFFFFFEF
0000000F
FFFFFFDF
00000018
FFFFFFF4
FFFFFFD6
00000013
0000001F
0000000E
00000033
00000018
00000008
FFFFFFCD
00000027
FFFFFFF6
FFFFFFFE
FFFFFFFA
00000019
FFFFFFF4
0000002D
FFFFFFE9
0000001E
FFFFFFE1
00000015
FFFFFFDF
00000008
FFFFFFE1
00000025
00000029
00000044
0000000F
FFFFFFFD
00000033
FFFFFFE0
00000015
0000000B
FFFFFFCE
00000000
FFFFFFE7
00000020
FFFFFFF3
FFFFFFF3
00000012
FFFFFFD1
FFFFFFF1
FFFFFFC8
FFFFFFF8
FFFFFFE9
00000033
00000024
FFFFFFF6
00000036
FFFFFFC0
FFFFFFD8
FFFFFFFD
FFFFFFF0
FFFFFFED
FFFFFFCA
FFFFFFD2
FFFFFFF9
00000012
FFFFFFED
0000002D
0000002D
00000016
FFFFFFDD
00000014
00000027
FFFFFFE2
FFFFFFB8
0000000A
FFFFFFD6
FFFFFFE1
00000038
0000002F
FFFFFFF6
FFFFFFF2
FFFFFFED
FFFFFFDB
FFFFFFE1
FFFFFFDB
0000001A
FFFFFFD1
FFFFFFCF
00000032
00000033
FFFFFFCF
0000000B
00000028
00000011
FFFFFFD2
00000030
FFFFFFD1
0000002C
FFFFFFE0
FFFFFFD2
00000033
00000016
FFFFFFEB
00000002
00000008
00000017
0000000A
FFFFFFD0
0000001F
00000020
FFFFFFF2
00000027
FFFFFFD1
00000024
FFFFFFF1
FFFFFFDE
0000001E
0000002D
00000001
0000004A
0000001F
FFFFFFD6
00000026
FFFFFFFC
00000055
0000001E
00000015
FFFFFFDD
00000039
00000010
FFFFFFF5
FFFFFFD8
FFFFFFBD
0000000C
00000025
0000000B
00000029
FFFFFFD5
00000032
0000002A
FFFFFFF2
FFFFFFF5
FFFFFFC6
FFFFFFFC
FFFFFFF5
00000005
0000001D
FFFFFFFD
00000016
0000001F
00000032
FFFFFFC8
FFFFFFEA
FFFFFFB3
00000024
00000028
0000001B
FFFFFFDF
FFFFFFF0
FFFFFFED
0000000F
FFFFFFCC
00000017
FFFFFFF5
00000021
FFFFFFFA
FFFFFFF7
0000001B
0000001D
00000034
FFFFFFFA
00000022
FFFFFFE1
00000005
00000029
FFFFFFD1
00000022
00000026
0000000E
0000000C
00000023
0000000D
0000001A
00000002
FFFFFFD9
FFFFFFE3
FFFFFFFF
00000003
FFFFFFDD
0000000D
FFFFFFDB
FFFFFFE3
00000028
00000013
00000010
00000028
FFFFFFDF
FFFFFFED
00000028
FFFFFFD7
00000004
0000001B
FFFFFFE3
FFFFFFE4
FFFFFFDB
FFFFFFFF
00000019
FFFFFFFD
00000030
FFFFFFE2
0000001D
FFFFFFE8
0000003A
00000024
00000017
00000010
FFFFFFE5
00000041
00000004
FFFFFFDE
0000001E
FFFFFFD6
FFFFFFE3
FFFFFFC6
00000013
00000026
FFFFFFD0
FFFFFFFD
00000016
00000041
00000031
00000051
00000002
00000030
FFFFFFF3
FFFFFFFF
0000000D
FFFFFFC3
00000006
FFFFFFE0
00000036
FFFFFFD8
FFFFFFDC
FFFFFFE5
FFFFFFCA
0000002F
00000022
0000000E
FFFFFFF7
00000000
00000013
FFFFFFDA
00000035
00000001
00000043
FFFFFFD4
00000016
0000000D
FFFFFFE0
FFFFFFEB
00000027
FFFFFFFF
0000000F
FFFFFFDD
FFFFFFFE
FFFFFFFD
FFFFFFDA
00000027
FFFFFFDF
FFFFFFE2
0000000E
00000027
00000021
FFFFFFEC
0000002B
0000001E
00000022
00000024
00000017
FFFFFFD8
00000051
00000018
FFFFFFD2
0000001A
FFFFFFC5
00000017
00000020
00000008
00000039
FFFFFFD9
FFFFFFF7
FFFFFFEB
FFFFFFE5
FFFFFFE3
FFFFFFF4
00000020
0000000D
0000000E
0000000F
00000001
0000002C
00000010
FFFFFFD3
0000002E
FFFFFFF9
FFFFFFEE
FFFFFFCE
0000002A
00000000
FFFFFFD0
00000027
00000000
FFFFFFE4
FFFFFFF3
0000001F
FFFFFFCE
00000008
00000030
0000000B
FFFFFFD0
0000001B
00000010
FFFFFFEC
FFFFFFF6
00000032
FFFFFFC1
FFFFFFFA
0000001D
FFFFFFE2
FFFFFFFE
00000017
FFFFFFFD
FFFFFFF5
00000020
FFFFFFE9
00000046
FFFFFFE6
0000000B
00000019
FFFFFFEC
00000029
FFFFFFF2
FFFFFFEF
00000009
FFFFFFDC
00000046
FFFFFFDA
FFFFFFE9
FFFFFFF6
FFFFFFDF
0000003B
00000018
0000000F
00000008
0000002A
FFFFFFDA
00000028
0000002D
FFFFFFFB
FFFFFFE9
FFFFFFFF
FFFFFFDE
00000033
FFFFFFF6
FFFFFFD7
FFFFFFD4
00000019
00000018
FFFFFFE8
00000007
00000007
FFFFFFE5
00000047
FFFFFFD8
FFFFFFDE
FFFFFFD5
FFFFFFFC
00000018
0000000B
FFFFFFF2
FFFFFFE5
FFFFFFBC
00000003
00000031
00000033
00000014
0000000A
00000036
0000004B
0000002C
FFFFFFD5
0000003E
FFFFFFD9
00000037
FFFFFFC5
00000023
00000018
00000024
FFFFFFF2
0000003C
00000006
00000037
FFFFFFEF
FFFFFFF7
FFFFFFE6
00000002
FFFFFFCA
FFFFFFD7
00000000
FFFFFFED
00000009
00000021
00000013
FFFFFFDA
FFFFFFF6
00000004
00000039
00000023
FFFFFFE1
0000000F
FFFFFFC6
00000027
FFFFFFEA
00000032
00000006
FFFFFFDF
FFFFFFFD
00000035
0000001E
00000024
FFFFFFF9
00000015
FFFFFFF2
FFFFFFF7
FFFFFFD7
00000005
0000001D
FFFFFFF1
00000019
FFFFFFC3
00000007
00000006
00000021
00000005
FFFFFFCE
FFFFFFF5
FFFFFFF6
00000000
00000017
FFFFFFBF
0000002A
FFFFFFE3
00000015
FFFFFFD1
00000010
00000019
00000001
FFFFFFF7
00000021
FFFFFFF1
0000002B
00000029
00000007
FFFFFFE9
00000013
0000003B
00000009
FFFFFFD2
0000001F
FFFFFFFD
FFFFFFF9
00000028
00000025
0000001A
FFFFFFF5
00000016
00000033
0000001D
FFFFFFBC
00000014
FFFFFFCF
FFFFFFFA
FFFFFFF8
FFFFFFE1
FFFFFFCD
0000001A
FFFFFFE7
FFFFFFD5
FFFFFFF9
00000012
FFFFFFF8
00000009
FFFFFFD9
FFFFFFDA
0000000B
FFFFFFF0
FFFFFFF8
00000016
00000026
00000008
0000002B
00000018
FFFFFFEB
0000002E
00000040
00000025
FFFFFFEA
00000001
00000017
FFFFFFFC
FFFFFFEA
FFFFFFEC
00000003
0000001D
00000015
FFFFFFF8
FFFFFFBD
00000040
FFFFFFDB
00000003
FFFFFFEA
00000032
0000000B
00000011
00000000
00000040
FFFFFFE8
00000021
FFFFFFF4
FFFFFFD3
FFFFFFCB
FFFFFFD4
FFFFFFD7
FFFFFFE1
FFFFFFE7
FFFFFFC1
FFFFFFF4
00000021
FFFFFFDA
FFFFFFE7
00000024
00000000
FFFFFFFE
FFFFFFF2
00000012
FFFFFFDC
FFFFFFFD
FFFFFFEE
00000019
00000015
0000002C
0000002C
FFFFFFFE
FFFFFFC6
0000002C
00000020
0000002A
FFFFFFE6
FFFFFFE9
00000007
00000019
FFFFFFFC
00000001
0000000F
FFFFFFC9
FFFFFFD2
0000000C
00000034
FFFFFFC3
0000002B
FFFFFFEB
FFFFFFEE
FFFFFFDF
00000009
00000012
FFFFFFDD
FFFFFFD9
FFFFFFE4
FFFFFFEA
00000002
00000031
00000025
FFFFFFFA
00000019
0000002F
0000002E
FFFFFFE6
0000002B
0000001A
00000012
00000002
00000003
FFFFFFBC
FFFFFFF4
0000002D
0000002F
FFFFFFDC
FFFFFFE7
00000015
FFFFFFDA
00000015
FFFFFFF3
0000001A
FFFFFFEC
FFFFFFFD
FFFFFFE9
FFFFFFE8
00000015
FFFFFFEB
00000001
0000000F
FFFFFFFA
00000022
00000021
FFFFFFDB
FFFFFFDF
FFFFFFEB
00000015
0000000A
0000002E
00000003
00000020
00000018
FFFFFFDF
FFFFFFFA
FFFFFFFB
00000003
0000003F
00000042
FFFFFFFB
00000013
0000001E
00000006
0000001B
00000011
00000035
00000019
FFFFFFD3
00000026
00000025
FFFFFFED
00000022
00000029
FFFFFFFE
00000022
0000000C
00000031
00000018
00000049
FFFFFFD0
FFFFFFF2
FFFFFFBC
00000002
FFFFFFEE
FFFFFFF2
FFFFFFD1
00000012
FFFFFFFA
0000001E
FFFFFFEF
FFFFFFEF
FFFFFFFE
FFFFFFE2
00000015
FFFFFFD2
00000002
FFFFFFC7
0000001A
00000027
FFFFFFEB
FFFFFFE5
00000020
00000031
FFFFFFCC
00000019
0000000A
00000018
00000022
FFFFFFD9
00000027
0000000A
00000024
00000013
FFFFFFDD
FFFFFFEC
00000022
FFFFFFEF
0000001D
00000018
00000013
0000000B
00000001
FFFFFFF1
00000010
00000035
00000046
00000050
FFFFFFE5
0000002F
FFFFFFFB
FFFFFFF9
FFFFFFDA
0000000E
0000003F
FFFFFFCB
FFFFFFD0
0000002F
0000002E
FFFFFFDE
0000002A
0000000B
FFFFFFFF
0000003F
0000002F
0000001C
FFFFFFDB
FFFFFFF1
00000045
FFFFFFB4
FFFFFFFA
00000022
0000001A
0000001C
00000002
00000013
00000021
00000018
00000049
FFFFFFF0
00000033
FFFFFFFC
FFFFFFEB
00000015
FFFFFFED
FFFFFFEA
00000018
FFFFFFE4
00000003
00000019
0000000A
FFFFFFF4
00000031
FFFFFFFF
FFFFFFE0
00000002
FFFFFFFD
00000032
0000000B
00000030
00000028
FFFFFFE6
00000042
FFFFFFF5
FFFFFFE7
FFFFFFFA
FFFFFFC2
00000000
FFFFFFDB
FFFFFFE7
FFFFFFEA
00000028
00000001
0000001C
00000038
FFFFFFF6
FFFFFFEE
FFFFFFEF
FFFFFFC9
FFFFFFC9
00000013
FFFFFFE9
0000001D
FFFFFFF5
0000000D
FFFFFFD4
0000003D
0000002F
00000019
FFFFFFD0
00000021
FFFFFFC5
00000007
0000000C
FFFFFFEB
FFFFFFDC
00000004
FFFFFFC9
00000016
FFFFFFE8
FFFFFFDB
FFFFFFE1
00000011
00000019
FFFFFFFE
FFFFFFD1
00000027
0000001C
FFFFFFEF
FFFFFFC1
FFFFFFED
0000000C
00000021
FFFFFFFD
00000012
0000001F
00000027
FFFFFFD1
00000027
FFFFFFE4
0000002D
FFFFFFFB
FFFFFFD8
FFFFFFE6
FFFFFFFA
FFFFFFFA
FFFFFFF2
FFFFFFF4
00000005
00000000
FFFFFFF4
FFFFFFF5
00000031
00000014
FFFFFFF2
0000004E
FFFFFFF2
FFFFFFE3
FFFFFFD8
FFFFFFCC
FFFFFFB6
FFFFFFE6
FFFFFFB3
FFFFFFF6
00000041
00000017
FFFFFFC9
0000003B
0000000F
FFFFFFC5
FFFFFFFB
00000001
FFFFFFC6
0000003A
0000000A
FFFFFFD6
FFFFFFDA
0000002A
FFFFFFD3
00000008
FFFFFFE4
FFFFFFD6
FFFFFFC1
00000012
0000002C
0000000A
0000001A
FFFFFFFD
00000047
0000000A
FFFFFFCF
0000002D
FFFFFFFD
0000003C
00000006
00000005
FFFFFFDA
FFFFFFE2
00000002
FFFFFFF5
00000022
FFFFFFFB
00000017
0000000C
FFFFFFBA
00000028
00000003
FFFFFFE9
00000002
FFFFFFD5
FFFFFFC5
0000003D
FFFFFFC0
00000046
FFFFFFD5
00000029
00000018
FFFFFFE8
00000032
00000028
0000001F
FFFFFFCE
0000000B
00000025
00000046
FFFFFFDA
FFFFFFD7
FFFFFFD5
0000002E
FFFFFFDF
FFFFFFBF
FFFFFFF2
FFFFFFF9
0000001C
FFFFFFF9
FFFFFFBC
FFFFFFF8
FFFFFFFA
00000026
0000000B
00000020
FFFFFFF5
FFFFFFF6
00000005
FFFFFFE1
00000027
0000000C
00000008
00000028
FFFFFFF1
00000034
0000001F
0000001F
00000027
FFFFFFFF
FFFFFFE2
0000000A
00000002
0000000A
00000019
00000011
0000001E
00000015
FFFFFFDB
FFFFFFFB
00000021
00000028
00000034
FFFFFFC8
0000000C
00000020
00000010
FFFFFFED
0000000E
FFFFFFD7
FFFFFFE3
00000007
FFFFFFD4
FFFFFFE4
0000003C
00000006
FFFFFFCD
FFFFFFDD
FFFFFFF4
00000020
FFFFFFD5
00000008
00000026
0000000F
0000001A
00000028
00000014
00000033
00000040
00000018
FFFFFFDA
00000020
0000000A
00000001
FFFFFFFF
FFFFFFF5
FFFFFFE5
00000031
FFFFFFE1
00000009
0000000E
00000009
00000011
FFFFFFFD
0000002C
0000000C
FFFFFFE4
00000028
00000011
FFFFFFC9
FFFFFFFF
00000018
FFFFFFDD
FFFFFFE4
FFFFFFFE
0000000F
0000000D
0000002F
00000025
00000017
0000000A
FFFFFFD3
0000001D
FFFFFFDF
FFFFFFF6
FFFFFFF5
00000006
FFFFFFBB
0000003E
FFFFFFFA
FFFFFFD8
FFFFFFF7
FFFFFFE7
00000038
0000003C
FFFFFFE9
FFFFFFCE
00000001
FFFFFFE1
0000001D
FFFFFFFA
00000023
00000012
FFFFFFF3
FFFFFFE4
0000005C
FFFFFFDA
FFFFFFE3
FFFFFFF7
00000020
FFFFFFD0
00000002
0000002C
FFFFFFEB
00000042
0000003D
FFFFFFF5
0000002B
00000000
0000002E
FFFFFFFF
0000000D
FFFFFFD6
FFFFFFE0
00000008
FFFFFFE6
00000004
00000015
00000015
FFFFFFE6
00000025
00000049
00000005
FFFFFFDB
FFFFFFF0
00000040
00000023
FFFFFFF4
FFFFFFE6
00000018
00000041
0000000B
FFFFFFE4
0000002D
00000008
FFFFFFEA
00000015
00000020
00000003
FFFFFFF4
FFFFFFF4
00000018
FFFFFFC8
00000028
FFFFFFF3
FFFFFFF0
FFFFFFFC
00000034
00000022
FFFFFFCB
FFFFFFF3
FFFFFFF2
FFFFFFCB
00000021
FFFFFFD2
00000010
00000023
0000000A
FFFFFFFB
FFFFFFD5
00000034
00000004
FFFFFFFE
00000010
FFFFFFE4
0000003B
FFFFFFFB
FFFFFFF3
FFFFFFE7
FFFFFFDD
FFFFFFF9
FFFFFFF5
FFFFFFFD
FFFFFFDB
00000004
00000014
FFFFFFE7
00000043
0000001E
00000028
FFFFFFF4
00000032
0000000A
00000026
FFFFFFD1
FFFFFFEB
FFFFFFE6
00000001
FFFFFFF1
0000000E
FFFFFFDE
00000001
FFFFFFCD
FFFFFFCD
00000030
00000017
FFFFFFE8
FFFFFFC0
00000027
FFFFFFFB
FFFFFFEE
00000020
FFFFFFEC
00000017
00000031
0000002A
FFFFFFD7
00000017
00000033
0000004B
FFFFFFDB
00000009
00000027
0000001B
FFFFFFF7
00000043
FFFFFFFC
00000010
00000028
FFFFFFDE
0000004C
00000040
00000012
FFFFFFE2
FFFFFFE8
0000001C
0000000E
FFFFFFE9
00000005
00000015
00000030
0000001C
FFFFFFE1
FFFFFFEE
00000027
00000034
FFFFFFF7
FFFFFFEE
00000020
00000049
FFFFFFD5
FFFFFFE9
00000029
FFFFFFB6
00000004
0000000D
FFFFFFFC
FFFFFFB7
00000002
00000026
0000000F
00000015
FFFFFFCA
00000034
FFFFFFF3
00000032
00000028
FFFFFFF2
00000046
0000000B
00000041
00000040
00000052
FFFFFFF2
00000043
FFFFFFF0
FFFFFFD3
0000002E
0000000F
0000001F
0000001D
FFFFFFEC
0000001F
00000026
FFFFFFD4
FFFFFFD1
FFFFFFFE
FFFFFFD3
0000001F
FFFFFFD7
00000013
00000014
FFFFFFF6
FFFFFFFA
0000004F
00000000
FFFFFFE0
FFFFFFD0
FFFFFFCC
FFFFFFF9
FFFFFFB6
FFFFFFEF
00000004
0000002A
FFFFFFF9
FFFFFFD9
00000015
0000002C
00000034
FFFFFFFB
00000003
00000059
FFFFFFDC
00000013
00000019
00000021
FFFFFFD0
FFFFFFE4
00000007
FFFFFFEF
00000031
00000048
00000015
00000006
FFFFFFD3
FFFFFFF3
0000001A
0000002F
0000000B
00000014
00000015
00000018
FFFFFFDE
FFFFFFE6
00000003
0000001A
00000016
00000026
00000012
00000032
00000013
FFFFFFDE
FFFFFFE3
FFFFFFD5
FFFFFFFE
0000003B
FFFFFFED
0000001B
0000001E
FFFFFFF2
0000002D
FFFFFFFA
00000007
FFFFFFF1
FFFFFFF1
00000026
FFFFFFF8
FFFFFFEA
0000001C
0000000A
FFFFFFEC
FFFFFFCF
FFFFFFE2
FFFFFFF9
00000005
FFFFFFE9
FFFFFFE4
FFFFFFD5
FFFFFFF5
00000018
0000002A
00000008
FFFFFFEA
0000002C
0000002B
00000008
FFFFFFDF
FFFFFFDE
FFFFFFEE
FFFFFFF5
0000001C
FFFFFFDA
FFFFFFF9
FFFFFFCC
00000001
FFFFFFE0
FFFFFFE9
FFFFFFDA
FFFFFFBF
FFFFFFF2
FFFFFFE5
FFFFFFE5
FFFFFFB5
FFFFFFF8
0000001B
0000001F
FFFFFFD4
FFFFFFFD
FFFFFFF9
FFFFFFF7
FFFFFFEB
00000000
FFFFFFF6
FFFFFFE2
0000000C
0000000C
FFFFFFF3
FFFFFFDD
00000044
FFFFFFED
00000004
FFFFFFF6
FFFFFFC6
FFFFFFE4
00000019
00000003
FFFFFFEA
FFFFFFCE
FFFFFFE4
00000014
00000015
FFFFFFDB
FFFFFFCC
00000020
FFFFFFDE
00000007
FFFFFFC9
00000000
FFFFFFF9
0000000A
FFFFFFFA
FFFFFFE5
00000034
00000008
FFFFFFE5
FFFFFFE0
0000004A
00000008
FFFFFFDF
0000001B
00000038
00000031
FFFFFFFB
00000005
FFFFFFF6
00000024
00000009
0000001B
FFFFFFDD
00000007
FFFFFFFA
FFFFFFE6
FFFFFFFB
FFFFFFE9
0000001E
00000002
0000000B
0000000F
FFFFFFF2
00000014
00000015
FFFFFFC7
FFFFFFD2
00000035
00000004
00000029
00000000
00000037
0000001D
FFFFFFFA
FFFFFFD5
00000040
FFFFFFE4
0000000F
00000008
0000000B
00000016
FFFFFFF8
0000002A
FFFFFFDB
0000000F
00000030
FFFFFFF2
FFFFFFE3
00000013
00000026
00000008
00000002
0000000B
FFFFFFC9
00000004
FFFFFFF5
0000001E
00000020
00000007
0000000E
FFFFFFD7
FFFFFFD3
FFFFFFD6
00000003
FFFFFFC1
0000001F
0000002F
0000000C
FFFFFFFD
00000018
00000015
FFFFFFFF
FFFFFFF7
FFFFFFED
00000001
FFFFFFD9
FFFFFFE7
FFFFFFC8
0000002B
FFFFFFD1
FFFFFFEC
00000027
00000007
00000025
FFFFFFCD
00000023
FFFFFFF2
0000002B
FFFFFFB8
0000003A
FFFFFFBF
00000003
0000002F
0000001E
FFFFFFC8
00000016
00000005
0000003D
00000012
0000000E
00000005
00000010
00000015
0000001F
FFFFFFCC
00000015
0000000A
0000000C
FFFFFFD1
0000000B
00000019
0000003E
FFFFFFDB
0000004B
00000000
FFFFFFEB
FFFFFFE2
00000029
00000003
00000013
00000014
0000002D
FFFFFFDB
00000021
00000029
FFFFFFFA
00000023
FFFFFFD0
00000014
FFFFFFEF
FFFFFFEA
0000004D
00000024
FFFFFFD8
FFFFFFD8
FFFFFFF9
00000015
FFFFFFB7
0000000E
0000000D
0000000F
0000000D
FFFFFFC7
00000007
00000009
FFFFFFD9
00000015
00000067
0000002F
0000001D
FFFFFFEC
FFFFFFE0
FFFFFFE9
FFFFFFE5
00000033
FFFFFFDB
FFFFFFE0
0000001C
FFFFFFFE
00000042
00000011
FFFFFFF9
FFFFFFEE
FFFFFFEA
FFFFFFC9
FFFFFFEC
FFFFFFFA
00000002
FFFFFFFD
00000018
00000010
0000000B
FFFFFFEB
FFFFFFE6
00000013
FFFFFFF7
FFFFFFF9
FFFFFFD1
00000012
0000000D
FFFFFFEA
00000042
FFFFFFCE
00000018
00000012
FFFFFFDD
FFFFFFEF
0000002B
FFFFFFEB
FFFFFFD8
FFFFFFF0
FFFFFFDD
FFFFFFF7
FFFFFFEF
00000006
FFFFFFEC
FFFFFFF2
0000002F
00000024
00000002
00000008
0000002C
FFFFFFF3
00000008
FFFFFFF6
FFFFFFF7
FFFFFFE4
00000028
00000031
00000007
0000003B
0000000F
00000004
FFFFFFF2
FFFFFFED
0000002B
00000024
FFFFFFFC
00000050
FFFFFFDC
00000014
00000012
FFFFFFF4
FFFFFFF9
FFFFFFF7
FFFFFFD7
00000026
0000001A
FFFFFFE6
FFFFFFFD
FFFFFFC6
FFFFFFD3
00000022
FFFFFFE4
00000019
FFFFFFC8
0000000D
00000019
00000025
FFFFFFF9
00000001
FFFFFFFE
FFFFFFD9
00000015
00000017
FFFFFFF7
FFFFFFFD
FFFFFFDA
FFFFFFF8
FFFFFFE2
FFFFFFFD
0000002B
00000006
00000025
0000002B
FFFFFFE3
00000008
FFFFFFF5
FFFFFFEB
FFFFFFE8
FFFFFFF2
00000015
FFFFFFDC
FFFFFFD3
FFFFFFEE
00000022
FFFFFFEC
0000002C
00000037
00000022
FFFFFFE8
0000001D
00000011
FFFFFFF0
00000030
00000012
0000003E
FFFFFFD1
FFFFFFF1
FFFFFFFF
00000020
00000033
00000024
FFFFFFF5
0000000C
FFFFFFCB
00000039
FFFFFFE0
FFFFFFE9
00000028
00000031
FFFFFFF5
00000013
00000013
00000023
0000000C
FFFFFFEC
FFFFFFDF
0000002D
FFFFFFC7
FFFFFFE6
0000002D
FFFFFFDC
FFFFFFF8
FFFFFFF0
FFFFFFA6
00000017
0000002B
0000002D
FFFFFFC3
00000010
0000000B
FFFFFFF5
FFFFFFE1
FFFFFFBE
FFFFFFF9
FFFFFFD4
FFFFFFF7
00000038
0000002B
00000006
0000002C
00000043
FFFFFFD4
00000042
00000039
00000023
FFFFFFD5
0000002D
00000025
FFFFFFF7
FFFFFFFC
FFFFFFD1
FFFFFFEA
FFFFFFD7
00000018
FFFFFFCB
00000015
00000017
00000007
FFFFFFDA
00000026
00000018
00000019
0000001F
00000010
0000002D
0000002D
0000002D
FFFFFFD7
00000005
FFFFFFC7
FFFFFFE4
00000021
FFFFFFF4
00000002
FFFFFFE1
00000020
FFFFFFF3
00000016
00000002
FFFFFFE6
00000015
00000032
FFFFFFE2
FFFFFFDC
00000018
FFFFFFC9
FFFFFFC8
FFFFFFFE
00000016
FFFFFFF5
0000002B
00000022
00000003
00000016
00000038
FFFFFFF4
00000004
00000009
00000011
FFFFFFD0
00000009
FFFFFFF2
FFFFFFDC
FFFFFFC4
00000019
FFFFFFC5
FFFFFFFE
0000001F
FFFFFFFF
0000000B
FFFFFFF6
00000049
FFFFFFDB
00000030
FFFFFFF1
0000003E
0000000C
0000002E
00000024
00000026
FFFFFFDF
FFFFFFD6
FFFFFFF5
00000014
FFFFFFD1
0000003C
0000000B
FFFFFFE4
00000022
00000031
0000003B
00000009
00000035
00000051
00000019
FFFFFFED
0000001B
FFFFFFE1
FFFFFFC5
FFFFFFC6
0000000D
FFFFFFF7
00000032
00000043
0000000C
FFFFFFBD
0000000A
00000028
FFFFFFE1
FFFFFFF1
FFFFFFC6
00000000
FFFFFFD5
00000002
0000002A
00000053
FFFFFFDD
00000025
00000011
FFFFFFDE
00000006
FFFFFFF1
00000011
00000046
FFFFFFE0
FFFFFFF2
FFFFFFE1
FFFFFFDA
00000041
0000004E
0000002B
00000002
FFFFFFDA
FFFFFFDF
FFFFFFD1
00000000
FFFFFFF9
FFFFFFCA
FFFFFFBD
FFFFFFFA
00000024
FFFFFFE7
00000030
FFFFFFE0
FFFFFFCB
00000032
00000005
00000001
00000006
0000000A
FFFFFFE6
00000008
FFFFFFF1
FFFFFFF8
00000010
FFFFFFEC
00000024
FFFFFFD2
00000037
FFFFFFE0
FFFFFFCF
FFFFFFBD
FFFFFFBD
00000035
00000007
FFFFFFE5
0000003C
0000001E
FFFFFFE6
00000018
FFFFFFEF
FFFFFFCE
00000024
00000000
00000026
0000000A
0000004B
0000002D
00000040
0000000F
0000001A
00000035
00000013
00000008
FFFFFFE1
FFFFFFF1
00000023
0000000C
FFFFFFFC
FFFFFFF0
0000001F
00000016
FFFFFFEE
0000000F
0000001F
FFFFFFDF
00000020
00000045
00000024
FFFFFFE0
FFFFFFF3
FFFFFFE6
FFFFFFF3
FFFFFFA8
FFFFFFF8
FFFFFFF3
FFFFFFFD
00000007
FFFFFFF9
FFFFFFEA
00000027
00000014
00000014
00000028
FFFFFFE3
0000001D
00000016
FFFFFFDC
FFFFFFCE
FFFFFFC5
FFFFFFE5
00000001
00000014
FFFFFFE2
00000017
00000014
FFFFFFE7
0000002A
FFFFFFE1
00000043
FFFFFFF8
0000000B
FFFFFFFD
0000003E
FFFFFFC9
FFFFFFD9
FFFFFFF3
FFFFFFD6
00000008
FFFFFFE5
00000004
00000015
00000032
FFFFFFFE
0000001C
FFFFFFDD
0000004D
00000024
0000002C
FFFFFFD2
0000000B
0000002B
FFFFFFEA
FFFFFFC9
00000015
FFFFFFFA
FFFFFFCF
0000001C
00000037
00000001
00000026
FFFFFFCD
00000018
FFFFFFD2
FFFFFFF8
0000000D
0000003B
00000019
00000016
0000000F
00000003
0000001B
0000001E
00000001
FFFFFFFD
0000001E
00000003
FFFFFFDF
00000049
FFFFFFFC
0000000D
FFFFFFF7
FFFFFFF0
00000008
FFFFFFFE
00000000
00000021
00000029
0000001C
00000002
FFFFFFF5
FFFFFFF7
FFFFFFED
00000022
00000039
00000012
FFFFFFEE
FFFFFFE1
0000001B
FFFFFFFF
FFFFFFFA
FFFFFFB8
FFFFFFDC
0000002E
FFFFFFE1
FFFFFFE3
00000029
FFFFFFDA
0000000A
FFFFFFE6
FFFFFFF3
FFFFFFD5
FFFFFFB9
FFFFFFF6
FFFFFFE2
FFFFFFE5
FFFFFFDB
FFFFFFDF
0000000C
FFFFFFD2
FFFFFFE6
FFFFFFDC
FFFFFFE1
FFFFFFF5
FFFFFFD1
0000000A
FFFFFFE6
00000013
FFFFFFE1
FFFFFFDD
FFFFFFE4
0000000A
FFFFFFEE
FFFFFFE7
FFFFFFE8
00000012
FFFFFFE9
00000021
FFFFFFF8
FFFFFFE9
FFFFFFDB
00000009
FFFFFFEF
FFFFFFDF
0000002B
FFFFFFE2
00000025
FFFFFFE9
0000002A
FFFFFFCA
00000031
FFFFFFD4
FFFFFFD9
FFFFFFBA
0000002F
FFFFFFC4
FFFFFFF3
00000051
0000002C
FFFFFFF8
FFFFFFE9
0000001A
FFFFFFE9
FFFFFFD8
00000016
0000002E
0000002B
00000022
0000000A
0000000D
00000028
0000000D
00000019
FFFFFFF1
FFFFFFDD
0000001E
FFFFFFDB
0000002B
00000025
0000001B
FFFFFFE3
FFFFFFD8
0000000F
00000009
0000002A
00000025
FFFFFFDB
0000001B
FFFFFFEC
00000024
0000002A
FFFFFFE7
FFFFFFE2
00000020
00000033
00000035
0000002D
FFFFFFEB
FFFFFFEC
FFFFFFEA
00000020
FFFFFFEC
00000036
0000002B
FFFFFFCB
FFFFFFCD
FFFFFFCE
00000017
0000000D
FFFFFFE4
0000000B
0000002F
00000027
0000000A
0000002E
FFFFFFCE
FFFFFFEA
FFFFFFDC
FFFFFFE1
FFFFFFF5
00000000
00000018
FFFFFFC7
FFFFFFE6
FFFFFFE2
0000002D
00000012
FFFFFFE7
00000068
FFFFFFF9
00000003
00000011
00000006
0000003B
00000010
00000046
00000022
FFFFFFFC
FFFFFFE3
00000006
00000030
00000036
FFFFFFFD
00000016
00000032
FFFFFFCF
FFFFFFE8
0000002F
0000002A
00000005
00000011
FFFFFFF2
00000033
FFFFFFE1
0000000D
FFFFFFCF
0000001C
0000000E
FFFFFFF5
0000000E
FFFFFFDB
FFFFFFE4
FFFFFFF0
FFFFFFFB
0000002E
0000001E
FFFFFFFD
FFFFFFDA
FFFFFFD6
00000022
FFFFFFCB
FFFFFFFF
00000021
00000039
FFFFFFFD
FFFFFFFC
0000000B
00000012
00000033
FFFFFFFC
00000019
00000015
FFFFFFCE
0000002E
FFFFFFFF
0000000D
FFFFFFFE
FFFFFFFC
00000019
FFFFFFF5
FFFFFFFB
FFFFFFFD
FFFFFFD8
00000013
0000002F
00000032
FFFFFFEA
00000008
0000000E
00000008
FFFFFFDB
00000004
FFFFFFC6
FFFFFFDD
FFFFFFFE
00000013
00000014
00000007
0000003D
00000006
00000021
00000034
FFFFFFB7
FFFFFFEF
FFFFFFFA
0000003A
00000035
FFFFFFD9
FFFFFFD9
FFFFFFFB
00000008
0000000C
00000036
FFFFFFF1
00000003
0000000A
00000014
FFFFFFF1
00000002
00000035
FFFFFFCF
FFFFFFFA
00000027
00000022
00000011
FFFFFFEB
FFFFFFBD
FFFFFFDC
FFFFFFC3
FFFFFFF3
00000006
FFFFFFF5
00000004
FFFFFFD9
FFFFFFD8
FFFFFFD0
FFFFFFF7
FFFFFFF6
FFFFFFFC
FFFFFFE5
00000023
00000009
FFFFFFF4
FFFFFFE7
0000000B
FFFFFFD8
FFFFFFF2
FFFFFFE7
00000005
00000028
FFFFFFF5
00000026
FFFFFFCA
FFFFFFF0
FFFFFFFA
FFFFFFBB
FFFFFFF3
00000019
0000002F
0000003A
00000005
00000001
FFFFFFE3
00000022
FFFFFFCF
00000031
00000009
0000001C
FFFFFFEA
00000005
FFFFFFF8
0000001A
FFFFFFE9
00000027
FFFFFFEE
00000049
FFFFFFE0
FFFFFFFE
00000002
FFFFFFBE
00000023
FFFFFFE5
00000033
0000004C
0000000E
FFFFFFFC
FFFFFFD0
00000007
00000020
FFFFFFF5
FFFFFFE0
00000023
FFFFFFC1
FFFFFFDF
00000005
0000001D
FFFFFFFB
FFFFFFC6
00000007
00000030
FFFFFFE5
00000009
00000006
FFFFFFE9
FFFFFFE5
0000000C
FFFFFFF4
FFFFFFF8
FFFFFFEC
FFFFFFA3
00000006
00000015
FFFFFFF6
00000018
00000003
FFFFFFF3
0000002E
FFFFFFCA
FFFFFFEE
0000002B
FFFFFFD4
FFFFFFD3
0000001E
0000001C
00000012
0000000A
FFFFFFFA
FFFFFFDF
00000013
FFFFFFD8
FFFFFFF5
00000011
00000031
00000003
FFFFFFCD
FFFFFFFE
FFFFFFFB
00000010
FFFFFFF0
FFFFFFDE
0000000F
0000002D
00000043
FFFFFFF4
FFFFFFF4
FFFFFFE5
0000002B
00000002
FFFFFFDA
00000010
FFFFFFFC
00000032
0000004A
00000010
0000001E
FFFFFFF9
00000005
FFFFFFE0
0000000D
00000019
FFFFFFC1
FFFFFFCD
00000029
00000020
FFFFFFDD
0000000C
FFFFFFF1
FFFFFFF0
00000019
00000001
FFFFFFED
0000000B
FFFFFFDB
00000004
FFFFFFE2
FFFFFFF2
0000001E
FFFFFFE3
FFFFFFDF
FFFFFFD6
00000000
FFFFFFEC
0000000A
0000002E
0000002B
FFFFFFF5
00000014
FFFFFFD2
0000001D
0000000C
FFFFFFEB
0000000B
FFFFFFD6
0000003B
FFFFFFDE
00000018
0000001E
FFFFFFD5
0000001A
0000001E
0000001B
0000002F
00000010
00000009
FFFFFFF7
FFFFFFB9
FFFFFFEB
FFFFFFD1
FFFFFFFF
0000000E
FFFFFFDE
FFFFFFF2
00000023
FFFFFFE5
FFFFFFE8
FFFFFFE0
FFFFFFDF
FFFFFFFA
0000002C
00000018
00000028
FFFFFFF7
0000001F
00000018
0000001D
0000000B
0000001B
00000039
00000013
0000002C
0000002A
FFFFFFED
FFFFFFDA
FFFFFFF6
FFFFFFF2
0000000F
0000003A
FFFFFFFF
00000012
FFFFFFD5
00000014
FFFFFFFE
FFFFFFF9
FFFFFFE8
FFFFFFE6
FFFFFFE9
FFFFFFE3
FFFFFFEC
0000001B
0000001B
0000000F
0000002D
00000002
00000014
FFFFFFEF
00000025
00000014
00000018
FFFFFFFD
00000016
0000001C
00000041
FFFFFFDB
00000030
0000001B
00000014
FFFFFFEE
FFFFFFF3
FFFFFFE5
00000004
FFFFFFE7
FFFFFFD5
FFFFFFFC
00000033
00000017
FFFFFFBF
00000030
FFFFFFE2
FFFFFFD2
00000014
FFFFFFF4
00000023
FFFFFFF2
FFFFFFD8
FFFFFFCB
FFFFFFFF
00000005
FFFFFFE0
00000035
00000028
0000000C
00000020
00000020
00000006
00000029
00000000
0000002B
FFFFFFC6
0000001F
FFFFFFE6
FFFFFFF6
FFFFFFF9
0000000A
00000002
FFFFFFE6
FFFFFFE9
00000014
FFFFFFF8
FFFFFFC9
FFFFFFFC
0000003B
00000032
FFFFFFB3
0000000B
FFFFFFF8
FFFFFFED
FFFFFFF7
FFFFFFE5
FFFFFFF1
00000006
FFFFFFF4
0000000C
FFFFFFEC
FFFFFFD9
0000001B
0000000E
00000008
00000004
FFFFFFD8
0000003A
FFFFFFD4
00000022
00000022
00000019
FFFFFFE5
0000000D
FFFFFFF3
FFFFFFE9
00000022
00000018
00000005
FFFFFFF5
00000017
00000015
FFFFFFF0
00000003
00000019
00000004
FFFFFFE8
0000002F
0000000F
0000002B
00000037
FFFFFFCD
00000008
FFFFFFC6
FFFFFFE6
FFFFFFD9
00000024
FFFFFFC4
FFFFFFEC
0000002B
FFFFFFCD
0000000D
FFFFFFDC
00000000
FFFFFFE4
00000000
00000003
0000003A
FFFFFFF2
FFFFFFEC
0000002C
FFFFFFE0
FFFFFFDA
00000019
0000001A
FFFFFFC9
FFFFFFD9
00000029
FFFFFFEA
FFFFFFF1
00000012
FFFFFFF9
00000001
FFFFFFEA
00000001
0000001C
00000014
FFFFFFD1
00000005
00000017
FFFFFFE6
FFFFFFDB
FFFFFFD0
00000046
00000001
FFFFFFEE
FFFFFFF2
00000031
FFFFFFD8
FFFFFFC2
00000000
FFFFFFC7
FFFFFFF2
00000014
FFFFFFEB
FFFFFFDD
00000019
00000009
FFFFFFE9
FFFFFFE5
FFFFFFD2
0000002A
FFFFFFE7
FFFFFFDA
FFFFFFF1
FFFFFFED
00000006
0000002B
FFFFFFF8
00000013
FFFFFFED
0000001D
FFFFFFCF
00000028
FFFFFFF5
0000001B
FFFFFFFA
0000002E
FFFFFFF9
FFFFFFCD
FFFFFFE2
FFFFFFE8
00000013
00000004
00000031
0000000B
FFFFFFED
FFFFFFE4
FFFFFFE1
FFFFFF9F
0000000A
FFFFFFE4
0000002C
FFFFFFCF
FFFFFFF6
FFFFFFED
FFFFFFDE
FFFFFFE2
FFFFFFE7
00000034
00000009
00000005
00000021
FFFFFFDD
00000006
00000016
FFFFFFFB
FFFFFFF3
FFFFFFF6
FFFFFFED
00000036
FFFFFFD4
00000049
0000002B
00000027
00000013
FFFFFFE6
FFFFFFEB
FFFFFFE2
00000005
0000001C
00000035
00000015
FFFFFFE4
FFFFFFE3
00000036
0000003E
FFFFFFDD
0000001C
00000005
0000002F
00000023
FFFFFFE8
FFFFFFF7
FFFFFFE0
FFFFFFDC
00000019
00000047
0000001E
0000002C
FFFFFFFE
0000002F
0000000E
00000028
FFFFFFD5
FFFFFFEF
00000010
FFFFFFEB
00000009
FFFFFFCD
00000026
00000043
0000001E
FFFFFFCF
FFFFFFD7
00000034
FFFFFFED
FFFFFFF4
0000002F
FFFFFFE1
FFFFFFD0
FFFFFFFE
0000001C
FFFFFFF6
FFFFFFD5
0000002D
FFFFFFE3
00000018
00000003
FFFFFFF2
00000029
FFFFFFFD
00000029
FFFFFFFE
FFFFFFDB
00000042
0000002E
0000001C
0000003F
0000000C
00000040
00000006
00000028
0000001E
FFFFFFFD
FFFFFFEB
00000008
00000031
FFFFFFEA
FFFFFFDA
0000000F
FFFFFFEC
0000000C
00000027
00000027
0000002C
0000001F
FFFFFFDF
FFFFFFCF
00000006
00000011
FFFFFFF6
FFFFFFFE
0000000C
00000054
0000001D
0000001A
00000004
00000017
FFFFFFF8
FFFFFFE1
00000026
00000014
FFFFFFE3
FFFFFFB8
00000004
00000034
00000025
00000044
0000000E
0000000D
FFFFFFE4
FFFFFFC9
FFFFFFFE
FFFFFFEF
00000052
00000023
00000009
FFFFFFF3
0000001E
00000012
0000002B
FFFFFFC7
FFFFFFCB
00000013
00000010
FFFFFFDA
0000000E
FFFFFFD6
FFFFFFEB
FFFFFFF6
FFFFFFE9
FFFFFFF5
FFFFFFEC
0000000B
00000005
00000014
FFFFFFFB
FFFFFFC7
FFFFFFF6
FFFFFFDB
00000001
FFFFFFD3
00000028
00000016
FFFFFFF8
00000017
FFFFFFF4
FFFFFFF3
0000001B
0000001A
00000023
00000008
0000002A
00000007
00000029
FFFFFFF4
00000025
00000014
FFFFFFFF
0000002E
FFFFFFFE
00000015
00000008
FFFFFFF9
00000011
0000001E
FFFFFFFA
0000001D
FFFFFFFD
FFFFFFDC
FFFFFFD1
00000015
FFFFFFD6
0000002B
FFFFFFED
FFFFFFE7
FFFFFFE0
FFFFFFD9
00000010
FFFFFFF5
00000016
FFFFFFD8
FFFFFFC7
FFFFFFD7
0000000D
00000000
0000001F
FFFFFFE4
FFFFFFFF
0000003E
00000037
FFFFFFDD
FFFFFFF2
FFFFFFEA
FFFFFFDB
00000034
00000015
00000014
00000000
FFFFFFF5
FFFFFFF5
0000000E
00000030
FFFFFFD3
00000019
00000055
FFFFFFC1
FFFFFFF7
0000000E
FFFFFFDC
FFFFFFE6
FFFFFFC1
0000000A
0000002F
FFFFFFFA
00000029
FFFFFFDB
FFFFFFDB
FFFFFFD6
FFFFFFD1
FFFFFFFA
FFFFFFE1
0000002A
FFFFFFB1
FFFFFFED
00000009
0000003A
00000006
FFFFFFE0
FFFFFFE0
FFFFFFBC
FFFFFFF2
0000003C
FFFFFFCE
FFFFFFFE
FFFFFFE5
FFFFFFE7
00000010
FFFFFFE9
00000029
00000019
00000040
00000007
FFFFFFEB
00000011
00000021
00000014
00000017
FFFFFFC3
FFFFFFF8
FFFFFFE0
00000014
00000043
FFFFFFED
FFFFFFD5
0000002F
0000001A
0000001B
FFFFFFEE
FFFFFFFC
00000043
FFFFFFE5
FFFFFFF5
FFFFFFEA
00000018
FFFFFFDA
FFFFFFD5
00000028
0000002B
FFFFFFCA
0000000E
00000027
FFFFFFEF
FFFFFFD9
FFFFFFD8
0000000A
00000000
0000002E
FFFFFFF2
00000003
FFFFFFEA
FFFFFFDF
0000000F
0000000E
FFFFFFFB
FFFFFFE2
FFFFFFDE
FFFFFFB8
0000000F
00000023
0000003C
0000000D
00000008
00000021
00000008
FFFFFFBD
00000004
00000028
0000000B
FFFFFFD5
0000001F
00000037
FFFFFFF0
0000001A
00000007
FFFFFFE8
0000000F
00000026
FFFFFFC2
00000014
FFFFFFE5
00000017
0000001C
0000000F
00000026
00000000
FFFFFFE1
00000035
FFFFFFF0
00000000
FFFFFFD6
00000020
00000028
00000010
FFFFFFDB
FFFFFFE9
FFFFFFE9
FFFFFFC0
00000017
00000014
00000012
FFFFFFE3
00000021
FFFFFFDC
FFFFFFD4
FFFFFFF1
FFFFFFCD
FFFFFFD5
00000000
00000008
00000000
FFFFFFE0
FFFFFFDE
FFFFFFE2
FFFFFFFD
0000002B
FFFFFFCA
00000011
00000014
FFFFFFE6
00000019
0000001A
00000021
0000000C
FFFFFFEF
0000001F
00000024
00000000
0000001E
0000000F
00000020
0000000A
00000031
FFFFFFF3
0000002D
FFFFFFDA
0000000A
FFFFFFFE
FFFFFFFA
FFFFFFF7
FFFFFFE7
00000032
00000030
00000005
00000027
FFFFFFEE
0000001C
FFFFFFF1
00000052
00000020
FFFFFFE2
FFFFFFE4
0000003A
FFFFFFEE
0000003C
FFFFFFD6
00000000
FFFFFFF6
FFFFFFE6
FFFFFFF7
FFFFFFDB
FFFFFFE9
00000001
0000002C
00000018
FFFFFFFD
FFFFFFF4
FFFFFFF1
00000030
0000000A
0000001B
FFFFFFF8
0000000E
FFFFFFDB
00000011
00000011
0000001A
00000020
0000000F
FFFFFFEC
FFFFFFD4
0000000A
FFFFFFEC
0000002D
0000002C
FFFFFFD9
00000005
FFFFFFC4
00000040
00000026
00000001
FFFFFFF9
00000027
FFFFFFEB
00000025
00000025
FFFFFFC9
FFFFFFFD
FFFFFFF1
00000004
00000027
0000001A
00000018
FFFFFFEA
FFFFFFCD
00000033
00000019
0000003C
0000001C
FFFFFFFF
00000017
FFFFFFD3
00000031
00000008
FFFFFFD5
FFFFFFF8
FFFFFFE6
00000042
FFFFFFE0
00000047
0000001C
FFFFFFFF
FFFFFFF6
00000014
FFFFFFFE
FFFFFFC4
00000009
FFFFFFD1
00000037
0000002C
FFFFFFFE
FFFFFFC3
FFFFFFF8
FFFFFFFD
00000030
0000000F
0000000B
0000000C
00000032
FFFFFFE8
FFFFFFF9
00000010
FFFFFFD3
00000029
FFFFFFEA
00000022
FFFFFFBB
FFFFFFF6
0000002B
FFFFFFC6
FFFFFFF2
FFFFFFEE
00000021
0000003A
FFFFFFCF
FFFFFFD3
FFFFFFDA
FFFFFFE6
FFFFFFD8
FFFFFFF9
0000002E
0000003E
0000001D
00000015
FFFFFFED
FFFFFFEF
FFFFFFD0
FFFFFFF0
00000006
00000016
FFFFFFE6
00000000
00000023
00000026
00000032
00000026
FFFFFFF8
00000000
00000015
00000022
00000006
FFFFFFD2
FFFFFFEC
00000014
FFFFFFFD
FFFFFFF1
00000007
00000037
00000031
00000004
FFFFFFEB
0000000F
FFFFFFD5
00000039
FFFFFFFA
0000000A
00000004
FFFFFFE0
FFFFFFEF
00000012
FFFFFFE9
00000042
0000002D
00000004
FFFFFFC3
00000013
0000003E
0000000F
FFFFFFDA
FFFFFFCF
00000011
FFFFFFFD
FFFFFFF4
FFFFFFEC
0000001E
00000025
00000005
FFFFFFCF
0000001A
00000005
FFFFFFD4
0000001C
00000010
0000003B
0000000B
00000017
FFFFFFDE
FFFFFFDB
00000022
FFFFFFD7
FFFFFFE5
0000000A
FFFFFFC6
00000017
FFFFFFED
00000016
FFFFFFFE
0000002C
FFFFFFE0
FFFFFFEE
FFFFFFE0
0000000E
00000034
00000012
0000002F
00000013
00000007
FFFFFFF7
FFFFFFC0
00000026
FFFFFFFF
FFFFFFBE
FFFFFFDF
00000031
FFFFFFCD
FFFFFFDB
FFFFFFF3
00000017
FFFFFFE0
00000052
0000002D
0000001E
00000005
00000019
00000030
FFFFFFFE
00000019
0000001D
FFFFFFE1
FFFFFFFB
FFFFFFF6
FFFFFFDD
00000005
00000019
FFFFFFC9
00000002
00000004
00000006
FFFFFFFF
FFFFFFDC
00000039
FFFFFFF2
0000001C
FFFFFFE7
FFFFFFC0
00000047
00000016
FFFFFFEE
FFFFFFBC
00000009
FFFFFFFD
0000001D
00000002
FFFFFFF0
FFFFFFE2
FFFFFFDE
FFFFFFE2
00000025
FFFFFFC9
0000000E
0000002A
FFFFFFDC
FFFFFFC6
FFFFFFEA
00000028
00000021
00000032
FFFFFFA2
0000001D
FFFFFFF3
FFFFFFC0
FFFFFFF5
00000027
FFFFFFF8
FFFFFFDE
00000037
0000000A
FFFFFFFC
FFFFFFFF
FFFFFFE8
FFFFFFD0
0000001D
00000007
00000004
FFFFFFE3
FFFFFFCD
FFFFFFF9
00000001
FFFFFFEE
00000024
00000057
00000010
0000000E
FFFFFFFD
