FFFFFFF3
00000019
0000003A
FFFFFFD5
FFFFFFDB
FFFFFFF6
00000024
0000001A
FFFFFFEF
00000017
0000000B
00000006
FFFFFFFE
0000000D
00000020
00000045
0000001E
FFFFFFFD
FFFFFFF1
FFFFFFD2
FFFFFFD8
FFFFFFFE
00000031
FFFFFFF1
0000001D
FFFFFFE9
FFFFFFEB
FFFFFFF2
00000021
00000025
00000001
00000016
FFFFFFCD
FFFFFFC2
FFFFFFEF
FFFFFFE6
FFFFFFE2
00000020
FFFFFFE3
FFFFFFD1
FFFFFFFC
00000002
FFFFFFFB
FFFFFFEE
FFFFFFD9
FFFFFFD1
FFFFFFC0
FFFFFFC5
0000001E
00000004
FFFFFFCC
FFFFFFC5
0000000D
00000012
FFFFFFFB
FFFFFF8C
00000022
FFFFFFE9
FFFFFFDD
0000001A
00000031
FFFFFFFE
00000027
00000035
0000002F
FFFFFFD3
FFFFFFD0
FFFFFFD1
FFFFFFCE
FFFFFFF5
FFFFFFC4
0000001C
00000005
00000003
00000020
0000000F
FFFFFFEE
FFFFFFC8
00000009
FFFFFFE6
0000001A
00000004
FFFFFFF6
00000004
0000003D
FFFFFFFF
FFFFFFD4
0000000A
FFFFFFD7
0000001D
00000013
FFFFFFC4
FFFFFFE4
FFFFFFED
FFFFFFFA
0000001C
00000013
00000036
0000000E
00000004
FFFFFFD1
0000001B
00000020
00000029
00000037
FFFFFFE9
FFFFFFDC
FFFFFFF3
FFFFFFD7
FFFFFFD3
00000009
00000012
00000005
FFFFFFFE
FFFFFFEB
FFFFFFE4
0000001B
FFFFFFF3
0000003A
FFFFFFE6
FFFFFFE9
00000026
0000001F
FFFFFFFF
FFFFFFEA
FFFFFFEB
FFFFFFF5
FFFFFFF3
FFFFFFF3
0000000B
00000001
FFFFFFF6
0000004D
FFFFFFFD
00000008
0000000A
0000002B
00000011
FFFFFFE7
FFFFFFE3
FFFFFFEF
FFFFFFF8
FFFFFFEE
0000000A
FFFFFFE0
FFFFFFCF
00000006
FFFFFFDD
00000033
FFFFFFE3
0000003F
FFFFFFFB
FFFFFFD3
00000012
00000007
00000028
FFFFFFE2
00000007
FFFFFFE4
0000000F
00000062
00000038
FFFFFFF2
FFFFFFCE
FFFFFFCB
00000042
FFFFFFB4
00000031
00000015
FFFFFFEB
00000013
FFFFFFFE
FFFFFFD5
00000003
00000019
0000000C
0000002B
00000024
FFFFFFED
FFFFFFF1
FFFFFFFD
00000008
FFFFFFF8
FFFFFFFB
FFFFFFEE
00000011
0000000D
FFFFFFE7
FFFFFFDD
FFFFFFE3
FFFFFFEF
FFFFFFD0
0000002A
0000002B
00000001
0000001F
FFFFFFD5
FFFFFFF1
00000017
FFFFFFEB
FFFFFFCF
00000016
00000039
FFFFFFC8
FFFFFFD7
0000001C
FFFFFFEC
0000000A
0000001E
00000004
FFFFFFD6
0000003A
00000027
FFFFFFE4
FFFFFFE9
FFFFFFC5
00000004
00000028
0000002C
FFFFFFEE
0000000A
00000005
00000012
00000004
FFFFFFE4
FFFFFFFE
00000045
0000001E
FFFFFFFF
00000007
00000033
0000003E
FFFFFFE5
0000000B
FFFFFFFD
00000018
00000000
00000019
FFFFFFDC
0000000B
00000047
00000010
00000022
FFFFFFD7
0000001E
FFFFFFDE
FFFFFFC6
FFFFFFC3
0000002D
FFFFFFED
FFFFFFF4
FFFFFFF6
0000002C
FFFFFFE7
00000044
FFFFFFD5
00000011
FFFFFFF6
FFFFFFF4
00000034
FFFFFFD8
0000004B
FFFFFFCA
FFFFFFE6
00000034
FFFFFFF4
00000008
FFFFFFD3
0000001A
0000000B
FFFFFFBB
0000002B
FFFFFFD7
FFFFFFF1
FFFFFFD4
FFFFFFF5
FFFFFFD4
0000000F
FFFFFFDD
FFFFFFDE
00000040
FFFFFFE3
FFFFFFF3
0000001A
FFFFFFFA
0000004D
00000023
FFFFFFFF
FFFFFFCC
00000025
FFFFFFF6
0000000E
0000003A
00000029
FFFFFFF1
00000004
00000024
00000015
FFFFFFE1
0000002B
FFFFFFE2
0000003B
FFFFFFEE
00000024
FFFFFFFF
00000033
00000028
00000047
0000002D
FFFFFFBA
FFFFFFDC
FFFFFFEB
FFFFFFDC
FFFFFFEC
FFFFFFDB
00000011
00000011
0000000D
00000006
FFFFFFEB
00000002
00000008
0000000C
FFFFFFE0
FFFFFFF5
FFFFFFF5
FFFFFFEC
FFFFFFCD
FFFFFFED
0000001E
FFFFFFFC
FFFFFFB7
FFFFFFE8
FFFFFFE6
0000001B
00000022
0000000C
0000000C
00000019
FFFFFFE1
0000001E
00000004
0000001B
0000002B
0000002C
FFFFFFBB
FFFFFFEF
0000000C
00000008
FFFFFFE6
FFFFFFC8
00000005
FFFFFFEA
0000002E
0000001D
0000000C
00000033
FFFFFFE8
FFFFFFF6
00000010
FFFFFFDA
0000002D
00000012
0000002C
FFFFFFD4
FFFFFFED
FFFFFFD9
FFFFFFE2
FFFFFFCB
00000032
FFFFFFBD
FFFFFFCA
FFFFFFFD
00000028
FFFFFFCA
FFFFFFF7
FFFFFFF7
FFFFFFE5
0000001B
0000002E
FFFFFFB0
00000029
FFFFFFF7
00000037
00000002
00000034
0000001C
FFFFFFDB
FFFFFFF3
0000002F
FFFFFFF4
0000001B
FFFFFFF7
0000003B
0000003A
FFFFFFF8
00000008
00000025
FFFFFFF1
00000028
FFFFFFF3
00000008
FFFFFFDA
00000047
FFFFFFCC
FFFFFFD2
0000003F
FFFFFFF5
0000000A
00000024
0000000A
0000000B
00000038
FFFFFFFB
00000021
FFFFFFF4
00000033
FFFFFFFD
00000037
FFFFFFE2
00000013
FFFFFFC9
0000000B
0000000E
0000000A
00000022
00000035
FFFFFFFC
FFFFFFF0
FFFFFFCF
00000012
FFFFFFC8
0000002F
00000019
FFFFFFC1
0000000A
FFFFFFDD
00000034
00000001
00000016
FFFFFFE8
FFFFFFFC
00000005
FFFFFFC9
00000011
FFFFFFF2
FFFFFFDC
00000016
00000025
00000005
FFFFFFE5
FFFFFFF9
FFFFFFE0
0000002A
0000003E
FFFFFFC9
FFFFFFF1
FFFFFFF3
00000018
0000002C
0000001E
FFFFFFF3
00000005
00000024
FFFFFFB5
FFFFFFE9
FFFFFFF3
FFFFFFD9
FFFFFFF1
0000001A
00000005
FFFFFFDA
0000001F
0000001C
FFFFFFFD
00000032
0000000D
0000000A
FFFFFFEA
00000014
0000003E
00000009
0000000B
00000013
0000000F
FFFFFFD9
FFFFFFF9
00000000
00000004
00000000
FFFFFFEC
00000020
00000012
00000012
FFFFFFB0
00000019
00000027
FFFFFFEA
FFFFFFEA
FFFFFFD5
FFFFFFF4
FFFFFFEF
FFFFFFDB
FFFFFFFD
00000029
FFFFFFF3
00000009
00000027
FFFFFFD2
00000027
FFFFFFE8
FFFFFFFF
00000027
FFFFFFE8
FFFFFFE8
0000001C
0000004C
FFFFFFE7
00000012
0000000C
00000022
FFFFFFFA
0000000A
0000001B
FFFFFFE2
FFFFFFCC
0000002E
00000010
0000000F
00000020
0000003D
FFFFFFEA
FFFFFFE6
FFFFFFE9
00000010
00000013
00000014
FFFFFFE7
00000020
0000002F
FFFFFFF3
FFFFFFCF
00000012
00000005
00000022
FFFFFFD2
00000015
FFFFFFE2
00000033
00000028
FFFFFFF9
00000041
0000001F
00000006
FFFFFFD3
0000002B
FFFFFFF6
FFFFFFFA
00000021
FFFFFFF1
FFFFFFF8
FFFFFFFA
FFFFFFF2
FFFFFFF8
FFFFFFFA
00000038
FFFFFFCE
0000002C
00000037
FFFFFFE6
FFFFFFD4
FFFFFFD1
FFFFFFD9
00000013
0000000B
00000022
FFFFFFD4
00000001
00000003
FFFFFFD0
00000035
FFFFFFF7
FFFFFFF4
00000009
FFFFFFE3
00000015
FFFFFFE0
00000014
0000002C
FFFFFFE8
00000014
FFFFFFE1
FFFFFFCD
FFFFFFE8
00000000
00000005
FFFFFFED
FFFFFFC3
00000030
FFFFFFD3
0000000B
00000019
FFFFFFF4
FFFFFFDB
0000001F
FFFFFFA7
FFFFFFF5
0000000E
00000032
FFFFFFFD
0000002B
0000002C
0000000B
00000045
00000015
FFFFFFD0
00000015
FFFFFFC9
FFFFFFC2
FFFFFFFA
FFFFFFDF
0000000C
FFFFFFCF
FFFFFFFD
FFFFFFC6
FFFFFFEC
0000002F
FFFFFFF8
FFFFFFD9
0000002E
FFFFFFCE
FFFFFFF8
FFFFFFD6
00000022
0000002E
FFFFFFD2
00000004
FFFFFFF0
FFFFFFEB
FFFFFFFC
00000007
0000001A
FFFFFFD4
0000000F
00000018
00000031
FFFFFFF2
FFFFFFE4
FFFFFFD4
FFFFFFFA
00000003
FFFFFFF8
0000000A
FFFFFFE4
FFFFFFDF
FFFFFFF6
FFFFFFF9
FFFFFFED
0000002E
0000002E
00000027
FFFFFFC7
00000008
0000001F
0000000F
FFFFFFDE
FFFFFFF3
0000000E
00000014
00000006
FFFFFFE9
0000001E
FFFFFFE4
FFFFFFDD
00000014
00000013
FFFFFFDA
FFFFFFFA
FFFFFFCB
FFFFFFDC
FFFFFFDF
00000024
0000001E
FFFFFFDE
00000028
00000018
0000001E
0000000B
FFFFFFC1
0000001F
00000009
00000010
0000001B
0000000E
00000013
FFFFFFF3
00000017
FFFFFFF6
00000003
FFFFFFD7
00000014
00000005
FFFFFFE0
FFFFFFE7
FFFFFFE0
FFFFFFDA
0000001F
FFFFFFDD
0000001F
00000004
FFFFFFBA
FFFFFFE9
00000008
00000013
FFFFFFE7
00000001
FFFFFFD6
00000005
00000012
00000044
00000027
FFFFFFC2
FFFFFFF6
0000000C
00000019
FFFFFFFE
FFFFFFF3
0000003B
00000022
FFFFFFE4
FFFFFFE9
FFFFFFE0
FFFFFFC6
0000000E
0000000E
00000007
0000001B
00000014
FFFFFFD4
00000021
FFFFFFE1
0000001B
FFFFFFFC
00000009
FFFFFFF8
FFFFFFDA
0000000D
FFFFFFF1
0000001B
FFFFFFE9
FFFFFFEE
FFFFFFEC
00000011
00000019
FFFFFFCB
FFFFFFED
00000028
FFFFFFED
00000001
FFFFFFED
00000010
0000002D
FFFFFFF6
FFFFFFFE
00000032
FFFFFFF0
00000025
FFFFFFEF
FFFFFFFD
FFFFFFE3
00000026
FFFFFFD8
00000046
FFFFFFE4
FFFFFFD7
FFFFFFE8
0000002F
00000008
FFFFFFF7
00000015
FFFFFFFF
FFFFFFF3
00000024
00000042
00000032
FFFFFFFC
FFFFFFD5
FFFFFFD8
0000000E
FFFFFFD6
0000000F
FFFFFFD1
0000001E
FFFFFFF7
00000045
FFFFFFD4
FFFFFFCC
00000048
00000004
0000000D
0000001F
00000030
00000035
FFFFFFEC
0000002D
00000000
00000005
0000001E
FFFFFFCE
FFFFFFFD
FFFFFFCD
FFFFFFF9
00000020
FFFFFFE9
FFFFFFEA
FFFFFFCC
FFFFFFC7
FFFFFFD1
FFFFFFD4
00000007
00000042
00000014
00000023
0000001A
00000021
0000000E
FFFFFFD4
00000041
0000004D
00000033
FFFFFFE2
FFFFFFFD
FFFFFFDA
0000004A
0000001C
FFFFFFE1
0000001F
0000000C
00000020
FFFFFFE8
FFFFFFE0
00000019
0000001E
0000002C
FFFFFFC9
FFFFFFF4
00000006
00000035
FFFFFFE9
0000000B
00000023
0000002D
FFFFFFCF
0000000B
0000000E
0000003A
00000019
FFFFFFFA
00000012
00000022
FFFFFFF8
0000003F
00000020
FFFFFFFF
0000001B
00000023
FFFFFFEA
00000005
0000001C
00000005
00000030
FFFFFFFC
00000035
00000020
00000016
00000033
FFFFFFCB
FFFFFFDC
0000001E
00000001
FFFFFFD3
FFFFFFEA
FFFFFFDF
00000011
00000036
FFFFFFE1
FFFFFFD9
FFFFFFE1
FFFFFFFC
FFFFFFF6
00000031
FFFFFFDC
00000002
FFFFFFE6
0000003F
00000029
0000002A
00000001
FFFFFFC5
FFFFFFF7
FFFFFFCB
0000000C
00000006
0000001E
00000048
FFFFFFDD
FFFFFFF6
00000001
00000046
FFFFFFFF
00000009
FFFFFFD5
FFFFFFED
FFFFFFE7
00000005
0000003F
0000002B
FFFFFFFC
00000005
00000016
FFFFFFF8
00000031
00000034
00000047
FFFFFFFC
00000028
FFFFFFDB
FFFFFFCD
FFFFFFEB
0000003B
FFFFFFF9
FFFFFFDF
0000002D
00000007
0000000B
FFFFFFA2
0000001F
FFFFFFDB
FFFFFFCB
00000019
FFFFFFD5
00000048
00000039
FFFFFFFB
FFFFFFE0
0000003A
FFFFFFF5
FFFFFFEF
00000002
00000028
FFFFFFF1
FFFFFFD8
FFFFFFD5
FFFFFFDD
FFFFFFE2
00000018
00000024
0000000E
0000000F
FFFFFFF2
FFFFFFDB
00000011
FFFFFFD0
FFFFFFFA
FFFFFFD6
00000031
FFFFFFE2
00000002
FFFFFFE2
0000001A
FFFFFFE7
FFFFFFD7
FFFFFFE9
FFFFFFC6
0000000E
FFFFFFD1
0000000A
0000001C
FFFFFFE0
FFFFFFED
00000024
FFFFFFFD
0000000D
FFFFFFEA
00000011
FFFFFFED
0000001B
FFFFFFDD
00000024
FFFFFFEF
FFFFFFDD
FFFFFFDF
00000025
00000005
FFFFFFFC
FFFFFFF8
FFFFFFEE
0000002F
0000000F
0000001F
FFFFFFBB
FFFFFFEC
FFFFFFE8
FFFFFFF7
00000021
FFFFFFF7
FFFFFFF6
00000045
00000045
00000015
FFFFFFE9
00000010
00000013
FFFFFFF4
FFFFFFEB
FFFFFFE8
00000015
00000039
FFFFFFDB
FFFFFFD9
0000000D
FFFFFFF1
FFFFFFDD
0000001C
FFFFFFF7
FFFFFFF5
FFFFFFF8
00000012
00000016
00000000
FFFFFFDC
FFFFFFE9
0000001B
FFFFFFEA
00000027
0000001E
00000033
0000000E
FFFFFFD2
FFFFFFE3
0000003B
FFFFFFE8
00000028
00000016
FFFFFFFB
FFFFFFE3
00000030
00000008
FFFFFFC4
0000000F
FFFFFFF2
FFFFFFE8
FFFFFFFD
0000001E
FFFFFFEE
0000001C
FFFFFFD3
FFFFFFD7
0000000E
FFFFFFFD
0000001B
00000031
00000016
00000014
0000000A
00000005
00000011
FFFFFFF1
00000017
FFFFFFD6
FFFFFFB6
00000033
00000002
FFFFFFFC
FFFFFFFE
0000001F
FFFFFFEA
FFFFFFFA
FFFFFFFD
0000000D
00000012
0000002C
FFFFFFEB
00000029
0000002D
FFFFFFFC
0000002F
FFFFFFF8
0000001C
FFFFFFE3
FFFFFFF6
FFFFFFE0
0000002C
FFFFFFD9
00000000
FFFFFFFC
00000004
00000020
FFFFFFE4
FFFFFFC5
FFFFFFDF
FFFFFFB7
00000024
00000007
FFFFFFDF
00000036
FFFFFFD9
00000003
00000026
0000000A
FFFFFFFC
FFFFFFE2
FFFFFFDD
0000000E
FFFFFFC6
FFFFFFED
FFFFFFF9
00000032
00000008
00000010
FFFFFFD3
FFFFFFD1
FFFFFFC6
FFFFFFFB
0000000C
00000032
0000000E
FFFFFFF1
00000007
FFFFFFDC
00000029
FFFFFFF5
FFFFFFE6
0000002C
00000017
FFFFFFC8
00000003
00000010
0000002A
FFFFFFD4
00000029
00000018
FFFFFFF6
00000038
FFFFFFC7
0000002F
FFFFFFF0
FFFFFFDF
00000037
FFFFFFDD
FFFFFFF3
FFFFFFD4
FFFFFFE4
0000000B
FFFFFFD0
FFFFFFFC
00000006
FFFFFFD3
00000021
FFFFFFEE
FFFFFFE0
00000011
00000025
FFFFFFDE
FFFFFFD9
0000000F
FFFFFFD3
00000002
FFFFFFE9
0000000A
FFFFFFE7
00000019
00000031
FFFFFFFA
0000003D
00000014
FFFFFFD6
0000000B
00000010
00000017
0000001A
FFFFFFF0
FFFFFFF5
00000013
00000014
FFFFFFF6
00000047
FFFFFFFF
FFFFFFEC
00000025
FFFFFFEE
0000000A
FFFFFFCC
FFFFFFE0
00000034
FFFFFFF0
0000000B
00000003
00000059
FFFFFFD3
FFFFFFF3
0000000D
FFFFFFD1
00000001
FFFFFFFF
00000035
0000001F
FFFFFFF8
00000010
0000002E
00000028
00000035
FFFFFFD3
FFFFFFF9
FFFFFFD7
00000024
FFFFFFCC
00000006
00000017
00000033
00000008
FFFFFFE0
00000010
00000023
FFFFFFEB
0000000A
FFFFFFF7
0000000C
FFFFFFF7
FFFFFFE0
FFFFFFDF
FFFFFFDC
00000014
FFFFFFFC
FFFFFFDC
00000002
FFFFFFCF
FFFFFFFD
FFFFFFD4
0000002B
00000015
00000024
0000001F
FFFFFFE3
FFFFFFFC
00000007
00000022
00000031
FFFFFFDE
FFFFFFD4
FFFFFFD4
FFFFFFD2
FFFFFFEF
FFFFFFDA
00000022
00000009
FFFFFFEB
00000052
FFFFFFFA
FFFFFFE8
0000000F
FFFFFFC9
00000015
00000003
00000006
FFFFFFF8
FFFFFFE7
00000012
FFFFFFDD
FFFFFFCF
00000024
0000000B
0000001F
FFFFFFFF
FFFFFFF7
FFFFFFFD
00000032
FFFFFFDD
00000000
00000026
FFFFFFE1
00000031
FFFFFFF9
FFFFFFE6
0000001B
00000025
FFFFFFC2
FFFFFFC8
00000008
FFFFFFEA
00000000
00000034
0000000E
FFFFFFF8
0000003A
00000030
0000003B
FFFFFFDF
00000027
0000004C
00000014
0000001B
FFFFFFC8
0000002D
FFFFFFFA
00000019
0000000D
FFFFFFDA
0000003C
FFFFFFF4
0000000D
00000024
0000003B
FFFFFFC3
FFFFFFF5
FFFFFFFE
FFFFFFF9
0000003E
0000003B
00000010
00000003
FFFFFFF3
FFFFFFE6
00000010
FFFFFFFE
FFFFFFFC
00000007
FFFFFFD5
0000002F
FFFFFFEF
00000016
00000028
00000021
FFFFFFD6
00000032
0000001C
0000000E
00000001
FFFFFFDC
0000001C
FFFFFFBA
FFFFFFFD
FFFFFFE0
0000001B
00000026
FFFFFFE9
FFFFFFE5
FFFFFFC9
0000004E
FFFFFFFA
FFFFFFF0
00000028
0000000E
FFFFFFDD
00000034
FFFFFFED
FFFFFFF4
FFFFFFBE
00000029
FFFFFFDF
00000019
00000006
0000000F
00000026
FFFFFFF3
FFFFFFD6
FFFFFFFF
FFFFFFF9
0000003A
00000023
FFFFFFD1
0000000E
00000002
FFFFFFF7
FFFFFFD0
00000014
00000010
00000014
00000010
FFFFFFEE
00000006
FFFFFFEF
FFFFFFD0
00000044
00000011
00000008
FFFFFFED
0000000C
FFFFFFEA
00000011
FFFFFFC9
0000001E
00000032
00000016
00000018
FFFFFFEE
00000003
FFFFFFEC
FFFFFFE5
FFFFFFE6
FFFFFFC7
FFFFFFED
0000000E
FFFFFFF7
FFFFFFE9
0000002C
FFFFFFB8
0000002D
00000041
00000029
0000000C
0000005D
00000017
FFFFFFD2
FFFFFFF4
FFFFFFCB
FFFFFFC6
00000004
0000002E
0000000A
FFFFFFB9
00000009
00000032
0000001A
00000012
FFFFFFEC
00000019
FFFFFFE3
FFFFFFCE
FFFFFFBB
00000024
00000007
0000000D
FFFFFFEF
FFFFFFD7
00000029
FFFFFFF2
FFFFFFB0
00000014
FFFFFFF6
0000001F
FFFFFFCC
00000007
0000002B
00000022
00000023
FFFFFFCF
00000009
00000028
00000012
FFFFFFD4
FFFFFFF4
00000019
00000026
FFFFFFB1
FFFFFFEB
00000021
FFFFFFF5
0000000F
FFFFFFEA
00000002
0000001F
00000005
FFFFFFDE
FFFFFFE1
00000007
FFFFFFE3
00000003
00000027
00000016
00000045
00000012
00000022
FFFFFFF0
00000017
00000025
FFFFFFC6
00000023
0000001F
00000039
0000001E
00000007
FFFFFFF5
00000021
FFFFFFE2
FFFFFFFA
0000000E
00000004
FFFFFFDE
00000002
00000032
00000029
00000023
FFFFFFE3
FFFFFFFD
0000000C
FFFFFFD4
0000002B
00000007
00000011
00000011
0000000D
FFFFFFC8
0000000B
FFFFFFDF
FFFFFFD0
00000016
00000018
0000000F
00000025
00000026
00000009
00000022
FFFFFFC2
FFFFFFD1
FFFFFFDB
00000012
FFFFFFD8
FFFFFFCC
00000004
FFFFFFD9
FFFFFFEF
00000036
0000001D
00000024
0000002D
FFFFFFEC
FFFFFFFA
00000029
FFFFFFE9
00000048
00000001
FFFFFFF0
FFFFFFF1
0000000E
00000032
00000003
FFFFFFFA
FFFFFFED
FFFFFFE2
FFFFFFC4
0000000D
FFFFFFCF
FFFFFFFE
FFFFFFCD
00000005
FFFFFFE3
0000002F
FFFFFFF6
00000025
FFFFFFC6
FFFFFFE3
FFFFFFEB
00000003
FFFFFFDF
FFFFFFDF
FFFFFFFB
FFFFFFE6
FFFFFFD2
FFFFFFEE
00000000
FFFFFFE6
FFFFFFD4
FFFFFFDA
0000003A
FFFFFFB2
00000009
00000002
FFFFFFFE
FFFFFFEE
FFFFFFE2
FFFFFFF3
00000031
FFFFFFE2
00000006
FFFFFFE6
FFFFFFCD
0000002C
00000015
0000001B
FFFFFFCC
FFFFFF92
00000029
0000000E
00000025
0000000E
00000023
FFFFFFF3
00000002
0000001A
0000000B
FFFFFFF7
00000055
0000000F
FFFFFFDC
FFFFFFF2
00000031
0000004D
FFFFFFFE
FFFFFFFA
FFFFFFEE
FFFFFFF7
FFFFFFD4
00000033
00000007
FFFFFFC3
FFFFFFEB
FFFFFFE8
0000002D
FFFFFFE0
FFFFFFDC
FFFFFFEA
FFFFFFCF
0000002E
FFFFFFDB
0000000A
FFFFFFEC
FFFFFFDA
FFFFFFE0
FFFFFFF3
FFFFFFE9
00000015
00000012
FFFFFFF4
0000001B
FFFFFFEC
FFFFFFEB
FFFFFFEF
00000007
FFFFFFE1
FFFFFFD6
FFFFFFE4
FFFFFFE6
FFFFFFF6
FFFFFFDB
FFFFFFE0
FFFFFFE9
00000012
FFFFFFEF
FFFFFFED
0000002F
FFFFFFC6
0000000D
00000005
FFFFFFDF
FFFFFFEE
FFFFFFE6
FFFFFFED
00000021
FFFFFFE5
0000004B
FFFFFFD8
FFFFFFD5
0000001E
FFFFFFCA
00000000
FFFFFFD1
00000032
00000009
00000008
FFFFFFE0
FFFFFFBA
00000041
FFFFFFC1
FFFFFFD0
FFFFFFD5
00000018
00000035
FFFFFFC9
00000009
FFFFFFFE
00000002
0000000D
FFFFFFFE
FFFFFFE3
00000001
0000000F
00000051
00000021
FFFFFFE8
FFFFFFED
00000018
0000000D
FFFFFFF3
00000004
0000002C
0000003C
00000033
FFFFFFC1
FFFFFFF4
FFFFFFF8
00000039
FFFFFFE9
00000016
00000014
0000001A
FFFFFFFD
0000004E
FFFFFFD4
FFFFFFEE
00000015
00000006
00000010
FFFFFFF2
00000004
00000012
FFFFFFEC
FFFFFFD5
00000036
FFFFFFD8
00000012
00000027
00000058
FFFFFFC2
0000002F
00000027
0000000B
00000008
00000035
FFFFFFF1
0000000D
00000012
00000036
0000000D
00000021
FFFFFFE0
00000009
00000024
0000001A
00000021
00000017
FFFFFFF4
0000002E
00000025
00000010
00000027
00000015
00000042
00000005
0000002A
0000001A
0000001E
FFFFFFF4
FFFFFFF8
FFFFFFE6
0000002C
FFFFFFEA
0000002F
00000014
00000022
FFFFFFE4
00000030
0000002A
FFFFFFF7
FFFFFFF8
0000001A
0000001D
00000020
00000012
FFFFFFE8
FFFFFFF2
0000001A
FFFFFFDB
FFFFFFE9
00000040
FFFFFFEE
FFFFFFDE
00000028
FFFFFFE7
00000028
0000001E
00000004
00000011
0000002E
FFFFFFD6
FFFFFFE1
FFFFFFE3
FFFFFFF0
FFFFFFEA
00000027
0000002D
0000001C
FFFFFFFC
00000026
00000040
FFFFFFEB
0000002A
FFFFFFE3
0000003F
00000026
0000001B
FFFFFFF9
00000013
00000009
0000001B
0000001B
FFFFFFE1
FFFFFFE5
FFFFFFDE
00000017
FFFFFFD0
0000000F
FFFFFFE6
FFFFFFF1
FFFFFFE1
00000037
FFFFFFE8
0000001D
00000011
0000000D
FFFFFFFB
00000024
FFFFFFC6
FFFFFFC0
0000003E
FFFFFFDA
FFFFFFD5
FFFFFFD2
00000005
00000007
FFFFFFDE
00000020
FFFFFFC1
FFFFFFD6
FFFFFFB9
FFFFFFD2
FFFFFFD8
0000000B
FFFFFFDB
FFFFFFD5
0000002D
0000000F
0000002D
FFFFFFD6
FFFFFFFE
FFFFFFF9
FFFFFFDA
FFFFFFFD
00000005
00000030
FFFFFFE3
0000000B
FFFFFFE4
FFFFFFCE
FFFFFFEA
00000022
00000025
00000016
00000038
00000000
FFFFFFFA
FFFFFFF8
FFFFFFE5
00000014
FFFFFFE2
FFFFFFFC
FFFFFFED
00000000
0000000A
FFFFFFD9
FFFFFFE7
FFFFFFC0
FFFFFFEA
FFFFFFF4
0000000D
FFFFFFD7
0000000D
00000002
FFFFFFF7
FFFFFFF1
FFFFFFE8
0000001B
0000001C
00000039
FFFFFFF5
0000000D
FFFFFFCD
0000002F
FFFFFFC9
0000000E
FFFFFFFD
FFFFFFF3
00000031
00000019
0000003A
0000000A
FFFFFFE7
0000000D
FFFFFFB4
00000019
FFFFFFC3
FFFFFFE5
FFFFFFF1
0000001B
00000005
FFFFFFE9
0000000E
FFFFFFD9
FFFFFFCA
0000004C
0000001C
00000031
00000014
FFFFFFDA
FFFFFFE8
00000049
FFFFFFCC
FFFFFFF2
00000031
FFFFFFE0
00000006
0000002A
FFFFFFFD
00000044
FFFFFFEA
FFFFFFC7
00000017
00000009
FFFFFFEC
00000018
FFFFFFF3
FFFFFFFC
00000041
FFFFFFF9
FFFFFFDC
00000032
00000001
0000001E
00000022
FFFFFFE3
FFFFFFDC
00000017
FFFFFFED
00000007
FFFFFFB5
0000003B
FFFFFFFE
FFFFFFF5
FFFFFFFA
FFFFFFE6
00000015
00000002
FFFFFFED
0000000F
FFFFFFD7
FFFFFFE9
00000004
00000011
FFFFFFA1
00000037
00000034
0000001B
0000000D
00000011
00000013
00000013
FFFFFFE6
FFFFFFE8
0000002F
FFFFFFE4
FFFFFFBE
00000000
00000014
00000006
FFFFFFFE
00000000
0000003A
FFFFFFF5
FFFFFFFD
FFFFFFD7
FFFFFFE5
00000037
FFFFFFE8
FFFFFFD7
FFFFFFEB
0000002D
0000003C
0000001D
0000000C
FFFFFFF4
FFFFFFFE
00000006
FFFFFFFA
0000001C
FFFFFFFF
FFFFFFB7
FFFFFFF3
FFFFFFDF
0000004A
0000000B
00000022
00000023
FFFFFFF3
FFFFFFFE
00000005
FFFFFFDC
FFFFFFCE
FFFFFFE9
00000014
FFFFFFE3
0000001B
FFFFFFF7
0000000A
FFFFFFE1
FFFFFFE9
00000028
FFFFFFD3
00000010
00000023
00000021
FFFFFFFD
00000041
FFFFFFFC
FFFFFFFB
00000034
FFFFFFED
0000002F
0000003C
FFFFFFE7
FFFFFFF1
FFFFFFF7
00000023
FFFFFFD9
0000004E
0000001B
FFFFFFD3
00000019
FFFFFFFF
FFFFFFD1
00000031
0000000A
00000007
FFFFFFB6
FFFFFFC9
FFFFFFE9
0000000A
00000019
FFFFFFF3
FFFFFFDF
00000007
00000018
FFFFFFE4
FFFFFFB6
0000002C
00000017
0000000C
00000028
FFFFFFF8
FFFFFFF7
FFFFFFDC
00000027
00000022
FFFFFFF0
00000021
FFFFFFEF
0000000F
FFFFFFF8
FFFFFFD4
FFFFFFF6
00000001
FFFFFFCE
FFFFFFED
0000003A
FFFFFFF9
0000002E
FFFFFFEF
FFFFFFE2
0000001F
FFFFFFC6
00000016
0000000E
FFFFFFE8
FFFFFFD2
FFFFFFDF
00000010
FFFFFFFD
FFFFFFF3
FFFFFFCF
00000011
00000008
FFFFFFF4
FFFFFFF0
FFFFFFF7
FFFFFFD5
00000007
FFFFFFD2
FFFFFFCE
00000016
00000009
FFFFFFD8
FFFFFFCB
00000000
FFFFFFD7
00000020
00000017
FFFFFFB3
00000022
FFFFFFE2
FFFFFFFE
00000037
FFFFFFFF
00000025
FFFFFFEF
00000003
00000009
00000002
FFFFFFE3
0000001A
0000001E
00000030
0000001F
FFFFFFE1
FFFFFFFF
0000002C
FFFFFFED
FFFFFFF4
FFFFFFCF
FFFFFFE1
FFFFFFF0
FFFFFFE4
00000009
FFFFFFF7
0000000F
FFFFFFF5
0000002C
FFFFFFE0
00000001
00000016
00000028
FFFFFFF6
FFFFFFCF
00000010
FFFFFFE5
00000039
FFFFFFD9
00000013
FFFFFFE8
FFFFFFF5
00000028
0000000E
FFFFFFEF
FFFFFFF6
0000002D
FFFFFFF6
0000001C
FFFFFFFF
FFFFFFC2
FFFFFFDF
FFFFFFBE
00000015
00000034
FFFFFFCE
FFFFFFE6
FFFFFFCB
FFFFFFFF
00000026
FFFFFFF3
0000002D
FFFFFFFF
FFFFFFF2
00000000
FFFFFFD4
00000017
00000016
FFFFFFE9
00000004
FFFFFFD7
FFFFFFD3
00000030
FFFFFFF8
FFFFFFEE
0000002A
00000050
00000021
FFFFFFE1
00000030
FFFFFFDA
FFFFFFF6
FFFFFFF8
FFFFFFF1
FFFFFFE7
00000021
FFFFFFD0
00000006
FFFFFFEB
FFFFFFD3
00000011
00000030
00000013
FFFFFFD2
00000009
FFFFFFE3
FFFFFFF8
00000021
FFFFFFF0
00000020
FFFFFFD7
0000000D
00000003
FFFFFFE5
00000037
00000014
FFFFFFB6
FFFFFFF5
00000009
00000011
00000027
00000013
FFFFFFBE
FFFFFFF6
00000017
FFFFFFB9
0000000B
00000024
00000030
FFFFFFE9
FFFFFFD2
0000000D
FFFFFFEC
00000002
FFFFFFD0
FFFFFFCD
FFFFFFD7
FFFFFFFF
FFFFFFD3
FFFFFFFC
FFFFFFFA
0000000D
00000018
0000000C
FFFFFFE2
FFFFFFDB
00000017
FFFFFFE0
00000005
00000010
00000022
00000037
FFFFFFF9
FFFFFFDB
0000001E
0000000A
00000000
0000003F
FFFFFFF5
FFFFFFE2
00000017
FFFFFFB9
0000002F
00000009
0000001F
00000032
FFFFFFB9
FFFFFFF4
FFFFFFE9
00000029
FFFFFFC2
FFFFFFCC
00000012
0000000D
FFFFFFE3
00000033
00000019
FFFFFFD3
00000040
FFFFFFE1
0000000E
00000017
0000003E
00000007
FFFFFFE8
FFFFFFD7
FFFFFFF6
00000019
FFFFFFFD
0000000A
0000000B
00000016
00000022
00000003
00000049
FFFFFFD6
00000013
0000002C
FFFFFFD2
0000002E
FFFFFFE4
FFFFFFFD
00000001
00000016
0000003E
FFFFFFE5
00000021
FFFFFFE8
0000000D
FFFFFFE5
0000001B
FFFFFFFF
FFFFFF97
FFFFFFFC
FFFFFFFE
00000048
00000014
FFFFFFA7
FFFFFFE4
FFFFFFF7
0000000C
0000001C
0000000C
FFFFFFDE
FFFFFFF3
FFFFFFD6
FFFFFFD9
FFFFFFD4
FFFFFFE6
0000002B
00000024
00000008
0000001A
0000000E
00000053
FFFFFFFD
FFFFFFE6
FFFFFFF8
FFFFFFEC
FFFFFFF5
FFFFFFF5
FFFFFFF2
00000004
00000018
00000023
FFFFFFF6
FFFFFFE3
FFFFFFE8
FFFFFFEB
FFFFFFDF
0000000D
00000027
FFFFFFDD
FFFFFFE2
00000002
FFFFFFFB
00000014
FFFFFFDC
00000010
00000024
00000016
0000000F
FFFFFFDF
FFFFFFDA
FFFFFFF2
FFFFFFE6
00000006
FFFFFFFA
FFFFFFBF
FFFFFFF7
00000018
FFFFFFF7
0000003F
FFFFFFF5
FFFFFFE6
00000010
0000000A
FFFFFFE8
0000003A
FFFFFFE1
00000016
FFFFFFF1
FFFFFFF4
00000014
00000005
FFFFFFDE
00000026
0000001A
0000002F
FFFFFFD0
FFFFFFD6
00000025
00000007
0000001E
FFFFFFFA
0000002E
FFFFFFD5
00000023
00000026
FFFFFFE2
00000011
00000016
0000002D
FFFFFFE0
FFFFFFDF
FFFFFFEC
FFFFFFDD
0000000B
FFFFFFD1
FFFFFFF1
FFFFFFE1
FFFFFFFC
0000000A
00000018
0000001F
0000004B
FFFFFFED
FFFFFFDD
FFFFFFCC
FFFFFFCE
00000016
FFFFFFFA
FFFFFFE1
0000001E
FFFFFFF4
0000002B
00000001
FFFFFFDC
FFFFFFDB
00000023
00000039
FFFFFFFD
00000022
00000028
FFFFFFC3
00000008
FFFFFFE5
00000030
00000005
00000003
FFFFFFDE
FFFFFFEB
0000003B
FFFFFFF8
FFFFFFE4
0000001E
FFFFFFE9
FFFFFFE4
FFFFFFF6
FFFFFFCE
00000005
FFFFFFE8
FFFFFFF2
FFFFFFE9
FFFFFFE1
0000001C
00000022
00000037
00000009
FFFFFFF3
0000002B
00000013
00000014
0000002F
FFFFFFFD
FFFFFFEB
0000003A
0000000F
0000002C
FFFFFFDE
FFFFFFCC
FFFFFFDD
0000001B
FFFFFFE9
00000012
00000003
0000000B
00000036
FFFFFFF4
00000002
0000004A
FFFFFFDB
FFFFFFCE
FFFFFFEC
00000022
00000048
0000000C
00000018
FFFFFFF6
00000007
00000014
00000016
00000036
FFFFFFEC
0000001B
FFFFFFAC
FFFFFFF9
FFFFFFF1
0000001D
00000038
FFFFFFCE
00000024
00000003
FFFFFFFD
FFFFFFB4
FFFFFFFD
FFFFFFFF
00000035
00000000
00000026
FFFFFFED
FFFFFFD1
FFFFFFAE
00000019
FFFFFFE9
FFFFFFE8
00000012
FFFFFFE3
FFFFFFFF
FFFFFFD6
FFFFFFB4
FFFFFFC8
FFFFFFEC
00000013
FFFFFFFA
00000049
00000018
FFFFFFF8
0000001A
00000001
FFFFFFE2
FFFFFFF7
FFFFFFE6
FFFFFFED
00000002
00000007
0000002B
FFFFFFFB
00000028
00000003
00000035
0000000A
FFFFFFD2
00000000
00000015
0000001A
0000001F
00000011
00000027
FFFFFFDB
00000000
00000055
FFFFFFFE
FFFFFFFD
FFFFFFD0
0000001F
FFFFFFE4
00000018
00000036
FFFFFFE5
0000003A
FFFFFFD6
0000002A
FFFFFFF9
00000017
0000001E
FFFFFFF7
FFFFFFF4
0000004D
FFFFFFDF
FFFFFFF4
00000019
FFFFFFFB
FFFFFFFC
FFFFFFF9
00000034
FFFFFFF4
00000013
FFFFFFF4
FFFFFFFD
00000003
FFFFFFCF
00000018
FFFFFFE0
0000001F
0000001B
FFFFFFF5
00000010
FFFFFFFE
FFFFFFE7
00000032
FFFFFFF4
00000009
FFFFFFDB
00000002
00000014
FFFFFFFB
0000001E
00000037
FFFFFFE8
0000002C
FFFFFFF8
FFFFFFDD
FFFFFFFB
0000003F
0000001A
00000009
FFFFFFEF
00000021
0000000D
FFFFFFDB
FFFFFFFF
FFFFFFD5
FFFFFFF3
FFFFFFC3
00000007
FFFFFFDD
00000028
FFFFFFDC
0000002D
FFFFFFF6
0000000E
FFFFFFD8
FFFFFFD4
FFFFFFD9
FFFFFFFE
FFFFFFF9
FFFFFFEF
0000001F
FFFFFFEF
00000036
00000016
FFFFFFFB
0000000F
FFFFFFFF
FFFFFFDB
FFFFFFEE
00000000
FFFFFFF5
00000014
0000002B
FFFFFFF6
FFFFFFF9
FFFFFFC6
0000002D
00000031
0000001F
FFFFFFC4
FFFFFFD5
0000000A
0000000B
0000003C
FFFFFFCE
00000009
00000041
FFFFFFDC
FFFFFFFF
FFFFFFD5
00000005
00000010
00000023
00000008
FFFFFFFB
00000018
FFFFFFD6
00000003
00000027
00000000
00000011
FFFFFFEB
00000029
FFFFFFFA
00000006
0000001D
FFFFFFCF
FFFFFFF2
FFFFFFF2
00000008
FFFFFFFA
00000027
00000021
00000002
FFFFFFFD
00000006
0000001F
00000012
0000000D
0000003C
FFFFFFE7
FFFFFFE7
FFFFFFD2
00000019
00000024
FFFFFFF5
FFFFFFC7
FFFFFFEB
00000034
FFFFFFE4
0000000F
FFFFFFD4
00000005
00000006
00000023
0000000A
FFFFFFF4
FFFFFFF2
00000023
00000008
FFFFFFDB
00000004
0000003D
00000018
FFFFFFCC
FFFFFFDA
00000022
00000014
FFFFFFE8
00000038
00000018
FFFFFFF1
00000038
00000039
FFFFFFB4
00000008
00000010
00000027
00000014
FFFFFFE1
FFFFFFEC
00000018
00000000
FFFFFFCD
FFFFFFEC
FFFFFFFD
00000012
FFFFFFE8
0000001D
00000013
FFFFFFFC
FFFFFFE3
FFFFFFF8
00000016
00000018
FFFFFFFC
FFFFFFFC
0000002E
0000003E
00000040
FFFFFFFA
00000028
00000039
0000000F
FFFFFFF6
FFFFFFE4
FFFFFFF9
FFFFFFFB
FFFFFFDA
00000026
0000000D
FFFFFFF4
0000002C
0000003D
FFFFFFE2
00000023
FFFFFFDA
00000028
FFFFFFC3
0000001E
0000001B
FFFFFFCF
FFFFFFED
00000032
FFFFFFF6
FFFFFFDB
FFFFFFD4
FFFFFFEB
00000025
00000012
FFFFFFD6
FFFFFFB2
0000000A
FFFFFFDC
FFFFFFED
FFFFFFE9
00000006
00000032
FFFFFFD4
FFFFFFDF
0000000A
FFFFFFED
FFFFFFCC
0000000E
00000000
FFFFFFCA
00000000
00000005
FFFFFFE7
00000000
FFFFFFEB
FFFFFFCF
FFFFFFB2
00000039
00000027
FFFFFFFD
FFFFFFD3
FFFFFFD9
FFFFFFD7
FFFFFFF3
00000003
0000001C
00000017
00000015
FFFFFFF4
FFFFFFFE
0000005A
00000003
00000005
FFFFFFC4
00000022
FFFFFFE5
FFFFFFE9
0000000C
0000002F
FFFFFFC6
FFFFFFE4
FFFFFFCB
0000000E
00000022
0000001F
FFFFFFD0
FFFFFFE1
FFFFFFEA
00000002
00000026
FFFFFFCC
00000016
FFFFFFEA
0000000B
0000002E
FFFFFFE1
FFFFFFD2
FFFFFFFC
FFFFFFF5
00000044
00000027
FFFFFFF8
0000000F
FFFFFFE4
00000014
0000001A
FFFFFFE9
FFFFFFE7
00000001
FFFFFFFE
0000001F
00000013
00000015
00000009
00000014
FFFFFFEE
FFFFFFF6
0000002D
FFFFFFFA
0000004D
00000036
FFFFFFEE
00000017
0000000D
0000002B
FFFFFFE0
00000019
00000008
00000036
0000002B
FFFFFFE6
00000003
FFFFFFE7
00000006
FFFFFFC1
0000000B
FFFFFFEE
FFFFFFE9
00000049
FFFFFFF6
FFFFFFEF
FFFFFFCD
FFFFFFFF
FFFFFFF9
00000053
FFFFFFDF
FFFFFFC6
FFFFFFEC
00000012
FFFFFFF7
00000001
FFFFFFE8
FFFFFFC8
FFFFFFE3
00000048
FFFFFFED
00000012
FFFFFFBF
FFFFFFE8
FFFFFFD8
0000001C
FFFFFFE8
0000002B
0000004A
FFFFFFDF
0000002A
FFFFFFDE
FFFFFFFE
FFFFFFF6
FFFFFFC9
00000009
FFFFFFFB
0000000D
0000000E
0000002D
00000014
FFFFFFF2
FFFFFFDB
FFFFFFFC
FFFFFFE9
FFFFFFC1
0000000A
00000031
0000001F
FFFFFFF6
FFFFFFFA
FFFFFFF5
FFFFFFF4
FFFFFFCB
FFFFFFCA
FFFFFFF7
FFFFFFCC
00000034
FFFFFFC7
0000003A
FFFFFFFC
FFFFFFD5
0000001D
00000028
00000000
FFFFFFFD
FFFFFFE1
FFFFFFE7
FFFFFFF0
00000015
FFFFFFEE
00000026
FFFFFFE6
FFFFFFD7
00000000
00000048
00000016
FFFFFFE3
00000003
0000001B
00000025
00000018
FFFFFFE3
00000030
FFFFFFD7
00000001
00000032
FFFFFFE0
FFFFFFEE
FFFFFFFF
FFFFFFB2
FFFFFFF6
FFFFFFD6
00000030
0000002E
00000012
00000005
FFFFFFE7
00000014
FFFFFFF2
FFFFFFC8
00000026
00000006
0000002B
00000007
FFFFFFFF
00000027
00000005
0000001A
FFFFFFB9
00000014
FFFFFFF0
00000007
0000002D
FFFFFFF2
00000029
00000024
00000007
0000001F
0000002B
00000024
00000033
FFFFFFD6
0000000A
FFFFFFB8
FFFFFFD1
FFFFFFDE
FFFFFFF3
0000002A
FFFFFFEF
FFFFFFF5
FFFFFFF1
0000001E
FFFFFFD5
00000045
FFFFFFD7
00000011
FFFFFFE8
FFFFFFD2
FFFFFFF0
00000010
00000001
FFFFFFCD
FFFFFFF7
00000017
FFFFFFFA
FFFFFFF0
FFFFFFE5
FFFFFFFE
FFFFFFDE
00000032
0000000C
00000001
FFFFFFD2
FFFFFFEE
00000018
FFFFFFF9
FFFFFFE1
FFFFFFF5
FFFFFFD8
FFFFFFC5
00000004
00000024
0000000E
FFFFFFF8
00000003
FFFFFFFB
FFFFFFDE
0000002A
FFFFFFE9
FFFFFFDD
00000015
FFFFFFE7
00000010
0000001E
00000007
00000032
FFFFFFD9
FFFFFFF6
FFFFFFDD
FFFFFFF8
0000001C
FFFFFFFC
FFFFFFE6
00000051
00000001
0000000F
FFFFFFED
FFFFFFBB
00000019
FFFFFFF1
FFFFFFE8
FFFFFFE3
FFFFFFD6
FFFFFFD0
FFFFFFEA
FFFFFFEC
00000011
0000002E
FFFFFFB9
00000009
0000000F
FFFFFFF5
0000004E
00000006
FFFFFFDD
0000001D
FFFFFFDC
00000034
00000010
FFFFFFF4
FFFFFFF8
0000000F
FFFFFFE4
0000000B
FFFFFFEB
FFFFFFDC
FFFFFFEA
00000005
00000026
00000009
FFFFFFFB
FFFFFFEA
FFFFFFC1
FFFFFFEF
FFFFFFE6
FFFFFFF7
0000001C
FFFFFFD8
FFFFFFCA
FFFFFFBF
FFFFFFC1
00000005
0000002E
00000004
00000001
FFFFFFF2
00000027
FFFFFFD3
FFFFFFD8
FFFFFFF3
00000014
FFFFFFEA
00000022
FFFFFFFE
FFFFFFF6
FFFFFFFC
0000001A
0000000C
0000002E
00000028
FFFFFFBD
FFFFFFEB
00000022
0000000A
00000020
FFFFFFCF
0000001B
FFFFFFB4
FFFFFFEE
FFFFFFE3
FFFFFFEE
FFFFFFF3
00000017
FFFFFFEE
FFFFFFFD
00000004
00000021
FFFFFFB6
FFFFFFCD
FFFFFFE8
0000001A
00000046
0000001A
00000030
FFFFFFEA
FFFFFFC3
00000006
00000005
00000008
0000000D
00000005
00000020
00000027
FFFFFFF3
00000003
0000002F
FFFFFFC7
00000025
00000018
00000019
FFFFFFE7
00000021
00000032
FFFFFFE6
00000008
FFFFFFDE
00000011
00000027
00000024
0000001A
FFFFFFE4
00000029
FFFFFFF8
00000008
0000001E
00000029
00000013
00000025
00000020
FFFFFFEF
00000009
00000029
FFFFFFC8
FFFFFFDB
0000000F
FFFFFFDD
00000020
0000002D
FFFFFFF2
FFFFFFD4
00000008
0000001D
FFFFFFE6
00000001
00000005
FFFFFFF8
0000001A
00000001
FFFFFFE8
FFFFFFEB
00000016
FFFFFFC8
00000001
FFFFFFFE
0000000F
FFFFFFE6
FFFFFFF8
FFFFFFC2
FFFFFFFC
00000006
FFFFFFFF
00000011
FFFFFFCC
FFFFFFDC
00000034
0000001E
00000045
0000001C
00000016
FFFFFFEB
00000014
0000002D
00000004
FFFFFFF9
FFFFFFF0
FFFFFFCC
FFFFFFD9
00000007
FFFFFFDF
FFFFFFF2
FFFFFFD7
00000010
00000032
FFFFFFEB
FFFFFFEF
0000000B
FFFFFFE8
FFFFFFE0
0000000C
0000002E
FFFFFFF6
FFFFFFF1
FFFFFFE9
00000020
0000000C
FFFFFFFE
FFFFFFFB
0000000E
0000000F
00000041
00000006
FFFFFFDF
FFFFFFA5
00000018
0000002C
0000002A
0000000D
00000020
00000015
FFFFFFCB
FFFFFFE6
0000001E
FFFFFFF2
0000001D
00000014
0000000D
FFFFFFEF
0000003E
FFFFFFCA
FFFFFFFA
00000014
00000019
0000004A
00000027
FFFFFFE1
FFFFFFF5
0000001B
0000004B
0000000E
FFFFFFF4
00000010
00000026
00000029
00000035
00000018
FFFFFFE9
FFFFFFDE
FFFFFFD7
FFFFFFDA
FFFFFFC8
00000004
00000012
FFFFFFEB
FFFFFFE5
00000011
FFFFFFCA
0000001E
FFFFFFEA
00000009
00000024
FFFFFFF5
FFFFFFEB
FFFFFFDD
00000000
0000000F
00000006
0000004B
0000001E
00000006
FFFFFFEA
FFFFFFC7
FFFFFFEA
0000000B
FFFFFFDA
00000016
00000012
FFFFFFBF
00000020
FFFFFFF7
00000026
00000026
00000004
00000013
FFFFFFF8
00000010
FFFFFFFD
00000005
00000029
00000020
00000029
0000000A
0000004C
FFFFFFF4
00000005
FFFFFFCD
0000000B
FFFFFFF0
00000022
FFFFFFEF
FFFFFFD5
FFFFFFFC
FFFFFFE8
FFFFFFDE
FFFFFFF0
00000011
FFFFFFBC
00000032
00000017
00000001
00000025
00000039
FFFFFFD6
FFFFFFD1
FFFFFFDF
00000039
FFFFFFF0
0000001A
FFFFFFE6
FFFFFFE9
FFFFFFFE
FFFFFFEF
00000024
00000021
0000002B
00000011
FFFFFFCF
FFFFFFE6
0000000E
FFFFFFCD
FFFFFFE9
FFFFFFEB
FFFFFFF7
00000021
0000001A
0000000D
FFFFFFEA
FFFFFFF1
FFFFFFEC
FFFFFFDB
FFFFFFB4
00000009
0000000E
FFFFFFE6
0000000A
FFFFFFE4
00000010
00000045
FFFFFFDA
FFFFFFE8
00000011
00000018
FFFFFFF7
FFFFFFE8
FFFFFFC6
FFFFFFC6
0000002A
FFFFFFFA
00000011
0000001D
FFFFFFED
FFFFFFC2
FFFFFFCE
00000013
FFFFFFEC
FFFFFFC6
FFFFFFD4
FFFFFFE6
0000001B
FFFFFFE7
FFFFFFF1
00000012
FFFFFFF7
0000000F
0000001A
FFFFFFCE
0000002D
00000016
FFFFFFFA
FFFFFFDF
00000045
FFFFFFCD
0000001B
00000007
FFFFFFDD
00000046
FFFFFFF8
FFFFFFE6
00000031
00000043
00000008
FFFFFFDB
00000003
0000000E
00000015
00000020
00000014
00000025
FFFFFFCF
FFFFFFFC
FFFFFFD5
00000004
FFFFFFDE
0000000B
00000015
FFFFFFCE
FFFFFFC1
FFFFFFEA
FFFFFFD5
0000001D
FFFFFFE5
00000009
FFFFFFDB
00000030
FFFFFFF0
FFFFFFFF
FFFFFFFF
FFFFFFF3
FFFFFFDA
FFFFFFD4
00000021
FFFFFFE9
FFFFFFFA
FFFFFFDA
FFFFFFDB
00000036
00000041
00000008
FFFFFFE4
00000003
0000001F
00000020
FFFFFFF8
00000004
FFFFFFF2
FFFFFFF7
FFFFFFFD
FFFFFFE8
0000001E
00000027
00000008
FFFFFFEA
FFFFFFE5
FFFFFFC2
00000019
FFFFFFF8
0000003C
FFFFFFD2
FFFFFFF8
FFFFFFF0
FFFFFFE2
0000000E
FFFFFFF1
00000017
00000001
0000000D
0000001C
FFFFFFEF
FFFFFFD0
FFFFFFDD
FFFFFFB9
FFFFFFF4
FFFFFFDB
FFFFFFE7
00000002
00000015
FFFFFFE1
FFFFFFD5
00000042
FFFFFFDB
0000000C
00000021
00000036
00000007
FFFFFFC7
FFFFFFEF
00000035
00000006
00000027
0000001C
FFFFFFE9
0000002A
0000001D
00000004
00000016
FFFFFFF7
0000000E
0000002F
FFFFFFF5
FFFFFFCB
0000001E
FFFFFFFB
FFFFFFF5
00000018
FFFFFFCB
FFFFFFD9
00000018
FFFFFFDD
FFFFFFB9
0000001E
00000004
FFFFFFDC
FFFFFFFA
00000030
0000001F
FFFFFFEB
0000001F
FFFFFFD6
0000002E
0000001F
FFFFFFE6
0000002C
00000027
0000001F
00000013
00000008
00000027
FFFFFFD9
0000000D
FFFFFFF1
0000000D
00000018
00000022
00000027
FFFFFFBE
0000000F
FFFFFFF6
FFFFFFD1
00000019
FFFFFFF0
FFFFFFFF
FFFFFFEE
0000002F
0000001D
FFFFFFFD
FFFFFFDD
00000020
00000015
0000002A
FFFFFFD8
FFFFFFFA
0000002F
00000005
FFFFFFF8
00000008
FFFFFFEF
FFFFFFDA
FFFFFFE1
FFFFFFDA
00000009
00000013
FFFFFFD5
FFFFFFF3
00000023
FFFFFFD8
FFFFFFF2
FFFFFFF6
FFFFFFF0
FFFFFFDD
FFFFFFEF
00000013
0000001E
FFFFFFDC
FFFFFFE6
0000000C
0000001E
FFFFFFE5
FFFFFFF5
00000032
FFFFFFDC
FFFFFFF0
FFFFFFEA
FFFFFFD2
00000012
FFFFFFE1
00000048
FFFFFFE3
FFFFFFEF
0000003C
FFFFFFBD
FFFFFFF6
FFFFFFEE
FFFFFFD9
FFFFFFF1
0000000B
FFFFFFEA
00000043
0000000B
00000023
0000001A
FFFFFFDA
FFFFFFCC
0000001D
00000003
00000027
FFFFFFC3
00000019
FFFFFFFC
FFFFFFFB
0000002C
FFFFFFD3
0000002A
FFFFFFF1
00000026
FFFFFFF4
FFFFFFE0
00000008
FFFFFFE1
FFFFFFE8
FFFFFFD9
0000001E
00000022
FFFFFFDF
00000028
FFFFFFF5
FFFFFFD3
0000004D
00000025
00000019
FFFFFFF1
00000028
00000002
FFFFFFDA
FFFFFFF5
FFFFFFDF
FFFFFFEA
00000015
0000002B
FFFFFFF2
FFFFFFCD
0000000D
FFFFFFE4
0000001F
FFFFFFE5
00000045
0000000D
FFFFFFEB
FFFFFFFC
FFFFFFFD
FFFFFFE9
FFFFFFF4
FFFFFFF6
00000027
FFFFFFF2
FFFFFFCF
0000000E
00000011
FFFFFFD3
FFFFFFF7
00000001
0000000A
FFFFFFFF
0000003E
FFFFFFCE
00000024
00000035
FFFFFFDA
0000002A
FFFFFFDC
FFFFFFCA
FFFFFFF7
0000002B
00000000
0000003C
00000025
0000000D
FFFFFFE7
FFFFFFE6
0000001A
FFFFFFE6
0000003C
00000028
FFFFFFE7
00000034
00000028
FFFFFFF0
FFFFFFE5
0000001B
00000016
FFFFFFE8
00000011
FFFFFFFB
FFFFFFE2
0000002F
FFFFFFDA
FFFFFFEC
FFFFFFDB
0000000B
00000011
FFFFFFD5
00000008
FFFFFFEE
FFFFFFEF
00000012
00000027
00000046
0000002F
0000003C
FFFFFFDA
FFFFFFFC
00000020
00000026
FFFFFFFA
00000040
00000039
00000016
0000000F
FFFFFFD9
0000003D
FFFFFFE4
FFFFFFFF
FFFFFFEB
0000001B
00000005
FFFFFFB2
FFFFFFE6
FFFFFFCF
FFFFFFD8
00000032
FFFFFFFD
00000011
00000019
FFFFFFF1
00000005
FFFFFFEB
FFFFFFBE
FFFFFFFB
00000005
FFFFFFF9
00000002
00000025
00000034
00000042
FFFFFFBD
0000000C
FFFFFFE8
0000000A
FFFFFFDD
FFFFFFD3
FFFFFFE8
FFFFFFF0
FFFFFFE9
00000017
FFFFFFFA
FFFFFFF3
00000041
FFFFFFD8
FFFFFFD6
00000031
FFFFFFD2
FFFFFFFC
FFFFFFD4
FFFFFFD6
FFFFFFF9
00000015
00000002
FFFFFFD4
0000001E
00000006
00000021
0000000E
FFFFFFF7
FFFFFFED
FFFFFFDD
FFFFFFE9
00000000
00000022
00000001
0000002D
00000018
0000000C
0000000A
00000019
FFFFFFF5
00000030
FFFFFFF3
FFFFFFFD
00000006
0000004E
FFFFFFFD
0000000D
00000026
FFFFFFFE
0000003E
00000026
00000024
00000037
0000001A
FFFFFFE9
00000058
00000027
0000002D
0000001A
FFFFFFD8
FFFFFFF2
FFFFFFEA
FFFFFFE9
00000023
FFFFFFDA
0000005D
0000003B
FFFFFFD8
00000035
FFFFFFDF
FFFFFFE4
FFFFFFC8
FFFFFFDF
FFFFFFF3
FFFFFFE4
00000020
0000001A
FFFFFFF2
00000010
00000045
0000000B
00000017
FFFFFFC8
FFFFFFFD
00000008
00000010
FFFFFFD7
00000015
00000002
00000040
0000001A
FFFFFFEF
0000000A
FFFFFFCE
0000001C
FFFFFFDE
0000000A
00000022
00000022
FFFFFFF3
FFFFFFDC
FFFFFFD8
00000004
00000031
FFFFFFFB
00000014
FFFFFFED
FFFFFFF4
FFFFFFF2
FFFFFFEB
00000027
FFFFFFDE
00000003
00000002
FFFFFFEE
FFFFFFF8
0000000C
FFFFFFF9
00000027
FFFFFFFA
00000016
00000009
00000028
00000016
00000005
FFFFFFEF
FFFFFFE6
00000027
FFFFFFC9
FFFFFFE6
FFFFFFF7
FFFFFFFB
0000000D
00000016
FFFFFFE5
00000014
FFFFFFE5
0000002A
FFFFFFDC
00000013
00000028
00000024
00000026
0000001D
00000011
00000016
00000024
00000013
00000006
00000000
FFFFFFED
00000008
FFFFFFEC
0000000C
FFFFFFF3
00000022
FFFFFFF1
FFFFFFD7
FFFFFFF4
FFFFFFF6
00000001
FFFFFFE8
0000001B
00000004
00000000
0000003F
0000001B
FFFFFFF8
FFFFFFF9
00000014
FFFFFFFC
FFFFFFE9
00000009
FFFFFFD9
0000003A
0000000D
FFFFFFD0
00000009
00000021
00000026
FFFFFFC6
00000019
00000039
FFFFFFC9
FFFFFFFC
FFFFFFC7
0000004D
FFFFFFCB
0000003A
0000002F
00000008
FFFFFFEA
FFFFFFC2
FFFFFFC6
FFFFFFF2
0000002D
0000004E
00000009
00000013
FFFFFFEC
FFFFFFD7
00000026
00000035
00000004
00000038
00000059
00000030
FFFFFFBE
FFFFFFC8
0000002C
FFFFFFAD
FFFFFFE5
FFFFFFCF
0000004D
00000032
FFFFFFED
FFFFFFEC
FFFFFFF3
0000002F
FFFFFFE0
FFFFFFE8
0000002E
00000036
FFFFFFD8
00000012
FFFFFFFE
FFFFFFE0
FFFFFFE1
FFFFFFF3
00000031
0000000A
FFFFFFED
FFFFFFCA
FFFFFFFC
00000036
0000000A
00000015
00000026
FFFFFFBB
00000005
00000025
FFFFFFFB
FFFFFFE9
0000002F
00000038
00000032
00000002
FFFFFFB5
FFFFFFD6
FFFFFFFD
FFFFFFCD
FFFFFFFC
FFFFFFE0
FFFFFFCE
00000009
0000000C
0000002A
00000018
FFFFFFE0
00000029
00000023
00000015
00000007
0000003F
FFFFFFEA
00000031
00000005
FFFFFFE7
0000000E
0000000C
0000001B
FFFFFFF2
FFFFFFC7
00000016
0000001B
00000024
00000025
00000020
00000041
00000034
00000004
00000023
FFFFFFC9
FFFFFFF3
FFFFFFE8
0000001B
FFFFFFFD
00000017
0000001F
00000029
FFFFFFFD
00000005
FFFFFFB1
00000029
00000011
FFFFFFCE
0000000D
00000025
FFFFFFF1
FFFFFFCE
FFFFFFB3
FFFFFFB0
FFFFFFE5
00000000
00000013
FFFFFFDB
00000023
0000002F
FFFFFFC7
0000001C
FFFFFFEE
0000004F
FFFFFFCB
00000022
0000001F
FFFFFFCA
00000038
00000003
0000001B
00000018
FFFFFFCD
00000009
FFFFFFD7
0000004B
FFFFFFEC
0000002D
00000005
FFFFFFC9
00000015
FFFFFFE1
FFFFFFE4
FFFFFFE4
FFFFFFE0
FFFFFFFA
FFFFFFD6
FFFFFFC5
00000024
00000037
00000005
FFFFFFFC
FFFFFFE3
FFFFFFCB
00000015
FFFFFFE7
FFFFFFE7
00000006
FFFFFFC1
FFFFFFF4
FFFFFFE8
FFFFFFE7
FFFFFFD0
FFFFFFEB
0000001E
00000000
0000001A
FFFFFFF3
FFFFFFC2
0000000F
FFFFFFD6
FFFFFFCF
00000022
FFFFFFDF
FFFFFFE0
00000010
00000028
00000011
00000009
FFFFFFE2
FFFFFFE2
FFFFFFF1
00000010
00000036
00000010
FFFFFFC3
00000027
FFFFFFF6
0000001D
FFFFFFD5
00000038
0000003F
FFFFFFF0
FFFFFFF2
00000018
FFFFFFFF
FFFFFFD9
FFFFFFF2
0000001C
FFFFFFEB
00000017
FFFFFFEC
FFFFFFE0
FFFFFFCA
00000017
FFFFFFE3
0000001D
00000018
0000001E
0000000C
FFFFFFDE
FFFFFFC8
FFFFFFD4
0000000B
FFFFFFFA
FFFFFFEE
0000002E
00000008
FFFFFFF3
FFFFFFD6
FFFFFFF5
FFFFFFD7
00000019
00000024
0000002B
FFFFFFD5
FFFFFFEF
FFFFFFCC
FFFFFFF4
FFFFFFD3
00000029
FFFFFFD1
FFFFFFDB
FFFFFFF2
FFFFFFFB
FFFFFFA9
00000019
00000011
00000012
00000044
FFFFFFEF
FFFFFFDD
FFFFFFF8
0000001A
FFFFFFD4
FFFFFFCF
00000014
00000014
FFFFFFC9
00000010
FFFFFFE5
FFFFFFFE
0000001E
0000001A
FFFFFFF7
0000000E
00000016
FFFFFFD0
00000011
FFFFFFF7
FFFFFFD5
FFFFFFF1
FFFFFFCD
00000014
00000001
00000031
FFFFFFD4
FFFFFFD5
00000033
0000000F
00000030
00000011
FFFFFFD5
00000028
FFFFFFD7
00000021
FFFFFFFF
FFFFFFFC
00000018
FFFFFFDA
FFFFFFEE
00000008
00000021
00000023
0000000E
00000016
FFFFFFD4
FFFFFFF6
00000017
00000033
00000008
FFFFFFE7
FFFFFFE8
00000020
FFFFFFD2
0000003A
00000004
FFFFFFDF
00000015
00000014
FFFFFFF1
FFFFFFD6
00000014
FFFFFFEF
FFFFFFE5
FFFFFFF5
FFFFFFBF
00000013
FFFFFFCA
FFFFFFF7
00000028
0000002F
0000001C
0000000D
00000004
00000024
FFFFFFCD
FFFFFFE7
FFFFFFD2
FFFFFFEF
FFFFFFC8
FFFFFFF6
00000018
FFFFFFE7
0000000F
00000028
FFFFFFFE
FFFFFFF3
0000000E
00000032
FFFFFFD5
0000002C
FFFFFFE4
00000001
FFFFFFEF
0000003E
00000002
00000010
00000019
FFFFFFD2
0000001B
FFFFFFF2
00000038
0000000F
FFFFFFEF
00000015
00000010
FFFFFFEF
0000001F
00000017
FFFFFFF1
00000018
FFFFFFF4
FFFFFFD4
FFFFFFFC
FFFFFFEB
00000009
0000000F
00000004
0000002B
FFFFFFF6
00000020
0000003A
00000032
00000031
00000001
FFFFFFE8
FFFFFFD7
FFFFFFE5
00000033
FFFFFFDE
00000027
00000014
FFFFFFF5
00000032
0000002A
FFFFFFCF
00000012
00000027
FFFFFFCD
FFFFFFCA
FFFFFFD2
FFFFFFDF
00000025
00000002
0000002C
00000015
FFFFFFE7
FFFFFFD7
FFFFFFE2
00000011
0000003E
0000002E
0000002D
FFFFFFE1
0000002A
FFFFFFDC
00000015
FFFFFFF0
0000000C
FFFFFFF4
00000000
00000027
0000000D
FFFFFFE6
FFFFFFE8
FFFFFFFE
00000021
00000003
0000000E
FFFFFFDD
00000040
00000024
00000001
00000004
FFFFFFDE
FFFFFFF4
FFFFFFD0
00000035
00000034
00000022
FFFFFFE1
00000038
FFFFFFD8
0000002C
0000001D
FFFFFFFF
0000001C
00000041
00000002
0000000B
00000035
FFFFFFE6
0000005B
0000000E
FFFFFFD0
FFFFFFD1
FFFFFFF5
FFFFFFDC
FFFFFFFA
FFFFFFD8
FFFFFFF0
FFFFFFDA
00000010
FFFFFFC7
00000001
FFFFFFF4
FFFFFFE5
FFFFFFFF
00000001
0000001D
00000028
00000011
00000001
FFFFFFE3
00000029
00000027
0000002B
FFFFFFCE
00000015
FFFFFFE8
00000017
00000013
FFFFFFF0
FFFFFFC5
FFFFFFE0
FFFFFFD7
00000003
0000002A
FFFFFFF4
0000000C
FFFFFFFB
FFFFFFE7
0000000A
FFFFFFF2
0000000F
0000001E
00000007
FFFFFFB6
0000000E
0000002F
00000023
FFFFFFC4
FFFFFFE8
00000010
FFFFFFC8
FFFFFFE1
00000000
FFFFFFC0
FFFFFFDD
00000009
00000007
0000000C
00000029
0000002F
00000030
00000029
FFFFFFDD
FFFFFFC3
0000000E
FFFFFFFC
00000033
0000001F
FFFFFFE0
00000009
0000000C
FFFFFFF7
FFFFFFDB
00000001
FFFFFFDC
FFFFFFE8
FFFFFFC8
FFFFFFF5
00000013
00000031
00000010
FFFFFFF2
FFFFFFD1
FFFFFFCD
FFFFFFC4
FFFFFFF2
FFFFFFE9
00000000
00000017
FFFFFFD9
FFFFFFDF
FFFFFFE8
00000021
00000033
FFFFFFF2
0000002B
00000029
00000002
00000030
FFFFFFEC
FFFFFFD0
0000004B
0000000D
00000001
0000003F
00000010
FFFFFFFB
0000003D
FFFFFFF5
00000030
00000029
00000004
FFFFFFFE
FFFFFFB1
FFFFFFF1
FFFFFFDF
00000014
FFFFFFD7
FFFFFFF5
00000002
FFFFFFCD
FFFFFFE3
00000014
00000001
0000001D
FFFFFFCD
0000003B
FFFFFFE7
0000003A
00000009
00000034
00000022
0000003F
FFFFFFE9
0000002C
0000000E
FFFFFFDF
00000006
FFFFFFE9
FFFFFFCA
0000001C
FFFFFFF3
00000031
FFFFFFDB
00000014
FFFFFFF9
FFFFFFE8
00000037
0000002F
FFFFFFD6
FFFFFFDD
00000020
FFFFFFD5
FFFFFFF1
00000036
0000002F
FFFFFFCE
0000000C
00000015
FFFFFFE3
FFFFFFCB
FFFFFFB1
00000026
FFFFFFEF
00000021
00000006
00000002
0000002A
00000027
00000010
00000016
00000030
FFFFFFDB
0000000A
00000022
FFFFFFEE
00000020
FFFFFFED
00000057
FFFFFFDD
00000033
FFFFFFFE
0000003B
00000022
FFFFFFF5
00000018
FFFFFFF2
00000016
0000005B
FFFFFFDA
FFFFFFFE
FFFFFFD1
FFFFFFF9
FFFFFFE5
00000008
FFFFFFDD
FFFFFFD9
00000001
FFFFFFDD
0000003B
FFFFFFFC
FFFFFFD7
0000003F
FFFFFFD9
FFFFFFE1
FFFFFFCD
FFFFFFE8
00000007
0000000A
FFFFFFD6
FFFFFFD9
0000002C
FFFFFFD9
00000010
00000020
00000016
00000036
00000013
FFFFFFDF
00000036
00000011
0000000E
FFFFFFBD
0000003B
00000027
FFFFFFCC
FFFFFFE6
FFFFFFEB
00000047
FFFFFFE1
FFFFFFD2
FFFFFFEB
FFFFFFF9
FFFFFFF9
0000002F
0000000D
00000005
FFFFFFE9
FFFFFFE8
0000001E
0000002E
00000022
FFFFFFE5
0000001A
FFFFFFD5
FFFFFFE9
00000006
FFFFFFDC
FFFFFFF7
FFFFFFF0
FFFFFFDF
0000000C
00000020
00000000
FFFFFFEA
FFFFFFEF
00000045
FFFFFFF6
0000001A
FFFFFFEA
FFFFFFE6
FFFFFFDC
00000012
00000021
00000000
FFFFFFFA
00000041
00000032
FFFFFFED
00000012
FFFFFFE6
FFFFFFD3
FFFFFFE4
0000000E
00000030
00000041
00000030
FFFFFFD2
FFFFFFFF
00000005
00000030
FFFFFFD5
FFFFFFF5
FFFFFFCC
00000027
FFFFFFDB
00000017
00000017
00000007
0000000C
FFFFFFE0
00000040
00000010
0000003F
FFFFFFF4
FFFFFFF6
FFFFFFFD
FFFFFFF6
FFFFFFD4
00000039
00000007
FFFFFFE2
00000000
FFFFFFDB
00000010
00000019
00000013
0000002E
00000026
FFFFFFFF
00000014
FFFFFFFD
FFFFFFF8
00000028
00000005
0000003A
FFFFFFFC
FFFFFFDB
00000037
FFFFFFC4
0000001B
FFFFFFCD
0000000D
FFFFFFF6
00000026
0000002D
00000024
FFFFFFF3
0000003B
0000002A
FFFFFFCC
00000005
0000003A
00000003
00000030
0000001E
0000001C
FFFFFFEC
FFFFFFCC
0000001E
FFFFFFCD
0000001E
00000033
FFFFFFE2
00000022
FFFFFFEE
FFFFFFCD
00000020
0000004A
00000019
FFFFFFF6
FFFFFFE6
00000041
FFFFFFEF
FFFFFFFD
00000004
FFFFFFFF
FFFFFFEE
0000000D
00000023
FFFFFFD2
00000024
00000023
FFFFFFE6
FFFFFFD2
FFFFFFF6
00000038
0000000A
0000003D
0000003F
FFFFFFFC
00000017
00000028
0000000B
0000001F
00000025
00000008
00000028
00000011
00000015
00000018
FFFFFFEE
FFFFFFE2
FFFFFFD6
FFFFFFF0
0000002B
FFFFFFDB
0000001D
FFFFFFD2
FFFFFFFB
00000034
0000000B
FFFFFFF0
00000035
FFFFFFD4
00000006
00000026
FFFFFFD0
FFFFFFFF
00000036
FFFFFFF2
0000002C
0000000C
00000017
00000025
0000001D
FFFFFFFD
FFFFFFEC
FFFFFFEF
FFFFFFDF
FFFFFFF7
0000003A
FFFFFFE3
FFFFFFE6
FFFFFFE5
FFFFFFED
FFFFFFDD
FFFFFFB2
0000003F
FFFFFFFC
FFFFFFC0
00000048
FFFFFFD4
FFFFFFE4
00000012
00000017
00000000
FFFFFFE8
0000001A
00000022
0000001B
0000000F
FFFFFFF1
00000027
0000004E
FFFFFFE6
FFFFFFE2
FFFFFFC9
FFFFFFCB
FFFFFFF9
FFFFFFDB
FFFFFFE5
00000004
00000025
0000000A
00000018
00000034
FFFFFFF3
FFFFFFBD
FFFFFFCA
0000000A
00000033
FFFFFFEB
0000001A
00000010
00000002
FFFFFFD3
FFFFFFFC
FFFFFFC0
FFFFFFD7
00000035
00000031
0000000F
00000008
0000002F
FFFFFFF4
00000048
00000006
FFFFFFFF
FFFFFFE1
FFFFFFDE
FFFFFFC9
FFFFFFE6
00000007
00000011
0000003E
FFFFFFE9
00000010
FFFFFFCE
00000027
00000018
FFFFFFFE
0000000B
FFFFFFF2
00000002
0000003C
00000021
00000005
00000000
FFFFFFEA
00000019
00000014
FFFFFFFD
00000029
FFFFFFFC
00000015
FFFFFFF9
FFFFFFD9
00000028
FFFFFFCA
FFFFFFEE
00000015
00000008
00000000
0000001B
00000020
00000019
00000015
FFFFFFDA
00000010
00000013
FFFFFFEC
FFFFFFCF
FFFFFFD6
00000043
0000000A
00000023
FFFFFFF5
00000012
00000036
00000017
00000005
0000000B
FFFFFFD6
00000013
FFFFFFD7
FFFFFFBA
00000031
FFFFFFEF
FFFFFFDA
FFFFFFE7
FFFFFFF2
FFFFFFCF
00000011
FFFFFFDC
00000000
FFFFFFD6
00000013
FFFFFFE8
00000034
FFFFFFEC
00000026
00000027
00000007
FFFFFFFF
0000000B
FFFFFFEA
00000026
FFFFFFE9
FFFFFFD1
FFFFFFED
FFFFFFE7
0000002F
0000001A
FFFFFFE5
FFFFFFE7
FFFFFFFE
FFFFFFF9
00000034
00000007
FFFFFFF3
FFFFFFE3
FFFFFFE7
FFFFFFE8
00000034
00000020
0000003D
FFFFFFFD
FFFFFFC8
00000039
FFFFFFF0
00000004
FFFFFFDC
00000024
FFFFFFE5
FFFFFFED
00000004
FFFFFFFF
FFFFFFE0
FFFFFFFA
00000004
00000008
FFFFFFFC
FFFFFFBB
FFFFFFC2
FFFFFFE6
FFFFFFE8
00000010
00000002
00000031
FFFFFFF8
00000023
FFFFFFD3
FFFFFFF3
FFFFFFE2
FFFFFFDC
FFFFFFE8
0000000A
FFFFFFC1
FFFFFFED
0000001B
FFFFFFDE
FFFFFFEC
00000050
00000012
FFFFFFE9
0000001F
0000002A
00000014
0000000B
FFFFFFDA
00000006
00000023
FFFFFFD7
FFFFFFC1
00000005
00000036
FFFFFFF4
FFFFFFEA
FFFFFFFD
0000004F
FFFFFFED
00000017
0000000B
FFFFFFD9
FFFFFFEA
00000016
00000013
FFFFFFE9
0000000B
FFFFFFDE
0000000C
FFFFFFF6
00000034
FFFFFFF0
FFFFFFFC
0000002D
FFFFFFC3
FFFFFFEC
0000002A
FFFFFFC1
FFFFFFEA
FFFFFFD3
FFFFFFE5
00000001
00000017
0000001C
FFFFFFEA
FFFFFFEE
FFFFFFE0
00000004
FFFFFFDD
FFFFFFF5
00000017
FFFFFFFF
0000003C
0000002D
0000001C
0000000D
FFFFFFDF
FFFFFFFB
00000030
FFFFFFE3
0000004A
FFFFFFF0
00000025
0000002D
00000010
0000004E
FFFFFFBD
FFFFFFF2
FFFFFFFA
00000008
FFFFFFFA
00000025
FFFFFFFE
00000006
00000000
FFFFFFD6
0000004C
FFFFFFC8
FFFFFFBF
00000026
00000011
FFFFFFD8
0000002E
FFFFFFE4
FFFFFFDA
FFFFFFDD
FFFFFFE6
FFFFFFE7
00000017
0000001E
FFFFFFD8
00000046
FFFFFFDF
0000003A
0000000C
FFFFFFE4
FFFFFFF7
00000034
0000000A
FFFFFFE9
FFFFFFD5
00000025
00000004
00000020
0000000C
00000026
00000041
00000017
FFFFFFDE
00000011
0000002E
FFFFFFFD
00000033
FFFFFFFD
FFFFFFCB
FFFFFFFC
FFFFFFE0
00000008
FFFFFFF6
FFFFFFFF
00000016
FFFFFFE9
00000023
00000032
0000002A
FFFFFFF4
FFFFFFF6
FFFFFFE6
FFFFFFD1
FFFFFFF0
FFFFFFE2
0000000F
0000003C
0000002F
FFFFFFF4
0000002C
FFFFFFE1
FFFFFFF5
FFFFFFEA
00000006
00000009
FFFFFFF5
FFFFFFDD
FFFFFFF1
FFFFFFF9
FFFFFFC6
FFFFFFE3
00000028
00000029
00000036
FFFFFFE6
FFFFFFDB
00000031
FFFFFFEC
0000002B
00000000
FFFFFFCF
0000005D
FFFFFFE9
FFFFFFF8
0000002F
00000013
00000001
FFFFFFF8
0000000F
00000002
00000026
0000002F
FFFFFFE7
00000028
FFFFFFF7
00000013
00000040
00000015
00000021
FFFFFFEA
FFFFFFC0
FFFFFFE8
FFFFFFF5
FFFFFFDE
FFFFFFF1
FFFFFFD0
FFFFFFE9
FFFFFFAE
00000019
00000034
FFFFFFE2
0000001F
FFFFFFE1
00000003
FFFFFFFF
FFFFFFD1
0000000C
FFFFFFCD
0000003C
FFFFFFD6
00000007
00000035
00000001
FFFFFFFE
0000005B
0000000E
FFFFFFF6
FFFFFFE6
FFFFFFEB
00000009
00000008
00000018
FFFFFFC9
0000000E
00000033
00000016
0000001E
00000044
00000006
00000004
0000002C
FFFFFFD1
0000000F
0000000F
00000007
00000015
FFFFFFE5
FFFFFFCB
00000014
FFFFFFFA
0000003D
FFFFFFE1
00000015
00000015
FFFFFFDA
0000001F
00000024
FFFFFFEA
FFFFFFF7
FFFFFFB8
FFFFFFD3
00000043
00000001
0000004D
FFFFFFD7
FFFFFFF3
FFFFFFF4
00000000
FFFFFFF2
00000006
FFFFFFBF
FFFFFFEA
FFFFFFDB
FFFFFFEA
FFFFFFED
FFFFFFDA
FFFFFFF2
0000002F
00000041
00000033
FFFFFFC6
0000001B
FFFFFFF4
00000016
00000008
00000052
FFFFFFF6
0000000B
FFFFFFD3
00000031
00000032
00000030
0000004F
0000000F
FFFFFFEF
0000001C
00000018
00000030
00000015
0000000D
0000000E
FFFFFFC8
0000000E
FFFFFFED
00000015
0000000A
00000010
FFFFFFDD
0000000F
FFFFFFFE
FFFFFFFC
0000003D
00000003
FFFFFFCC
FFFFFFFB
FFFFFFF3
FFFFFFF9
FFFFFFD3
00000035
FFFFFFED
FFFFFFED
00000003
FFFFFFE1
00000040
00000026
00000007
00000036
FFFFFFD3
00000026
FFFFFFCF
FFFFFFF6
0000001C
00000009
FFFFFFA7
0000000A
FFFFFFF8
00000007
00000034
00000021
00000011
FFFFFFF6
FFFFFFED
0000001F
FFFFFFF3
0000004D
FFFFFFC4
FFFFFFF4
0000002F
FFFFFFF8
00000004
00000034
0000002F
0000000F
FFFFFFEF
FFFFFFDC
FFFFFFFB
FFFFFFD8
00000013
FFFFFFF0
FFFFFFF2
FFFFFFF6
FFFFFFE5
00000005
00000000
00000012
FFFFFFD1
0000001C
00000000
00000029
00000021
00000034
00000014
0000000C
FFFFFFFA
00000026
FFFFFFF7
0000002E
FFFFFFC5
0000001C
FFFFFFE1
FFFFFFF7
FFFFFFFE
0000001D
0000002D
FFFFFFE4
00000011
00000013
0000001E
00000043
00000017
00000018
00000004
00000004
0000003E
FFFFFFF3
0000002B
00000025
FFFFFFFE
0000000F
FFFFFFCE
FFFFFFE5
FFFFFFD6
0000002E
FFFFFFE7
FFFFFFD9
00000013
FFFFFFFA
FFFFFFF2
0000001C
00000024
FFFFFFC9
FFFFFFED
FFFFFFE4
00000018
FFFFFFEC
00000011
0000000A
0000000C
0000000A
0000001E
FFFFFFE6
FFFFFFF7
FFFFFFFA
00000026
FFFFFFFE
FFFFFFE4
FFFFFFEC
00000003
00000026
FFFFFFFE
00000003
FFFFFFE7
FFFFFFF5
00000011
00000008
FFFFFFCE
FFFFFFE7
00000027
00000017
00000016
00000005
00000011
00000027
0000003D
0000001B
00000042
00000020
FFFFFFD4
FFFFFFFF
FFFFFFCE
FFFFFFF1
00000030
FFFFFFED
00000005
00000001
FFFFFFFB
FFFFFFCF
FFFFFFF2
00000009
FFFFFFDF
0000003C
00000010
0000001A
FFFFFFF3
0000000C
FFFFFFE7
FFFFFFF2
00000007
0000002B
FFFFFFD0
00000011
00000014
FFFFFFFE
0000004B
FFFFFFDF
00000029
0000002B
00000002
0000001B
FFFFFFE5
FFFFFFF5
00000040
FFFFFFF4
0000002A
FFFFFFD8
0000000A
FFFFFFF2
0000000C
00000007
00000039
00000006
FFFFFFE5
00000000
FFFFFFE4
0000001C
00000022
0000002F
FFFFFFD1
FFFFFFDE
0000000A
00000000
00000043
FFFFFFE1
0000003B
00000026
0000001A
FFFFFFF5
0000000D
FFFFFFD7
FFFFFFFE
0000002C
0000003B
00000006
FFFFFFEB
FFFFFFE9
0000001A
00000019
00000011
00000000
FFFFFFD7
FFFFFFE1
FFFFFFDE
0000002B
FFFFFFF8
00000007
00000018
00000029
FFFFFFE2
FFFFFFEC
00000024
0000001E
FFFFFFC8
0000003F
FFFFFFDC
0000001B
00000022
00000024
FFFFFFF9
00000030
FFFFFFF3
FFFFFFD8
00000033
FFFFFFFA
00000002
FFFFFFD2
FFFFFFE9
FFFFFFE6
00000006
00000012
00000038
FFFFFFE3
00000032
FFFFFFF9
FFFFFFE1
00000040
0000004F
0000003B
0000002B
FFFFFFE9
0000000F
FFFFFFEE
FFFFFFEB
00000020
0000000F
0000003A
FFFFFFD1
FFFFFFE5
00000006
0000001F
FFFFFFED
FFFFFFEC
0000001C
00000029
FFFFFFDC
FFFFFFD7
0000001C
FFFFFFFF
FFFFFFD2
FFFFFFC3
FFFFFFFC
00000011
00000003
00000029
FFFFFFE3
00000033
FFFFFFDF
00000031
FFFFFFEB
FFFFFFF5
00000016
FFFFFFE6
00000020
FFFFFFF3
FFFFFFEE
FFFFFFAB
00000031
FFFFFFCF
00000000
0000000E
0000000C
0000004D
00000035
FFFFFFC9
FFFFFFD1
00000003
00000004
FFFFFFE6
FFFFFFE9
FFFFFFBE
FFFFFFFF
00000059
FFFFFFF9
FFFFFFEA
00000027
FFFFFFFD
00000037
FFFFFFE8
00000000
0000002F
00000004
00000023
0000001E
00000009
0000001B
FFFFFFEE
00000037
00000000
0000002B
FFFFFFD6
00000053
00000013
00000033
00000006
FFFFFFD3
00000016
FFFFFFED
FFFFFFC8
00000013
00000012
FFFFFFFC
0000001B
FFFFFFEF
FFFFFFBF
FFFFFFE3
0000001F
FFFFFFDA
00000018
0000003E
00000028
0000001D
FFFFFFD1
0000002B
00000031
FFFFFFC1
FFFFFFF8
0000001D
FFFFFFEF
FFFFFFE9
0000003A
FFFFFFEB
FFFFFFD2
FFFFFFB8
00000002
00000005
FFFFFFED
0000000E
FFFFFFF5
0000001D
00000041
0000000A
00000038
0000001C
FFFFFFBE
FFFFFFD5
0000000B
FFFFFFF1
0000001D
FFFFFFBD
FFFFFFCF
00000030
0000002B
FFFFFFE9
00000034
0000001D
00000024
0000003E
FFFFFFF2
FFFFFFFC
00000021
FFFFFFEC
FFFFFFEF
00000010
00000036
0000000A
00000043
FFFFFFE9
00000002
FFFFFFB8
FFFFFFDD
00000029
00000002
00000035
FFFFFFF9
0000001E
FFFFFFFE
0000002E
FFFFFFF4
00000041
FFFFFFDD
00000000
00000011
FFFFFFF5
FFFFFFE3
FFFFFFC8
00000008
0000000F
FFFFFFDA
00000008
FFFFFFF9
FFFFFFE2
0000000A
FFFFFFFF
0000000F
FFFFFFEA
FFFFFFDB
FFFFFFD5
FFFFFFCD
0000003D
FFFFFFE6
FFFFFFEC
00000001
FFFFFFFD
00000023
FFFFFFEE
00000027
00000015
FFFFFFDF
FFFFFFC5
FFFFFFD6
FFFFFFF1
00000015
0000003B
00000032
00000010
00000003
FFFFFFDD
FFFFFFDC
0000000E
00000028
FFFFFFD0
0000002F
0000000E
FFFFFFF4
FFFFFFE4
FFFFFFEE
FFFFFFF6
00000032
00000014
FFFFFFF5
00000029
00000013
FFFFFFEB
0000002E
FFFFFFFD
00000027
FFFFFFE4
00000029
00000019
0000002D
0000000E
00000007
0000001E
FFFFFFE0
FFFFFFD5
00000028
FFFFFFD8
0000001F
00000017
0000000D
00000000
FFFFFFF8
0000000B
FFFFFFBC
FFFFFFF1
FFFFFFE8
FFFFFFFE
00000004
FFFFFFF0
0000001A
0000001A
00000010
00000002
0000000F
FFFFFFD6
FFFFFFF0
FFFFFFB4
00000004
00000006
FFFFFFF7
0000000B
FFFFFFD9
0000002D
0000002B
00000026
00000013
00000039
FFFFFFD8
00000023
FFFFFFD9
FFFFFFCF
FFFFFFD4
FFFFFFF8
0000000E
00000023
FFFFFFE2
00000024
FFFFFFF8
0000000D
FFFFFFE9
FFFFFFEE
FFFFFFDD
0000000B
FFFFFFE1
00000031
FFFFFFFB
0000001B
FFFFFFED
0000000A
00000044
00000009
0000001C
FFFFFFC3
00000027
00000012
FFFFFFC4
FFFFFFDB
FFFFFFF5
0000005A
FFFFFFC5
FFFFFFF8
FFFFFFEE
00000016
00000006
0000002A
FFFFFFF2
00000005
FFFFFFDF
00000013
FFFFFFCF
00000009
00000028
FFFFFFED
FFFFFFF8
0000003C
FFFFFFE6
0000001E
FFFFFFCD
FFFFFFF6
FFFFFFEC
FFFFFFE5
00000043
00000023
FFFFFFDD
0000000B
00000002
FFFFFFD2
00000010
FFFFFFF2
FFFFFFF8
FFFFFFF1
0000000B
FFFFFFF0
0000001D
00000007
FFFFFFEE
0000000E
FFFFFFF2
00000025
FFFFFFC5
0000001B
FFFFFFF4
FFFFFFC5
00000012
0000000C
00000029
0000002A
FFFFFFEC
00000008
FFFFFFF1
FFFFFFF9
00000026
FFFFFFD7
0000000B
FFFFFFE8
FFFFFFB8
FFFFFFF4
FFFFFFD6
0000001C
FFFFFFFA
0000001C
00000007
FFFFFFFC
00000034
FFFFFFFD
FFFFFFF2
00000031
00000001
FFFFFFDF
00000042
00000001
0000001F
00000006
FFFFFFE5
00000045
00000023
FFFFFFCF
FFFFFFD9
00000036
0000002E
00000032
FFFFFFFD
FFFFFFC4
00000006
FFFFFFF0
FFFFFFE4
0000001F
00000015
FFFFFFCE
00000015
00000010
0000000D
FFFFFFFA
0000000B
00000021
00000013
FFFFFFF5
00000011
FFFFFFF8
FFFFFFFE
0000002C
FFFFFFE2
FFFFFFEB
0000001A
0000000D
00000012
00000004
00000004
FFFFFFFC
FFFFFFFE
0000003E
0000002A
FFFFFFD2
FFFFFFEA
0000001C
00000032
FFFFFFFB
00000015
FFFFFFDA
FFFFFFD7
FFFFFFF9
FFFFFFE4
00000041
FFFFFFDA
00000051
0000002B
00000036
0000003D
FFFFFFF0
FFFFFFDD
FFFFFFC3
FFFFFFFD
00000057
00000021
00000013
FFFFFFF9
0000000D
00000007
00000028
00000020
0000001B
FFFFFFB9
FFFFFFE1
00000008
00000011
FFFFFFEC
00000043
00000024
0000002B
FFFFFFF0
00000002
0000001F
0000001F
FFFFFFEF
00000001
0000002F
FFFFFFE9
FFFFFFFD
0000001E
00000024
00000026
FFFFFFDA
FFFFFFDF
0000000A
00000022
0000001F
0000000F
0000001D
0000000F
0000001A
00000023
0000001B
0000000F
FFFFFFE9
00000049
00000019
FFFFFFCD
FFFFFFE9
FFFFFFF0
0000000F
FFFFFFCF
00000048
00000021
00000001
00000003
00000031
FFFFFFF0
FFFFFFE1
0000002E
00000011
00000036
0000003E
00000026
0000000E
00000014
00000015
0000000D
FFFFFFEE
0000001A
FFFFFFE6
00000037
FFFFFFEE
FFFFFFDA
00000009
FFFFFFEE
00000029
FFFFFFC2
00000009
0000002E
FFFFFFDA
FFFFFFE8
00000026
FFFFFFDE
00000015
0000002F
0000001D
FFFFFFE0
FFFFFFFD
FFFFFFBF
0000001A
FFFFFFDE
0000001E
0000002B
FFFFFFDB
0000000D
00000001
0000001C
FFFFFFFD
00000022
FFFFFFF3
00000010
00000021
0000000E
00000000
FFFFFFE0
00000006
FFFFFFDC
FFFFFFF2
00000018
00000004
FFFFFFC9
FFFFFFE3
00000008
FFFFFFD7
00000006
0000004C
FFFFFFD1
FFFFFFE1
0000001E
FFFFFFEF
00000005
0000003B
FFFFFFEE
00000021
FFFFFFCB
FFFFFFF1
FFFFFFE5
FFFFFFF7
FFFFFFFB
FFFFFFF4
00000038
00000033
00000051
FFFFFFFB
00000006
00000013
FFFFFFF4
FFFFFFF8
FFFFFFE3
FFFFFFE5
FFFFFFCD
00000034
FFFFFFCA
00000016
00000023
FFFFFFF7
FFFFFFBE
FFFFFFFA
00000017
FFFFFFEB
00000045
00000018
FFFFFFF4
FFFFFFF0
0000002E
FFFFFFF5
00000002
FFFFFFF5
FFFFFFC7
0000001D
00000015
FFFFFFFB
00000020
FFFFFFDF
FFFFFFE4
FFFFFFFB
FFFFFFEE
00000000
0000001B
00000004
FFFFFFC2
0000001D
FFFFFFD5
0000000D
FFFFFFFE
0000000E
0000001B
FFFFFFAA
FFFFFFC8
0000002C
FFFFFFFB
0000000B
FFFFFFD2
0000000C
0000001B
FFFFFFB7
FFFFFFF0
00000032
00000033
0000000D
FFFFFFE5
FFFFFFF1
0000002A
FFFFFFEE
0000000F
FFFFFFC8
FFFFFFF9
00000023
00000016
FFFFFFF6
00000036
00000034
FFFFFFF8
00000011
FFFFFFC8
0000004D
00000018
FFFFFFD2
00000041
0000000B
00000013
0000000E
00000039
FFFFFFF8
FFFFFFED
0000001C
FFFFFFEF
00000025
00000034
00000001
FFFFFFD8
00000017
00000032
00000026
0000001D
FFFFFFEE
0000001D
FFFFFFFA
0000000C
FFFFFFE8
0000002E
00000015
FFFFFFDE
FFFFFFF0
0000002E
00000000
00000027
00000037
00000000
0000000E
FFFFFFE3
00000021
00000033
FFFFFFFE
00000012
00000033
FFFFFFEE
FFFFFFDD
00000010
FFFFFFCD
FFFFFFD3
00000034
FFFFFFF4
FFFFFFD9
FFFFFFFB
0000002D
00000020
00000029
0000002E
FFFFFFCD
00000032
FFFFFFEA
00000018
FFFFFFF9
FFFFFFFB
FFFFFFDB
00000015
00000036
00000003
0000002E
0000000C
FFFFFFEB
00000006
0000001F
00000043
FFFFFFCA
FFFFFFDB
FFFFFFEC
FFFFFFD5
FFFFFFE7
FFFFFFD3
0000004D
FFFFFFF5
00000015
FFFFFFD9
FFFFFFFB
0000000A
FFFFFFE0
FFFFFFF5
FFFFFFFF
FFFFFFE7
FFFFFFE3
00000027
00000019
0000001A
FFFFFFE2
FFFFFFE0
0000000A
FFFFFFE7
00000008
FFFFFFF1
00000021
FFFFFFE1
FFFFFFFC
FFFFFFE3
FFFFFFEE
00000042
00000003
0000002A
FFFFFFF5
FFFFFFFF
0000001D
FFFFFFE0
00000016
FFFFFFF8
00000017
00000015
FFFFFFE4
FFFFFFF0
FFFFFFFF
FFFFFFEB
00000046
FFFFFFD9
FFFFFFDD
FFFFFFF7
00000008
00000009
FFFFFFFA
FFFFFFCC
00000020
FFFFFFE4
0000001B
FFFFFFC4
0000000B
FFFFFFF3
FFFFFFF4
FFFFFFF9
0000001C
0000002F
FFFFFFDE
FFFFFFD3
FFFFFFD7
FFFFFFEA
00000031
FFFFFFF0
00000019
00000033
FFFFFFE3
00000024
0000002D
FFFFFFFA
FFFFFFF9
FFFFFFB7
00000004
00000012
00000032
0000001D
00000013
00000015
0000001A
FFFFFFEA
00000004
00000009
0000000C
FFFFFFCC
00000005
FFFFFFF6
00000019
0000002E
FFFFFFCD
FFFFFFF4
FFFFFFE9
FFFFFFEC
00000029
0000000C
FFFFFFCF
0000000A
0000003A
FFFFFFE3
FFFFFFF5
00000028
0000002B
00000023
FFFFFFEB
00000004
0000001D
0000001A
00000000
FFFFFFFA
FFFFFFFE
0000001F
FFFFFFF3
0000001A
0000001F
0000001B
FFFFFFFA
FFFFFFC2
00000022
FFFFFFAC
FFFFFFE9
FFFFFFFC
00000031
FFFFFFEF
00000004
00000020
0000000A
0000000A
00000034
FFFFFFDB
0000000F
FFFFFFEB
FFFFFFFB
0000002D
FFFFFFDA
00000023
00000040
00000027
0000002D
0000001D
FFFFFFDB
FFFFFFD6
00000003
00000006
0000001E
00000008
FFFFFFEF
FFFFFFE4
FFFFFFD8
FFFFFFD3
00000011
00000000
0000000D
00000008
0000001D
FFFFFFF1
0000001B
00000037
FFFFFFE6
FFFFFFF2
FFFFFFDC
00000009
00000043
00000022
FFFFFFF6
00000018
FFFFFFDD
00000021
00000036
00000012
0000002E
FFFFFFEE
0000000D
FFFFFFF0
FFFFFFF2
FFFFFFF8
FFFFFFEA
FFFFFFC2
FFFFFFDF
0000002F
00000003
00000015
FFFFFFE7
FFFFFFEB
00000002
FFFFFFE8
FFFFFFF2
FFFFFFFB
FFFFFFE7
FFFFFFC6
00000031
0000002B
FFFFFFDB
0000002D
00000011
00000030
FFFFFFEB
00000032
FFFFFFF0
0000003F
00000037
FFFFFFCA
00000006
00000022
0000002E
00000017
00000010
FFFFFFC8
FFFFFFEF
FFFFFFF2
0000001B
00000005
00000017
FFFFFFF6
FFFFFFE0
FFFFFFF7
FFFFFFDA
FFFFFFE9
00000022
FFFFFFC7
FFFFFFF8
00000006
FFFFFFF5
00000031
00000028
FFFFFFFA
FFFFFFE5
FFFFFFCE
0000000F
00000023
00000003
FFFFFFC5
00000033
FFFFFFD8
00000026
0000003D
FFFFFFD5
00000061
FFFFFFD1
00000025
0000001D
FFFFFFDD
0000002C
00000029
FFFFFFFF
FFFFFFF1
0000000F
FFFFFFF4
00000015
FFFFFFD0
FFFFFFEE
FFFFFFDE
00000011
FFFFFFDB
FFFFFFDD
FFFFFFEA
FFFFFFCB
FFFFFFCB
FFFFFFF8
00000004
00000011
00000013
00000014
00000031
00000031
FFFFFFF7
FFFFFFCB
00000001
00000026
FFFFFFED
0000001D
0000001D
00000032
00000016
FFFFFFF0
00000011
FFFFFFF8
00000019
FFFFFFE7
FFFFFFF7
00000033
FFFFFFDB
FFFFFFF0
FFFFFFDA
0000003C
0000001A
00000037
0000002F
FFFFFFE3
FFFFFFFB
FFFFFFF3
0000002D
FFFFFFF2
FFFFFFD9
00000042
0000000C
00000023
00000036
FFFFFFF2
FFFFFFDD
FFFFFFFE
00000017
00000013
00000007
FFFFFFDD
00000014
00000013
00000009
FFFFFFE8
00000009
00000025
00000009
00000014
FFFFFFDE
00000006
FFFFFFD8
FFFFFFD8
00000015
00000038
FFFFFFF8
FFFFFFD3
00000017
0000000C
FFFFFFE9
FFFFFFDF
FFFFFFE6
00000015
0000001C
FFFFFFBF
FFFFFFE1
FFFFFFE0
FFFFFFED
00000018
00000003
00000001
0000001B
0000002E
FFFFFFFF
FFFFFFF1
FFFFFFE1
FFFFFFF5
0000003A
FFFFFFD2
00000013
FFFFFFF0
00000019
0000004D
0000000D
FFFFFFF4
FFFFFFB9
FFFFFFE0
FFFFFFEF
FFFFFFDD
0000000A
0000000E
0000001E
0000000D
0000001C
00000010
00000004
00000023
00000013
00000010
FFFFFFED
00000005
00000017
FFFFFFCB
00000025
00000011
0000000A
0000000B
00000012
FFFFFFD8
00000028
FFFFFFEA
00000006
FFFFFFE2
00000019
00000003
FFFFFFF3
0000000B
00000043
00000003
FFFFFFE8
0000000F
0000001E
0000001F
FFFFFFFE
0000003D
FFFFFFF3
00000006
0000001B
0000001C
FFFFFFE7
00000013
FFFFFFEC
00000006
00000012
00000009
FFFFFFFD
FFFFFFEE
FFFFFFF5
00000007
FFFFFFDA
FFFFFFD1
FFFFFFFC
FFFFFFD1
FFFFFFD0
00000007
00000018
FFFFFFE4
0000001B
00000013
00000017
FFFFFFF0
FFFFFFDD
00000044
00000027
FFFFFFE0
FFFFFFD6
FFFFFFCC
00000029
00000023
00000014
FFFFFFD0
FFFFFFC4
0000001E
FFFFFFED
00000018
00000002
0000002B
FFFFFFFA
00000020
00000000
00000027
0000002C
FFFFFFBA
FFFFFFC6
0000001A
0000001F
00000031
00000029
FFFFFFD6
FFFFFFCB
FFFFFFEE
FFFFFFFC
00000012
FFFFFFFE
FFFFFFE5
FFFFFFF0
00000022
0000002F
FFFFFFBB
00000010
0000002B
00000027
FFFFFFDE
0000001B
FFFFFFC5
FFFFFFC4
FFFFFFE6
00000005
FFFFFFF5
FFFFFFB5
0000001C
FFFFFFF6
FFFFFFD4
00000029
FFFFFFFB
0000001A
FFFFFFF6
0000001D
FFFFFFF7
0000001E
00000023
00000006
FFFFFFC9
FFFFFFE3
FFFFFFF7
FFFFFFE5
00000011
FFFFFFFC
00000024
00000021
00000017
FFFFFFFC
FFFFFFD5
00000022
00000017
FFFFFFEE
FFFFFFC5
00000006
FFFFFFFF
FFFFFFE3
0000001A
0000002B
FFFFFFD9
00000046
00000000
0000001D
00000022
FFFFFFC4
FFFFFFFC
0000001D
FFFFFFE9
FFFFFFF2
00000023
FFFFFFC0
FFFFFFD7
FFFFFFE5
0000002D
00000009
FFFFFFDD
FFFFFFC0
FFFFFFD8
0000000F
00000015
FFFFFFD8
FFFFFFED
FFFFFFE7
FFFFFFCC
0000002A
00000020
FFFFFFF1
FFFFFFB1
FFFFFFF4
00000006
00000013
FFFFFFF6
0000000C
0000000D
FFFFFFD7
FFFFFFD3
00000038
00000008
FFFFFFD1
00000032
0000002B
FFFFFFEE
FFFFFFDF
FFFFFFF1
00000006
00000012
00000010
FFFFFFE6
00000036
FFFFFFFA
FFFFFFC3
FFFFFFF9
00000008
FFFFFFE8
FFFFFFF6
0000001A
00000004
FFFFFFF8
FFFFFFFB
FFFFFFFB
00000006
00000029
FFFFFFEF
FFFFFFFC
00000024
0000000C
0000000D
FFFFFFC6
00000017
0000002B
FFFFFFCF
FFFFFFF3
FFFFFFFB
0000000B
00000037
00000027
FFFFFFD9
00000032
00000027
FFFFFFDC
00000041
0000001A
00000025
FFFFFFF4
FFFFFFF2
FFFFFFEC
FFFFFFF3
FFFFFFD4
0000004E
FFFFFFEF
00000023
FFFFFFEA
00000039
FFFFFFE5
00000012
0000001B
00000014
FFFFFFB9
FFFFFFD7
FFFFFFE9
FFFFFFED
FFFFFFEA
FFFFFFE0
00000027
00000005
FFFFFFFE
00000005
0000002E
FFFFFFD3
FFFFFFF0
FFFFFFF1
0000000E
00000007
00000020
00000026
00000020
FFFFFFFC
FFFFFFE4
0000002F
00000008
FFFFFFD4
FFFFFFFD
FFFFFFF2
00000010
FFFFFFEF
00000015
00000000
FFFFFFE9
00000000
FFFFFFCA
00000020
0000001A
00000011
FFFFFFC4
00000005
00000031
FFFFFFF8
FFFFFFEB
00000010
FFFFFFCC
00000012
00000009
FFFFFFFF
FFFFFFFA
FFFFFFF3
FFFFFFFB
FFFFFFE4
00000022
0000001D
FFFFFFFE
0000001B
FFFFFFFA
FFFFFFF1
FFFFFFE5
FFFFFFDF
0000000C
FFFFFFF0
FFFFFFEB
00000030
FFFFFFF0
FFFFFFF9
FFFFFFE5
00000014
0000001E
00000002
00000035
00000046
FFFFFFF8
0000004B
FFFFFFF2
FFFFFFE1
FFFFFFE5
00000002
FFFFFFFA
0000004B
FFFFFFF7
FFFFFFE7
FFFFFFD4
00000006
0000000E
FFFFFFD9
0000003B
00000009
FFFFFFD1
0000001E
00000000
00000002
FFFFFFE8
0000002E
FFFFFFDC
00000030
FFFFFFEE
00000041
0000000C
FFFFFFE0
00000013
0000001C
00000021
FFFFFFF0
FFFFFFF5
FFFFFFD5
00000003
0000002D
00000004
00000035
FFFFFFE3
0000001D
FFFFFFD8
0000001E
0000000F
FFFFFFD7
FFFFFFD5
0000002C
FFFFFFE9
FFFFFFF9
0000003F
FFFFFFB3
FFFFFFF8
00000001
00000024
00000044
FFFFFFE9
00000013
0000000D
00000025
FFFFFFF6
0000003F
FFFFFFCF
FFFFFFCD
00000007
0000000E
FFFFFFFD
00000022
00000015
FFFFFFFE
FFFFFFC8
00000009
FFFFFFF9
00000022
FFFFFFFE
FFFFFFF8
FFFFFFCC
00000025
00000035
0000001F
FFFFFFEA
0000001C
FFFFFFF7
00000013
00000023
00000003
FFFFFFF4
FFFFFFFF
FFFFFFE7
00000003
00000025
FFFFFFEA
00000008
00000018
00000009
0000002B
FFFFFFF8
00000018
00000013
0000000B
00000031
FFFFFFEC
FFFFFFD7
0000001D
0000000B
00000019
00000001
FFFFFFFF
00000028
FFFFFFE5
FFFFFFF4
00000038
FFFFFFEA
00000016
0000001F
00000002
00000028
00000021
FFFFFFF2
FFFFFFFC
FFFFFFEC
00000024
0000002B
FFFFFFF0
FFFFFFE7
FFFFFFD6
FFFFFFFE
0000002D
0000001B
00000002
FFFFFFF8
FFFFFFE4
FFFFFFFF
00000019
FFFFFFD6
00000011
FFFFFFDB
00000006
0000002D
FFFFFFE8
FFFFFFEB
FFFFFFD9
00000020
FFFFFFE5
0000001B
FFFFFFAB
FFFFFFE0
FFFFFFE8
0000001B
00000015
00000016
FFFFFFD2
FFFFFFF0
00000011
0000001A
00000027
0000000A
0000002F
0000000B
FFFFFFE4
0000003A
00000000
FFFFFFCC
FFFFFFE6
FFFFFFFA
FFFFFFF2
00000005
FFFFFFF5
00000002
00000023
0000000B
FFFFFFC1
FFFFFFE8
0000001A
FFFFFFEF
FFFFFFFE
FFFFFFE1
0000001A
00000015
0000000A
0000000A
00000001
00000017
0000002F
FFFFFFE1
FFFFFFDC
0000000D
FFFFFFFD
FFFFFFF0
0000002A
FFFFFFD4
00000040
00000035
FFFFFFC3
00000031
00000016
FFFFFFD5
00000015
0000001B
FFFFFFE2
FFFFFFB9
00000011
FFFFFFEB
0000001B
FFFFFFDF
FFFFFFF9
FFFFFFD4
FFFFFFE1
FFFFFFD4
FFFFFFC1
FFFFFFE8
00000029
00000035
00000000
FFFFFFC3
FFFFFFCC
FFFFFFFB
00000022
00000027
00000001
00000014
FFFFFFFB
FFFFFFDB
0000000B
FFFFFFF2
FFFFFFE1
FFFFFFC2
FFFFFFE5
FFFFFFE2
FFFFFFE8
FFFFFFF5
FFFFFFEF
00000016
00000012
0000000A
FFFFFFE0
FFFFFFF2
0000001A
FFFFFFF7
0000000D
0000003D
FFFFFFDC
0000001F
0000002D
00000020
0000000B
00000012
FFFFFFE5
FFFFFFDB
FFFFFFE7
FFFFFFFB
FFFFFFD0
0000001B
00000031
FFFFFFF7
FFFFFFC7
00000016
00000012
00000021
0000002D
FFFFFFD9
00000026
0000000A
FFFFFFA0
00000033
00000034
FFFFFFDE
00000008
FFFFFFD5
0000004B
FFFFFFEB
00000009
FFFFFFFA
0000002B
0000000F
0000000F
0000004E
0000002B
0000000E
0000002B
00000037
0000001C
00000005
FFFFFFEE
00000009
FFFFFFFA
FFFFFFEA
0000002A
FFFFFFE1
00000000
00000030
00000049
0000002E
FFFFFFF9
FFFFFFEE
FFFFFFEA
0000001F
FFFFFFF4
00000021
FFFFFFF6
FFFFFFDA
00000012
00000033
0000002A
FFFFFFDC
FFFFFFEC
00000033
00000033
FFFFFFDB
FFFFFFD7
0000003D
00000006
0000001A
FFFFFFDC
FFFFFFD9
FFFFFFF2
0000002C
FFFFFFE9
00000028
0000000A
0000002D
00000017
00000013
FFFFFFF9
00000010
FFFFFFCE
00000004
0000000B
00000009
FFFFFFF1
0000000B
00000011
FFFFFFEC
FFFFFFF3
FFFFFFFC
FFFFFFEB
FFFFFFF8
FFFFFFDB
0000002A
0000002B
0000002C
0000001B
FFFFFFFF
FFFFFFCA
0000001F
FFFFFFE3
FFFFFFEC
FFFFFFFF
FFFFFFF6
FFFFFFD7
FFFFFFE0
00000028
00000013
FFFFFFBF
FFFFFFD5
0000001C
00000025
FFFFFFCE
00000017
00000003
00000003
00000025
FFFFFFF1
FFFFFFD0
FFFFFFD6
0000001C
0000000C
FFFFFFFF
00000039
FFFFFFFA
00000001
00000007
FFFFFFFC
00000023
FFFFFFD6
00000033
FFFFFFE6
0000001C
00000020
FFFFFFC7
FFFFFFC7
00000029
0000001F
0000002D
00000006
FFFFFFF2
FFFFFFD4
FFFFFFDB
00000028
FFFFFFF9
FFFFFFFF
0000002B
FFFFFFE9
0000001F
0000002B
FFFFFFE2
00000014
FFFFFFD0
FFFFFFF4
00000012
0000001D
FFFFFFE5
0000002D
FFFFFFED
00000035
00000034
FFFFFFCD
00000043
00000004
00000050
0000003E
FFFFFFF1
FFFFFFF9
0000000A
0000003E
FFFFFFFD
0000002C
0000001F
0000001E
0000000C
FFFFFFEA
FFFFFFEE
FFFFFFD1
0000001D
00000009
FFFFFFF4
00000028
FFFFFFE6
0000003D
00000004
FFFFFFFD
FFFFFFFC
FFFFFFF4
0000003D
00000032
00000013
FFFFFFCF
FFFFFFE5
00000029
00000008
FFFFFFEE
0000002D
FFFFFFCF
FFFFFFFE
FFFFFFD5
0000001E
0000001E
FFFFFFE0
FFFFFFC9
FFFFFFFD
FFFFFFE8
FFFFFFE5
00000008
FFFFFFDB
00000005
0000000F
0000002A
FFFFFFD8
0000002E
00000057
FFFFFFF2
00000035
FFFFFFD6
00000015
FFFFFFDA
00000000
FFFFFFF0
FFFFFFF5
FFFFFFEF
00000016
FFFFFFFB
00000007
FFFFFFF0
0000002B
FFFFFFE5
FFFFFFE6
FFFFFFE0
FFFFFFD9
00000015
00000014
00000032
0000000D
00000002
FFFFFFD1
00000023
0000002D
00000028
0000001D
FFFFFFCA
00000020
FFFFFFB4
00000013
00000001
00000010
FFFFFFF6
FFFFFFC4
FFFFFFE5
FFFFFFD9
00000000
00000037
00000003
00000018
FFFFFFE7
00000022
00000006
FFFFFFE3
00000035
0000001F
FFFFFFFF
00000019
00000021
FFFFFFE9
0000002C
0000001F
00000000
FFFFFFE7
00000026
0000001C
FFFFFFE7
00000002
FFFFFFFC
00000001
00000008
FFFFFFD6
0000000B
FFFFFFCF
00000009
00000035
0000000F
FFFFFFDA
00000021
FFFFFFF8
FFFFFFCC
FFFFFFE8
FFFFFFF7
00000039
FFFFFFF8
FFFFFFD7
0000001D
FFFFFFF5
FFFFFFF3
0000001C
FFFFFFED
FFFFFFF1
00000007
FFFFFFCD
00000020
FFFFFFEB
0000001B
FFFFFFC7
FFFFFFF3
00000011
00000015
00000000
0000001B
0000000D
0000002F
00000042
FFFFFFED
FFFFFFE9
0000002A
FFFFFFD8
FFFFFFEC
00000040
FFFFFFF6
FFFFFFC3
FFFFFFF9
FFFFFFD8
0000000E
FFFFFFC8
00000000
FFFFFFEA
00000000
00000010
0000000F
0000001E
FFFFFFFE
00000000
FFFFFFDE
FFFFFFDA
0000003E
00000039
FFFFFFF3
FFFFFFEA
00000028
FFFFFFDE
FFFFFFDD
00000006
00000035
00000034
FFFFFFE3
0000001E
0000000B
0000002E
FFFFFFDB
FFFFFFC6
00000011
00000018
0000002B
FFFFFFF3
FFFFFFE1
00000018
00000014
FFFFFFF4
0000002D
00000021
FFFFFFF5
00000029
00000032
0000000E
0000002C
0000003D
FFFFFFE1
FFFFFFEE
00000018
FFFFFFE9
FFFFFFE9
FFFFFFD4
0000000B
0000003B
0000002E
00000019
0000002F
00000022
00000017
FFFFFFE8
00000000
0000001A
FFFFFFE4
00000047
FFFFFFA6
00000028
0000001C
FFFFFFF8
00000024
FFFFFFF6
0000001D
0000000E
FFFFFFC9
00000025
00000000
FFFFFFD8
FFFFFFFD
FFFFFFB5
FFFFFFC8
00000002
FFFFFFF0
00000021
00000000
00000029
00000039
00000010
0000000B
00000002
00000019
00000040
FFFFFFD5
FFFFFFE1
FFFFFFCA
00000026
0000001D
FFFFFFF1
0000002F
FFFFFFF3
FFFFFFE3
FFFFFFE7
FFFFFFEB
FFFFFFBB
00000016
0000000D
FFFFFFD6
0000001D
00000027
0000003F
00000001
FFFFFFC1
00000031
00000004
FFFFFFF4
FFFFFFF7
FFFFFFD7
FFFFFFEE
FFFFFFF6
0000000E
FFFFFFF2
FFFFFFF0
0000002C
FFFFFFEE
00000036
00000029
FFFFFFE4
00000002
FFFFFFD3
0000000F
FFFFFFDB
FFFFFFBE
FFFFFFEF
FFFFFFD9
00000016
FFFFFFD7
FFFFFFEC
0000001B
00000000
FFFFFFDC
FFFFFFDC
FFFFFFF4
FFFFFFD5
00000024
0000002F
FFFFFFE2
00000012
FFFFFFEB
00000006
FFFFFFFC
00000030
0000001A
FFFFFFF1
00000006
FFFFFFFD
00000013
00000006
00000020
0000000B
00000030
00000003
FFFFFFC2
00000008
FFFFFFFF
00000000
00000005
00000004
FFFFFFEF
FFFFFFF3
FFFFFFD5
00000036
00000022
0000003C
FFFFFFF8
FFFFFFAB
FFFFFFD0
FFFFFFEC
00000023
0000001A
FFFFFFD2
FFFFFFF4
FFFFFFCF
FFFFFFD7
FFFFFFCD
FFFFFFDF
FFFFFFC6
FFFFFFAB
00000004
FFFFFFB8
FFFFFFDA
00000004
00000035
FFFFFFD7
FFFFFFF4
FFFFFFF5
0000002C
FFFFFFEF
FFFFFFF6
0000000D
00000027
00000032
FFFFFFC6
0000001E
FFFFFFE9
FFFFFFF7
FFFFFFDE
FFFFFFF5
00000009
0000001D
FFFFFFCF
0000002F
FFFFFFF8
FFFFFFE7
FFFFFFCB
00000018
00000033
FFFFFFF5
FFFFFFC9
00000021
0000003B
00000016
0000001F
00000001
00000014
00000036
0000001D
FFFFFFF3
FFFFFFF3
00000028
0000000A
0000001E
00000002
FFFFFFFE
00000013
00000019
0000001E
00000009
0000003B
00000013
00000014
0000001F
00000023
FFFFFFFA
00000004
FFFFFFEA
0000001B
FFFFFFD0
FFFFFFD9
FFFFFFE4
0000002E
00000021
00000029
FFFFFFD0
FFFFFFB9
FFFFFFDA
FFFFFFF8
0000000E
FFFFFFF5
00000013
00000012
00000026
0000002D
FFFFFFF2
00000035
FFFFFFEC
00000029
FFFFFFF0
0000003C
FFFFFFBF
FFFFFFF8
FFFFFFFB
00000030
00000019
FFFFFFEB
0000000A
00000007
00000003
00000004
0000001F
00000025
FFFFFFE8
00000014
00000021
00000010
00000017
00000001
00000037
FFFFFFF4
FFFFFFD5
00000024
FFFFFFCE
00000010
FFFFFFFB
FFFFFFF2
FFFFFFFD
00000022
FFFFFFD7
00000012
FFFFFFDD
FFFFFFEE
0000000A
00000039
00000022
0000001C
00000020
0000001B
FFFFFFF1
FFFFFFF2
00000041
FFFFFFFF
FFFFFFF1
FFFFFFFD
00000019
FFFFFFEA
FFFFFFD4
00000006
FFFFFFF0
00000030
FFFFFFE0
0000002E
FFFFFFFE
00000006
00000029
0000002C
00000019
FFFFFFF0
00000015
FFFFFFC1
FFFFFFE7
FFFFFFC8
00000031
FFFFFFE4
FFFFFFFD
00000008
FFFFFFFD
0000002C
FFFFFFDC
00000017
00000003
00000026
00000038
00000010
00000018
00000012
00000018
00000024
FFFFFFF9
FFFFFFFB
FFFFFFF0
0000004A
FFFFFFDC
FFFFFFE8
FFFFFFC6
00000016
FFFFFFDD
0000002D
00000041
FFFFFFCC
FFFFFFE3
FFFFFFFE
00000036
00000018
0000000E
00000021
00000002
00000025
FFFFFFE8
00000034
FFFFFFD7
00000025
00000029
0000002B
FFFFFFDD
00000017
FFFFFFD4
FFFFFFFA
0000000B
FFFFFFD1
0000000F
00000008
FFFFFFC9
FFFFFFD7
FFFFFFF8
FFFFFFD7
00000004
FFFFFFDF
FFFFFFFF
00000015
FFFFFFF0
00000021
FFFFFFCB
0000000C
00000006
00000005
0000001E
00000014
FFFFFFD8
00000005
FFFFFFE3
FFFFFFF4
FFFFFFE8
FFFFFFFF
FFFFFFE7
FFFFFFDB
FFFFFFF7
FFFFFFD8
FFFFFFF6
00000032
00000044
FFFFFFC4
00000016
FFFFFFE8
00000041
00000023
FFFFFFD9
FFFFFFE3
00000008
00000012
0000002A
0000000F
FFFFFFFA
FFFFFFF9
FFFFFFE9
00000022
FFFFFFEC
FFFFFFF0
00000002
FFFFFFF5
00000027
00000009
0000002B
FFFFFFD0
0000000B
FFFFFFBE
FFFFFFE6
FFFFFFC8
00000033
FFFFFFF7
00000006
00000026
FFFFFFE6
FFFFFFF9
FFFFFFF2
FFFFFFF7
FFFFFFF7
FFFFFFE7
0000001C
FFFFFFF4
00000007
FFFFFFE4
FFFFFFDD
0000003A
FFFFFFF8
FFFFFFF4
00000004
0000000C
FFFFFFF7
00000022
FFFFFFEF
0000002A
FFFFFFDA
00000019
00000001
00000006
0000000F
FFFFFFC5
FFFFFFC7
FFFFFFF9
FFFFFFD6
FFFFFFE9
FFFFFFF8
FFFFFFF3
FFFFFFF9
00000032
00000007
00000031
0000001A
FFFFFFE8
FFFFFFCB
00000008
00000002
00000016
FFFFFFDB
FFFFFFF3
0000000D
00000000
FFFFFFDC
FFFFFFF7
FFFFFFDE
FFFFFFEF
00000025
00000030
FFFFFFDB
0000003B
00000049
FFFFFFF0
00000043
00000032
FFFFFFF5
00000011
00000004
00000015
00000025
0000001F
FFFFFFDA
00000014
FFFFFFFD
FFFFFFFA
00000002
FFFFFFDB
FFFFFFE6
00000019
FFFFFFE2
FFFFFFDE
FFFFFFD4
FFFFFFDF
0000002B
0000002F
FFFFFFD3
00000017
FFFFFFEB
00000014
00000024
FFFFFFE2
FFFFFFF2
FFFFFFCB
00000002
0000002C
0000002A
00000022
FFFFFFD5
0000002C
FFFFFFF3
FFFFFFFF
00000013
0000000F
0000000F
0000000D
FFFFFFFC
FFFFFFF4
FFFFFFB8
00000043
00000024
00000015
FFFFFFF5
0000003B
FFFFFFF9
00000051
FFFFFFDB
00000038
00000002
00000006
00000033
00000009
00000057
00000025
00000022
00000034
FFFFFFDF
00000023
00000004
FFFFFFD5
00000001
0000000A
0000000C
00000035
00000021
00000012
FFFFFFFD
00000035
00000013
00000015
0000001B
00000004
FFFFFFEA
00000018
00000031
00000022
0000002D
FFFFFFFD
0000000C
00000037
FFFFFFDC
FFFFFFF4
00000030
FFFFFFC1
FFFFFFF5
00000015
FFFFFFFB
00000024
FFFFFFF2
00000018
00000039
00000020
00000028
00000007
00000000
FFFFFFC8
00000036
00000018
FFFFFFFF
0000000D
FFFFFFE8
FFFFFFCD
FFFFFFC4
00000016
00000035
FFFFFFF3
00000026
00000015
0000000E
FFFFFFF4
FFFFFFE7
0000000D
0000002F
00000006
00000002
00000023
00000039
FFFFFFE4
0000004A
FFFFFFE9
FFFFFFE7
FFFFFFDA
FFFFFFFD
FFFFFFDA
FFFFFFFA
00000041
FFFFFFE0
00000008
00000024
0000002B
0000001F
FFFFFFEA
FFFFFFE2
00000016
00000001
00000001
FFFFFFD6
00000015
0000001A
00000035
FFFFFFEC
FFFFFFF7
0000001E
0000002C
FFFFFFD5
0000000E
FFFFFFD5
0000001E
FFFFFFEC
00000032
FFFFFFC0
FFFFFFDA
00000023
FFFFFFDB
00000024
0000002A
FFFFFFDD
FFFFFFF9
00000009
00000030
00000030
0000001E
00000047
00000034
00000027
0000001F
0000000E
0000004B
FFFFFFEC
00000031
0000003F
0000001C
00000021
FFFFFFE3
FFFFFFFB
FFFFFFD7
00000003
00000008
00000039
FFFFFFEB
FFFFFFF8
00000006
0000000E
00000019
0000003D
0000003B
FFFFFFF5
FFFFFFF1
FFFFFFEC
00000022
0000001E
00000008
0000004A
0000002F
00000016
FFFFFFF6
0000001B
FFFFFFE9
FFFFFFEC
00000018
0000003C
FFFFFFD5
0000002D
FFFFFFDD
FFFFFFF8
FFFFFFEA
FFFFFFF9
FFFFFFFD
00000042
FFFFFFDC
00000023
FFFFFFE3
0000000A
00000022
0000002B
FFFFFFDC
FFFFFFDE
FFFFFFFD
00000044
FFFFFFE7
0000001E
FFFFFFEE
00000001
0000001A
0000000F
0000000B
00000009
FFFFFFF7
0000002C
00000012
FFFFFFFF
00000002
00000011
FFFFFFE2
FFFFFFF9
00000015
00000036
0000000B
0000003B
FFFFFFE8
00000000
FFFFFFC4
FFFFFFF2
FFFFFFFA
FFFFFFED
FFFFFFBA
00000021
0000005D
0000000F
FFFFFFDF
FFFFFFD2
FFFFFFCE
FFFFFFF7
0000003A
0000002C
FFFFFFD1
FFFFFFCF
FFFFFFEE
0000002D
00000038
00000007
00000005
00000017
FFFFFFF2
00000038
00000003
FFFFFFF3
FFFFFFFA
FFFFFFEE
00000032
FFFFFFCE
0000001E
0000000C
FFFFFFD4
00000004
00000001
FFFFFFD8
FFFFFFCC
0000001B
00000005
00000042
0000001B
FFFFFFE9
FFFFFFD6
00000027
FFFFFFE7
00000036
00000004
FFFFFFF9
FFFFFFC0
FFFFFFDF
0000001A
FFFFFFF5
0000001B
00000007
FFFFFFEA
FFFFFFDA
00000002
FFFFFFDA
00000001
0000000D
FFFFFFEC
00000000
FFFFFFFB
00000004
FFFFFFD9
00000021
FFFFFFF3
00000004
00000001
00000049
FFFFFFFC
0000000A
FFFFFFD4
FFFFFFF9
0000002D
FFFFFFE8
00000046
FFFFFFE4
FFFFFFDF
FFFFFFCD
00000027
FFFFFFEB
FFFFFFF2
FFFFFFD0
FFFFFFDA
00000020
00000025
00000016
FFFFFFF4
00000011
00000039
FFFFFFFB
FFFFFFEE
0000002D
00000024
00000011
0000000E
0000001C
00000012
FFFFFFF6
FFFFFFF0
00000006
FFFFFFBC
FFFFFFF8
FFFFFFCB
0000001F
00000023
00000019
FFFFFFEB
00000010
0000002D
00000003
00000011
FFFFFFD0
FFFFFFD2
00000007
00000022
FFFFFFD3
0000000C
FFFFFFE1
00000026
FFFFFFEA
00000003
FFFFFFF3
FFFFFFD9
FFFFFFF2
FFFFFFF0
0000003F
FFFFFFFB
FFFFFFE4
FFFFFFB8
00000002
FFFFFFF1
FFFFFFC0
0000002C
00000004
FFFFFFD4
0000000B
0000002B
0000002E
00000009
00000005
0000002D
FFFFFFE5
FFFFFFD0
00000028
00000027
FFFFFFF2
FFFFFFDE
00000029
FFFFFFF4
00000015
0000000B
FFFFFFEB
FFFFFFF9
00000001
FFFFFFEF
FFFFFFB7
FFFFFFCB
00000003
00000037
FFFFFFE9
00000022
0000003E
00000006
00000014
00000023
0000002D
FFFFFFF0
FFFFFFF1
FFFFFFD2
0000002A
FFFFFFEB
00000005
FFFFFFD8
FFFFFFFF
FFFFFFC2
FFFFFFD9
FFFFFFFD
FFFFFFEB
00000008
0000001E
FFFFFFD3
00000016
FFFFFFF2
FFFFFFD7
0000000F
0000002B
FFFFFFF4
00000014
0000001D
FFFFFFF6
00000009
0000002B
FFFFFFD1
00000045
0000000B
0000003B
FFFFFFE3
00000023
0000001C
00000029
FFFFFFD9
FFFFFFF1
FFFFFFFC
00000014
FFFFFFF0
FFFFFFEC
00000035
FFFFFFE7
FFFFFFF6
FFFFFFE0
FFFFFFEF
FFFFFFEC
00000007
00000047
FFFFFFF5
00000018
FFFFFFD1
0000000D
FFFFFFEB
FFFFFFEA
FFFFFFE3
0000001F
FFFFFFE9
00000011
00000016
FFFFFFF3
00000014
0000002D
FFFFFFFE
FFFFFFF3
FFFFFFF8
00000030
0000001B
00000010
FFFFFFFB
FFFFFFE8
FFFFFFC4
00000032
00000011
00000011
00000007
FFFFFFFF
00000039
FFFFFFFF
FFFFFFDC
0000003E
00000042
FFFFFFE5
00000010
00000032
00000024
FFFFFFC4
00000014
00000002
00000009
00000007
00000027
00000006
FFFFFFF1
FFFFFFEC
FFFFFFFC
FFFFFFF6
00000018
FFFFFFDD
00000023
FFFFFFC4
0000000B
FFFFFFED
0000001F
FFFFFFE9
00000021
FFFFFFFE
00000029
FFFFFFC9
FFFFFFE6
00000015
FFFFFFFA
FFFFFFF9
00000027
0000002E
00000038
00000000
FFFFFFCF
0000002C
0000000E
00000026
FFFFFFDC
FFFFFFE1
00000012
0000004E
FFFFFFFC
00000035
0000001C
00000003
00000018
FFFFFFE3
0000000D
FFFFFFF8
FFFFFFFA
00000012
FFFFFFCF
00000025
0000003A
FFFFFFD3
00000026
FFFFFFEA
00000032
0000001B
FFFFFFF6
FFFFFFD8
00000029
FFFFFFDC
0000000E
FFFFFFDC
00000014
00000014
00000008
00000004
FFFFFFF5
FFFFFFCE
FFFFFFE5
00000008
FFFFFFEC
FFFFFFE4
00000023
0000000C
FFFFFFEB
00000016
FFFFFFFC
0000002B
00000020
00000039
FFFFFFE6
00000017
FFFFFFED
00000024
0000001E
FFFFFFDA
0000001F
FFFFFFF5
00000002
FFFFFFC0
00000043
00000002
00000029
0000001C
00000023
FFFFFFE1
00000005
00000005
FFFFFFD9
FFFFFFDA
00000025
FFFFFFFB
FFFFFFCA
FFFFFFF3
00000009
FFFFFFD3
FFFFFFDD
00000001
00000001
FFFFFFF8
FFFFFFDF
00000010
00000031
00000019
FFFFFFFB
0000001B
00000009
FFFFFFEA
00000054
FFFFFFE7
00000009
0000000D
FFFFFFFC
00000005
00000023
00000028
FFFFFFCD
00000015
0000002C
00000001
00000017
0000000D
0000000D
FFFFFFE8
00000016
0000002E
00000024
00000017
FFFFFFDA
0000000F
00000034
00000021
FFFFFFDE
FFFFFFF1
FFFFFFED
00000006
FFFFFFFE
00000020
00000031
FFFFFFFF
FFFFFFDF
FFFFFFFE
FFFFFFEC
FFFFFFF6
00000007
0000001B
0000002F
0000000F
00000029
00000011
FFFFFFFD
FFFFFFFC
FFFFFFD8
00000032
0000000F
FFFFFFFE
00000010
FFFFFFD2
FFFFFFDC
FFFFFFD5
FFFFFFB4
FFFFFFE9
FFFFFFDF
FFFFFFC7
0000004F
00000011
FFFFFFF4
FFFFFFE1
00000046
FFFFFFEB
0000002F
FFFFFFE0
0000001A
00000011
FFFFFFDD
FFFFFFD9
FFFFFFF8
FFFFFFB5
FFFFFFD9
FFFFFFE4
FFFFFFFE
FFFFFFEF
0000000F
0000000D
0000000E
0000001F
00000044
FFFFFFD3
FFFFFFED
FFFFFFDA
FFFFFFEB
FFFFFFBC
FFFFFFEB
00000005
FFFFFFF2
0000002C
FFFFFFD6
00000018
0000001D
FFFFFFEF
00000008
FFFFFFE1
00000012
00000024
FFFFFFBE
FFFFFFE3
FFFFFFC7
FFFFFFE8
00000007
FFFFFFEA
FFFFFFBD
FFFFFFBC
00000026
FFFFFFDA
00000005
FFFFFFE3
FFFFFFD2
FFFFFFEF
00000000
0000000F
00000022
0000001C
FFFFFFE5
FFFFFFF3
FFFFFFE6
FFFFFFE2
00000033
FFFFFFC2
00000004
FFFFFFFD
00000001
00000003
00000012
FFFFFFF6
FFFFFFE7
0000001E
FFFFFFEF
00000008
FFFFFFCE
FFFFFFDC
FFFFFFDD
00000023
00000028
0000001C
FFFFFFE8
0000002A
00000013
FFFFFFED
00000029
FFFFFFF2
FFFFFFD1
0000002B
FFFFFFD5
FFFFFFD0
FFFFFFEA
FFFFFFFC
FFFFFFF2
FFFFFFEF
00000007
00000023
0000002F
0000001F
0000001D
FFFFFFD5
0000001F
00000028
FFFFFFEF
0000002D
FFFFFFC9
00000017
FFFFFFD0
0000000A
FFFFFFB0
00000033
00000031
00000022
FFFFFFE0
00000019
00000031
FFFFFFEF
FFFFFFEC
00000012
FFFFFFED
FFFFFFFC
0000003D
00000025
0000000B
00000008
FFFFFFD8
0000002C
00000031
00000009
00000027
FFFFFFD2
FFFFFFEE
00000006
FFFFFFCE
0000001A
FFFFFFF5
FFFFFFD3
00000001
FFFFFFE6
FFFFFFE4
FFFFFFA6
FFFFFFFD
FFFFFFDD
00000001
00000029
0000002D
0000000F
00000034
FFFFFFDD
00000013
0000001B
FFFFFFE7
FFFFFFF1
FFFFFFED
0000002F
FFFFFFEE
0000001C
0000002F
FFFFFFDC
00000004
00000041
FFFFFFFC
0000000D
FFFFFFEE
FFFFFFF1
0000001D
00000012
0000000D
FFFFFFFE
FFFFFFFC
00000023
FFFFFFF0
FFFFFFD4
0000000B
0000001A
00000002
0000001E
00000008
00000022
00000000
FFFFFFDE
0000002F
FFFFFFF2
00000007
00000000
00000014
FFFFFFE0
FFFFFFD3
FFFFFFFE
FFFFFFF0
FFFFFFCB
FFFFFFEF
00000000
00000006
FFFFFFF1
FFFFFFF9
FFFFFFCF
00000015
00000023
FFFFFFF4
00000047
FFFFFFC1
FFFFFFFA
FFFFFFE4
FFFFFFF2
00000009
00000030
00000010
FFFFFFF6
FFFFFFD8
FFFFFFAC
0000000E
FFFFFFFA
FFFFFFDA
FFFFFFF7
FFFFFFF0
00000056
FFFFFFE8
FFFFFFFA
FFFFFFE5
FFFFFFF7
FFFFFFCF
00000020
FFFFFFEB
00000009
00000014
FFFFFFD4
FFFFFFE6
FFFFFFC8
FFFFFFB2
FFFFFFC8
00000040
0000000C
FFFFFFE2
FFFFFFD1
FFFFFFF8
FFFFFFFC
FFFFFFED
00000019
FFFFFFEF
0000001E
00000029
00000019
0000002F
00000036
0000001B
FFFFFFFF
00000025
FFFFFFE6
FFFFFFD3
00000018
FFFFFFCA
00000013
FFFFFFE6
0000002E
FFFFFFED
00000017
00000010
00000027
00000018
00000012
00000004
00000026
0000002B
00000002
00000031
FFFFFFD9
00000026
FFFFFFD1
00000015
00000002
FFFFFFCF
00000041
0000000D
FFFFFFED
00000041
FFFFFFF0
0000002F
0000000F
00000006
FFFFFFFC
00000013
00000024
00000010
FFFFFFEF
FFFFFFC6
00000027
FFFFFFA5
FFFFFFE9
00000018
00000019
FFFFFFE5
0000002B
0000001E
FFFFFFB3
FFFFFFCC
00000011
00000020
00000020
FFFFFFC2
FFFFFFB5
FFFFFFE4
FFFFFFF8
00000000
0000001F
0000002D
00000012
FFFFFFD8
00000034
00000002
FFFFFFEC
FFFFFFFE
0000001C
0000000C
FFFFFFEB
FFFFFFD5
00000015
FFFFFFB6
0000001A
FFFFFFFC
FFFFFFD3
00000018
00000022
FFFFFFE2
FFFFFFFD
FFFFFFF1
0000000B
00000016
00000029
00000031
FFFFFFE3
0000002C
FFFFFFE4
FFFFFFEA
0000000A
FFFFFFF9
00000003
00000044
FFFFFFFA
00000000
00000016
0000002E
FFFFFFF7
0000000F
FFFFFFD6
FFFFFFFD
FFFFFFCB
FFFFFFD5
00000011
0000000C
00000013
00000003
FFFFFFD2
FFFFFFF9
0000002D
0000000E
00000007
FFFFFFE1
FFFFFFF0
00000009
0000003E
00000005
00000001
0000000F
FFFFFFCC
FFFFFFD9
00000022
0000000F
FFFFFFFE
0000004A
FFFFFFD2
FFFFFFE2
FFFFFFCE
FFFFFFE1
FFFFFFF5
FFFFFFF2
FFFFFFD3
FFFFFFD7
FFFFFFE3
00000054
FFFFFFDE
FFFFFFE9
0000000E
00000003
0000001E
FFFFFFFB
0000001C
0000000B
FFFFFFFA
00000038
FFFFFFF2
FFFFFFE6
00000038
FFFFFFED
00000003
00000004
00000010
00000019
FFFFFFDD
00000007
0000001A
FFFFFFC8
00000007
0000001E
00000009
0000004D
00000049
0000002D
00000005
00000006
0000002B
FFFFFFC4
0000001A
FFFFFFFB
00000017
0000001F
FFFFFFE6
0000000A
FFFFFFFF
00000023
FFFFFFE3
00000004
FFFFFFFD
FFFFFFF5
FFFFFFC0
FFFFFFDC
00000011
00000004
FFFFFFFC
00000022
00000009
00000033
0000002A
00000004
FFFFFFF3
0000000B
FFFFFFED
FFFFFFFC
00000007
FFFFFFF2
FFFFFFF9
FFFFFFD8
00000010
00000045
00000014
FFFFFFE0
00000003
0000002C
0000001C
00000043
FFFFFFE2
00000012
FFFFFFD3
FFFFFFCF
00000012
FFFFFFDA
FFFFFFFA
FFFFFFF7
FFFFFFEF
FFFFFFBE
FFFFFFFF
FFFFFFE1
FFFFFFF4
FFFFFFD7
FFFFFFEF
0000001E
00000002
FFFFFFDF
00000006
0000000C
00000025
FFFFFFC3
FFFFFFC5
0000000E
FFFFFFC8
00000016
FFFFFFFE
0000002C
0000000B
00000019
00000001
0000003A
00000004
FFFFFFCF
FFFFFFDE
FFFFFFEA
0000003C
FFFFFFC7
FFFFFFE7
00000008
FFFFFFDB
00000007
0000002E
00000020
0000003B
FFFFFFA6
FFFFFFEB
00000025
FFFFFFE2
FFFFFFF3
00000012
00000021
00000012
00000053
00000015
0000003E
00000010
FFFFFFF1
00000005
FFFFFFF7
FFFFFFFF
00000017
FFFFFFE6
FFFFFFED
00000015
FFFFFFF4
00000000
0000000A
FFFFFFD1
FFFFFFE5
0000002E
FFFFFFFC
FFFFFFD5
FFFFFFD1
00000035
00000034
FFFFFFFF
00000034
FFFFFFD9
FFFFFFC6
0000001E
0000001D
FFFFFFFB
FFFFFFBE
00000031
FFFFFFE9
FFFFFFF1
FFFFFFFC
FFFFFFC6
FFFFFFE4
FFFFFFFB
FFFFFFFD
0000002F
FFFFFFE0
FFFFFFF3
FFFFFFF9
FFFFFFEB
00000034
FFFFFFEC
0000002B
FFFFFFE6
0000001F
00000034
00000002
0000003F
FFFFFFF4
FFFFFFD0
FFFFFFE1
FFFFFFCD
00000005
00000023
0000002A
FFFFFFFF
0000000C
FFFFFFF8
00000009
00000048
FFFFFFF8
FFFFFFF8
00000006
00000000
00000014
0000000A
0000002E
00000004
FFFFFFD1
FFFFFFD0
00000000
FFFFFFC6
0000002E
0000000C
FFFFFFF0
0000001D
FFFFFFEE
FFFFFFDF
00000047
0000001D
FFFFFFF2
FFFFFFD8
00000014
00000008
00000018
FFFFFFF1
FFFFFFD4
FFFFFFDC
00000038
0000001C
FFFFFFFF
0000000E
00000006
00000015
FFFFFFFD
00000020
00000008
00000009
FFFFFFDA
0000000B
FFFFFFDB
FFFFFFE1
FFFFFFF5
FFFFFFDA
00000017
0000000D
FFFFFFCE
FFFFFFE3
FFFFFFD9
FFFFFFCF
00000000
FFFFFFEB
00000006
FFFFFFC6
00000007
FFFFFFE5
0000001C
0000001D
FFFFFFCD
0000000E
0000001B
FFFFFFD1
FFFFFFEC
FFFFFFC7
FFFFFFFB
FFFFFFCE
00000004
FFFFFFDF
FFFFFFF0
00000020
00000000
FFFFFFBC
FFFFFFEF
FFFFFFEB
00000006
FFFFFFFB
FFFFFFE8
0000000B
FFFFFFF7
FFFFFFC8
0000002B
FFFFFFD3
0000002B
FFFFFFAD
FFFFFFE4
00000012
FFFFFFE0
FFFFFFDB
00000004
FFFFFFC2
00000037
FFFFFFDC
FFFFFFEA
FFFFFFDE
0000000C
00000012
00000013
00000029
FFFFFFFF
FFFFFFDA
FFFFFFE4
00000034
FFFFFFDA
FFFFFFEB
FFFFFFD5
FFFFFFE4
FFFFFFF9
FFFFFFFF
FFFFFFEC
FFFFFFFA
0000000C
FFFFFFD5
0000003A
FFFFFFF0
00000020
FFFFFFDA
FFFFFFB3
00000015
00000017
00000018
FFFFFFD8
00000010
00000012
00000006
FFFFFFF7
00000019
FFFFFFCF
FFFFFFE5
FFFFFFF3
FFFFFFDE
0000000E
00000041
00000024
FFFFFFFF
FFFFFFFD
FFFFFFE2
00000002
0000000E
FFFFFFCF
00000027
0000001C
00000019
00000023
00000022
00000005
FFFFFFDD
FFFFFFDF
00000004
0000002B
00000018
FFFFFFE5
FFFFFFFD
FFFFFFF0
00000029
FFFFFFEF
0000003C
FFFFFFC5
0000001A
00000044
FFFFFFDB
FFFFFFCD
FFFFFFFF
FFFFFFFE
FFFFFFEA
0000002D
FFFFFFF6
FFFFFFBB
0000001B
FFFFFFBD
00000016
FFFFFFFF
FFFFFFF5
FFFFFFFC
FFFFFFEA
FFFFFFFB
00000014
FFFFFFFF
FFFFFFF7
FFFFFFE5
00000012
00000028
0000002E
0000000E
00000005
FFFFFFB6
FFFFFFF9
00000013
0000003F
FFFFFFD9
00000031
FFFFFFE4
FFFFFFE3
FFFFFFE0
00000009
FFFFFFFF
FFFFFFF5
00000013
00000014
FFFFFFD6
FFFFFFFA
0000001E
FFFFFFBC
0000001B
00000031
FFFFFFEA
FFFFFFFB
00000046
0000002F
FFFFFFDD
FFFFFFF0
0000000A
FFFFFFFE
00000021
FFFFFFEC
FFFFFFF4
FFFFFFCE
00000006
00000019
00000003
00000037
0000000B
0000002A
00000002
00000037
00000031
FFFFFFEC
FFFFFFDE
FFFFFFCF
FFFFFFEB
00000041
FFFFFFF2
FFFFFFC8
FFFFFFC9
0000000B
FFFFFFCF
0000002F
FFFFFFEE
FFFFFFE9
FFFFFFCB
FFFFFFE9
00000028
00000005
FFFFFFF9
FFFFFFC0
0000002E
FFFFFFF0
FFFFFFF6
FFFFFFD5
0000002E
FFFFFFDE
00000025
00000001
00000030
00000023
00000014
00000032
0000000F
0000001C
00000013
FFFFFFFE
00000007
FFFFFFDD
FFFFFFE8
FFFFFFE3
FFFFFFD4
FFFFFFCA
00000034
FFFFFFF5
0000003E
FFFFFFEE
FFFFFFFB
00000010
00000024
FFFFFFE5
FFFFFFB9
00000025
00000039
00000002
FFFFFFDF
00000012
FFFFFFE0
0000002E
00000018
FFFFFFF9
00000001
FFFFFFF0
00000019
0000001D
0000000C
FFFFFFE1
00000000
00000001
0000003B
FFFFFFFF
FFFFFFEE
FFFFFFE0
FFFFFFE1
FFFFFFFA
FFFFFFB3
00000018
00000024
0000000D
00000002
0000000F
FFFFFFFD
0000001E
FFFFFFDB
00000003
00000038
FFFFFFDF
0000001A
00000051
0000002A
00000055
00000022
0000000E
FFFFFFFE
FFFFFFFD
00000004
FFFFFFE7
FFFFFFED
00000016
FFFFFFB6
FFFFFFDD
00000026
FFFFFFD2
00000047
0000001B
00000028
FFFFFFD3
FFFFFFBA
FFFFFFCE
FFFFFFEC
0000002E
FFFFFFD7
FFFFFFE5
FFFFFFFD
00000028
00000024
00000035
00000030
FFFFFFDE
FFFFFFF6
00000027
0000003C
FFFFFFDA
FFFFFFFF
FFFFFFF8
00000001
FFFFFFE6
FFFFFFF6
FFFFFFDC
FFFFFFD3
00000000
00000008
0000002C
00000006
FFFFFFE4
FFFFFFDB
00000029
00000028
FFFFFFD7
FFFFFFF2
FFFFFFE6
FFFFFFF3
FFFFFFEC
0000001C
00000022
FFFFFFED
00000000
00000024
00000008
00000011
0000001E
0000000B
00000005
00000049
FFFFFFFD
00000003
0000001F
00000028
FFFFFFF6
FFFFFFF2
00000010
FFFFFFE4
FFFFFFFE
FFFFFFBA
00000022
00000017
FFFFFFE3
0000000D
0000000A
FFFFFFED
0000001A
FFFFFFFA
FFFFFFBE
00000000
FFFFFFD2
FFFFFFEB
00000024
FFFFFFFC
FFFFFFE6
00000014
FFFFFFF6
00000015
00000011
FFFFFFE1
FFFFFFDE
0000001C
FFFFFFDE
00000039
FFFFFFFE
00000020
0000002A
00000011
0000000F
00000045
FFFFFFF0
FFFFFFC8
FFFFFFD9
FFFFFFE4
FFFFFFE0
00000001
FFFFFFE0
00000000
00000000
00000023
FFFFFFE9
FFFFFFF9
FFFFFFDC
FFFFFFEE
0000002D
FFFFFFED
0000000A
0000000B
FFFFFFDF
FFFFFFD7
0000003B
00000004
FFFFFFEB
00000041
FFFFFFF2
FFFFFFFE
FFFFFFC9
0000000E
00000025
00000018
FFFFFFD0
FFFFFFF0
0000002E
FFFFFFE8
00000009
00000021
FFFFFFEE
0000002F
FFFFFFD3
FFFFFFED
00000001
FFFFFFFE
FFFFFFF2
0000002E
FFFFFFDD
00000041
00000016
00000037
FFFFFFE6
00000058
FFFFFFF0
FFFFFFF4
00000001
FFFFFFC4
FFFFFFD0
FFFFFFCB
FFFFFFC4
0000000E
FFFFFFFF
FFFFFFDE
0000001D
FFFFFFDA
FFFFFFD1
FFFFFFF2
0000000A
0000002C
00000028
00000005
00000030
00000020
00000013
FFFFFFFE
0000000D
00000005
FFFFFFE1
FFFFFFD7
0000001C
00000002
00000014
00000000
FFFFFFD1
FFFFFFCB
00000022
FFFFFFE6
0000000E
00000006
00000034
00000006
FFFFFFD7
00000011
FFFFFFDB
FFFFFFF0
FFFFFFC0
00000028
0000000E
FFFFFFD2
FFFFFFE8
FFFFFFD5
FFFFFFD4
FFFFFFF8
FFFFFFF0
FFFFFFF3
00000025
FFFFFFF3
0000002F
0000001C
FFFFFFFB
00000036
00000006
0000000D
0000001E
00000005
00000024
FFFFFFEB
00000011
0000001B
FFFFFFE8
FFFFFFE4
FFFFFFF6
FFFFFFF6
00000004
FFFFFFF9
0000000A
00000009
00000000
FFFFFFC9
FFFFFFD2
00000032
FFFFFFF3
0000001E
FFFFFFE1
FFFFFFF7
FFFFFFEA
00000009
FFFFFFE4
FFFFFFF9
00000021
FFFFFFFA
FFFFFFE0
00000045
00000029
FFFFFFF9
00000010
00000027
00000003
00000007
FFFFFFE8
0000003B
00000026
0000003F
00000004
0000002B
FFFFFFC3
FFFFFFFB
00000027
FFFFFFF0
FFFFFFCF
FFFFFFC8
FFFFFFE7
00000037
FFFFFFF0
00000009
0000000C
00000027
FFFFFFD7
00000014
00000011
00000027
FFFFFFF9
0000001E
FFFFFFE9
FFFFFFE7
0000001E
FFFFFFE3
00000007
FFFFFFC7
00000027
00000001
0000003C
00000023
FFFFFFDE
FFFFFFF3
00000048
FFFFFFF4
FFFFFFD5
FFFFFFDF
FFFFFFEB
FFFFFFDD
00000015
00000058
FFFFFFF6
FFFFFFDC
0000001A
FFFFFFD6
FFFFFFEB
FFFFFFCF
00000011
FFFFFFF6
FFFFFFDD
FFFFFFF2
FFFFFFC4
0000002B
FFFFFFDC
0000002D
00000000
FFFFFFE4
0000002D
FFFFFFFE
00000020
FFFFFFDB
FFFFFFF7
00000037
FFFFFFF0
00000004
00000008
FFFFFFD4
00000015
0000000C
FFFFFFDC
FFFFFFEC
0000001A
FFFFFFFC
00000014
0000001D
00000024
00000005
FFFFFFDA
0000001D
00000024
FFFFFFE0
0000002D
FFFFFFFE
00000007
FFFFFFEE
FFFFFFF6
0000000F
00000027
FFFFFFF1
FFFFFFFE
FFFFFFFD
0000000B
0000002A
00000048
FFFFFFDA
0000001D
00000004
0000001D
0000002A
00000024
FFFFFFB5
00000021
FFFFFFF1
FFFFFFE4
FFFFFFB0
0000004D
0000001C
00000023
00000012
FFFFFFEB
0000001A
00000011
0000001B
00000005
00000037
0000002A
FFFFFFDF
FFFFFFEA
FFFFFFF5
FFFFFFF2
FFFFFFED
0000000D
0000001F
FFFFFFCF
0000000C
00000030
FFFFFFDF
0000002C
FFFFFFE5
00000001
00000032
FFFFFFEC
00000025
FFFFFFD6
0000003E
FFFFFFF6
FFFFFFB8
00000022
FFFFFFF9
0000002D
00000031
0000002E
FFFFFFC3
FFFFFFE9
0000001E
00000014
0000001B
0000001D
FFFFFFDB
FFFFFFC2
FFFFFFFD
00000003
00000025
FFFFFFED
00000017
0000003E
00000023
FFFFFFE9
00000024
00000034
FFFFFFEE
FFFFFFB5
0000001A
00000013
00000020
FFFFFFFF
00000030
FFFFFFFF
FFFFFFE1
0000000F
0000000E
00000020
0000000A
0000001F
0000000D
0000003E
00000029
00000018
00000020
00000000
00000014
FFFFFFE1
FFFFFFFE
00000035
00000017
00000003
FFFFFFDA
FFFFFFDA
00000015
00000004
0000002F
00000032
0000003D
0000001A
00000005
0000000E
FFFFFFCC
FFFFFFDC
FFFFFFF8
FFFFFFD0
FFFFFFF0
00000009
00000024
00000005
0000001D
00000021
0000003C
00000006
0000000E
FFFFFFED
FFFFFFF2
FFFFFFDC
0000002D
00000013
FFFFFFEB
0000000B
0000001D
FFFFFFDC
00000054
00000009
FFFFFFDF
FFFFFFBE
FFFFFFC0
00000003
FFFFFFEC
FFFFFFD7
FFFFFFE5
00000031
00000014
0000000C
00000009
FFFFFFE6
00000035
FFFFFFF1
00000037
FFFFFFC7
FFFFFFDE
00000013
0000001F
FFFFFFCA
FFFFFFE8
FFFFFFF4
FFFFFFD7
0000001D
FFFFFFED
FFFFFFE8
00000029
00000024
0000003C
00000016
0000004A
00000032
FFFFFFF7
FFFFFFE1
00000021
00000024
00000026
FFFFFFF7
FFFFFFF8
0000002D
00000036
0000003F
FFFFFFCD
FFFFFFCF
00000009
FFFFFFF6
00000001
FFFFFFEA
0000000E
00000010
FFFFFFC7
00000032
0000001A
00000032
FFFFFFE0
FFFFFFFD
FFFFFFE1
FFFFFFD0
FFFFFFCA
00000024
00000020
0000000C
00000019
FFFFFFF5
FFFFFFE2
00000036
00000005
FFFFFFE2
FFFFFFC8
FFFFFFBC
00000009
FFFFFFFC
0000002C
FFFFFFFB
00000013
0000001A
00000004
00000009
0000002E
0000002D
0000002B
0000004C
FFFFFFF8
0000000C
0000001B
00000023
FFFFFFE5
0000003E
00000004
0000004B
00000004
0000002F
00000026
00000012
00000013
00000022
00000015
FFFFFFDC
0000002C
FFFFFFCE
00000007
0000002A
00000017
FFFFFFEA
FFFFFFDC
00000005
FFFFFFF9
FFFFFFFF
00000019
0000002B
FFFFFFF6
FFFFFFBF
00000014
00000031
FFFFFFD2
FFFFFFE9
FFFFFFF9
FFFFFFDC
00000003
00000009
0000003F
0000001B
FFFFFFF1
FFFFFFE9
FFFFFFF3
0000001A
0000000F
00000029
00000013
FFFFFFE4
FFFFFFDB
FFFFFFDD
0000002D
FFFFFFF4
00000020
0000002D
FFFFFFFE
FFFFFFF4
00000030
00000013
00000024
00000017
00000017
FFFFFFF3
00000058
00000017
FFFFFFE0
00000030
0000001C
0000001A
00000027
FFFFFFD8
FFFFFFD8
FFFFFFFF
0000000E
FFFFFFF0
FFFFFFF6
FFFFFFD4
FFFFFFE0
FFFFFFED
FFFFFFED
00000015
0000001F
FFFFFFD9
0000005D
00000044
FFFFFFD1
00000008
FFFFFFE1
FFFFFFF9
00000024
FFFFFFFE
FFFFFFD3
FFFFFFDF
0000000F
FFFFFFE0
00000042
00000022
FFFFFFF3
00000006
0000000B
00000004
FFFFFFD9
00000024
FFFFFFBF
00000012
00000028
FFFFFFE1
00000009
00000046
0000004A
00000012
00000002
FFFFFFE8
0000000B
00000024
00000012
00000010
FFFFFFED
FFFFFFD3
FFFFFFDF
0000001D
00000003
0000002A
FFFFFFE7
0000004E
00000018
00000007
0000002E
FFFFFFC8
0000001D
FFFFFFE7
0000003A
00000010
FFFFFFD2
00000017
FFFFFFF2
0000000E
00000000
FFFFFFC2
FFFFFFEF
FFFFFFFC
0000000B
0000001D
FFFFFFE6
00000025
FFFFFFE0
FFFFFFEF
00000029
0000001E
FFFFFFD3
FFFFFFD2
FFFFFFE2
FFFFFFDB
00000014
00000015
FFFFFFE5
FFFFFFF0
00000018
0000002A
FFFFFFFF
FFFFFFE8
00000014
FFFFFFF5
FFFFFFF0
FFFFFFF4
FFFFFFE9
0000002B
FFFFFFE3
00000017
FFFFFFFF
FFFFFFF0
FFFFFFF9
00000033
FFFFFFE8
00000026
0000004B
FFFFFFCD
00000002
00000032
00000026
FFFFFFC9
FFFFFFE5
0000000A
00000032
0000002B
FFFFFFF2
FFFFFFF0
FFFFFFD2
0000004C
0000001B
FFFFFFCD
FFFFFFA5
FFFFFFC3
0000000C
FFFFFFF9
FFFFFFF6
0000000E
00000024
0000001A
00000021
0000001B
FFFFFFE3
FFFFFFFE
00000019
FFFFFFAF
FFFFFFF3
FFFFFFCC
00000026
FFFFFFF0
00000011
0000001C
FFFFFFCF
FFFFFFD3
FFFFFFF8
00000032
00000008
00000013
FFFFFFF9
0000000F
FFFFFFD3
FFFFFFD6
FFFFFFF2
FFFFFFF8
0000000E
FFFFFFE9
0000000A
00000008
FFFFFFEC
00000001
FFFFFFEB
FFFFFFD6
00000033
00000030
00000016
FFFFFFFD
FFFFFFBC
0000000B
00000034
00000023
00000033
00000032
00000017
00000001
0000003D
FFFFFFD2
00000025
00000029
00000016
0000001C
FFFFFFBD
FFFFFFC6
0000000A
FFFFFFB4
FFFFFFDD
FFFFFFC5
00000009
FFFFFFD3
FFFFFFCE
00000028
FFFFFFF1
0000001E
FFFFFFFB
00000008
FFFFFFE5
FFFFFFE0
00000010
00000046
00000039
FFFFFFDE
FFFFFFF6
FFFFFFCD
00000018
FFFFFFD3
0000002E
00000006
00000008
0000002E
0000000E
00000019
FFFFFFF3
FFFFFFF4
00000000
FFFFFFC1
FFFFFFF9
FFFFFFF6
FFFFFFE8
00000035
00000048
0000000C
0000001E
FFFFFFFC
FFFFFFDE
FFFFFFF4
00000024
FFFFFFD7
00000031
FFFFFFDB
FFFFFFF3
00000021
0000001B
FFFFFFD5
FFFFFFF6
0000000D
FFFFFFD2
00000010
00000030
00000007
00000032
00000001
FFFFFFDA
00000027
FFFFFFE0
FFFFFFE9
FFFFFFFC
00000009
00000020
00000034
FFFFFFF0
00000036
FFFFFFDD
00000003
FFFFFFEC
0000001D
FFFFFFFB
0000000B
FFFFFFE6
0000000C
FFFFFFFC
FFFFFFEF
0000003A
FFFFFFE6
0000000C
FFFFFFE7
FFFFFFC1
0000000F
FFFFFFE7
FFFFFFF1
FFFFFFF1
0000001B
0000001D
00000015
FFFFFFEA
0000002D
FFFFFFDE
00000023
FFFFFFD5
FFFFFFF4
FFFFFFFA
00000032
00000019
00000011
FFFFFFD3
FFFFFFE2
FFFFFFE3
00000016
00000011
00000012
00000023
0000001D
00000005
FFFFFFFE
FFFFFFD8
FFFFFFFB
00000022
00000009
00000010
FFFFFFB9
00000047
0000002B
0000003B
00000004
FFFFFFF8
FFFFFFD2
FFFFFFE6
00000043
00000012
0000001D
FFFFFFB7
00000028
0000002C
00000023
FFFFFFEE
00000004
FFFFFFF1
00000028
FFFFFFD9
FFFFFFE0
0000000B
FFFFFFE6
FFFFFFC7
FFFFFFE0
00000038
FFFFFFE1
00000012
FFFFFFE6
00000017
FFFFFFF8
FFFFFFE6
0000002E
FFFFFFBD
FFFFFFF1
FFFFFFC6
00000013
FFFFFFE8
FFFFFFDD
FFFFFFEE
00000004
00000010
FFFFFFFF
0000000E
FFFFFFEB
0000001E
FFFFFFF9
FFFFFFD6
FFFFFFEC
0000001A
FFFFFFFA
0000000E
0000001C
00000044
FFFFFFED
FFFFFFE2
FFFFFFC5
FFFFFFE7
00000001
0000002B
FFFFFFDD
00000026
0000002A
00000018
00000042
FFFFFFDF
0000002D
00000000
00000020
FFFFFFEB
FFFFFFEC
00000019
FFFFFFDB
00000021
FFFFFFE7
0000003D
FFFFFFFE
0000004C
00000013
0000000A
FFFFFFEB
FFFFFFB6
FFFFFFD5
00000030
00000000
FFFFFFFF
00000026
FFFFFFF6
00000019
FFFFFFE8
0000002E
FFFFFFDC
FFFFFFDF
FFFFFFD5
00000005
FFFFFFF1
FFFFFFF9
00000008
FFFFFFFB
FFFFFFE1
FFFFFFF9
00000016
FFFFFFF8
FFFFFFCF
FFFFFFF6
FFFFFFED
00000001
00000016
0000001D
FFFFFFFC
0000002C
FFFFFFF4
FFFFFFEC
FFFFFFA0
FFFFFFE2
00000002
0000000F
FFFFFFEB
00000024
00000027
FFFFFFE3
00000031
FFFFFFE6
00000027
00000034
00000019
00000020
FFFFFFE2
FFFFFFF7
FFFFFFE2
FFFFFFB1
FFFFFFE4
FFFFFFE2
00000012
0000002D
FFFFFFEF
FFFFFFC7
FFFFFFF6
FFFFFFD1
0000003C
FFFFFFFB
FFFFFFCC
0000002E
FFFFFFE0
00000013
0000002D
0000003E
FFFFFFD5
0000002C
FFFFFFEC
0000001B
00000037
FFFFFFF9
00000003
0000002C
FFFFFFF3
FFFFFFC1
FFFFFFE8
00000024
00000036
FFFFFFE3
FFFFFFF9
FFFFFFF6
00000009
00000004
00000005
FFFFFFBF
FFFFFFFF
0000001D
0000000C
00000023
FFFFFFDF
FFFFFFC2
00000028
0000002E
FFFFFFF8
FFFFFFEA
FFFFFFE1
0000000E
FFFFFFDD
FFFFFFF6
0000001A
00000012
0000002C
0000000A
00000004
FFFFFFF9
FFFFFFD5
FFFFFFD9
0000000F
00000034
00000005
FFFFFFD5
00000003
0000000E
FFFFFFFC
FFFFFFF8
FFFFFFE0
FFFFFFF5
FFFFFFD2
FFFFFFF3
FFFFFFDC
FFFFFFDC
FFFFFFE0
0000003B
FFFFFFE6
FFFFFFB4
FFFFFFF6
00000023
00000006
FFFFFFD0
FFFFFFF9
0000000A
00000041
00000017
FFFFFFC6
00000011
00000019
00000014
FFFFFFD0
00000027
00000026
FFFFFFC4
00000005
0000002C
0000003A
FFFFFFE8
FFFFFFF9
FFFFFFB5
FFFFFFF0
FFFFFFF8
FFFFFFE5
00000033
00000007
FFFFFFDF
FFFFFFF7
00000000
FFFFFFAB
FFFFFFDD
FFFFFFCF
00000030
FFFFFFE7
FFFFFFB6
0000001A
FFFFFFCE
FFFFFFF2
FFFFFFB2
0000001C
0000001F
00000014
FFFFFFF4
00000026
00000007
0000000F
FFFFFFEC
FFFFFFAC
0000000C
00000037
FFFFFFB1
FFFFFFFC
FFFFFFF7
FFFFFFF2
FFFFFFE3
FFFFFFF9
FFFFFFF2
00000007
FFFFFFEE
00000018
00000017
00000023
FFFFFFF8
0000000E
FFFFFFD9
0000000F
00000007
FFFFFFD2
00000002
FFFFFFFA
0000002F
FFFFFFFE
00000007
00000030
FFFFFFEB
0000001C
FFFFFFDE
FFFFFFF6
00000015
FFFFFFC7
0000003A
FFFFFFF6
00000000
FFFFFFF5
00000023
00000023
FFFFFFCA
0000001E
00000023
FFFFFFF0
00000017
FFFFFFF4
00000025
FFFFFFE1
FFFFFFDC
FFFFFFD4
FFFFFFC8
FFFFFFE1
00000022
00000018
FFFFFFFC
FFFFFFE6
FFFFFFE0
00000018
FFFFFFFF
FFFFFFC0
FFFFFFFE
00000043
00000019
FFFFFFE9
FFFFFFB5
FFFFFFE8
0000002A
FFFFFFF7
0000000C
00000025
0000002A
FFFFFFF0
00000008
00000049
00000021
FFFFFFB9
0000002C
0000001C
00000008
00000036
00000029
FFFFFFF4
FFFFFFF0
0000000E
0000001D
00000015
FFFFFFD6
FFFFFFE0
00000004
FFFFFFE7
FFFFFFFA
FFFFFFEF
FFFFFFEA
00000028
FFFFFFDA
00000011
0000003E
FFFFFFFF
0000001A
0000002A
FFFFFFDC
FFFFFFDE
FFFFFFF7
FFFFFFBA
FFFFFFFC
00000000
FFFFFFF9
FFFFFFC7
FFFFFFFB
0000002A
FFFFFFE7
FFFFFFE9
FFFFFFF2
0000001C
FFFFFFEA
0000002A
00000017
FFFFFFF1
FFFFFFC3
FFFFFFC5
0000001D
00000022
00000027
0000002C
0000002F
FFFFFFE0
00000021
0000000D
FFFFFFEA
0000001D
FFFFFFFC
0000000C
FFFFFFF0
00000023
FFFFFFD1
00000007
00000007
0000000C
FFFFFFD8
FFFFFFF3
FFFFFFEF
00000030
0000002A
0000000E
FFFFFFC7
FFFFFFEE
FFFFFFC2
FFFFFFFD
00000011
0000002B
FFFFFFE4
00000005
FFFFFFEF
0000002B
00000007
FFFFFFCB
00000023
0000001F
00000027
00000008
FFFFFFD9
FFFFFFEB
FFFFFFEE
FFFFFFDB
0000001A
0000000C
00000054
0000002A
FFFFFFEC
00000000
00000010
00000018
00000003
FFFFFFFC
FFFFFFFD
FFFFFFD4
0000000D
FFFFFFBC
FFFFFFE3
FFFFFFDF
FFFFFFF0
FFFFFFD3
FFFFFFF4
0000003F
0000001E
FFFFFFF5
FFFFFFE4
00000014
0000000B
0000001E
00000019
FFFFFFC5
FFFFFFF5
FFFFFFF4
FFFFFFE9
FFFFFFD9
00000034
00000005
FFFFFFE3
0000001A
FFFFFFF8
FFFFFFF9
00000002
FFFFFFF6
00000025
00000025
FFFFFFEC
00000044
00000003
FFFFFFEB
FFFFFFD4
FFFFFFFF
00000006
00000005
FFFFFFD0
FFFFFFE0
FFFFFFF2
FFFFFFFE
0000000B
FFFFFFDD
00000031
FFFFFFC0
0000002C
FFFFFFF4
00000020
FFFFFFD8
FFFFFFEB
FFFFFFE8
00000016
FFFFFFD2
00000028
00000003
0000000E
0000000E
FFFFFFDD
FFFFFFEB
FFFFFFEC
FFFFFFE8
00000019
FFFFFFEC
00000008
0000002D
00000038
FFFFFFEA
0000001E
FFFFFFF5
00000001
FFFFFFDE
00000046
00000022
FFFFFFD7
0000001C
00000025
FFFFFFED
0000001D
0000001C
FFFFFFE2
FFFFFFCF
00000024
0000001A
00000037
FFFFFFAC
FFFFFFD3
FFFFFFF1
0000000C
00000012
FFFFFFD8
00000023
00000018
0000002E
FFFFFFD9
FFFFFFEF
00000016
00000020
FFFFFFE2
00000015
FFFFFFCB
FFFFFFDD
FFFFFFD8
00000030
FFFFFFF6
0000002F
0000000C
00000017
FFFFFFF3
FFFFFFE2
FFFFFFE0
FFFFFFD6
00000000
00000002
0000001C
FFFFFFFE
FFFFFFF4
FFFFFFEF
FFFFFFDF
0000000A
00000031
0000001E
FFFFFFE8
00000014
FFFFFFEA
0000002C
FFFFFFF6
FFFFFFE6
FFFFFFD3
00000014
00000002
00000011
00000033
00000037
0000002C
FFFFFFDC
FFFFFFD4
FFFFFFFB
FFFFFFF3
FFFFFFD4
00000027
FFFFFFEA
00000040
00000013
00000029
0000000B
0000002D
0000000B
00000002
FFFFFFE6
0000000F
FFFFFFE8
FFFFFFF6
FFFFFFEE
00000020
FFFFFFD9
FFFFFFEE
00000009
FFFFFFEF
FFFFFFEE
FFFFFFF9
00000023
0000001C
00000019
00000012
FFFFFFCE
0000001E
FFFFFFFF
00000006
FFFFFFDF
FFFFFFBF
00000031
0000003D
FFFFFFF5
FFFFFFCA
0000000B
00000029
FFFFFFDD
FFFFFFD9
00000037
FFFFFFCE
00000019
00000020
00000002
FFFFFFF8
FFFFFFE1
00000003
00000011
00000018
0000000E
0000000F
00000001
FFFFFFE5
FFFFFFDE
00000015
00000003
FFFFFFD5
FFFFFFC5
FFFFFFD8
FFFFFFBB
FFFFFFDC
00000005
FFFFFFD8
00000026
00000018
00000033
00000007
FFFFFFFA
FFFFFFE9
FFFFFFE0
0000001E
00000032
FFFFFFFB
FFFFFFEE
00000018
FFFFFFFF
FFFFFFDC
FFFFFFD1
FFFFFFD9
0000001A
00000023
0000001C
00000027
FFFFFFF7
00000000
00000030
FFFFFFF8
FFFFFFE2
FFFFFFF1
00000004
FFFFFFF9
FFFFFFEE
FFFFFFE0
00000026
0000002C
00000019
FFFFFFEC
FFFFFFF5
00000035
FFFFFFDF
0000001F
FFFFFFF3
00000021
00000004
FFFFFFF4
0000000D
FFFFFFC5
00000006
00000013
FFFFFFE7
0000002B
00000002
00000004
0000000C
00000006
FFFFFFF1
FFFFFFE0
00000000
FFFFFFFC
00000001
FFFFFFFC
FFFFFFEC
00000033
FFFFFFE9
FFFFFFF3
0000000E
