00000057
0000005D
FFFFFFEC
FFFFFFCE
FFFFFFDE
0000002D
0000002C
0000004B
00000029
FFFFFFF7
0000005B
00000027
FFFFFFE5
0000001D
00000033
00000044
00000014
0000000C
00000007
00000031
00000029
FFFFFFCA
FFFFFFB1
00000004
00000017
FFFFFFD5
FFFFFFDE
0000001D
0000004F
0000000C
00000005
0000001A
FFFFFFC1
FFFFFFE0
FFFFFFF7
00000040
00000064
0000006E
0000005C
00000010
FFFFFFEE
FFFFFFFC
FFFFFFC9
FFFFFFA5
FFFFFFAF
FFFFFFD4
00000008
00000005
0000000C
0000001B
00000016
FFFFFFD2
FFFFFFA8
FFFFFFE4
00000024
0000001E
FFFFFFD1
FFFFFFDC
FFFFFFE1
FFFFFFD8
FFFFFFC3
FFFFFFD4
00000011
FFFFFFE9
FFFFFFF1
FFFFFFC0
FFFFFFC4
FFFFFFAB
FFFFFFAD
FFFFFFCD
FFFFFFE7
FFFFFFD9
FFFFFFDA
0000003B
0000006A
0000001A
FFFFFFDD
FFFFFFDD
00000007
00000036
FFFFFFF8
0000004B
00000062
00000038
FFFFFFFF
FFFFFFEF
00000026
00000059
00000040
0000000B
00000013
0000001E
FFFFFFD6
FFFFFFD5
FFFFFFD2
00000000
0000000A
FFFFFFB5
FFFFFFF9
FFFFFFD4
FFFFFFCC
00000014
FFFFFFF7
FFFFFFA0
FFFFFFA8
FFFFFFCD
00000024
0000001A
FFFFFFB0
FFFFFF9F
0000000B
FFFFFFC0
