00000016
FFFFFFAE
00000033
FFFFFFBD
00000057
FFFFFFC0
0000004B
00000020
FFFFFFE7
FFFFFFED
0000004D
0000002B
0000000C
00000024
00000001
00000041
00000054
00000026
0000001C
FFFFFFF1
FFFFFFF0
0000001B
00000009
0000003D
00000024
0000002E
00000044
0000002A
FFFFFFCF
FFFFFFC0
FFFFFFB9
00000021
FFFFFFBC
FFFFFFAF
FFFFFFB4
00000030
FFFFFFE7
00000047
0000002C
FFFFFFB3
FFFFFFF6
00000019
00000012
00000025
FFFFFFFF
FFFFFFBE
FFFFFFBB
FFFFFFD0
00000026
FFFFFFEF
FFFFFFFD
FFFFFFCB
FFFFFFE2
FFFFFFB1
00000047
00000043
0000002C
00000005
FFFFFFDB
FFFFFFB9
00000026
00000017
FFFFFFAF
00000006
0000005E
00000029
FFFFFFD2
FFFFFFDB
FFFFFFA5
FFFFFFEC
0000003B
0000005C
00000040
0000000B
00000002
00000037
00000018
FFFFFFC7
00000017
00000034
FFFFFFDF
FFFFFF95
FFFFFFAA
0000002D
0000003D
FFFFFFF9
0000003C
00000054
0000001F
0000000B
FFFFFFFE
FFFFFFBA
FFFFFFA3
FFFFFFBB
FFFFFFE7
FFFFFFCE
FFFFFFBD
FFFFFFE2
FFFFFFF0
FFFFFFDB
FFFFFFB3
0000003E
00000055
00000027
FFFFFFF9
00000055
00000055
FFFFFFC0
FFFFFFE7
FFFFFFE9
00000014
FFFFFFFA
