FFFFFFEF
FFFFFFF1
FFFFFFFC
00000011
FFFFFFEC
FFFFFFD8
00000019
0000001A
FFFFFFE9
00000003
00000001
FFFFFFFF
FFFFFFF4
FFFFFFEC
00000008
0000002E
00000016
FFFFFFDC
FFFFFFD9
FFFFFFEB
00000004
FFFFFFE6
0000001D
0000000D
FFFFFFD7
00000017
FFFFFFD8
FFFFFFD7
FFFFFFF4
FFFFFFDB
0000000F
FFFFFFD8
00000022
FFFFFFE5
00000011
FFFFFFC9
00000015
00000003
00000000
FFFFFFD8
00000015
00000020
FFFFFFD6
FFFFFFF3
00000016
FFFFFFED
0000000E
0000000C
0000002A
FFFFFFF4
FFFFFFEC
0000000F
FFFFFFDF
00000009
00000029
FFFFFFF7
FFFFFFE3
FFFFFFEA
FFFFFFF7
FFFFFFF6
FFFFFFD8
FFFFFFD7
00000006
00000004
00000001
00000020
FFFFFFFE
FFFFFFDB
00000001
0000002B
0000000D
0000002A
FFFFFFF3
00000005
FFFFFFF3
FFFFFFEF
FFFFFFFC
00000020
00000011
FFFFFFE3
00000003
00000028
FFFFFFE2
0000000E
FFFFFFF2
FFFFFFEA
00000025
FFFFFFE9
00000008
00000013
0000001B
0000001F
FFFFFFFA
00000011
FFFFFFF7
FFFFFFFA
FFFFFFEE
0000001F
00000027
00000012
00000001
00000028
FFFFFFD5
00000016
FFFFFFFA
FFFFFFE7
00000024
00000007
FFFFFFF2
FFFFFFD0
00000015
00000017
00000019
FFFFFFE0
0000002D
FFFFFFE8
FFFFFFEF
FFFFFFFD
0000001C
00000011
0000000F
FFFFFFD5
FFFFFFD9
0000002B
00000008
FFFFFFF2
FFFFFFF7
00000029
0000001A
FFFFFFE6
00000020
FFFFFFF4
FFFFFFFB
00000000
FFFFFFE9
FFFFFFDE
FFFFFFFC
FFFFFFE7
FFFFFFE5
FFFFFFE1
00000027
FFFFFFFE
FFFFFFFB
FFFFFFDF
0000000F
FFFFFFEA
FFFFFFC2
00000033
FFFFFFF2
00000021
FFFFFFF4
FFFFFFFF
FFFFFFEF
FFFFFFCF
00000000
FFFFFFD7
FFFFFFEC
FFFFFFFC
FFFFFFED
00000011
00000004
0000000D
00000024
00000021
00000008
00000018
00000010
0000001B
FFFFFFFB
00000007
00000023
FFFFFFDE
FFFFFFE9
0000000A
00000015
FFFFFFFA
FFFFFFF8
00000018
00000003
00000019
FFFFFFF2
00000006
0000002E
FFFFFFE8
00000000
00000003
00000026
0000000C
0000001E
FFFFFFF5
00000025
FFFFFFF7
FFFFFFF9
00000022
FFFFFFED
00000034
0000001D
FFFFFFCA
FFFFFFDF
FFFFFFED
FFFFFFEF
FFFFFFD9
00000002
0000001B
0000000F
FFFFFFE6
FFFFFFEA
FFFFFFED
00000006
0000000F
0000000D
0000000B
00000013
FFFFFFE1
FFFFFFE0
00000008
00000013
00000007
FFFFFFE8
FFFFFFEC
00000009
0000000D
FFFFFFF4
FFFFFFEF
0000000B
00000003
FFFFFFE0
0000001C
0000001D
FFFFFFDC
FFFFFFED
0000001F
FFFFFFF2
FFFFFFFA
00000014
00000016
0000001F
FFFFFFF2
0000000D
FFFFFFF3
FFFFFFFA
0000000D
00000031
00000002
FFFFFFDE
FFFFFFE3
00000003
00000001
00000016
0000000A
00000029
FFFFFFF8
0000000A
00000012
FFFFFFD3
00000015
FFFFFFEC
FFFFFFEF
00000018
00000002
00000027
00000012
0000001D
FFFFFFF6
FFFFFFEA
0000001D
FFFFFFFE
FFFFFFF4
00000015
00000012
FFFFFFE9
FFFFFFE9
FFFFFFF7
00000001
00000002
FFFFFFFC
0000002E
FFFFFFE9
FFFFFFE8
00000021
0000000D
00000011
FFFFFFE8
00000027
FFFFFFF6
FFFFFFFD
FFFFFFF8
0000001C
0000000D
FFFFFFE6
0000000C
00000027
FFFFFFF4
00000009
FFFFFFE0
FFFFFFF5
00000027
00000001
FFFFFFDD
FFFFFFEA
FFFFFFE1
00000022
FFFFFFFC
0000000B
00000016
FFFFFFE2
FFFFFFE2
FFFFFFE9
FFFFFFFA
FFFFFFD6
FFFFFFE4
FFFFFFEB
FFFFFFF2
00000008
00000020
FFFFFFE5
FFFFFFF3
FFFFFFE0
FFFFFFD9
0000001E
FFFFFFFA
FFFFFFE8
00000007
00000007
00000019
FFFFFFFF
00000009
0000001A
FFFFFFFC
FFFFFFE3
00000015
FFFFFFFD
FFFFFFFB
FFFFFFEC
FFFFFFEF
FFFFFFEE
FFFFFFEF
FFFFFFF0
FFFFFFE6
00000010
0000000E
00000031
FFFFFFF4
00000028
00000010
FFFFFFF5
FFFFFFD8
00000005
FFFFFFF4
FFFFFFEA
FFFFFFF9
FFFFFFF8
00000012
00000029
00000016
FFFFFFF6
FFFFFFF5
00000018
FFFFFFD6
00000010
0000001F
00000004
FFFFFFF6
FFFFFFFB
FFFFFFDE
FFFFFFFA
FFFFFFF2
00000035
FFFFFFE2
FFFFFFEF
FFFFFFE1
00000014
00000018
FFFFFFF6
00000007
FFFFFFEB
0000001D
00000014
FFFFFFFE
0000000D
FFFFFFED
FFFFFFD3
FFFFFFF8
FFFFFFFD
FFFFFFE1
FFFFFFFC
00000016
FFFFFFEA
00000000
0000001F
FFFFFFE1
0000001F
FFFFFFF3
00000008
0000001F
FFFFFFE8
FFFFFFEC
FFFFFFD8
FFFFFFFE
00000007
0000000D
00000001
00000017
00000020
FFFFFFD2
FFFFFFFF
FFFFFFEC
0000000C
FFFFFFE2
00000001
0000000E
00000006
FFFFFFE6
FFFFFFE0
FFFFFFF8
FFFFFFE9
FFFFFFDB
FFFFFFF0
FFFFFFF1
00000033
00000005
FFFFFFE4
00000018
0000000A
FFFFFFF1
00000012
FFFFFFFB
00000009
FFFFFFF5
0000002B
00000021
FFFFFFE8
FFFFFFF6
00000014
00000016
FFFFFFDE
00000026
FFFFFFED
FFFFFFF8
FFFFFFE4
00000003
FFFFFFFF
00000012
00000008
00000008
FFFFFFF8
FFFFFFE3
00000009
FFFFFFF0
0000000B
FFFFFFF6
FFFFFFF6
FFFFFFEF
FFFFFFDC
FFFFFFE7
00000023
FFFFFFFD
FFFFFFE3
FFFFFFF9
FFFFFFE1
FFFFFFF2
FFFFFFE7
FFFFFFEF
0000001B
0000000C
00000023
FFFFFFF5
0000001C
0000000F
FFFFFFFF
00000000
0000002B
FFFFFFE5
0000001E
00000018
00000009
FFFFFFE3
00000036
00000010
FFFFFFED
FFFFFFD9
FFFFFFEB
FFFFFFE5
FFFFFFFB
FFFFFFF2
FFFFFFF4
00000011
FFFFFFED
00000023
00000025
FFFFFFE6
00000025
00000026
FFFFFFFF
FFFFFFFD
0000001B
0000001B
00000018
00000007
FFFFFFF9
00000013
00000019
FFFFFFF0
00000007
FFFFFFD6
FFFFFFF8
00000009
00000018
FFFFFFF1
FFFFFFF8
FFFFFFFB
00000011
0000000A
0000000E
0000000C
00000002
FFFFFFE9
00000000
00000022
00000004
FFFFFFE9
FFFFFFE8
00000008
00000018
FFFFFFFE
0000000B
FFFFFFD3
0000001F
0000000D
FFFFFFE5
FFFFFFF6
00000009
FFFFFFFA
0000000F
0000001C
00000010
FFFFFFDC
FFFFFFD2
FFFFFFDA
0000001B
FFFFFFE8
00000005
FFFFFFE0
FFFFFFF4
FFFFFFFE
00000010
00000006
00000011
FFFFFFEF
FFFFFFD1
00000011
FFFFFFB2
00000015
FFFFFFFE
0000001F
FFFFFFFF
FFFFFFF7
FFFFFFFC
FFFFFFE9
FFFFFFF7
00000006
00000000
FFFFFFFF
FFFFFFE0
00000006
FFFFFFF7
FFFFFFF0
0000001E
00000007
FFFFFFEA
FFFFFFEB
FFFFFFE8
FFFFFFE5
0000000B
00000012
00000025
FFFFFFEF
00000007
FFFFFFF0
00000028
00000004
00000024
00000006
00000005
FFFFFFD1
FFFFFFDD
00000003
FFFFFFEC
00000022
FFFFFFF8
FFFFFFE8
00000016
00000009
00000025
FFFFFFFC
FFFFFFFD
FFFFFFEC
FFFFFFE6
0000001B
0000000C
0000001B
00000006
FFFFFFEE
FFFFFFDC
0000000B
0000000B
0000000F
FFFFFFEF
FFFFFFE0
FFFFFFE6
00000011
FFFFFFF3
FFFFFFEA
FFFFFFDC
FFFFFFE3
0000000A
0000001A
00000019
00000023
00000027
FFFFFFF2
00000011
FFFFFFE2
FFFFFFF2
FFFFFFDE
0000001F
FFFFFFF1
FFFFFFED
FFFFFFEE
FFFFFFF1
FFFFFFEA
0000000E
00000001
00000015
0000000C
00000029
0000000A
FFFFFFD6
FFFFFFF5
FFFFFFD8
00000014
FFFFFFFC
FFFFFFD7
FFFFFFF8
00000010
00000016
FFFFFFEF
0000001E
0000001D
FFFFFFD2
0000001E
0000002A
00000008
0000001D
00000000
0000001E
FFFFFFFA
FFFFFFFF
0000003B
00000021
00000006
0000000A
0000000C
FFFFFFE7
FFFFFFFA
FFFFFFF2
FFFFFFEB
00000027
FFFFFFF1
FFFFFFED
0000001B
FFFFFFE3
FFFFFFFC
FFFFFFF6
FFFFFFDD
FFFFFFD4
FFFFFFD8
FFFFFFE4
FFFFFFE1
00000024
FFFFFFDD
00000033
00000024
00000009
0000001A
00000015
00000017
FFFFFFF5
FFFFFFF2
FFFFFFD7
FFFFFFF7
00000007
FFFFFFD7
FFFFFFF9
FFFFFFD3
FFFFFFFE
FFFFFFF0
0000001B
00000025
FFFFFFD3
00000002
0000001E
FFFFFFFF
FFFFFFEF
FFFFFFE6
FFFFFFE6
00000011
0000000A
00000004
FFFFFFFA
FFFFFFE2
0000001C
FFFFFFD4
00000001
00000002
00000022
FFFFFFF6
00000009
00000006
FFFFFFFB
00000007
0000001D
FFFFFFFC
00000002
FFFFFFFC
FFFFFFFD
0000000C
FFFFFFE8
00000027
0000001D
FFFFFFDE
FFFFFFDE
FFFFFFE4
00000038
00000000
FFFFFFEC
FFFFFFEA
00000018
FFFFFFFE
00000018
FFFFFFED
00000017
0000000B
0000000F
FFFFFFEB
00000000
FFFFFFE9
FFFFFFEE
00000006
00000022
FFFFFFD6
FFFFFFEE
FFFFFFE7
FFFFFFDC
0000002F
FFFFFFE5
FFFFFFEA
0000001F
FFFFFFE5
FFFFFFFB
FFFFFFF9
00000016
FFFFFFE7
FFFFFFDC
0000001B
00000027
FFFFFFFA
00000022
00000001
00000001
00000019
0000000F
FFFFFFEE
FFFFFFEE
00000023
FFFFFFF3
00000025
FFFFFFE9
FFFFFFF3
FFFFFFFA
FFFFFFED
FFFFFFD7
00000036
0000000C
00000017
FFFFFFE9
FFFFFFDF
FFFFFFF1
0000001C
FFFFFFD4
FFFFFFE3
FFFFFFE6
00000003
00000024
FFFFFFED
FFFFFFE6
00000020
FFFFFFE2
FFFFFFFD
FFFFFFD2
0000000F
FFFFFFF8
FFFFFFE1
0000000B
00000022
00000011
FFFFFFFE
FFFFFFD5
00000004
00000004
00000020
00000023
00000005
FFFFFFF3
FFFFFFEE
00000005
0000000F
FFFFFFF6
0000001F
FFFFFFF9
00000015
00000039
0000001E
FFFFFFD9
FFFFFFE3
FFFFFFDA
FFFFFFD9
FFFFFFD9
00000019
00000006
0000002C
00000003
0000001D
0000000E
FFFFFFE8
FFFFFFFB
0000001A
00000011
FFFFFFCC
00000003
FFFFFFFE
FFFFFFF7
FFFFFFF7
FFFFFFF0
FFFFFFD9
00000011
00000005
00000008
00000017
00000020
FFFFFFFA
FFFFFFF7
0000000A
FFFFFFFD
00000014
FFFFFFEB
00000008
00000019
0000000C
FFFFFFE2
FFFFFFE5
FFFFFFF7
00000020
0000000C
00000021
FFFFFFF2
FFFFFFF5
FFFFFFF1
0000000A
FFFFFFD3
00000012
00000028
FFFFFFD8
00000008
0000000E
FFFFFFE9
00000000
FFFFFFEC
FFFFFFDC
00000010
00000011
00000001
FFFFFFD6
FFFFFFF8
FFFFFFDC
0000001D
00000010
FFFFFFEE
FFFFFFF6
00000000
00000011
FFFFFFCF
0000001E
00000031
0000001A
0000001A
FFFFFFF6
0000001D
00000015
0000000B
FFFFFFFA
FFFFFFDB
FFFFFFFB
FFFFFFF1
FFFFFFEB
0000001B
FFFFFFD1
00000019
00000024
00000030
00000012
0000000B
00000024
00000002
FFFFFFDD
00000008
FFFFFFEE
FFFFFFE6
FFFFFFE0
0000001F
FFFFFFF7
FFFFFFDC
FFFFFFDE
FFFFFFE0
FFFFFFE9
0000000E
00000015
0000001F
FFFFFFFB
FFFFFFF3
FFFFFFEB
FFFFFFEC
FFFFFFE2
00000016
0000001E
FFFFFFD8
00000005
FFFFFFF8
FFFFFFEB
0000001C
0000002E
0000002B
FFFFFFFC
00000016
FFFFFFF9
FFFFFFF9
FFFFFFE8
FFFFFFF2
FFFFFFED
0000000C
0000002E
FFFFFFE0
00000003
00000002
00000012
FFFFFFEC
FFFFFFE7
0000001A
FFFFFFEA
FFFFFFED
FFFFFFFF
FFFFFFEA
0000000D
FFFFFFEF
00000008
00000008
FFFFFFE4
FFFFFFE9
FFFFFFE9
FFFFFFF0
FFFFFFF9
00000010
00000021
00000012
00000019
00000001
0000000E
00000004
FFFFFFFE
0000001C
00000019
00000002
00000027
0000001F
00000019
00000016
FFFFFFE9
FFFFFFFF
0000000F
0000000B
FFFFFFE6
FFFFFFF9
FFFFFFED
00000015
00000018
FFFFFFFD
FFFFFFF2
0000002C
FFFFFFEF
00000015
00000017
FFFFFFEB
00000026
FFFFFFD9
FFFFFFE8
FFFFFFEB
0000000A
FFFFFFF6
FFFFFFFB
0000000B
FFFFFFDD
00000010
00000012
FFFFFFFB
FFFFFFF9
0000000C
0000001A
FFFFFFDD
FFFFFFEE
00000017
FFFFFFEF
FFFFFFE7
FFFFFFF9
FFFFFFEB
FFFFFFF0
FFFFFFE9
FFFFFFDF
FFFFFFFA
00000023
00000016
0000002B
00000012
FFFFFFE9
FFFFFFF9
FFFFFFF1
FFFFFFE6
00000019
FFFFFFEA
FFFFFFF6
0000002E
00000018
00000029
00000004
FFFFFFD0
FFFFFFEE
FFFFFFF7
FFFFFFF8
FFFFFFDD
FFFFFFFF
FFFFFFFA
FFFFFFFC
00000020
00000029
0000001B
0000001C
0000001F
FFFFFFFF
0000001A
00000007
00000002
00000007
FFFFFFF0
00000032
FFFFFFF7
FFFFFFE4
FFFFFFEE
00000013
0000000C
0000002D
FFFFFFF8
00000010
FFFFFFDA
00000042
FFFFFFFE
0000000A
FFFFFFD6
00000010
FFFFFFDA
0000001B
00000016
FFFFFFD7
00000001
FFFFFFE4
FFFFFFFF
FFFFFFD9
FFFFFFDE
00000017
0000001D
0000001B
0000000A
00000000
00000006
FFFFFFF2
00000011
00000013
FFFFFFEA
00000016
00000019
0000001F
00000012
00000002
FFFFFFDC
FFFFFFE5
00000019
0000000C
FFFFFFFD
0000000C
FFFFFFF5
00000013
FFFFFFFD
00000005
FFFFFFF2
FFFFFFF2
FFFFFFDE
FFFFFFED
00000006
00000018
0000002D
FFFFFFD2
00000008
0000001E
00000036
FFFFFFCF
FFFFFFEE
00000025
0000000A
FFFFFFF5
00000017
0000000E
00000005
0000001E
FFFFFFDD
FFFFFFFC
0000001A
0000002D
0000001C
FFFFFFF3
FFFFFFD0
00000003
0000001E
00000035
FFFFFFDF
0000000C
FFFFFFDC
00000021
FFFFFFF1
00000022
FFFFFFF3
FFFFFFE8
00000005
0000000D
FFFFFFF8
00000012
FFFFFFF8
00000006
00000011
00000006
00000007
0000001F
FFFFFFE0
00000002
FFFFFFE2
FFFFFFED
00000015
00000010
0000002E
00000033
00000015
00000004
FFFFFFF9
0000001C
FFFFFFF4
FFFFFFEE
FFFFFFF4
FFFFFFE8
00000007
00000004
0000001E
FFFFFFE5
0000000F
FFFFFFDC
FFFFFFC8
FFFFFFE0
FFFFFFD7
00000008
FFFFFFE6
0000000E
0000000B
FFFFFFDE
00000032
00000014
FFFFFFD7
00000016
FFFFFFF4
FFFFFFFD
FFFFFFEC
00000007
0000001A
FFFFFFDB
00000015
FFFFFFE9
00000019
00000027
0000001C
FFFFFFDB
00000026
0000001A
00000005
00000028
FFFFFFE6
0000000C
00000018
FFFFFFC8
00000024
0000000C
FFFFFFE1
00000023
00000011
00000014
FFFFFFDC
0000001D
FFFFFFDE
00000039
FFFFFFF0
0000001C
0000000D
00000001
0000001B
00000009
FFFFFFFF
FFFFFFD9
00000009
FFFFFFE6
FFFFFFF8
FFFFFFF4
00000012
FFFFFFF6
00000017
FFFFFFDF
FFFFFFEB
FFFFFFFC
0000001C
FFFFFFFD
0000000E
FFFFFFF5
FFFFFFE6
00000010
FFFFFFF6
FFFFFFDB
0000002C
FFFFFFE3
00000013
00000010
00000026
FFFFFFF6
FFFFFFF0
0000001A
FFFFFFEE
0000001D
00000015
FFFFFFEC
00000021
0000000A
FFFFFFE9
0000000C
00000014
FFFFFFFE
00000001
FFFFFFDC
FFFFFFF5
0000000A
00000022
FFFFFFF0
00000022
00000018
FFFFFFE0
FFFFFFFD
FFFFFFFD
FFFFFFE5
0000001C
00000002
FFFFFFD1
0000002A
00000020
0000002A
FFFFFFF3
00000015
0000001C
FFFFFFE4
FFFFFFEE
FFFFFFE8
FFFFFFEF
FFFFFFF9
0000002F
FFFFFFF0
0000000F
FFFFFFFD
00000013
FFFFFFD9
0000001E
FFFFFFF5
FFFFFFD1
00000011
00000016
0000000B
00000000
00000004
FFFFFFDA
0000001B
FFFFFFDC
FFFFFFD5
FFFFFFE7
FFFFFFFF
FFFFFFEA
FFFFFFE3
00000012
FFFFFFD8
FFFFFFF7
FFFFFFE9
0000002D
00000022
00000002
00000029
00000010
00000038
00000007
FFFFFFFC
FFFFFFE4
00000007
00000020
0000000C
00000022
00000017
00000007
FFFFFFFF
FFFFFFEF
FFFFFFE4
00000017
0000001C
00000001
FFFFFFF3
FFFFFFEA
00000008
00000023
FFFFFFFC
00000020
00000028
FFFFFFF7
0000001C
00000018
FFFFFFE0
FFFFFFE5
FFFFFFDE
FFFFFFE1
00000010
00000014
FFFFFFD8
FFFFFFE8
FFFFFFFE
FFFFFFE5
FFFFFFED
0000001C
00000033
FFFFFFE6
FFFFFFE2
00000031
FFFFFFFE
FFFFFFDF
FFFFFFE4
FFFFFFEA
FFFFFFCB
00000001
FFFFFFE8
0000000E
FFFFFFF5
FFFFFFFB
FFFFFFFF
FFFFFFFA
FFFFFFF9
00000012
00000019
FFFFFFEB
00000018
FFFFFFF0
FFFFFFEA
0000000E
0000001C
FFFFFFE6
FFFFFFEE
FFFFFFFE
FFFFFFD3
FFFFFFE8
FFFFFFD7
0000000C
0000002C
FFFFFFE9
00000023
FFFFFFFB
0000000E
00000018
FFFFFFF5
00000006
FFFFFFF9
00000013
FFFFFFFB
0000002D
FFFFFFDC
0000001A
FFFFFFD9
FFFFFFEF
FFFFFFF0
FFFFFFE6
FFFFFFE8
00000011
FFFFFFFC
00000026
FFFFFFE7
0000000B
00000013
FFFFFFD0
0000001B
00000013
FFFFFFF7
FFFFFFCD
0000001E
0000001B
FFFFFFE9
00000017
0000001E
00000018
00000015
FFFFFFFD
00000019
00000020
00000011
00000011
FFFFFFF4
00000031
00000004
0000001C
FFFFFFDD
00000006
00000017
FFFFFFE7
FFFFFFF1
FFFFFFD8
FFFFFFE4
00000009
00000020
00000024
FFFFFFDC
FFFFFFE9
00000014
FFFFFFEB
FFFFFFE1
00000001
FFFFFFF7
FFFFFFF5
FFFFFFED
FFFFFFDA
00000021
0000001B
FFFFFFE3
00000039
FFFFFFD6
0000000B
00000009
00000004
FFFFFFDB
FFFFFFF1
00000020
00000000
FFFFFFE8
FFFFFFF6
FFFFFFE3
FFFFFFE1
FFFFFFF0
0000001D
FFFFFFEA
00000024
00000005
00000006
FFFFFFF7
0000002B
FFFFFFE9
FFFFFFDC
0000000D
FFFFFFE8
FFFFFFF2
FFFFFFE8
FFFFFFDA
FFFFFFD3
00000009
00000003
00000026
FFFFFFF4
FFFFFFFA
0000000F
FFFFFFF2
00000017
FFFFFFED
00000021
FFFFFFF3
00000016
00000010
00000024
FFFFFFEB
FFFFFFF3
FFFFFFF9
FFFFFFF9
FFFFFFEC
FFFFFFED
FFFFFFF4
00000019
FFFFFFEE
FFFFFFF6
FFFFFFEF
0000000B
00000008
FFFFFFE5
FFFFFFF5
00000029
FFFFFFF6
00000001
0000001C
00000026
FFFFFFF7
0000001F
00000015
00000006
00000009
FFFFFFF5
00000024
FFFFFFD7
FFFFFFF6
00000007
FFFFFFE5
00000024
00000015
00000022
0000002F
FFFFFFF9
00000021
FFFFFFEE
FFFFFFF2
FFFFFFED
00000018
FFFFFFF1
FFFFFFE3
FFFFFFD6
00000026
00000012
FFFFFFEC
00000021
00000011
FFFFFFD6
FFFFFFFD
FFFFFFDE
0000001E
FFFFFFEE
00000014
0000000F
FFFFFFF4
FFFFFFE7
FFFFFFE5
0000001E
0000001F
FFFFFFE1
FFFFFFD3
00000010
FFFFFFD6
FFFFFFD9
FFFFFFDF
FFFFFFDF
FFFFFFE8
FFFFFFD8
FFFFFFF0
FFFFFFFD
FFFFFFF9
FFFFFFDF
FFFFFFEF
0000000A
00000013
FFFFFFE5
00000017
0000000C
FFFFFFDF
FFFFFFE4
FFFFFFDE
FFFFFFE9
FFFFFFFE
FFFFFFFD
FFFFFFDF
FFFFFFFB
0000003A
FFFFFFF3
00000024
00000011
FFFFFFE0
FFFFFFFE
FFFFFFF7
FFFFFFD9
FFFFFFE5
00000021
00000009
0000000D
00000004
00000012
0000000A
00000024
FFFFFFF3
FFFFFFD1
00000018
FFFFFFE3
00000021
FFFFFFEF
FFFFFFF0
0000002E
FFFFFFE7
FFFFFFF4
FFFFFFEF
FFFFFFDF
0000000A
FFFFFFD6
FFFFFFFE
FFFFFFEE
00000023
FFFFFFD1
FFFFFFDA
0000000B
00000027
FFFFFFEC
00000016
00000023
00000004
00000009
00000003
FFFFFFEF
FFFFFFF3
0000001A
0000000F
00000020
00000020
00000018
00000029
FFFFFFFB
FFFFFFEE
FFFFFFF9
FFFFFFEA
FFFFFFF4
FFFFFFEC
00000003
FFFFFFD6
FFFFFFEA
FFFFFFEF
00000026
0000000C
FFFFFFD3
FFFFFFFF
FFFFFFF0
FFFFFFDB
FFFFFFEB
0000000E
00000006
FFFFFFDF
FFFFFFE9
0000001D
00000026
0000001D
00000023
0000001E
0000000C
0000000A
FFFFFFEE
FFFFFFE5
FFFFFFFF
FFFFFFE8
FFFFFFE4
00000003
0000001E
00000005
00000006
FFFFFFDA
FFFFFFE0
FFFFFFEC
FFFFFFE2
0000000C
00000015
00000015
0000000B
00000000
FFFFFFFA
FFFFFFEB
FFFFFFDA
00000013
FFFFFFFA
FFFFFFE9
00000009
FFFFFFE3
0000000B
FFFFFFF9
FFFFFFE8
00000017
00000023
FFFFFFEC
FFFFFFE3
FFFFFFFA
FFFFFFE5
FFFFFFE5
FFFFFFF7
00000004
FFFFFFE8
FFFFFFDE
00000018
00000015
00000014
0000001C
FFFFFFF9
FFFFFFE5
00000029
00000011
FFFFFFE1
0000000C
FFFFFFFC
0000001F
FFFFFFD9
00000007
0000001C
0000000F
FFFFFFF7
FFFFFFEA
FFFFFFED
00000015
FFFFFFF1
FFFFFFE6
00000028
0000001E
FFFFFFE8
FFFFFFDB
FFFFFFE2
FFFFFFF0
FFFFFFE1
FFFFFFFE
FFFFFFE6
FFFFFFCB
FFFFFFDD
00000017
00000015
FFFFFFDD
00000005
FFFFFFE4
00000011
FFFFFFF9
00000001
FFFFFFEC
FFFFFFEC
FFFFFFFD
0000001B
0000000A
FFFFFFE1
FFFFFFE3
FFFFFFF5
FFFFFFDF
00000006
FFFFFFD9
0000001E
FFFFFFE1
FFFFFFDE
FFFFFFFF
00000015
FFFFFFF6
FFFFFFDF
FFFFFFDD
FFFFFFDC
FFFFFFF1
FFFFFFEA
FFFFFFF4
FFFFFFE8
00000021
0000000B
FFFFFFD7
FFFFFFE7
FFFFFFDF
FFFFFFE5
FFFFFFE3
FFFFFFF4
FFFFFFE7
0000000F
0000001E
FFFFFFDE
00000020
00000015
00000007
FFFFFFFA
FFFFFFE5
FFFFFFEF
FFFFFFCD
FFFFFFEB
00000026
0000001E
0000002A
FFFFFFED
00000003
00000018
FFFFFFF9
00000010
00000008
FFFFFFD7
00000004
00000022
FFFFFFE7
0000000F
00000007
FFFFFFF0
00000008
FFFFFFF4
FFFFFFF2
FFFFFFE3
00000006
FFFFFFCE
FFFFFFE9
FFFFFFDA
0000001A
0000000E
FFFFFFD2
0000000C
FFFFFFD1
0000002D
FFFFFFEF
FFFFFFFD
0000000F
FFFFFFFD
00000029
00000007
FFFFFFE7
FFFFFFDA
00000014
00000003
FFFFFFD6
FFFFFFD9
0000001F
FFFFFFDA
00000007
FFFFFFE5
00000000
0000000F
FFFFFFF2
00000026
FFFFFFE6
00000005
FFFFFFF2
FFFFFFE9
00000020
00000014
00000008
FFFFFFE7
0000001E
FFFFFFEA
FFFFFFF2
FFFFFFD4
0000001C
FFFFFFD9
FFFFFFDD
00000016
FFFFFFE6
FFFFFFFC
FFFFFFDA
0000000A
00000009
0000002E
FFFFFFFE
FFFFFFF2
FFFFFFEF
00000002
FFFFFFDF
FFFFFFE3
0000000E
00000016
FFFFFFCE
FFFFFFE0
0000000B
00000012
FFFFFFFA
FFFFFFDD
FFFFFFFC
00000000
00000026
00000013
FFFFFFF5
FFFFFFFD
FFFFFFE5
FFFFFFF2
0000002E
00000029
0000000A
FFFFFFDF
00000007
00000019
FFFFFFE0
0000000A
0000000E
00000026
FFFFFFFE
FFFFFFD6
FFFFFFE8
00000016
FFFFFFC9
0000001E
FFFFFFFC
00000013
00000020
FFFFFFE1
FFFFFFFA
00000016
00000019
00000019
0000001E
FFFFFFFC
00000023
0000001D
FFFFFFEC
FFFFFFDF
FFFFFFFE
FFFFFFE9
FFFFFFD9
0000001C
0000000F
FFFFFFFD
FFFFFFD6
0000001D
00000010
0000000E
FFFFFFE1
00000017
FFFFFFE4
FFFFFFFB
00000015
FFFFFFFD
FFFFFFCF
FFFFFFE9
0000000C
0000000B
00000020
0000001A
FFFFFFE4
FFFFFFEB
FFFFFFF4
FFFFFFE4
0000001D
FFFFFFE9
00000009
0000001B
00000004
FFFFFFFC
00000015
FFFFFFE0
00000022
00000001
FFFFFFD8
FFFFFFEC
0000001B
FFFFFFE6
FFFFFFEE
FFFFFFF6
00000025
FFFFFFF1
FFFFFFF0
FFFFFFE8
FFFFFFE4
0000001C
00000024
00000017
FFFFFFF8
00000010
0000001D
FFFFFFFF
FFFFFFF4
00000007
FFFFFFF8
0000000B
00000027
0000001C
0000000C
00000027
0000001C
0000000F
0000000D
FFFFFFF5
00000008
FFFFFFF1
FFFFFFFE
FFFFFFFB
00000002
0000002A
00000000
0000001E
00000020
FFFFFFEB
FFFFFFEF
0000000D
00000016
00000032
0000000B
FFFFFFFA
00000015
00000009
FFFFFFDD
FFFFFFD7
FFFFFFFD
FFFFFFE1
FFFFFFE5
00000004
0000000F
FFFFFFF9
FFFFFFEE
00000026
FFFFFFEE
00000022
00000001
00000017
FFFFFFE0
FFFFFFC7
FFFFFFF5
FFFFFFF0
00000012
00000018
0000001A
FFFFFFF7
00000022
00000009
0000001E
FFFFFFEC
FFFFFFF6
00000007
0000000D
FFFFFFFE
FFFFFFE6
00000014
FFFFFFE1
00000012
0000001A
FFFFFFDF
00000020
FFFFFFF5
00000006
FFFFFFE9
0000001A
0000001C
FFFFFFEF
FFFFFFEC
FFFFFFD3
0000001B
00000015
FFFFFFF1
00000002
00000004
00000022
00000022
00000012
00000001
FFFFFFFE
FFFFFFF8
0000000B
FFFFFFE5
0000001A
FFFFFFEB
00000016
00000009
FFFFFFDC
0000000C
00000010
00000015
FFFFFFD4
FFFFFFF4
00000019
FFFFFFE1
FFFFFFF8
FFFFFFEA
00000000
00000010
00000008
00000020
FFFFFFDE
0000002B
0000000D
0000000D
00000018
0000001F
FFFFFFD5
00000001
0000000C
0000000A
00000019
FFFFFFFD
00000009
FFFFFFE4
FFFFFFD2
FFFFFFEF
00000019
00000009
00000024
00000005
FFFFFFFD
00000004
00000015
FFFFFFF5
FFFFFFE9
FFFFFFE6
0000002F
FFFFFFE8
0000001E
FFFFFFF4
00000007
00000026
FFFFFFEA
00000014
0000000D
00000000
FFFFFFDF
FFFFFFEA
FFFFFFEC
FFFFFFF2
FFFFFFE3
00000001
FFFFFFFF
FFFFFFF1
FFFFFFF1
FFFFFFF7
FFFFFFF5
FFFFFFEE
FFFFFFE3
00000016
FFFFFFDD
00000014
00000003
FFFFFFCE
FFFFFFFF
FFFFFFEF
0000000C
00000001
FFFFFFF3
00000016
FFFFFFE6
00000003
00000023
00000012
0000000F
FFFFFFEA
FFFFFFE4
00000020
00000027
00000012
FFFFFFE8
FFFFFFE7
00000008
00000001
0000002D
FFFFFFF6
00000008
FFFFFFED
FFFFFFEA
FFFFFFDF
00000028
00000009
FFFFFFE5
FFFFFFE1
FFFFFFEF
00000009
00000012
FFFFFFFD
00000009
FFFFFFDD
00000001
FFFFFFDF
FFFFFFDD
00000000
FFFFFFF3
00000023
0000001C
FFFFFFF3
00000004
00000024
FFFFFFE3
FFFFFFEC
FFFFFFFF
0000001C
FFFFFFE3
FFFFFFEC
0000000A
FFFFFFDF
FFFFFFCC
00000010
0000000C
00000004
FFFFFFF7
00000023
FFFFFFDB
FFFFFFDB
FFFFFFFE
FFFFFFDC
00000017
00000011
00000020
FFFFFFD8
0000000A
00000021
FFFFFFFC
FFFFFFFC
0000001B
00000021
0000001E
00000010
FFFFFFDB
00000022
00000017
FFFFFFEC
00000024
FFFFFFF3
0000000A
0000001A
FFFFFFEB
FFFFFFCD
0000001E
FFFFFFDF
FFFFFFEA
0000000D
0000000B
FFFFFFF4
00000014
00000002
FFFFFFF7
FFFFFFCE
00000003
0000000B
0000001D
FFFFFFD7
00000021
00000016
00000021
00000031
FFFFFFFC
FFFFFFFC
00000004
FFFFFFCD
00000014
FFFFFFCC
0000000E
0000000B
FFFFFFF5
FFFFFFDF
FFFFFFFD
0000000B
00000008
FFFFFFF9
FFFFFFED
FFFFFFE1
FFFFFFE9
00000000
FFFFFFE3
0000000C
0000001F
00000021
FFFFFFE8
FFFFFFF6
FFFFFFF0
00000020
FFFFFFE7
FFFFFFE2
FFFFFFF1
FFFFFFD4
FFFFFFE4
0000001B
FFFFFFFB
FFFFFFE0
0000001B
00000017
0000000C
FFFFFFF9
00000005
00000002
FFFFFFDC
00000024
FFFFFFF1
FFFFFFEE
FFFFFFFD
FFFFFFEE
FFFFFFE8
00000023
FFFFFFF3
FFFFFFF9
0000000B
00000023
FFFFFFDE
FFFFFFD6
00000029
FFFFFFE7
00000011
00000010
FFFFFFF8
00000009
FFFFFFF2
FFFFFFF4
FFFFFFD7
FFFFFFF6
FFFFFFDB
0000001B
0000000F
FFFFFFF2
FFFFFFF5
0000001A
00000010
FFFFFFF5
00000008
0000001C
FFFFFFE6
FFFFFFD8
FFFFFFF4
00000013
00000012
00000031
00000010
FFFFFFEF
FFFFFFDA
00000016
FFFFFFF3
FFFFFFF9
FFFFFFFC
FFFFFFFC
FFFFFFFC
00000002
0000001C
FFFFFFDC
00000005
00000013
00000009
0000001A
FFFFFFE8
00000018
00000014
FFFFFFD8
FFFFFFF2
FFFFFFF6
00000012
0000001B
00000018
00000025
FFFFFFFD
00000008
FFFFFFDD
00000020
0000001B
0000001A
0000001E
00000020
FFFFFFE2
0000001C
FFFFFFEF
0000001B
FFFFFFE4
FFFFFFD6
FFFFFFEE
00000013
00000018
FFFFFFEF
00000007
0000000A
FFFFFFDE
FFFFFFEA
FFFFFFF4
FFFFFFD7
00000024
FFFFFFFD
0000001D
0000001F
00000009
00000022
0000002E
00000011
00000019
00000002
FFFFFFDE
FFFFFFF4
0000000B
00000009
FFFFFFFC
00000004
00000010
FFFFFFF4
FFFFFFFA
FFFFFFED
FFFFFFF9
0000000A
FFFFFFF8
00000006
FFFFFFF1
FFFFFFF5
FFFFFFED
00000028
00000011
00000002
00000022
00000020
FFFFFFF8
0000000A
00000028
0000000E
FFFFFFDE
0000000C
00000010
00000003
00000009
00000000
FFFFFFD8
FFFFFFE6
00000004
FFFFFFF1
00000002
00000023
00000007
FFFFFFFE
FFFFFFE8
FFFFFFEE
FFFFFFEB
FFFFFFEF
FFFFFFFD
0000001D
0000002A
0000000C
FFFFFFE7
FFFFFFFE
00000009
00000007
FFFFFFDE
FFFFFFE5
00000019
0000000A
0000000F
00000002
FFFFFFF8
00000000
0000001C
FFFFFFE6
FFFFFFEC
00000002
FFFFFFDC
FFFFFFDE
0000000B
FFFFFFF9
00000014
0000001F
FFFFFFCA
0000000B
00000017
00000022
00000026
FFFFFFF2
FFFFFFF7
FFFFFFF9
0000000B
0000001A
FFFFFFF2
FFFFFFF8
FFFFFFFE
FFFFFFF5
FFFFFFD9
FFFFFFE5
FFFFFFFE
0000000B
00000003
FFFFFFFB
00000013
00000028
00000025
FFFFFFDE
00000024
00000000
FFFFFFE4
FFFFFFF5
FFFFFFD5
00000000
FFFFFFDF
FFFFFFFC
FFFFFFD1
00000014
00000002
00000018
00000005
FFFFFFF0
FFFFFFE0
00000014
00000013
FFFFFFD8
FFFFFFE2
FFFFFFDD
FFFFFFF6
FFFFFFE8
FFFFFFE5
00000004
FFFFFFE9
00000034
FFFFFFF3
0000000E
00000033
FFFFFFF0
FFFFFFEC
FFFFFFDB
0000001A
FFFFFFDD
00000019
00000008
FFFFFFF9
00000003
FFFFFFF3
FFFFFFF9
00000007
FFFFFFDF
00000020
00000020
0000001A
00000030
00000006
FFFFFFF6
00000006
FFFFFFE7
FFFFFFF6
00000001
FFFFFFF3
FFFFFFD7
FFFFFFE8
0000000D
FFFFFFEE
FFFFFFF1
FFFFFFF1
0000000C
00000006
00000022
FFFFFFF4
FFFFFFF2
FFFFFFD9
00000008
FFFFFFF1
FFFFFFF4
FFFFFFF9
00000002
FFFFFFE9
FFFFFFF5
FFFFFFF1
FFFFFFFF
00000013
FFFFFFD9
00000016
FFFFFFE0
FFFFFFEC
00000002
00000000
FFFFFFFD
FFFFFFF1
FFFFFFEA
0000002A
00000009
00000011
00000026
00000018
00000002
FFFFFFD9
FFFFFFD4
00000027
0000003A
FFFFFFFC
00000004
FFFFFFF8
00000025
00000001
FFFFFFD0
FFFFFFF8
0000000A
FFFFFFCE
0000001F
00000001
0000001F
FFFFFFE2
00000010
FFFFFFD8
FFFFFFF9
FFFFFFF0
00000013
FFFFFFE9
FFFFFFDD
0000001D
00000013
0000000E
00000015
00000008
0000001B
0000002C
FFFFFFEA
FFFFFFF9
FFFFFFF8
00000019
FFFFFFD1
FFFFFFE8
00000007
FFFFFFE4
FFFFFFD7
0000001E
FFFFFFFE
0000001E
00000015
00000001
00000026
00000006
00000009
FFFFFFE0
FFFFFFE8
0000003D
FFFFFFEB
FFFFFFEC
FFFFFFEB
FFFFFFE0
FFFFFFF3
FFFFFFD8
00000020
FFFFFFE4
0000001C
00000008
0000001B
FFFFFFDE
0000001A
00000011
FFFFFFFB
0000000B
FFFFFFF9
00000004
FFFFFFED
FFFFFFFE
FFFFFFE9
0000001F
FFFFFFDE
00000008
FFFFFFF3
FFFFFFEC
0000002A
00000018
FFFFFFEB
00000013
0000000C
0000001A
00000022
FFFFFFDE
FFFFFFFE
FFFFFFF0
FFFFFFDF
0000000B
0000000D
FFFFFFF0
00000004
FFFFFFF8
FFFFFFE6
FFFFFFF5
FFFFFFF1
FFFFFFFC
FFFFFFE4
00000021
FFFFFFE0
0000002E
FFFFFFE5
FFFFFFF3
0000000E
FFFFFFF7
0000001B
0000001E
FFFFFFF7
00000008
FFFFFFFA
FFFFFFF6
FFFFFFF3
00000021
FFFFFFE6
0000001F
00000019
00000015
FFFFFFFB
00000015
FFFFFFE1
FFFFFFF9
FFFFFFEC
00000019
00000006
00000021
0000002B
FFFFFFE0
FFFFFFE7
FFFFFFF9
00000013
00000022
FFFFFFF5
00000024
FFFFFFE5
00000001
FFFFFFCC
FFFFFFF2
FFFFFFD4
00000012
0000001D
FFFFFFE9
0000001C
FFFFFFD1
FFFFFFE5
FFFFFFEA
FFFFFFE7
FFFFFFDF
FFFFFFE5
FFFFFFEE
00000000
FFFFFFE3
FFFFFFFC
00000001
FFFFFFF6
FFFFFFD5
FFFFFFEB
00000005
0000000B
FFFFFFFA
FFFFFFF9
00000020
FFFFFFC5
FFFFFFF3
0000002C
FFFFFFE6
00000012
FFFFFFF0
00000010
00000039
FFFFFFE7
FFFFFFF4
00000011
FFFFFFED
FFFFFFFB
00000009
FFFFFFE2
FFFFFFD7
FFFFFFFB
FFFFFFE5
FFFFFFE8
FFFFFFE6
00000004
00000012
00000014
FFFFFFF4
FFFFFFF4
00000006
FFFFFFE2
FFFFFFF8
FFFFFFF1
0000001C
00000021
FFFFFFEF
00000028
FFFFFFFB
FFFFFFF5
FFFFFFFC
00000007
0000000B
00000026
0000001F
0000002A
FFFFFFDD
FFFFFFE5
00000002
0000001C
FFFFFFEA
00000014
FFFFFFEF
00000017
0000000A
FFFFFFFB
00000020
FFFFFFE3
00000029
00000013
0000000A
FFFFFFF7
00000004
FFFFFFEC
FFFFFFE2
00000037
FFFFFFD7
00000014
00000020
00000003
00000016
00000019
FFFFFFE6
00000014
0000002E
00000024
FFFFFFDE
0000001D
FFFFFFE8
FFFFFFE7
FFFFFFF2
00000004
FFFFFFF1
00000021
FFFFFFD9
FFFFFFE7
00000028
0000000D
00000020
00000021
FFFFFFE5
00000021
00000013
FFFFFFF7
0000000E
00000006
0000001C
FFFFFFC7
00000012
0000001D
FFFFFFDC
00000015
00000007
FFFFFFE4
0000001E
FFFFFFF6
FFFFFFF2
FFFFFFEA
00000003
00000003
FFFFFFE1
FFFFFFD8
00000008
FFFFFFE1
00000017
00000023
00000018
FFFFFFDC
FFFFFFEB
00000016
0000000D
FFFFFFE6
00000009
00000024
FFFFFFEA
FFFFFFE5
00000007
FFFFFFED
00000011
FFFFFFF3
FFFFFFFD
00000004
00000031
FFFFFFE1
FFFFFFF5
FFFFFFF0
0000001B
00000000
FFFFFFEB
FFFFFFFD
0000000D
0000000C
00000008
00000021
00000018
00000021
FFFFFFEA
00000020
FFFFFFE1
00000014
0000001F
00000029
FFFFFFDD
FFFFFFF3
FFFFFFFD
FFFFFFFE
FFFFFFE4
FFFFFFEE
FFFFFFEF
FFFFFFFA
FFFFFFEC
00000002
FFFFFFED
0000001D
00000007
0000001E
FFFFFFFE
FFFFFFE9
00000026
FFFFFFFB
00000023
00000012
FFFFFFF4
FFFFFFF1
0000000C
00000022
FFFFFFFE
00000006
FFFFFFEE
00000023
FFFFFFEF
FFFFFFE3
0000000A
00000023
0000000C
0000000B
FFFFFFEF
FFFFFFF3
FFFFFFDD
FFFFFFEA
FFFFFFDE
00000011
00000003
FFFFFFE7
FFFFFFF8
00000024
FFFFFFE1
0000000C
FFFFFFFB
00000014
00000005
00000003
0000002F
0000001E
0000000A
00000013
FFFFFFFF
FFFFFFD3
00000037
FFFFFFEE
00000024
FFFFFFEC
FFFFFFFF
0000000D
00000010
FFFFFFD5
00000024
00000030
FFFFFFD9
00000014
00000003
00000027
FFFFFFD6
FFFFFFEC
00000000
00000005
00000000
00000017
00000028
FFFFFFE5
00000005
FFFFFFEA
00000019
FFFFFFD7
FFFFFFE5
00000004
00000025
FFFFFFDC
00000012
FFFFFFFF
00000008
FFFFFFFE
0000002C
00000018
FFFFFFDA
FFFFFFF0
00000013
0000000D
00000010
FFFFFFED
FFFFFFDA
0000000F
00000027
FFFFFFF0
FFFFFFF9
FFFFFFD5
FFFFFFF8
0000001A
FFFFFFE7
FFFFFFD4
FFFFFFEE
0000002C
FFFFFFE7
00000030
00000029
FFFFFFEA
FFFFFFF2
FFFFFFE3
00000011
FFFFFFF6
0000001C
00000021
00000003
0000000F
FFFFFFD8
FFFFFFE8
FFFFFFFA
00000004
00000012
00000025
00000012
00000005
FFFFFFE0
FFFFFFFC
FFFFFFD0
0000000D
FFFFFFE1
0000001A
FFFFFFFE
FFFFFFD4
00000022
00000021
FFFFFFF0
0000001A
FFFFFFE8
FFFFFFD2
FFFFFFF2
0000002A
0000001C
00000001
FFFFFFEC
FFFFFFFC
0000000B
FFFFFFE1
FFFFFFF0
0000001A
FFFFFFF8
FFFFFFE6
FFFFFFDF
00000027
FFFFFFDB
00000018
FFFFFFFD
00000001
FFFFFFEA
FFFFFFD8
0000001D
FFFFFFD6
00000011
FFFFFFE1
00000015
00000014
0000000F
FFFFFFE9
0000001B
00000001
FFFFFFF5
00000031
FFFFFFF6
FFFFFFD1
00000016
00000016
FFFFFFEF
FFFFFFDA
0000001C
FFFFFFDC
FFFFFFF9
00000000
FFFFFFF8
FFFFFFF2
FFFFFFF1
0000000B
FFFFFFE7
0000002D
00000010
00000016
FFFFFFFB
00000011
00000018
00000012
FFFFFFE4
FFFFFFE3
0000001D
00000015
00000018
0000001B
00000002
0000001F
00000011
FFFFFFFA
0000001E
00000005
FFFFFFFD
FFFFFFF6
0000000A
FFFFFFD2
FFFFFFFA
00000030
0000000D
FFFFFFDB
0000001D
00000022
FFFFFFED
00000020
0000000E
00000017
00000020
0000000B
FFFFFFDA
0000002C
0000000B
0000001B
00000007
FFFFFFEF
00000025
00000022
00000016
FFFFFFE9
00000007
0000000E
00000010
00000011
00000027
00000011
FFFFFFFB
0000000A
00000006
FFFFFFE2
0000000A
FFFFFFE5
00000001
00000025
00000016
FFFFFFDC
FFFFFFE6
FFFFFFFB
0000001A
00000025
FFFFFFFB
FFFFFFDA
00000001
FFFFFFFD
00000003
FFFFFFE9
00000018
FFFFFFD9
FFFFFFFC
0000001A
FFFFFFF8
FFFFFFF3
00000010
FFFFFFF0
0000001E
FFFFFFF9
00000024
00000023
00000009
FFFFFFDE
00000007
FFFFFFE0
FFFFFFDD
00000012
0000001E
0000001A
FFFFFFD7
00000022
0000001B
00000014
0000001E
FFFFFFF0
00000007
0000000A
FFFFFFF8
0000001C
FFFFFFDD
00000028
00000014
0000000B
FFFFFFD9
0000000C
00000008
FFFFFFF8
00000025
FFFFFFD7
0000000C
FFFFFFDE
FFFFFFDA
0000001A
0000000D
FFFFFFED
00000016
0000001E
00000001
FFFFFFF8
00000035
FFFFFFE2
00000024
FFFFFFEF
00000010
FFFFFFF9
00000005
00000029
00000017
00000016
FFFFFFEA
FFFFFFFF
FFFFFFEC
FFFFFFE1
00000022
00000023
00000018
00000032
00000015
FFFFFFF3
00000020
FFFFFFFB
FFFFFFDD
FFFFFFFB
00000004
FFFFFFDF
00000022
FFFFFFDB
FFFFFFCB
0000000F
00000001
00000039
FFFFFFFE
00000019
00000004
0000001B
00000018
00000021
FFFFFFFF
0000000C
FFFFFFE9
0000001E
FFFFFFFC
0000001B
00000021
FFFFFFE1
00000006
0000002C
FFFFFFF3
FFFFFFE4
0000000A
FFFFFFDA
FFFFFFF2
FFFFFFDE
00000002
0000001B
00000012
0000000F
00000003
FFFFFFF4
00000007
FFFFFFFC
0000001D
FFFFFFF8
FFFFFFE0
FFFFFFFD
FFFFFFE4
FFFFFFF2
00000011
0000000A
FFFFFFE1
FFFFFFF3
0000001F
00000014
00000019
FFFFFFE7
FFFFFFE3
0000001A
FFFFFFE3
00000025
0000000E
FFFFFFE4
00000021
FFFFFFF0
00000015
00000025
00000022
FFFFFFED
FFFFFFF2
0000000C
FFFFFFFA
FFFFFFF7
FFFFFFD8
0000000A
FFFFFFFB
FFFFFFE1
FFFFFFE7
FFFFFFEA
00000013
FFFFFFF2
FFFFFFEE
FFFFFFE2
FFFFFFFC
0000001B
FFFFFFF8
0000001D
00000010
00000015
FFFFFFFF
FFFFFFED
FFFFFFE3
0000001D
FFFFFFFD
00000027
FFFFFFE8
FFFFFFE6
0000002D
FFFFFFD6
FFFFFFF4
00000009
00000004
0000000C
FFFFFFEB
FFFFFFF9
0000000B
00000021
FFFFFFF7
FFFFFFF1
FFFFFFF2
00000018
FFFFFFF2
00000010
0000002D
FFFFFFF4
0000000C
00000009
00000003
00000006
0000000D
0000002C
00000015
FFFFFFDD
00000025
FFFFFFFA
00000024
00000007
FFFFFFEE
FFFFFFF8
FFFFFFD5
FFFFFFE6
FFFFFFFE
0000001A
0000001D
FFFFFFE9
FFFFFFE2
0000002E
00000012
FFFFFFFC
00000001
00000010
FFFFFFFB
FFFFFFFD
FFFFFFF3
0000001D
FFFFFFF4
FFFFFFFB
FFFFFFE8
FFFFFFFE
00000017
FFFFFFDE
FFFFFFE9
FFFFFFEC
0000001B
FFFFFFE4
00000010
00000002
FFFFFFE6
00000018
FFFFFFF7
0000001A
00000008
00000032
FFFFFFF4
0000001D
FFFFFFF8
00000014
00000019
FFFFFFEB
FFFFFFCC
FFFFFFFC
00000011
00000025
00000019
FFFFFFF1
FFFFFFE1
00000019
00000027
FFFFFFDE
FFFFFFE8
00000005
FFFFFFFF
00000016
00000021
00000021
00000017
00000002
00000013
FFFFFFE1
FFFFFFD8
00000003
00000019
FFFFFFF0
00000006
FFFFFFF5
FFFFFFD3
0000000C
FFFFFFEF
0000000E
00000032
00000001
00000026
00000004
0000001B
FFFFFFFF
00000029
FFFFFFDB
00000000
FFFFFFE9
FFFFFFEF
FFFFFFF7
00000029
0000001B
0000000E
FFFFFFF2
FFFFFFFA
0000001D
FFFFFFF2
0000000B
00000006
00000001
FFFFFFF3
0000000E
FFFFFFFA
FFFFFFE9
00000011
00000028
FFFFFFDD
00000022
FFFFFFF4
0000001B
00000028
FFFFFFE8
00000013
00000014
0000000B
FFFFFFDD
FFFFFFDB
00000005
00000024
FFFFFFF1
0000000E
00000007
FFFFFFFB
00000018
FFFFFFEE
00000019
FFFFFFE9
00000009
FFFFFFE6
FFFFFFE7
FFFFFFFC
00000008
00000022
0000001B
FFFFFFFC
0000000B
0000000E
00000003
FFFFFFE6
0000001A
FFFFFFFC
0000000C
FFFFFFFB
0000000C
FFFFFFF0
00000011
FFFFFFFA
FFFFFFD8
00000005
FFFFFFEC
FFFFFFFD
FFFFFFE7
FFFFFFE8
FFFFFFE1
00000017
FFFFFFF7
0000001D
00000016
FFFFFFDF
FFFFFFF1
FFFFFFF0
FFFFFFF8
FFFFFFE0
0000000A
FFFFFFE4
FFFFFFEC
00000006
00000038
00000014
0000000D
00000016
FFFFFFED
0000002D
00000002
FFFFFFFB
0000000C
0000001E
00000019
00000010
00000007
0000001A
0000000F
FFFFFFF7
00000021
00000013
FFFFFFF9
00000032
FFFFFFF9
FFFFFFE4
FFFFFFEB
FFFFFFF1
00000013
00000023
FFFFFFD3
FFFFFFDA
FFFFFFF5
FFFFFFF8
0000001C
00000020
00000004
00000014
FFFFFFE5
00000013
0000000A
FFFFFFDE
FFFFFFDF
FFFFFFD3
FFFFFFF1
FFFFFFF9
00000000
FFFFFFDC
FFFFFFF9
0000001D
FFFFFFEF
FFFFFFF7
FFFFFFF0
00000004
00000020
FFFFFFE0
00000011
00000013
FFFFFFFF
00000010
0000000F
00000011
FFFFFFE1
00000003
00000018
0000001F
00000027
0000000D
FFFFFFEF
FFFFFFDF
00000008
00000027
00000003
00000005
00000022
00000008
FFFFFFE6
FFFFFFE0
00000002
FFFFFFEB
FFFFFFF8
0000000B
00000019
FFFFFFD2
FFFFFFF2
00000023
FFFFFFE7
00000013
00000017
00000011
FFFFFFF1
00000004
FFFFFFE5
00000018
00000013
FFFFFFEB
00000013
FFFFFFDF
00000020
FFFFFFEF
0000001F
FFFFFFC5
FFFFFFEA
FFFFFFE3
FFFFFFF5
FFFFFFFB
FFFFFFF1
FFFFFFF5
00000001
0000002A
00000006
00000016
FFFFFFEF
00000005
00000021
00000015
0000001F
0000000B
00000008
FFFFFFF3
00000012
FFFFFFEA
FFFFFFDD
00000022
FFFFFFFF
FFFFFFD3
FFFFFFF4
0000001E
00000017
FFFFFFD8
FFFFFFE6
00000015
00000008
00000002
FFFFFFF2
0000000E
FFFFFFD3
00000000
FFFFFFF2
FFFFFFFA
00000010
00000010
FFFFFFEA
00000014
FFFFFFDE
0000002D
FFFFFFF4
0000000F
00000001
00000008
00000013
FFFFFFF7
00000011
00000017
0000000C
00000027
FFFFFFE8
00000010
0000001A
00000017
FFFFFFFB
00000018
FFFFFFEB
00000022
00000001
00000013
FFFFFFD5
00000030
FFFFFFF2
0000000D
0000001E
FFFFFFEC
FFFFFFFB
00000001
FFFFFFFA
FFFFFFE9
FFFFFFF3
00000010
FFFFFFD1
FFFFFFF6
FFFFFFF0
00000018
FFFFFFFC
FFFFFFE4
FFFFFFFF
0000001A
FFFFFFFC
FFFFFFFC
FFFFFFDA
FFFFFFFB
FFFFFFC2
0000000D
00000006
00000037
00000002
FFFFFFF5
FFFFFFF7
FFFFFFE3
FFFFFFF2
FFFFFFF3
FFFFFFF5
FFFFFFDB
0000000B
0000001F
FFFFFFE1
00000001
FFFFFFF6
00000016
00000017
FFFFFFEC
00000032
0000000F
0000001C
0000001C
0000000A
00000018
FFFFFFEF
00000026
FFFFFFED
0000002B
0000001C
FFFFFFE9
FFFFFFEB
FFFFFFD7
FFFFFFD9
0000001A
FFFFFFE0
0000000C
FFFFFFEF
FFFFFFDA
00000011
FFFFFFE5
00000001
FFFFFFE3
00000015
00000007
00000017
FFFFFFEE
0000001A
0000002A
00000025
FFFFFFFF
FFFFFFFD
00000009
FFFFFFFC
FFFFFFFE
FFFFFFF9
FFFFFFF5
FFFFFFE1
FFFFFFF0
FFFFFFD0
FFFFFFF6
FFFFFFF4
00000012
00000006
FFFFFFFB
00000007
FFFFFFFB
0000001F
00000009
00000007
00000007
FFFFFFC9
FFFFFFDC
FFFFFFD6
00000009
0000001F
0000000E
FFFFFFF3
00000010
FFFFFFD9
00000012
0000002A
00000014
0000000C
00000004
0000001A
FFFFFFF2
FFFFFFD8
0000003F
FFFFFFF0
00000021
FFFFFFD8
FFFFFFDE
FFFFFFF2
FFFFFFFA
FFFFFFF0
FFFFFFDA
00000006
00000005
00000024
00000011
FFFFFFEE
00000024
00000016
FFFFFFDD
FFFFFFDD
FFFFFFE0
00000006
FFFFFFE0
00000024
00000001
00000006
FFFFFFF5
FFFFFFF0
FFFFFFFE
FFFFFFED
FFFFFFF9
FFFFFFEB
FFFFFFF3
FFFFFFF7
0000002A
FFFFFFF2
FFFFFFF2
00000019
00000000
00000006
00000001
FFFFFFF2
0000003C
FFFFFFE1
FFFFFFD1
00000008
FFFFFFE0
00000012
FFFFFFFF
00000021
00000023
00000005
FFFFFFDF
FFFFFFEC
0000000C
00000008
0000001A
FFFFFFFF
00000012
FFFFFFFB
0000002D
00000000
0000003B
FFFFFFF3
00000021
FFFFFFE9
FFFFFFEF
00000026
FFFFFFE9
00000007
FFFFFFF9
0000000C
FFFFFFD6
FFFFFFFE
0000001D
0000002B
FFFFFFDD
FFFFFFE6
00000004
00000019
FFFFFFFF
FFFFFFE4
FFFFFFF0
FFFFFFEC
FFFFFFEF
FFFFFFEE
FFFFFFEB
FFFFFFDB
0000000B
FFFFFFEF
00000020
FFFFFFDC
FFFFFFEB
FFFFFFFB
00000031
00000006
FFFFFFD5
00000001
00000012
00000007
00000022
0000001D
FFFFFFFE
FFFFFFE2
FFFFFFEB
FFFFFFE5
FFFFFFD6
FFFFFFF5
00000023
FFFFFFE5
FFFFFFE8
00000007
FFFFFFDC
00000019
FFFFFFFB
00000019
00000022
FFFFFFEB
0000000C
00000017
FFFFFFFE
00000021
FFFFFFFC
FFFFFFD9
0000000C
0000000D
0000000D
00000017
FFFFFFE7
FFFFFFE2
00000002
0000000E
00000015
0000000C
0000000E
0000000D
0000000B
FFFFFFD2
00000001
00000014
FFFFFFEA
FFFFFFEC
00000009
00000020
0000001A
FFFFFFF6
00000019
FFFFFFFE
FFFFFFFE
FFFFFFED
0000000D
FFFFFFF6
FFFFFFE8
FFFFFFD9
00000010
FFFFFFF9
00000015
0000001E
00000011
00000003
0000000B
FFFFFFED
FFFFFFE5
FFFFFFE3
FFFFFFE7
FFFFFFE5
00000018
FFFFFFF2
00000015
0000002A
00000007
00000014
0000000E
FFFFFFDA
FFFFFFD7
FFFFFFFC
0000001A
FFFFFFE2
FFFFFFFC
00000000
FFFFFFF8
0000000F
00000028
FFFFFFFC
FFFFFFFC
00000022
FFFFFFF9
FFFFFFE3
FFFFFFE1
00000005
0000001E
00000017
00000008
FFFFFFF9
00000007
FFFFFFF9
0000000E
00000019
FFFFFFF4
0000001D
FFFFFFF0
FFFFFFD9
00000017
0000000D
FFFFFFC5
0000001F
FFFFFFD1
FFFFFFEF
FFFFFFDC
00000007
00000008
FFFFFFFF
00000017
FFFFFFF5
FFFFFFE5
FFFFFFF1
FFFFFFF8
FFFFFFE2
FFFFFFD6
FFFFFFDF
FFFFFFD1
0000000F
0000002A
00000014
FFFFFFCC
00000025
FFFFFFEA
FFFFFFF8
FFFFFFE6
FFFFFFE3
00000012
FFFFFFE8
FFFFFFF7
00000010
00000009
00000005
0000000D
00000018
FFFFFFEA
FFFFFFE1
FFFFFFEF
FFFFFFC8
00000023
00000019
FFFFFFFB
FFFFFFF3
00000002
FFFFFFDE
FFFFFFDB
00000027
FFFFFFFE
00000013
FFFFFFFF
00000016
FFFFFFF4
0000000A
FFFFFFF6
FFFFFFDD
00000013
FFFFFFF3
00000022
00000018
00000021
00000027
FFFFFFFB
FFFFFFFB
00000019
FFFFFFE8
0000000D
FFFFFFE4
0000000C
00000024
00000011
FFFFFFDD
FFFFFFD8
00000012
FFFFFFE8
0000000B
00000023
FFFFFFFA
00000012
00000023
FFFFFFE7
00000006
00000008
FFFFFFF3
FFFFFFF7
0000001B
00000011
00000002
FFFFFFFE
FFFFFFC9
00000008
FFFFFFFC
FFFFFFDC
00000024
00000019
00000030
FFFFFFD9
00000029
00000010
0000002B
FFFFFFEF
FFFFFFEB
FFFFFFDD
FFFFFFD4
00000017
FFFFFFE1
FFFFFFFD
FFFFFFF1
FFFFFFF5
00000003
00000026
0000001A
00000001
FFFFFFEE
00000017
00000016
0000000B
FFFFFFFF
FFFFFFF4
0000000E
0000000E
00000029
00000024
0000001A
FFFFFFDB
0000000B
0000001E
FFFFFFE7
00000004
FFFFFFDB
FFFFFFF1
FFFFFFFC
00000017
FFFFFFDF
FFFFFFCC
00000013
FFFFFFE9
00000020
0000001F
00000015
00000004
FFFFFFF6
FFFFFFEA
FFFFFFFA
FFFFFFDF
FFFFFFF1
00000003
FFFFFFF9
00000016
00000003
FFFFFFED
FFFFFFE3
FFFFFFD6
00000012
00000023
FFFFFFED
0000000D
FFFFFFF8
0000001B
00000018
0000001E
00000004
FFFFFFFF
FFFFFFF5
FFFFFFEB
FFFFFFD5
FFFFFFFD
FFFFFFF0
FFFFFFE1
00000003
FFFFFFE7
00000002
00000010
00000006
FFFFFFFA
00000026
0000000C
FFFFFFE4
00000021
00000008
00000021
00000000
FFFFFFE1
FFFFFFFB
FFFFFFFF
0000002A
0000002E
FFFFFFF1
00000028
0000000F
FFFFFFF2
FFFFFFFD
FFFFFFF1
00000007
FFFFFFE2
FFFFFFE9
0000001A
00000012
FFFFFFEF
0000001C
00000016
0000000F
FFFFFFE2
FFFFFFE0
FFFFFFFB
FFFFFFD4
00000027
FFFFFFF6
FFFFFFE9
00000003
0000000D
00000018
00000014
FFFFFFE4
FFFFFFEA
FFFFFFFB
FFFFFFE7
FFFFFFD8
FFFFFFD5
00000005
00000004
FFFFFFFE
00000004
00000006
FFFFFFFC
FFFFFFE1
00000025
FFFFFFF4
FFFFFFF1
FFFFFFEE
0000000C
FFFFFFE1
FFFFFFE1
FFFFFFF9
FFFFFFEB
0000000F
FFFFFFF8
00000017
00000023
0000002B
00000014
00000014
00000001
00000002
FFFFFFC9
FFFFFFEC
0000000C
0000000B
0000001B
FFFFFFEB
00000016
FFFFFFE2
0000000D
0000000F
00000009
00000029
00000006
FFFFFFF5
0000001F
00000024
0000000A
FFFFFFEE
00000031
00000024
0000000D
FFFFFFE9
FFFFFFFC
00000016
FFFFFFEC
00000021
00000011
00000022
FFFFFFEF
00000015
00000019
FFFFFFEB
00000028
FFFFFFE7
00000000
FFFFFFED
FFFFFFE1
FFFFFFF8
0000000C
FFFFFFEB
FFFFFFD5
00000010
0000000B
FFFFFFE5
FFFFFFF5
0000000E
FFFFFFD5
00000014
FFFFFFDC
FFFFFFEA
FFFFFFE9
00000003
00000008
FFFFFFF2
FFFFFFF2
FFFFFFF2
FFFFFFE4
FFFFFFE8
00000020
00000006
FFFFFFD1
0000001E
FFFFFFF4
0000001D
FFFFFFF7
FFFFFFED
FFFFFFE0
FFFFFFF8
00000003
FFFFFFE2
00000013
FFFFFFF3
FFFFFFF1
FFFFFFE7
00000000
00000022
FFFFFFF8
00000015
00000018
00000001
00000010
0000002E
0000000E
0000001B
0000000D
FFFFFFE4
00000012
0000000C
FFFFFFE4
FFFFFFF3
0000000F
0000000D
0000001B
00000027
00000027
FFFFFFCC
FFFFFFED
FFFFFFF3
00000007
FFFFFFE8
FFFFFFFC
FFFFFFED
FFFFFFF3
00000018
FFFFFFF7
FFFFFFF6
0000002E
0000000E
00000022
FFFFFFD9
FFFFFFE8
FFFFFFD3
FFFFFFFC
0000000A
0000001B
00000033
FFFFFFED
FFFFFFED
FFFFFFEF
0000000D
00000003
0000000A
FFFFFFE0
FFFFFFFF
0000002B
0000001D
FFFFFFE1
00000005
00000005
FFFFFFFA
0000001A
00000011
00000012
FFFFFFF7
00000012
00000005
0000000A
FFFFFFF4
00000028
0000001D
FFFFFFDA
00000000
0000001B
FFFFFFD8
0000001A
FFFFFFE4
00000011
FFFFFFF5
FFFFFFE5
FFFFFFEE
FFFFFFEE
0000001E
FFFFFFEA
00000037
FFFFFFDB
0000001E
00000011
FFFFFFDF
00000013
00000015
00000007
00000028
FFFFFFE5
00000020
FFFFFFF7
FFFFFFE4
0000001F
00000006
FFFFFFD2
FFFFFFF6
FFFFFFFA
FFFFFFD5
FFFFFFFA
00000005
00000010
FFFFFFEF
00000012
FFFFFFFC
00000007
0000001E
0000001A
FFFFFFD9
0000000F
00000018
0000001D
00000026
0000002C
FFFFFFFF
00000001
0000002B
FFFFFFD1
FFFFFFE0
00000006
FFFFFFDF
FFFFFFF5
00000019
00000006
FFFFFFFF
00000013
00000016
0000001E
FFFFFFF2
00000021
00000019
00000028
00000020
FFFFFFF6
FFFFFFDF
0000001B
FFFFFFE4
00000007
FFFFFFF7
00000040
FFFFFFDE
FFFFFFF5
0000000D
00000015
0000002B
FFFFFFFF
FFFFFFDB
FFFFFFEA
00000008
00000022
FFFFFFE5
00000018
0000002A
FFFFFFDA
00000022
0000000E
FFFFFFE7
FFFFFFF3
FFFFFFD9
FFFFFFF3
0000001E
00000004
0000001E
0000003B
FFFFFFE9
00000026
00000015
FFFFFFF8
FFFFFFFC
00000000
0000001B
0000001B
00000015
00000024
FFFFFFE5
0000002D
0000000C
00000005
0000002E
00000015
00000017
FFFFFFF5
FFFFFFE7
FFFFFFE9
00000002
FFFFFFED
0000000F
00000016
00000000
FFFFFFDB
0000001B
FFFFFFF1
0000001D
FFFFFFFC
0000000E
FFFFFFD6
0000001C
0000000F
0000000D
FFFFFFE7
00000019
00000003
00000004
00000021
FFFFFFEF
FFFFFFDC
FFFFFFF4
FFFFFFF4
00000018
FFFFFFEE
FFFFFFDD
FFFFFFF9
00000007
0000001B
00000007
00000007
FFFFFFD5
00000000
FFFFFFE8
00000019
00000016
FFFFFFE1
FFFFFFFE
FFFFFFFB
FFFFFFDD
0000001C
FFFFFFF0
00000019
FFFFFFF7
FFFFFFE3
0000001C
FFFFFFEA
FFFFFFD5
FFFFFFE9
00000012
FFFFFFF1
00000011
FFFFFFE0
0000002E
00000001
00000019
FFFFFFDE
FFFFFFF2
0000001C
00000006
00000023
00000026
FFFFFFED
00000013
FFFFFFE8
00000010
FFFFFFFC
0000001A
0000000D
00000016
00000025
FFFFFFED
0000000B
00000015
00000009
FFFFFFDB
FFFFFFE7
00000035
0000001A
0000001C
FFFFFFE1
FFFFFFE7
FFFFFFCC
0000001D
00000008
FFFFFFE4
FFFFFFE3
0000002B
FFFFFFE0
FFFFFFF4
00000009
FFFFFFF0
0000000B
00000011
00000011
FFFFFFFB
00000019
FFFFFFE9
00000009
FFFFFFD7
00000006
FFFFFFD8
FFFFFFFA
0000001D
0000000B
FFFFFFE1
0000002B
FFFFFFE3
00000016
FFFFFFEB
00000018
00000018
00000023
FFFFFFEE
FFFFFFFC
FFFFFFE5
FFFFFFFB
00000032
00000012
00000007
00000009
00000022
FFFFFFFF
0000000E
00000012
0000000E
00000017
00000003
00000004
00000010
0000001A
00000010
0000000E
0000000B
00000015
FFFFFFF2
00000000
FFFFFFCB
00000017
FFFFFFF4
00000011
FFFFFFEC
00000004
FFFFFFED
00000014
FFFFFFE8
FFFFFFF9
0000000C
FFFFFFE5
00000005
FFFFFFF2
FFFFFFFA
FFFFFFE3
FFFFFFDF
FFFFFFF1
FFFFFFED
00000025
00000011
FFFFFFFF
00000021
FFFFFFF0
FFFFFFDF
FFFFFFDC
0000001A
00000012
00000013
00000013
00000020
FFFFFFE4
00000008
00000015
0000001A
FFFFFFF2
FFFFFFE0
0000001E
0000000A
00000020
FFFFFFE7
FFFFFFE8
FFFFFFE1
00000025
FFFFFFF8
FFFFFFE5
FFFFFFF7
00000030
00000019
FFFFFFE7
00000016
FFFFFFFA
FFFFFFEE
0000000D
0000000F
00000017
00000029
00000024
00000031
FFFFFFF6
00000006
0000001A
FFFFFFF1
00000007
FFFFFFD3
FFFFFFF8
FFFFFFEA
FFFFFFFD
0000002E
00000028
FFFFFFD5
FFFFFFE3
FFFFFFCF
0000001C
00000020
00000020
0000001F
FFFFFFFA
FFFFFFD2
FFFFFFEB
00000021
00000005
FFFFFFEB
00000021
FFFFFFE6
FFFFFFEC
FFFFFFE1
0000000B
00000023
FFFFFFEE
00000024
00000001
0000000C
0000000C
FFFFFFDE
00000003
FFFFFFE4
0000001D
FFFFFFDF
FFFFFFE1
FFFFFFE6
00000020
FFFFFFFB
FFFFFFFD
FFFFFFF2
00000012
FFFFFFE6
FFFFFFEB
00000012
FFFFFFE9
FFFFFFFB
FFFFFFFE
FFFFFFDE
FFFFFFFE
FFFFFFDF
FFFFFFD3
FFFFFFF6
FFFFFFE2
00000017
0000001C
FFFFFFED
FFFFFFEE
FFFFFFF4
0000001A
FFFFFFE4
FFFFFFF4
FFFFFFED
00000010
FFFFFFFE
00000003
FFFFFFE2
FFFFFFF4
00000006
0000001C
FFFFFFFC
FFFFFFFD
0000000A
00000004
FFFFFFFE
00000018
00000024
00000014
00000023
FFFFFFD7
00000004
00000011
00000014
FFFFFFE0
00000017
00000019
FFFFFFF6
00000019
00000022
FFFFFFE6
00000025
FFFFFFE8
0000001E
00000002
00000016
FFFFFFFE
FFFFFFE6
0000001B
0000000B
00000007
FFFFFFDC
00000031
FFFFFFFA
FFFFFFFD
FFFFFFFE
00000011
FFFFFFCD
00000008
00000018
00000007
00000003
00000006
00000017
FFFFFFE8
0000001B
0000001D
00000007
00000025
FFFFFFEB
FFFFFFEC
0000002C
00000027
FFFFFFEB
00000008
0000001E
00000005
0000000A
0000002D
00000018
FFFFFFE5
FFFFFFF3
FFFFFFF9
FFFFFFE5
FFFFFFE3
00000029
FFFFFFDE
FFFFFFEE
00000009
FFFFFFE6
FFFFFFEC
FFFFFFD4
00000026
FFFFFFE7
FFFFFFF3
00000009
0000001A
FFFFFFEE
0000002B
FFFFFFE2
0000002A
FFFFFFE0
FFFFFFE8
FFFFFFD8
00000020
FFFFFFD5
0000001E
00000009
00000020
0000001D
0000000D
0000003D
00000018
00000016
FFFFFFE9
FFFFFFED
00000013
00000005
FFFFFFDF
00000037
0000001B
0000000A
FFFFFFDC
00000004
FFFFFFD2
00000012
00000031
00000022
FFFFFFF9
FFFFFFF9
FFFFFFF9
FFFFFFD3
FFFFFFF0
00000009
0000001A
FFFFFFF6
0000001A
0000001F
FFFFFFE5
FFFFFFCE
FFFFFFF6
00000001
FFFFFFF7
00000009
0000000D
FFFFFFE7
00000020
FFFFFFDE
00000026
00000020
00000026
FFFFFFEF
FFFFFFE8
FFFFFFFB
0000000B
FFFFFFEF
00000028
FFFFFFE5
FFFFFFE5
00000030
FFFFFFDE
00000019
FFFFFFE8
0000000C
FFFFFFED
FFFFFFED
FFFFFFE7
FFFFFFE7
FFFFFFE1
00000010
FFFFFFEA
FFFFFFE4
00000000
00000002
0000002C
00000015
0000001D
00000019
FFFFFFF9
FFFFFFF0
00000037
00000042
0000001A
00000007
FFFFFFFC
FFFFFFED
0000000C
00000003
00000010
FFFFFFE2
FFFFFFD1
00000006
FFFFFFF3
0000001B
FFFFFFD7
FFFFFFE1
FFFFFFDF
FFFFFFDD
0000001A
00000022
00000013
00000018
00000021
0000001F
00000012
00000012
00000007
FFFFFFDB
00000022
FFFFFFE5
FFFFFFDA
00000003
00000013
00000018
0000000C
00000022
00000021
FFFFFFEA
00000000
00000004
0000003E
FFFFFFFB
0000000F
00000002
FFFFFFDD
FFFFFFFE
FFFFFFE4
FFFFFFF4
FFFFFFDF
00000010
0000000D
0000000A
00000000
00000017
0000000C
FFFFFFDE
00000008
00000005
00000000
FFFFFFEF
FFFFFFFA
0000000A
FFFFFFFC
00000012
0000002C
0000000A
FFFFFFED
0000002D
FFFFFFE7
FFFFFFE6
0000001F
FFFFFFEA
FFFFFFDD
0000000A
FFFFFFE8
00000026
00000018
FFFFFFDF
FFFFFFE8
FFFFFFF5
FFFFFFFF
FFFFFFFF
0000000F
00000016
00000003
00000020
00000020
FFFFFFE1
00000019
FFFFFFEC
00000014
00000018
FFFFFFFA
00000026
FFFFFFF6
0000000B
00000015
00000011
0000001F
0000002D
FFFFFFF0
FFFFFFEF
FFFFFFE4
0000001C
FFFFFFFB
FFFFFFFB
FFFFFFD8
FFFFFFDB
FFFFFFEA
FFFFFFE5
FFFFFFDB
0000001A
FFFFFFD3
FFFFFFEF
0000000C
FFFFFFF2
0000001E
FFFFFFF5
FFFFFFF1
FFFFFFF3
FFFFFFF7
0000000A
FFFFFFE4
0000001D
0000000E
00000003
FFFFFFE5
00000024
FFFFFFE1
FFFFFFE5
00000014
0000002B
FFFFFFD7
FFFFFFE3
00000004
00000013
FFFFFFF9
FFFFFFEC
0000000A
00000026
FFFFFFF7
00000002
00000013
FFFFFFEE
FFFFFFFF
0000000E
FFFFFFF1
FFFFFFE0
00000017
00000015
FFFFFFFA
00000019
00000009
00000016
00000021
FFFFFFF8
FFFFFFE1
00000017
FFFFFFD9
00000010
FFFFFFE9
FFFFFFD9
FFFFFFE9
00000006
FFFFFFCC
0000000B
FFFFFFFE
00000003
0000003A
00000010
0000000C
FFFFFFEC
0000000A
FFFFFFFC
FFFFFFFB
0000001C
FFFFFFF5
FFFFFFDB
00000017
00000006
00000014
00000021
00000010
00000016
FFFFFFFA
FFFFFFF6
00000003
0000001F
00000002
00000018
FFFFFFF7
00000011
00000002
00000005
0000000E
FFFFFFFB
0000000F
00000027
FFFFFFEA
FFFFFFF8
00000012
FFFFFFE0
FFFFFFE3
FFFFFFFC
00000027
FFFFFFF0
00000011
00000030
FFFFFFE7
FFFFFFE8
00000017
0000001E
FFFFFFFC
00000014
0000000A
0000001F
FFFFFFEB
FFFFFFED
FFFFFFDC
FFFFFFE8
FFFFFFE9
00000001
FFFFFFE5
00000023
FFFFFFDA
0000001F
00000001
FFFFFFFE
FFFFFFED
00000020
FFFFFFF3
00000000
FFFFFFED
FFFFFFF2
FFFFFFD5
00000012
00000025
00000013
00000026
00000021
0000002C
FFFFFFD6
FFFFFFDF
FFFFFFDD
00000018
00000004
FFFFFFE7
00000025
FFFFFFF1
0000001F
FFFFFFFE
00000010
00000008
FFFFFFEC
00000001
FFFFFFDD
0000000E
0000002A
FFFFFFE4
0000000A
0000000F
00000022
FFFFFFF1
0000001F
00000021
FFFFFFD3
00000007
0000001C
00000017
0000001D
FFFFFFE2
0000002A
FFFFFFDD
00000011
FFFFFFE9
00000015
0000002A
00000009
FFFFFFF8
FFFFFFCE
0000001E
00000009
FFFFFFF8
FFFFFFED
FFFFFFFA
FFFFFFDA
FFFFFFEC
FFFFFFFD
FFFFFFE6
FFFFFFFA
00000003
00000008
00000026
FFFFFFFC
00000000
00000004
FFFFFFE7
FFFFFFD6
0000000E
0000002A
00000009
FFFFFFF2
00000024
0000000A
FFFFFFF1
0000000F
0000001E
FFFFFFDC
00000009
0000000C
00000009
FFFFFFEF
00000013
FFFFFFE6
00000002
FFFFFFEE
FFFFFFD7
FFFFFFFC
00000012
FFFFFFEE
FFFFFFE3
FFFFFFF7
FFFFFFCE
FFFFFFE7
00000012
00000015
00000011
00000016
FFFFFFEF
00000013
0000000D
FFFFFFEE
FFFFFFF7
00000015
00000025
FFFFFFF6
FFFFFFEB
FFFFFFF6
FFFFFFE5
0000001E
00000008
00000011
00000015
00000000
00000011
FFFFFFEB
FFFFFFEF
00000025
00000029
FFFFFFD9
FFFFFFDA
00000007
FFFFFFE8
0000001D
00000000
FFFFFFF0
00000024
FFFFFFFF
0000001D
FFFFFFFD
FFFFFFE4
00000009
FFFFFFFC
0000001F
FFFFFFEB
00000019
00000020
FFFFFFDF
0000002C
FFFFFFFC
0000001F
FFFFFFF7
00000012
00000009
00000016
FFFFFFDE
0000001F
FFFFFFEF
00000015
FFFFFFF9
FFFFFFF6
0000001C
FFFFFFDB
00000020
00000017
00000030
FFFFFFF3
00000025
FFFFFFF0
FFFFFFEF
0000000C
0000001C
00000016
FFFFFFE7
FFFFFFFE
FFFFFFE2
FFFFFFF0
00000012
FFFFFFFD
FFFFFFF3
FFFFFFD5
00000024
0000000D
FFFFFFE0
FFFFFFE4
FFFFFFDD
00000029
00000018
00000004
00000017
FFFFFFE7
FFFFFFEF
00000004
00000027
FFFFFFF5
FFFFFFD1
FFFFFFD7
FFFFFFEC
00000020
0000002C
00000008
00000006
00000027
00000019
0000000E
FFFFFFFE
00000029
FFFFFFF6
FFFFFFE1
0000002C
FFFFFFF6
FFFFFFE8
0000000C
FFFFFFDF
FFFFFFE7
FFFFFFDD
0000002E
0000000C
0000001E
0000000E
FFFFFFF6
0000001F
0000000E
0000001C
00000008
FFFFFFEE
00000025
00000004
00000034
0000001D
FFFFFFF5
FFFFFFF8
FFFFFFEC
00000011
FFFFFFF5
0000000E
FFFFFFF6
FFFFFFE8
00000027
00000001
FFFFFFF2
FFFFFFF3
00000004
FFFFFFEF
00000004
0000001C
FFFFFFDB
00000018
0000002F
00000016
FFFFFFD7
00000007
FFFFFFEA
FFFFFFFB
FFFFFFE0
00000011
00000021
00000024
0000000D
FFFFFFE5
00000007
FFFFFFF5
0000002B
00000025
FFFFFFFC
00000023
FFFFFFF6
FFFFFFF2
00000023
FFFFFFF0
FFFFFFF4
00000009
00000012
FFFFFFDB
0000000D
00000020
FFFFFFCC
FFFFFFE3
FFFFFFDC
FFFFFFE6
00000009
FFFFFFFA
00000030
00000006
FFFFFFE1
FFFFFFF2
FFFFFFEF
0000002D
0000001B
0000001E
0000000B
0000000A
0000002B
FFFFFFF9
0000000E
FFFFFFEA
00000013
FFFFFFF0
0000000D
FFFFFFF4
FFFFFFE3
0000001D
0000000D
FFFFFFE5
FFFFFFF9
00000015
FFFFFFE8
FFFFFFED
00000007
00000004
FFFFFFF7
FFFFFFFA
FFFFFFEF
FFFFFFF6
00000008
FFFFFFE7
FFFFFFDA
00000000
00000019
0000000C
FFFFFFFA
0000000C
FFFFFFF7
00000014
FFFFFFE1
00000001
0000000E
00000015
00000001
FFFFFFF9
FFFFFFF0
FFFFFFE1
00000019
FFFFFFF1
00000021
0000002E
0000001A
00000014
00000023
00000001
0000001A
FFFFFFE8
FFFFFFE0
FFFFFFE5
FFFFFFF8
00000027
00000020
FFFFFFF0
00000024
00000020
00000016
0000001A
FFFFFFE0
FFFFFFFF
FFFFFFF9
00000010
0000000B
FFFFFFFF
00000008
00000006
FFFFFFFA
00000000
00000000
FFFFFFE3
FFFFFFE3
FFFFFFE0
FFFFFFEE
00000029
FFFFFFE5
FFFFFFE9
FFFFFFF3
FFFFFFDF
FFFFFFD0
0000001A
00000024
FFFFFFF3
0000001B
FFFFFFEE
FFFFFFF6
FFFFFFEF
0000001A
FFFFFFFB
FFFFFFE8
FFFFFFEE
0000000F
00000006
FFFFFFEB
00000000
FFFFFFD8
FFFFFFFD
FFFFFFFD
FFFFFFD8
00000010
0000002B
00000010
00000019
00000022
0000000E
FFFFFFE0
00000035
00000002
FFFFFFD5
FFFFFFE3
FFFFFFFB
00000025
00000010
00000019
0000001D
FFFFFFF9
00000020
0000000F
FFFFFFF0
00000002
00000023
FFFFFFEF
0000002E
FFFFFFF4
00000010
00000017
00000024
0000000C
FFFFFFE5
FFFFFFEF
FFFFFFFA
FFFFFFD2
00000027
00000011
FFFFFFDC
FFFFFFFA
FFFFFFFB
FFFFFFE1
FFFFFFDE
FFFFFFED
0000001F
00000012
00000023
0000000E
00000019
00000025
00000021
FFFFFFF6
0000000F
00000007
00000024
FFFFFFE9
00000023
00000015
00000004
FFFFFFE3
00000017
FFFFFFF7
FFFFFFDA
0000001A
00000032
0000002A
FFFFFFEB
FFFFFFE3
FFFFFFFE
FFFFFFDF
00000022
00000024
00000004
FFFFFFE1
00000027
0000000C
FFFFFFEE
00000027
00000020
FFFFFFEF
FFFFFFE8
FFFFFFF7
0000002D
0000001F
00000014
FFFFFFE7
0000001D
FFFFFFFB
0000000C
0000002E
0000001F
FFFFFFD2
0000000E
00000018
0000000D
0000001C
FFFFFFF0
00000013
FFFFFFE8
00000032
FFFFFFFB
00000033
FFFFFFD7
0000002E
00000015
00000013
00000010
0000001B
FFFFFFD5
00000009
FFFFFFEE
00000029
FFFFFFFB
0000001A
00000015
00000017
FFFFFFF9
FFFFFFF0
00000005
FFFFFFE3
00000009
FFFFFFF2
0000001A
FFFFFFF2
FFFFFFD4
00000018
FFFFFFFE
00000025
FFFFFFEC
0000000E
FFFFFFE6
FFFFFFE6
00000019
FFFFFFF6
00000024
00000019
FFFFFFDA
FFFFFFE9
00000002
00000003
00000033
00000026
FFFFFFE0
00000001
00000020
00000003
0000001C
00000014
0000000B
FFFFFFF5
FFFFFFEB
FFFFFFF3
00000001
0000002A
00000003
00000021
00000023
FFFFFFF1
00000011
FFFFFFE0
00000010
FFFFFFE7
FFFFFFD8
FFFFFFD8
00000039
FFFFFFF9
FFFFFFF7
00000008
00000015
00000020
FFFFFFD8
00000004
FFFFFFF6
0000001E
FFFFFFCC
00000026
0000000C
FFFFFFFF
FFFFFFDE
0000002D
0000001F
00000014
00000005
FFFFFFF4
00000006
FFFFFFFF
00000008
FFFFFFFD
FFFFFFEF
00000018
00000004
0000000E
00000017
FFFFFFEF
00000008
00000001
FFFFFFF0
0000001E
00000004
FFFFFFFC
0000001F
FFFFFFEC
FFFFFFFC
FFFFFFCF
FFFFFFF4
FFFFFFF7
0000000D
FFFFFFF2
00000007
00000018
FFFFFFDA
FFFFFFEE
00000027
FFFFFFD8
FFFFFFF8
FFFFFFED
0000002B
FFFFFFF5
00000000
FFFFFFD7
00000021
00000018
00000016
FFFFFFF8
FFFFFFEB
00000026
FFFFFFEA
FFFFFFE0
FFFFFFF4
0000001C
FFFFFFD3
FFFFFFE2
0000001F
0000000D
00000012
FFFFFFFD
FFFFFFF1
00000024
FFFFFFE1
FFFFFFE0
FFFFFFF1
FFFFFFEC
FFFFFFE1
FFFFFFEB
0000002B
FFFFFFEE
0000001B
00000031
00000024
0000001C
FFFFFFDA
FFFFFFE7
0000001E
FFFFFFFD
FFFFFFFD
0000002B
FFFFFFFA
FFFFFFF2
FFFFFFE6
00000016
00000010
00000015
FFFFFFF7
FFFFFFFB
00000002
FFFFFFE4
00000019
FFFFFFFA
FFFFFFE0
0000001F
00000002
0000002F
00000025
0000000A
00000008
00000001
FFFFFFF6
FFFFFFF4
00000007
0000001D
FFFFFFD8
FFFFFFDC
FFFFFFF4
00000010
0000000D
00000004
00000019
0000000B
00000001
FFFFFFFB
FFFFFFFD
FFFFFFF9
FFFFFFE3
00000037
FFFFFFE2
00000021
FFFFFFDC
00000030
FFFFFFE7
00000018
00000025
0000003A
0000000E
FFFFFFF1
FFFFFFE0
00000008
FFFFFFE4
FFFFFFFC
FFFFFFE0
FFFFFFEA
00000022
FFFFFFD7
00000005
0000001C
FFFFFFE0
00000029
FFFFFFE8
FFFFFFF5
0000001B
00000016
0000002A
0000001F
00000029
0000002C
FFFFFFE8
00000002
00000018
00000011
00000005
FFFFFFE9
FFFFFFEA
FFFFFFE9
00000010
00000023
00000022
00000014
00000019
FFFFFFF8
00000023
0000001F
FFFFFFF2
FFFFFFEF
00000007
FFFFFFF9
FFFFFFEA
FFFFFFE2
FFFFFFEF
00000022
FFFFFFCB
00000014
0000002E
0000001A
FFFFFFFE
00000018
FFFFFFF1
00000001
00000003
FFFFFFFA
0000001B
00000022
0000001C
FFFFFFE8
0000001C
0000001C
00000020
00000016
FFFFFFE0
00000025
00000005
00000014
00000024
00000006
00000018
00000009
FFFFFFF6
00000018
00000007
0000001A
FFFFFFD6
0000001A
0000001F
FFFFFFFE
FFFFFFFC
FFFFFFDF
00000020
0000000E
0000001F
00000016
00000016
00000018
0000000E
00000005
FFFFFFD8
FFFFFFE0
FFFFFFDD
00000014
00000013
FFFFFFD2
FFFFFFE8
FFFFFFF8
FFFFFFE7
0000001B
FFFFFFEA
00000004
00000027
00000024
0000000C
FFFFFFF2
0000002E
00000009
00000020
00000011
FFFFFFF5
FFFFFFDB
0000001F
FFFFFFE2
00000011
FFFFFFE5
00000000
FFFFFFF0
00000003
00000008
00000002
FFFFFFFD
0000000D
0000001B
00000027
FFFFFFFC
FFFFFFF7
00000031
FFFFFFE3
FFFFFFF9
FFFFFFFA
00000006
0000002B
FFFFFFD5
0000000C
0000000D
00000001
00000007
FFFFFFFB
FFFFFFF5
FFFFFFDD
00000024
00000031
0000001E
FFFFFFFC
0000001B
0000002B
FFFFFFF3
0000001B
FFFFFFF0
00000015
FFFFFFEA
0000000B
FFFFFFE4
FFFFFFEE
FFFFFFF9
FFFFFFF8
00000015
FFFFFFFC
FFFFFFE9
00000016
00000011
FFFFFFF7
FFFFFFF7
0000001A
00000026
FFFFFFCE
00000010
0000000D
FFFFFFDE
0000000F
FFFFFFF4
FFFFFFE4
00000017
00000017
FFFFFFEB
00000009
FFFFFFD4
FFFFFFDF
FFFFFFF7
00000033
FFFFFFE3
00000003
00000013
00000006
FFFFFFD1
0000000C
FFFFFFE4
FFFFFFE6
0000000F
FFFFFFDA
00000005
FFFFFFEB
0000002B
FFFFFFEC
FFFFFFE9
FFFFFFE4
00000015
0000000F
FFFFFFEE
FFFFFFF7
00000001
0000002B
00000003
FFFFFFFF
00000017
00000030
FFFFFFDE
FFFFFFFF
FFFFFFE3
FFFFFFDC
FFFFFFF3
FFFFFFF1
FFFFFFFB
FFFFFFFA
FFFFFFEA
0000000A
FFFFFFE3
FFFFFFE8
FFFFFFDC
00000016
0000001B
FFFFFFF5
0000000E
FFFFFFF0
0000001B
FFFFFFE3
0000000B
0000000F
0000000A
0000000E
FFFFFFEB
00000023
FFFFFFF1
FFFFFFF7
FFFFFFEA
0000001A
00000006
FFFFFFE6
00000013
FFFFFFCD
FFFFFFEB
00000036
00000008
00000012
00000008
0000002F
FFFFFFEF
0000001A
FFFFFFFB
0000001A
FFFFFFD5
FFFFFFFC
00000017
0000002A
FFFFFFF7
00000018
0000001C
FFFFFFF0
FFFFFFE5
00000013
FFFFFFF0
0000001E
0000001E
0000001C
00000018
00000002
FFFFFFE9
FFFFFFED
00000017
FFFFFFFF
FFFFFFE3
0000001E
FFFFFFE2
FFFFFFE7
FFFFFFFC
0000000F
FFFFFFEC
FFFFFFCD
00000009
00000005
FFFFFFE2
0000000D
FFFFFFFA
FFFFFFE4
FFFFFFF4
FFFFFFEC
FFFFFFD8
FFFFFFE2
FFFFFFFD
0000001C
FFFFFFFF
FFFFFFDF
00000021
FFFFFFDB
00000006
FFFFFFF8
00000000
00000015
FFFFFFDC
00000039
00000026
FFFFFFDC
FFFFFFDB
00000003
FFFFFFDE
00000018
FFFFFFFE
00000003
00000026
00000013
0000000C
00000004
00000009
FFFFFFFC
00000011
0000001A
0000001E
FFFFFFD6
FFFFFFEC
00000023
FFFFFFF3
0000000F
0000001A
FFFFFFF3
FFFFFFF8
00000017
00000016
00000028
FFFFFFFD
FFFFFFFB
00000023
00000022
00000020
FFFFFFEB
00000007
FFFFFFFB
FFFFFFFA
0000001A
00000008
00000021
0000000F
FFFFFFED
0000002A
00000010
FFFFFFF4
FFFFFFFB
FFFFFFE4
FFFFFFE0
FFFFFFFC
0000001E
00000015
FFFFFFF2
0000002B
00000010
FFFFFFFA
FFFFFFF0
FFFFFFE5
FFFFFFE6
FFFFFFEF
0000002C
FFFFFFEA
00000008
FFFFFFFC
00000001
00000006
0000001C
FFFFFFF4
FFFFFFFA
00000030
FFFFFFF9
FFFFFFF4
FFFFFFD9
FFFFFFDE
FFFFFFF0
0000001F
FFFFFFE8
FFFFFFFB
00000018
00000003
00000001
00000011
00000015
FFFFFFFD
0000000E
FFFFFFF5
00000021
FFFFFFE9
FFFFFFE9
FFFFFFEE
00000006
00000014
FFFFFFE7
FFFFFFE6
00000022
FFFFFFE5
FFFFFFDD
FFFFFFF6
FFFFFFDC
00000016
0000002F
0000001F
0000002F
FFFFFFE1
0000003D
FFFFFFEE
FFFFFFFE
0000002E
00000018
00000021
0000001A
FFFFFFE3
FFFFFFFF
FFFFFFF7
0000001A
00000023
FFFFFFDA
0000001D
0000001E
0000001D
00000010
FFFFFFD9
FFFFFFF1
00000000
FFFFFFE9
FFFFFFE7
0000001F
FFFFFFE8
FFFFFFCE
FFFFFFF1
FFFFFFEB
FFFFFFFE
FFFFFFF7
FFFFFFF8
FFFFFFEE
00000013
0000000E
FFFFFFF3
FFFFFFE2
FFFFFFE7
FFFFFFFA
0000002D
00000017
FFFFFFDB
00000003
00000023
FFFFFFD1
FFFFFFE6
FFFFFFDA
FFFFFFF4
FFFFFFF8
FFFFFFE6
00000013
FFFFFFD4
00000001
00000023
0000001A
0000000E
FFFFFFF5
FFFFFFEF
FFFFFFFE
FFFFFFFE
00000022
FFFFFFE7
00000024
FFFFFFEB
00000009
FFFFFFFC
00000023
FFFFFFF0
0000000D
FFFFFFF5
00000019
FFFFFFF5
00000019
00000005
FFFFFFF9
FFFFFFE2
0000000B
00000024
FFFFFFF7
00000016
0000000C
FFFFFFFF
0000000E
0000001F
FFFFFFF2
FFFFFFFD
0000001D
FFFFFFFC
00000010
FFFFFFF9
00000017
FFFFFFDF
FFFFFFF8
FFFFFFFC
FFFFFFFD
FFFFFFF8
0000000D
0000002A
FFFFFFE7
FFFFFFFA
FFFFFFE3
0000000A
FFFFFFF6
00000003
00000009
00000012
FFFFFFE9
00000012
FFFFFFFE
FFFFFFF9
FFFFFFE8
00000025
00000004
00000021
FFFFFFFB
00000037
00000002
00000003
00000024
00000025
FFFFFFD3
00000016
0000001F
FFFFFFD6
0000002A
00000008
FFFFFFFE
FFFFFFE3
00000013
FFFFFFEB
0000003A
00000004
00000017
0000001D
00000003
0000001C
00000017
FFFFFFFA
FFFFFFFD
00000021
0000001E
FFFFFFFE
FFFFFFD7
0000001C
0000001A
00000013
FFFFFFF2
FFFFFFDB
FFFFFFE7
00000010
FFFFFFF4
FFFFFFDB
00000009
FFFFFFF6
FFFFFFF7
00000035
0000001E
0000001D
FFFFFFD9
0000001F
FFFFFFFF
00000009
FFFFFFDE
00000016
00000008
00000035
FFFFFFFC
00000028
FFFFFFED
0000000F
00000003
FFFFFFF1
00000014
FFFFFFFA
0000000F
00000026
FFFFFFFD
FFFFFFEA
0000001A
00000004
FFFFFFE6
00000028
00000020
FFFFFFE5
FFFFFFEE
0000001A
FFFFFFF3
FFFFFFFB
0000001C
0000001F
00000003
FFFFFFF1
00000009
0000002E
FFFFFFE9
0000002E
FFFFFFEA
FFFFFFE3
00000001
00000014
0000002E
00000033
00000005
FFFFFFFF
0000000D
00000009
00000009
00000009
FFFFFFE2
0000000D
00000022
FFFFFFE9
FFFFFFEE
0000000C
00000029
00000011
FFFFFFE8
00000022
00000012
00000018
FFFFFFFA
00000033
0000001D
FFFFFFDC
FFFFFFCC
0000000B
0000000D
0000000C
0000004A
00000008
00000006
FFFFFFE8
FFFFFFE4
00000021
00000007
FFFFFFF1
00000006
FFFFFFE5
FFFFFFFE
FFFFFFF0
00000022
FFFFFFE3
FFFFFFE4
FFFFFFD1
FFFFFFFC
FFFFFFD4
FFFFFFE0
0000001E
FFFFFFDD
0000000C
00000002
FFFFFFF9
0000000B
00000014
00000010
FFFFFFF3
FFFFFFE7
FFFFFFF0
0000002C
00000020
00000000
00000010
FFFFFFD9
00000040
FFFFFFF0
00000008
00000011
FFFFFFE7
FFFFFFDF
00000017
FFFFFFFC
00000007
FFFFFFF2
0000001A
00000014
FFFFFFE2
FFFFFFD9
FFFFFFDC
00000011
0000002F
FFFFFFF6
00000002
0000000E
FFFFFFEC
FFFFFFD8
FFFFFFDA
FFFFFFFA
0000001B
00000009
FFFFFFF6
FFFFFFF8
0000000C
00000024
FFFFFFF7
FFFFFFEB
FFFFFFF1
0000000D
00000022
00000018
FFFFFFE4
FFFFFFE3
00000001
FFFFFFFE
FFFFFFDB
00000018
00000023
00000005
00000017
0000000E
FFFFFFE1
00000006
FFFFFFFE
FFFFFFE9
FFFFFFF1
FFFFFFFA
FFFFFFF8
0000000C
FFFFFFDC
FFFFFFD6
FFFFFFF4
00000012
FFFFFFD0
FFFFFFD1
00000014
FFFFFFDE
00000012
FFFFFFEF
FFFFFFD0
00000021
0000000A
FFFFFFEE
FFFFFFF0
00000008
0000000B
FFFFFFF2
FFFFFFFE
0000000B
FFFFFFEB
FFFFFFED
00000017
FFFFFFEF
FFFFFFF3
00000001
0000001D
00000012
00000014
0000001E
00000014
00000001
0000001C
00000009
00000011
0000002A
00000006
00000039
FFFFFFF1
00000026
FFFFFFF1
00000018
0000000A
FFFFFFFE
0000002A
FFFFFFFB
00000027
FFFFFFED
FFFFFFE3
FFFFFFE9
0000000E
0000000C
00000012
FFFFFFE2
FFFFFFE3
00000007
FFFFFFE9
FFFFFFFF
FFFFFFD8
00000009
FFFFFFFF
00000013
00000008
FFFFFFD8
FFFFFFE6
00000007
00000003
00000005
00000005
FFFFFFF5
FFFFFFDA
FFFFFFE0
0000000B
FFFFFFFF
FFFFFFFA
FFFFFFDE
FFFFFFF7
00000020
FFFFFFDB
0000001B
FFFFFFFE
FFFFFFE6
00000002
00000007
FFFFFFF9
00000020
00000033
FFFFFFEA
00000006
FFFFFFF7
0000000C
FFFFFFCF
FFFFFFD7
00000017
0000000A
FFFFFFE6
00000007
FFFFFFEA
0000000D
FFFFFFFB
00000009
00000007
FFFFFFF5
FFFFFFDA
00000013
00000004
FFFFFFEF
FFFFFFF4
00000009
FFFFFFE7
00000023
0000000B
00000036
0000001B
FFFFFFF9
00000010
00000006
FFFFFFE5
FFFFFFF7
00000019
FFFFFFE6
FFFFFFEF
00000004
FFFFFFD7
FFFFFFE4
00000001
FFFFFFE1
FFFFFFD6
FFFFFFFF
FFFFFFE2
00000016
00000018
FFFFFFD6
FFFFFFE2
FFFFFFF9
00000014
FFFFFFEA
00000012
FFFFFFE9
00000011
00000014
FFFFFFE5
FFFFFFF2
FFFFFFEA
FFFFFFEB
FFFFFFF7
FFFFFFE5
00000015
0000001D
FFFFFFF4
FFFFFFEE
00000022
00000012
0000001C
FFFFFFEB
00000009
00000023
00000017
0000002A
FFFFFFFF
FFFFFFF4
0000002F
00000017
00000030
FFFFFFD4
00000010
00000001
00000033
FFFFFFE3
FFFFFFF7
00000025
FFFFFFF7
0000000E
00000007
0000000D
0000000E
FFFFFFDA
FFFFFFFB
00000003
FFFFFFFA
00000009
00000024
FFFFFFDA
00000014
00000020
FFFFFFF7
FFFFFFE5
FFFFFFED
00000003
FFFFFFCA
00000003
00000019
00000018
FFFFFFFA
00000019
0000001B
0000001A
FFFFFFEF
FFFFFFE0
FFFFFFEA
FFFFFFFC
0000000D
FFFFFFE4
00000007
00000025
0000001C
00000003
00000006
FFFFFFFC
00000009
FFFFFFF1
FFFFFFD3
FFFFFFE5
FFFFFFF6
FFFFFFFB
00000026
FFFFFFDE
FFFFFFE3
00000008
00000014
00000005
0000001D
0000000D
0000001D
00000023
00000014
FFFFFFE5
FFFFFFE1
00000015
FFFFFFEB
0000001D
0000000F
0000001C
00000009
FFFFFFD1
FFFFFFF9
0000000D
00000025
00000005
00000003
FFFFFFDB
00000001
FFFFFFC8
00000019
0000001F
00000019
0000000D
00000028
FFFFFFFB
FFFFFFE9
00000004
FFFFFFEC
FFFFFFF0
00000004
FFFFFFFA
00000010
0000000B
0000000E
FFFFFFFE
0000000F
FFFFFFDD
00000008
FFFFFFF5
FFFFFFE6
FFFFFFD5
FFFFFFF8
FFFFFFD9
FFFFFFE9
0000001A
0000003A
00000006
FFFFFFEA
FFFFFFE5
FFFFFFFE
00000013
00000016
FFFFFFF6
FFFFFFE7
FFFFFFF1
00000013
FFFFFFEE
FFFFFFDC
00000015
FFFFFFDC
FFFFFFFE
FFFFFFF9
FFFFFFEA
FFFFFFF2
FFFFFFE0
00000013
FFFFFFDA
FFFFFFF1
FFFFFFF9
00000012
0000002E
FFFFFFF1
00000011
00000020
0000001B
00000019
FFFFFFE8
FFFFFFE7
00000013
FFFFFFDC
FFFFFFDA
FFFFFFE3
FFFFFFFD
FFFFFFEE
FFFFFFE8
0000000A
FFFFFFC4
0000001E
00000011
00000006
00000022
00000012
00000000
FFFFFFD5
FFFFFFE5
0000002B
0000001A
00000006
FFFFFFE7
0000000D
00000015
FFFFFFFE
00000023
0000000D
FFFFFFD7
FFFFFFEF
FFFFFFF4
0000000D
00000010
00000016
00000012
FFFFFFEB
00000010
FFFFFFE4
0000002D
0000001F
FFFFFFF4
FFFFFFE8
FFFFFFF2
00000026
FFFFFFF7
0000000C
FFFFFFE5
0000002D
00000022
FFFFFFE3
FFFFFFD7
00000020
0000001B
FFFFFFE6
FFFFFFE7
0000001A
00000001
FFFFFFDE
00000019
FFFFFFDB
00000001
FFFFFFED
FFFFFFF9
FFFFFFE9
FFFFFFD6
FFFFFFF2
0000002A
00000016
0000002F
00000004
FFFFFFDF
FFFFFFE7
00000016
00000001
00000021
FFFFFFE1
FFFFFFE7
00000003
FFFFFFF8
FFFFFFF7
00000016
00000017
00000021
FFFFFFF4
00000023
0000002D
FFFFFFE6
FFFFFFE2
00000006
FFFFFFED
00000014
00000017
FFFFFFF2
00000010
00000011
00000036
FFFFFFF6
00000010
00000004
00000009
FFFFFFF5
00000007
FFFFFFE2
00000006
FFFFFFCD
FFFFFFE5
00000012
FFFFFFD7
00000014
0000001A
0000000C
00000032
00000019
0000001B
FFFFFFFA
00000000
FFFFFFFC
FFFFFFF2
FFFFFFE4
FFFFFFDF
00000007
FFFFFFCD
00000012
0000004E
FFFFFFE4
FFFFFFEB
00000012
FFFFFFFC
00000028
00000026
FFFFFFE8
0000001E
FFFFFFDF
FFFFFFFD
FFFFFFF7
00000016
FFFFFFFA
FFFFFFFD
FFFFFFD5
0000001C
FFFFFFFB
00000004
FFFFFFDE
0000001B
00000024
FFFFFFF4
FFFFFFE3
FFFFFFFB
FFFFFFE1
FFFFFFCE
00000008
FFFFFFDB
00000016
00000001
00000016
FFFFFFFB
00000001
FFFFFFFE
00000023
FFFFFFF1
00000009
FFFFFFE5
FFFFFFFE
00000016
FFFFFFFA
00000038
FFFFFFF3
FFFFFFFB
FFFFFFF4
0000002F
00000028
FFFFFFEB
0000000A
FFFFFFE0
0000002A
FFFFFFF4
FFFFFFE5
00000020
FFFFFFF8
00000000
FFFFFFEF
FFFFFFF6
FFFFFFE3
FFFFFFEE
FFFFFFFA
FFFFFFF6
FFFFFFFF
FFFFFFDA
FFFFFFF3
00000013
FFFFFFEF
00000012
FFFFFFE8
00000012
FFFFFFF4
00000010
00000017
FFFFFFF9
00000014
00000000
FFFFFFF1
FFFFFFFB
00000005
0000000B
FFFFFFE5
00000023
0000000B
FFFFFFE6
FFFFFFF6
FFFFFFEE
0000001E
0000002C
FFFFFFEF
FFFFFFF4
0000001A
0000000D
00000007
FFFFFFFE
00000000
FFFFFFF1
00000012
00000008
FFFFFFE8
FFFFFFE2
00000035
FFFFFFCC
FFFFFFFE
0000001F
00000034
00000018
00000013
FFFFFFDF
00000023
FFFFFFE9
FFFFFFE9
FFFFFFE2
00000017
FFFFFFD4
0000002B
00000001
FFFFFFEB
0000001F
0000002A
00000026
0000000C
FFFFFFFA
00000013
FFFFFFEB
FFFFFFF4
00000014
FFFFFFE8
00000020
FFFFFFEE
FFFFFFF9
FFFFFFF1
FFFFFFFA
00000025
FFFFFFD4
FFFFFFE9
00000020
FFFFFFEF
FFFFFFDE
FFFFFFCE
0000001B
FFFFFFE1
FFFFFFEB
FFFFFFE9
FFFFFFF3
00000003
00000001
00000002
FFFFFFE8
0000003B
FFFFFFF4
FFFFFFF5
FFFFFFE9
00000018
FFFFFFDA
0000001A
FFFFFFE6
00000006
00000024
00000009
FFFFFFEE
00000029
FFFFFFE4
FFFFFFFF
0000000E
00000016
00000018
FFFFFFE2
00000001
FFFFFFCD
FFFFFFDD
FFFFFFF3
0000001F
00000017
00000010
FFFFFFEA
00000000
00000016
FFFFFFFA
FFFFFFF0
00000005
0000001F
0000000B
FFFFFFE2
0000001D
FFFFFFE4
0000000E
0000001A
00000012
0000000F
00000014
00000003
FFFFFFF0
0000002B
00000005
FFFFFFF3
00000012
FFFFFFF3
00000007
FFFFFFE7
FFFFFFF4
00000009
0000002F
FFFFFFCD
FFFFFFF8
FFFFFFED
00000009
FFFFFFDE
FFFFFFED
00000018
FFFFFFD2
00000009
FFFFFFFC
00000005
0000000B
FFFFFFE0
0000000E
00000000
0000001B
FFFFFFF3
00000004
00000001
0000000E
00000022
00000011
00000016
0000000F
FFFFFFE8
FFFFFFF8
FFFFFFEE
FFFFFFFB
00000019
FFFFFFE4
00000023
FFFFFFE1
FFFFFFF6
00000002
FFFFFFE7
FFFFFFDE
FFFFFFE9
0000000A
FFFFFFEB
FFFFFFD6
FFFFFFEE
0000001C
00000026
FFFFFFC0
0000001C
00000022
FFFFFFD2
FFFFFFFB
FFFFFFD1
FFFFFFDE
FFFFFFF8
FFFFFFDA
FFFFFFF5
00000010
00000010
00000002
00000013
00000020
FFFFFFD0
00000022
00000006
00000008
00000021
00000013
0000000C
FFFFFFE2
FFFFFFEA
0000000A
FFFFFFEC
FFFFFFEA
00000016
FFFFFFE5
00000001
00000008
0000001B
FFFFFFE2
00000004
FFFFFFF1
FFFFFFFD
00000001
FFFFFFF1
FFFFFFDD
00000023
FFFFFFFA
FFFFFFF4
FFFFFFDE
FFFFFFE2
00000019
FFFFFFF5
00000026
00000019
FFFFFFFA
00000025
FFFFFFE0
FFFFFFEE
FFFFFFFD
FFFFFFDB
00000018
FFFFFFFF
FFFFFFF1
FFFFFFF0
00000014
00000008
FFFFFFF8
00000002
00000007
FFFFFFF2
00000028
FFFFFFFA
00000031
FFFFFFF9
FFFFFFFC
0000001D
00000017
FFFFFFEA
0000001A
00000015
FFFFFFF9
FFFFFFF0
FFFFFFF7
00000014
FFFFFFF9
00000008
FFFFFFD4
00000007
FFFFFFF6
FFFFFFD3
FFFFFFE5
0000001A
0000000E
00000018
00000003
00000008
00000012
00000008
FFFFFFED
00000002
00000010
00000025
00000006
FFFFFFDD
FFFFFFDB
FFFFFFE1
00000000
FFFFFFED
00000004
FFFFFFDF
FFFFFFF6
FFFFFFF1
0000000E
00000024
FFFFFFEF
00000018
FFFFFFF9
0000001C
00000020
00000022
0000002E
00000024
00000005
00000016
00000024
FFFFFFEC
FFFFFFEB
FFFFFFDF
FFFFFFF9
FFFFFFDF
00000003
FFFFFFE1
FFFFFFD9
FFFFFFFE
FFFFFFD8
FFFFFFF2
00000013
FFFFFFF2
0000000A
FFFFFFDD
0000001B
0000001B
00000005
00000028
0000001D
0000001C
00000015
FFFFFFF5
FFFFFFEF
FFFFFFF9
FFFFFFF5
FFFFFFF2
FFFFFFF2
00000000
FFFFFFD0
FFFFFFE4
0000000D
00000000
FFFFFFE7
FFFFFFDB
00000014
00000024
00000002
0000001F
00000027
FFFFFFE1
FFFFFFEA
FFFFFFDB
00000004
FFFFFFFC
0000000F
FFFFFFF2
FFFFFFE6
FFFFFFFF
0000000B
0000000E
FFFFFFFA
FFFFFFD5
FFFFFFDF
FFFFFFE2
00000017
0000000C
00000017
00000022
FFFFFFDD
0000001E
0000001F
00000006
FFFFFFFC
FFFFFFF5
FFFFFFE0
FFFFFFF8
0000000D
FFFFFFEF
00000002
00000009
FFFFFFE7
0000001E
00000005
FFFFFFFD
0000001A
00000019
00000011
00000007
FFFFFFF0
FFFFFFF8
00000000
FFFFFFF1
FFFFFFDA
FFFFFFFC
FFFFFFDB
00000023
FFFFFFF3
FFFFFFD8
00000008
0000000A
00000019
FFFFFFD9
FFFFFFFA
00000010
FFFFFFEF
0000000A
00000010
0000001B
00000010
00000009
FFFFFFF8
0000002C
00000027
FFFFFFFF
0000000F
FFFFFFE5
FFFFFFFD
FFFFFFF8
FFFFFFEB
FFFFFFD0
FFFFFFF7
00000004
FFFFFFD0
00000002
0000000A
FFFFFFE1
00000023
00000011
FFFFFFEA
00000008
00000003
00000002
00000008
00000016
FFFFFFE6
FFFFFFFF
00000005
0000000E
FFFFFFEE
00000019
00000003
00000007
00000021
FFFFFFF0
0000002D
00000005
FFFFFFF8
00000012
FFFFFFE4
0000000D
FFFFFFE1
00000021
00000029
FFFFFFF2
FFFFFFFA
FFFFFFFF
FFFFFFF0
00000022
FFFFFFFB
00000007
00000018
00000013
00000019
FFFFFFE7
FFFFFFD9
00000006
0000000B
00000019
FFFFFFE5
00000020
00000016
00000025
0000000A
FFFFFFDC
00000020
00000002
FFFFFFEF
0000001B
FFFFFFE0
FFFFFFED
FFFFFFEF
00000012
FFFFFFEF
FFFFFFF8
0000002C
00000005
0000002E
FFFFFFDC
FFFFFFE6
FFFFFFDD
FFFFFFFC
0000002B
0000001F
00000019
FFFFFFE5
FFFFFFE1
00000000
00000026
0000000D
00000004
00000018
00000019
FFFFFFF0
FFFFFFD8
00000016
00000007
00000003
0000000D
00000011
FFFFFFF1
0000000B
FFFFFFDE
00000026
0000000A
FFFFFFE0
00000029
00000015
FFFFFFD4
0000001D
FFFFFFF2
00000008
FFFFFFE9
0000000C
FFFFFFD0
0000000E
FFFFFFCF
FFFFFFE6
FFFFFFF7
FFFFFFFF
FFFFFFF1
00000020
FFFFFFD7
FFFFFFF6
00000002
00000007
0000000A
00000012
FFFFFFDA
FFFFFFF8
00000007
FFFFFFE6
FFFFFFF4
0000000A
00000006
FFFFFFDB
00000005
0000000A
0000000B
FFFFFFFE
FFFFFFF4
00000011
FFFFFFE4
FFFFFFF9
FFFFFFE2
FFFFFFFB
FFFFFFFD
FFFFFFE7
0000000D
FFFFFFFF
FFFFFFEA
00000025
00000018
00000008
0000000B
00000024
FFFFFFD4
00000002
FFFFFFF4
00000002
00000013
00000014
0000002A
00000020
00000008
00000022
FFFFFFE8
00000019
00000024
00000004
00000000
0000001C
00000009
0000001F
0000000F
FFFFFFC9
FFFFFFF0
FFFFFFF2
00000004
FFFFFFDF
FFFFFFFB
0000002F
0000000E
FFFFFFF9
0000001E
FFFFFFFA
FFFFFFEA
00000005
FFFFFFFD
FFFFFFF5
0000002D
00000001
0000001F
FFFFFFF2
0000001D
FFFFFFF5
FFFFFFEF
FFFFFFF6
0000002D
FFFFFFDD
00000004
0000002B
00000016
FFFFFFDA
0000000B
00000011
00000027
00000016
FFFFFFEA
00000012
FFFFFFDF
FFFFFFFA
FFFFFFE7
FFFFFFEF
00000017
0000000A
FFFFFFF8
00000021
FFFFFFDD
00000004
FFFFFFF5
00000003
FFFFFFE9
FFFFFFFC
00000021
00000015
FFFFFFDB
FFFFFFFA
00000025
FFFFFFDA
FFFFFFF3
00000018
FFFFFFEA
FFFFFFEC
FFFFFFF8
00000006
FFFFFFDF
FFFFFFF0
0000001C
FFFFFFDC
FFFFFFE4
FFFFFFED
00000004
00000024
FFFFFFDE
FFFFFFF3
0000000C
FFFFFFDB
FFFFFFF5
FFFFFFE7
FFFFFFEC
FFFFFFFB
00000015
00000024
FFFFFFEC
00000021
FFFFFFF3
0000000B
00000006
FFFFFFFF
FFFFFFED
FFFFFFD8
FFFFFFEF
FFFFFFF3
0000001C
FFFFFFDD
00000019
00000021
00000022
FFFFFFE1
00000001
FFFFFFFF
0000000F
FFFFFFEC
FFFFFFF7
FFFFFFF5
00000025
FFFFFFED
00000015
00000016
00000002
00000008
FFFFFFE3
FFFFFFF4
FFFFFFEC
0000000C
00000025
FFFFFFFA
00000006
00000030
0000000A
FFFFFFE9
FFFFFFE0
FFFFFFDD
00000003
FFFFFFFE
00000014
FFFFFFEA
FFFFFFF5
FFFFFFE2
0000000A
00000007
0000000A
0000001B
0000001E
0000002E
00000035
0000000B
0000001E
00000011
00000021
FFFFFFD2
0000000B
FFFFFFFC
FFFFFFF1
FFFFFFE4
0000002A
00000003
00000012
FFFFFFE2
0000001A
FFFFFFFE
FFFFFFF0
0000000B
FFFFFFFF
FFFFFFD4
00000005
00000004
00000005
FFFFFFCC
00000018
00000010
00000026
00000005
FFFFFFE0
FFFFFFFA
00000004
00000021
00000004
FFFFFFE9
00000016
0000001C
FFFFFFEC
0000000A
00000015
FFFFFFBA
FFFFFFF1
FFFFFFDD
00000021
FFFFFFEF
00000024
FFFFFFFB
FFFFFFF0
FFFFFFFD
FFFFFFE7
FFFFFFF6
0000001E
0000001E
00000019
FFFFFFFC
FFFFFFE0
FFFFFFF5
00000029
FFFFFFFD
00000018
FFFFFFDF
FFFFFFE5
FFFFFFD9
FFFFFFD9
00000012
00000019
00000002
FFFFFFE6
00000014
FFFFFFF7
FFFFFFF6
00000004
0000001D
FFFFFFFC
FFFFFFDD
FFFFFFF8
FFFFFFE9
FFFFFFFD
00000011
FFFFFFE8
0000001B
00000034
FFFFFFF8
00000014
FFFFFFE8
00000009
FFFFFFDD
00000018
FFFFFFFD
0000000D
00000021
FFFFFFFB
FFFFFFE1
FFFFFFE6
00000000
0000002C
00000010
FFFFFFCD
FFFFFFFD
00000016
FFFFFFF9
FFFFFFF7
00000001
FFFFFFE2
0000000D
00000015
0000000A
00000003
00000014
0000000A
00000020
0000001E
0000002F
FFFFFFE8
00000012
00000015
0000001B
00000012
00000006
00000023
FFFFFFE4
FFFFFFFE
FFFFFFE1
00000028
00000041
00000017
00000035
00000000
0000000C
00000020
00000030
0000001B
00000003
0000000C
0000000A
00000037
FFFFFFF7
FFFFFFF8
FFFFFFF1
FFFFFFE3
FFFFFFEB
0000001A
00000007
FFFFFFE4
00000022
00000008
00000010
FFFFFFDF
FFFFFFFB
FFFFFFF0
00000023
00000010
FFFFFFF7
00000001
FFFFFFE0
FFFFFFFF
FFFFFFE5
FFFFFFEB
00000014
FFFFFFD4
00000023
00000019
00000023
00000015
00000016
FFFFFFEA
FFFFFFF3
FFFFFFDE
FFFFFFF8
FFFFFFF8
00000013
00000010
FFFFFFEC
FFFFFFEA
00000001
0000001E
FFFFFFE5
FFFFFFF5
00000021
FFFFFFD7
00000022
00000006
FFFFFFE9
0000002C
FFFFFFE5
0000000C
FFFFFFFD
0000001E
FFFFFFD6
FFFFFFED
FFFFFFF0
FFFFFFEB
FFFFFFE3
FFFFFFD3
FFFFFFDB
FFFFFFFB
00000014
FFFFFFE9
FFFFFFEA
0000003B
0000001F
FFFFFFF2
00000008
00000018
00000000
FFFFFFED
0000001E
FFFFFFDE
FFFFFFF0
FFFFFFF0
00000010
00000005
00000011
FFFFFFF7
FFFFFFF8
00000014
FFFFFFDC
00000021
FFFFFFF8
FFFFFFD2
00000000
0000000A
FFFFFFFC
FFFFFFEF
0000000F
FFFFFFDC
FFFFFFD5
0000001D
00000008
FFFFFFF6
00000033
FFFFFFFF
0000000C
FFFFFFCF
0000001F
FFFFFFDF
00000012
FFFFFFDA
FFFFFFD8
FFFFFFE1
FFFFFFD8
00000016
FFFFFFED
FFFFFFF9
0000002F
0000001F
00000018
FFFFFFEA
FFFFFFE5
0000001B
FFFFFFEB
FFFFFFE4
00000027
00000005
FFFFFFEC
00000008
00000017
00000007
FFFFFFF7
00000002
00000008
FFFFFFFD
FFFFFFF0
00000008
FFFFFFCD
FFFFFFF6
FFFFFFF3
00000009
FFFFFFD7
00000028
00000002
FFFFFFED
FFFFFFEC
00000013
FFFFFFF9
FFFFFFDA
FFFFFFCE
0000001D
0000001C
FFFFFFEA
FFFFFFEA
0000001C
00000009
FFFFFFDE
FFFFFFF0
0000001D
00000021
00000002
FFFFFFEC
FFFFFFDB
FFFFFFFC
FFFFFFFE
0000001E
0000001A
00000026
FFFFFFD6
FFFFFFFF
00000013
00000027
00000006
FFFFFFD0
FFFFFFF2
0000001B
00000008
FFFFFFF1
FFFFFFCF
FFFFFFEC
FFFFFFF2
FFFFFFD5
FFFFFFF7
00000029
FFFFFFED
FFFFFFFC
0000001D
FFFFFFF4
FFFFFFFF
FFFFFFFE
FFFFFFF4
FFFFFFE7
0000001C
FFFFFFFB
0000001E
00000001
FFFFFFF5
FFFFFFD3
00000008
00000031
00000029
00000007
FFFFFFF2
FFFFFFE4
00000024
FFFFFFDC
00000009
00000011
0000000A
00000011
00000000
00000013
FFFFFFE3
FFFFFFFC
0000002D
FFFFFFF2
FFFFFFF8
FFFFFFE6
FFFFFFE9
FFFFFFED
00000027
FFFFFFF9
FFFFFFFF
00000002
0000000C
FFFFFFEF
FFFFFFE0
FFFFFFF9
0000000B
FFFFFFE3
00000004
00000004
00000014
FFFFFFFB
00000006
00000003
0000001F
FFFFFFF7
FFFFFFF8
FFFFFFEC
00000001
0000000B
FFFFFFF9
0000001B
00000000
0000001D
0000000C
00000013
FFFFFFE0
00000017
00000011
00000025
FFFFFFD7
00000014
00000001
00000009
FFFFFFDE
00000012
00000010
FFFFFFF1
00000012
00000013
FFFFFFE3
FFFFFFEF
FFFFFFE8
00000021
00000026
0000000C
FFFFFFE7
FFFFFFD0
FFFFFFCE
00000005
0000000C
FFFFFFF1
00000018
FFFFFFF4
0000001E
FFFFFFFF
FFFFFFDB
FFFFFFEE
FFFFFFE6
0000001E
00000000
FFFFFFFA
FFFFFFDE
0000000C
FFFFFFF0
0000000E
00000033
00000014
FFFFFFF6
FFFFFFE4
FFFFFFFE
FFFFFFDD
00000002
FFFFFFDE
FFFFFFF3
00000018
FFFFFFDA
FFFFFFE5
00000023
00000007
0000001B
0000002B
FFFFFFF1
FFFFFFE8
FFFFFFE3
00000027
FFFFFFF3
00000033
0000000B
FFFFFFF7
FFFFFFE9
00000017
00000007
0000001B
0000001D
FFFFFFE9
FFFFFFEF
00000017
FFFFFFE9
00000001
00000024
00000021
00000033
00000000
00000012
00000007
FFFFFFED
FFFFFFE5
00000024
0000000E
FFFFFFEF
FFFFFFE9
FFFFFFF1
FFFFFFDF
00000011
00000020
FFFFFFED
0000001C
00000003
0000001A
00000004
FFFFFFD7
00000022
00000013
FFFFFFDC
FFFFFFE9
FFFFFFD4
00000018
00000000
00000006
0000001F
0000001F
FFFFFFF2
00000004
00000009
00000014
FFFFFFD7
00000012
00000011
00000018
FFFFFFD0
FFFFFFD7
FFFFFFD6
FFFFFFF1
00000012
00000000
00000006
FFFFFFD5
0000000D
FFFFFFE6
00000023
00000020
FFFFFFF0
00000007
FFFFFFED
00000016
0000000D
0000002B
FFFFFFE4
FFFFFFFD
00000005
00000009
FFFFFFF8
0000000B
00000019
FFFFFFED
FFFFFFC6
0000000B
00000015
00000003
FFFFFFF8
00000005
FFFFFFF2
FFFFFFED
FFFFFFF0
00000004
FFFFFFC6
FFFFFFF1
00000008
FFFFFFE9
FFFFFFDC
FFFFFFF1
00000006
FFFFFFCE
00000013
FFFFFFF0
FFFFFFE9
FFFFFFF7
00000004
0000000D
FFFFFFE7
00000028
FFFFFFE0
00000000
FFFFFFD2
00000006
0000000B
0000002F
0000001A
00000019
FFFFFFF7
00000013
00000000
FFFFFFF0
FFFFFFFB
0000000C
00000012
FFFFFFC4
00000004
FFFFFFE4
00000005
00000003
FFFFFFF7
00000003
00000014
0000000C
FFFFFFEE
FFFFFFDB
00000000
FFFFFFE9
FFFFFFE3
FFFFFFF6
00000006
FFFFFFFC
FFFFFFFD
FFFFFFF7
FFFFFFFA
00000018
00000020
FFFFFFDD
FFFFFFF9
FFFFFFD5
FFFFFFE7
00000005
00000020
FFFFFFF0
FFFFFFCD
00000002
00000023
00000010
00000008
FFFFFFEE
0000001F
FFFFFFF4
00000020
FFFFFFFC
0000000C
FFFFFFEE
00000024
FFFFFFF3
0000000C
00000016
FFFFFFE1
FFFFFFF7
00000033
FFFFFFE8
FFFFFFDA
00000025
FFFFFFFE
00000008
FFFFFFFB
FFFFFFE4
0000002A
FFFFFFF6
00000029
00000018
FFFFFFD1
00000016
00000026
FFFFFFFF
00000013
FFFFFFFE
00000022
00000008
FFFFFFEF
FFFFFFEE
00000023
0000000B
00000005
0000000D
0000001D
FFFFFFFD
FFFFFFE8
FFFFFFF7
00000003
FFFFFFE6
FFFFFFE2
00000012
FFFFFFFD
00000007
FFFFFFE8
FFFFFFFB
00000023
0000002B
00000004
00000028
00000014
FFFFFFF7
FFFFFFE7
00000008
0000002A
FFFFFFE4
FFFFFFF5
00000015
00000012
FFFFFFE5
FFFFFFDB
00000009
00000000
FFFFFFE6
FFFFFFF5
FFFFFFFF
0000001D
FFFFFFE0
FFFFFFFD
FFFFFFD3
00000000
FFFFFFF3
00000022
00000028
00000028
FFFFFFE5
00000020
00000002
00000008
00000028
FFFFFFF7
00000027
00000017
FFFFFFEF
00000027
0000001E
00000011
00000020
00000004
00000014
FFFFFFE9
00000020
00000006
0000000C
FFFFFFFE
00000034
0000000F
00000019
00000012
FFFFFFD6
0000001A
FFFFFFEB
FFFFFFD7
FFFFFFF7
0000000C
FFFFFFF8
0000002A
FFFFFFE7
FFFFFFD8
FFFFFFE0
0000001B
0000000A
00000000
0000001A
FFFFFFE3
00000010
0000003B
0000002D
00000000
00000015
0000000F
00000021
00000009
FFFFFFF6
00000023
00000018
FFFFFFEE
FFFFFFFF
00000014
FFFFFFFA
00000026
FFFFFFE7
FFFFFFFA
0000000D
00000024
0000001F
00000007
FFFFFFF0
00000008
0000000F
FFFFFFF6
0000000F
FFFFFFEE
FFFFFFFF
FFFFFFF4
00000025
00000002
00000015
FFFFFFCE
FFFFFFD8
0000001B
FFFFFFFB
FFFFFFE9
0000001A
FFFFFFFC
00000002
FFFFFFE4
00000033
0000001B
FFFFFFEF
FFFFFFF2
00000022
0000001B
00000010
FFFFFFFA
FFFFFFE8
00000013
FFFFFFE9
00000015
FFFFFFFB
FFFFFFFA
00000010
00000018
FFFFFFED
0000001E
FFFFFFCD
FFFFFFFB
FFFFFFF1
FFFFFFE9
FFFFFFE4
0000001B
FFFFFFF5
FFFFFFFA
00000018
FFFFFFF7
00000028
FFFFFFF3
00000032
00000009
FFFFFFFD
0000002E
00000001
00000014
00000020
FFFFFFDC
FFFFFFF8
0000000C
FFFFFFE9
FFFFFFEE
0000000D
00000013
FFFFFFE6
FFFFFFFC
00000004
FFFFFFDB
00000003
FFFFFFE7
00000002
00000012
00000038
FFFFFFFC
FFFFFFEE
00000015
FFFFFFFD
00000005
0000001C
FFFFFFFA
0000002D
0000002A
00000011
FFFFFFE7
FFFFFFE8
00000003
0000001C
FFFFFFF0
FFFFFFCC
FFFFFFEE
0000001C
FFFFFFEE
FFFFFFE4
0000001C
FFFFFFFB
FFFFFFF5
FFFFFFE0
00000019
00000010
0000001D
FFFFFFEF
FFFFFFF1
00000008
00000010
00000027
FFFFFFD2
FFFFFFFA
00000008
FFFFFFEB
FFFFFFD6
00000024
FFFFFFF5
00000001
FFFFFFEC
00000025
0000000A
FFFFFFF1
00000000
00000019
00000014
FFFFFFE4
0000001D
FFFFFFFB
00000023
0000000B
FFFFFFE9
FFFFFFF8
FFFFFFF6
00000025
00000001
FFFFFFFB
FFFFFFE3
FFFFFFFF
00000015
0000000C
0000002E
00000006
FFFFFFFA
FFFFFFE6
FFFFFFF9
00000024
00000015
00000019
FFFFFFEE
FFFFFFF3
00000003
00000011
00000006
FFFFFFDD
00000004
FFFFFFE3
00000015
00000012
FFFFFFF0
FFFFFFDD
00000019
FFFFFFF9
00000010
FFFFFFF0
FFFFFFEA
00000010
0000000D
0000002B
FFFFFFE9
00000003
FFFFFFDA
FFFFFFF7
FFFFFFDF
FFFFFFE2
0000001B
00000004
FFFFFFE4
00000002
0000001F
FFFFFFF3
FFFFFFF5
00000015
FFFFFFF7
FFFFFFF1
FFFFFFD5
FFFFFFEA
00000000
00000020
FFFFFFF3
FFFFFFED
FFFFFFF3
FFFFFFFF
FFFFFFF4
00000009
FFFFFFD1
FFFFFFDD
0000001E
00000020
00000032
FFFFFFE7
FFFFFFFB
FFFFFFDF
FFFFFFDE
FFFFFFED
FFFFFFE4
00000022
0000001B
FFFFFFEE
FFFFFFE3
FFFFFFF6
FFFFFFDB
FFFFFFE9
FFFFFFF9
FFFFFFEA
FFFFFFF6
00000001
FFFFFFE9
0000000A
00000009
FFFFFFEF
00000013
0000002C
FFFFFFE5
00000017
FFFFFFEC
00000001
FFFFFFF8
FFFFFFDE
FFFFFFE8
0000000A
FFFFFFE9
FFFFFFF2
FFFFFFE7
00000003
FFFFFFF5
00000007
FFFFFFF5
00000002
00000006
FFFFFFF4
0000000E
00000020
FFFFFFD9
00000015
00000008
FFFFFFF4
FFFFFFF8
FFFFFFFD
FFFFFFFF
FFFFFFEE
FFFFFFFC
00000014
FFFFFFFE
FFFFFFFD
FFFFFFD4
FFFFFFFB
00000009
00000021
00000026
0000001F
FFFFFFE4
00000023
0000000C
FFFFFFF1
0000000C
00000018
FFFFFFFB
00000007
FFFFFFCF
FFFFFFF5
00000019
0000001C
0000000C
00000015
00000017
00000000
00000007
00000018
FFFFFFD8
0000000E
00000000
0000002B
00000024
00000006
FFFFFFEA
FFFFFFE6
00000021
0000001D
FFFFFFFB
00000001
00000021
FFFFFFC8
FFFFFFF6
FFFFFFF0
00000019
0000001D
00000003
FFFFFFFF
FFFFFFDB
00000023
0000001C
00000021
FFFFFFFE
00000016
00000005
FFFFFFF1
0000000C
0000000B
FFFFFFE5
0000000B
FFFFFFF3
FFFFFFED
00000005
FFFFFFF9
00000001
00000020
FFFFFFD9
00000012
00000015
00000004
0000000E
FFFFFFEE
00000018
FFFFFFE7
FFFFFFFD
FFFFFFFA
00000010
00000015
0000001D
0000001A
FFFFFFF2
00000020
00000011
FFFFFFFA
00000021
FFFFFFDB
FFFFFFE3
00000019
FFFFFFDD
00000012
FFFFFFFA
00000004
FFFFFFEC
00000027
0000001C
FFFFFFFD
00000014
FFFFFFF5
FFFFFFD1
00000018
00000003
00000005
00000015
00000010
FFFFFFFE
0000000C
00000015
FFFFFFE1
FFFFFFF3
00000008
FFFFFFDB
FFFFFFE4
00000005
00000020
0000000B
00000008
FFFFFFE0
00000004
00000016
0000000E
FFFFFFD5
FFFFFFEA
0000000D
FFFFFFFD
FFFFFFED
FFFFFFDF
00000006
FFFFFFD9
FFFFFFE9
0000000F
00000014
FFFFFFF3
0000000F
00000017
FFFFFFE1
0000001F
FFFFFFE7
00000025
FFFFFFF8
00000017
0000000F
FFFFFFF2
00000009
00000029
FFFFFFE6
00000012
FFFFFFFC
FFFFFFFC
FFFFFFEA
FFFFFFF0
FFFFFFE4
FFFFFFD9
0000001F
FFFFFFE2
00000011
FFFFFFF1
0000002B
00000023
00000017
00000013
00000021
FFFFFFE3
00000024
FFFFFFDD
00000011
FFFFFFDC
FFFFFFF0
00000021
00000022
FFFFFFE2
0000000F
FFFFFFF9
FFFFFFEA
00000026
00000001
0000000B
FFFFFFD8
00000016
FFFFFFE4
FFFFFFEC
FFFFFFEB
00000019
0000001F
00000019
0000001B
00000025
FFFFFFF0
0000000F
FFFFFFCF
00000006
FFFFFFDF
00000024
0000000D
00000008
00000004
0000002A
0000002B
0000001C
FFFFFFF3
0000000D
FFFFFFEA
0000001C
0000001A
0000002E
FFFFFFD8
FFFFFFDD
00000017
00000000
FFFFFFFA
FFFFFFD6
0000000D
00000006
00000013
FFFFFFF4
FFFFFFDB
00000028
FFFFFFD6
00000026
00000001
FFFFFFDF
0000001F
FFFFFFEF
00000008
FFFFFFFD
FFFFFFE5
00000016
FFFFFFFC
FFFFFFD8
0000002E
0000000C
00000024
FFFFFFD6
00000005
FFFFFFF5
00000011
FFFFFFF3
FFFFFFFC
0000000A
FFFFFFFB
FFFFFFE1
00000006
FFFFFFDF
FFFFFFFD
00000016
00000019
FFFFFFF9
00000027
0000001C
FFFFFFE0
FFFFFFF1
00000006
00000002
00000007
FFFFFFF8
FFFFFFF8
00000016
FFFFFFFE
FFFFFFF2
FFFFFFE4
00000005
0000000B
0000000F
FFFFFFF3
FFFFFFF9
00000018
FFFFFFDD
00000030
00000003
FFFFFFFA
00000005
FFFFFFDD
00000015
0000002F
0000001F
00000006
00000038
FFFFFFEA
00000019
0000002B
00000011
FFFFFFD3
0000000B
00000015
00000002
00000000
FFFFFFF8
00000000
FFFFFFF9
FFFFFFE6
0000002E
00000017
FFFFFFF9
FFFFFFE5
0000001F
00000012
00000013
00000021
FFFFFFDC
0000000A
00000002
00000007
00000035
FFFFFFF6
FFFFFFEF
0000000A
FFFFFFE7
FFFFFFF4
FFFFFFEE
FFFFFFE9
00000008
FFFFFFEA
00000024
FFFFFFF8
FFFFFFFD
FFFFFFF3
00000006
00000014
FFFFFFFC
0000000D
00000013
00000020
FFFFFFFE
00000034
00000007
00000028
FFFFFFDB
FFFFFFE8
FFFFFFDC
0000000E
00000010
FFFFFFEF
FFFFFFDA
00000013
FFFFFFF4
00000019
00000019
00000015
0000000D
00000022
FFFFFFF9
FFFFFFF7
00000001
FFFFFFDC
FFFFFFD7
FFFFFFFF
FFFFFFF3
FFFFFFE3
00000036
FFFFFFF3
00000014
0000000D
0000000F
FFFFFFE0
FFFFFFFA
00000018
0000001A
FFFFFFE2
FFFFFFE0
FFFFFFE9
FFFFFFE7
00000020
FFFFFFDE
FFFFFFE6
00000014
00000009
00000014
FFFFFFEF
FFFFFFF2
FFFFFFF5
FFFFFFFC
00000021
FFFFFFD4
00000010
0000001E
00000008
00000004
0000002B
FFFFFFF2
FFFFFFFB
00000026
00000004
00000020
00000022
FFFFFFD6
FFFFFFF8
00000009
00000001
FFFFFFFC
FFFFFFEF
FFFFFFDA
FFFFFFEB
00000011
FFFFFFE4
0000000A
00000016
00000024
FFFFFFE6
00000007
00000006
00000006
0000001A
0000001B
FFFFFFF8
FFFFFFD1
00000025
FFFFFFF8
0000000D
00000010
0000000D
0000000E
FFFFFFC3
FFFFFFE5
00000029
FFFFFFFE
0000001A
FFFFFFDF
FFFFFFE5
FFFFFFEA
FFFFFFF5
00000005
FFFFFFED
0000000F
00000009
FFFFFFFE
00000021
FFFFFFF2
FFFFFFF7
00000012
FFFFFFE9
0000001D
FFFFFFDE
FFFFFFD1
FFFFFFDD
0000001D
FFFFFFFB
FFFFFFE4
FFFFFFE8
FFFFFFEE
FFFFFFE8
00000035
0000001C
00000002
00000002
FFFFFFDE
FFFFFFE2
00000016
00000023
00000014
00000026
0000001B
FFFFFFE7
0000001E
FFFFFFDD
0000000F
FFFFFFE6
00000006
FFFFFFF3
FFFFFFE2
00000014
FFFFFFBA
FFFFFFCB
FFFFFFE5
FFFFFFE6
0000000B
0000001D
FFFFFFF3
FFFFFFF1
0000002C
00000014
00000022
0000000C
FFFFFFF5
FFFFFFDE
00000025
00000013
FFFFFFF4
FFFFFFF3
0000002F
00000012
0000001B
00000021
0000000F
FFFFFFF2
0000002C
FFFFFFD3
FFFFFFE2
FFFFFFDB
FFFFFFD9
0000000E
00000002
00000004
00000039
00000025
00000000
FFFFFFF4
00000019
00000032
00000025
00000023
00000025
0000000B
0000001B
0000000C
FFFFFFF0
0000002B
00000008
FFFFFFE0
FFFFFFF0
0000000C
FFFFFFD8
00000018
FFFFFFEF
00000018
FFFFFFDD
FFFFFFDB
FFFFFFF4
0000000B
FFFFFFFB
00000012
0000000E
FFFFFFFA
FFFFFFEC
FFFFFFF2
FFFFFFE4
00000022
0000000A
FFFFFFFE
0000000C
FFFFFFE9
00000021
00000025
00000019
00000007
FFFFFFED
00000026
00000018
FFFFFFF9
FFFFFFEE
FFFFFFE1
FFFFFFDF
0000001A
00000002
00000006
FFFFFFD6
0000000C
00000020
0000002E
FFFFFFDA
00000014
00000015
FFFFFFE9
FFFFFFF6
00000011
FFFFFFFF
00000010
00000033
FFFFFFEC
00000001
FFFFFFE2
00000024
FFFFFFDE
00000025
0000002F
00000025
0000000F
00000008
00000009
00000015
FFFFFFE6
FFFFFFDC
FFFFFFE9
00000017
00000041
FFFFFFF8
00000021
00000000
FFFFFFE3
00000018
FFFFFFF8
FFFFFFE0
00000009
FFFFFFF9
0000001F
FFFFFFD4
FFFFFFE5
FFFFFFFD
FFFFFFFF
FFFFFFD1
FFFFFFE4
0000000E
00000000
0000000F
00000024
00000006
FFFFFFFE
FFFFFFD0
FFFFFFE3
00000018
0000000E
0000002A
00000026
00000000
FFFFFFEB
0000000E
FFFFFFF8
00000017
FFFFFFF4
00000016
FFFFFFF1
00000015
00000024
FFFFFFD9
FFFFFFF9
00000008
FFFFFFFC
00000013
FFFFFFEF
0000001C
FFFFFFFC
FFFFFFF8
0000002A
00000014
FFFFFFFB
0000001D
FFFFFFCA
0000000C
0000001C
FFFFFFCD
0000000D
00000020
00000018
00000025
FFFFFFF9
FFFFFFED
00000003
FFFFFFE9
00000004
FFFFFFE0
FFFFFFF3
0000000F
FFFFFFF6
FFFFFFF0
0000001D
FFFFFFFB
FFFFFFFE
0000000B
FFFFFFF0
00000019
00000013
FFFFFFF2
FFFFFFE7
00000027
00000021
FFFFFFE6
FFFFFFF7
FFFFFFFB
00000012
00000001
0000001A
FFFFFFF3
FFFFFFFD
FFFFFFF7
FFFFFFFC
FFFFFFF0
0000001A
00000028
00000011
00000016
FFFFFFEC
FFFFFFE6
FFFFFFEA
0000001E
0000001D
00000023
00000007
FFFFFFF0
00000015
0000001E
FFFFFFEC
0000000F
FFFFFFF7
FFFFFFE3
FFFFFFD8
00000004
00000022
0000001A
0000001E
0000000F
FFFFFFE6
FFFFFFF1
FFFFFFF8
0000000B
FFFFFFEC
FFFFFFF4
00000026
00000026
0000000A
00000001
0000001E
FFFFFFD5
FFFFFFEB
00000012
0000001F
00000002
0000001E
00000007
FFFFFFF8
0000002D
00000000
FFFFFFDE
0000001F
00000035
00000015
0000001D
FFFFFFE6
FFFFFFF5
FFFFFFF3
00000005
00000009
00000001
00000024
FFFFFFF6
0000001D
FFFFFFF1
00000014
0000001D
FFFFFFED
00000004
00000020
00000003
FFFFFFE8
0000000B
FFFFFFDD
FFFFFFF3
00000020
00000018
FFFFFFF9
00000005
FFFFFFFA
FFFFFFE6
0000002D
00000018
FFFFFFED
00000024
00000007
00000010
FFFFFFF1
00000008
FFFFFFEF
00000025
00000010
FFFFFFE9
0000001F
FFFFFFF0
0000001B
00000016
FFFFFFFB
FFFFFFE4
00000017
FFFFFFE1
00000023
FFFFFFF0
0000002C
FFFFFFF5
FFFFFFF1
00000014
FFFFFFDD
FFFFFFFA
FFFFFFCC
00000013
FFFFFFE9
0000000D
00000014
00000013
0000000E
00000032
00000026
00000010
FFFFFFFE
0000001F
FFFFFFE8
FFFFFFE4
00000017
00000001
00000011
00000022
FFFFFFE4
00000014
0000000E
FFFFFFE9
0000001F
FFFFFFFE
00000020
00000021
0000003B
FFFFFFFC
FFFFFFD9
FFFFFFEC
00000011
FFFFFFD3
00000024
00000026
00000000
00000009
00000006
FFFFFFE9
00000012
FFFFFFE1
FFFFFFF6
0000002B
00000017
FFFFFFEB
00000022
FFFFFFEE
FFFFFFD8
00000001
FFFFFFD9
00000023
00000029
00000016
00000009
00000025
00000022
00000024
FFFFFFEF
FFFFFFE3
0000000D
FFFFFFF9
00000013
00000024
00000017
0000002C
00000014
FFFFFFED
00000017
00000010
00000020
FFFFFFFF
00000007
00000028
FFFFFFD9
FFFFFFDA
00000013
0000000B
00000022
00000013
FFFFFFF6
00000010
00000004
0000000F
0000000A
00000011
FFFFFFD9
FFFFFFE8
0000000A
00000005
FFFFFFD9
FFFFFFF5
00000025
00000018
00000017
FFFFFFE7
0000001A
FFFFFFFD
00000011
FFFFFFF6
FFFFFFE5
00000031
0000002E
FFFFFFE7
FFFFFFE4
00000013
00000019
FFFFFFF0
00000007
0000000B
FFFFFFFB
00000016
FFFFFFE8
0000000A
FFFFFFDB
0000001D
0000001C
00000005
FFFFFFF8
0000000C
FFFFFFE8
0000000E
FFFFFFD2
FFFFFFED
0000002D
0000000D
00000026
FFFFFFF7
00000009
00000002
00000004
00000021
FFFFFFE3
0000001E
FFFFFFEA
FFFFFFF1
0000001A
FFFFFFCE
0000002C
FFFFFFEE
0000001F
FFFFFFDF
0000000E
00000005
00000016
FFFFFFE2
00000003
FFFFFFD3
FFFFFFF5
FFFFFFE5
00000011
00000017
00000014
00000001
00000004
FFFFFFE0
FFFFFFF8
FFFFFFEA
FFFFFFF6
FFFFFFEC
FFFFFFF7
FFFFFFEF
FFFFFFDC
00000011
00000005
FFFFFFDF
0000000B
00000005
FFFFFFF5
FFFFFFEB
0000001E
00000011
FFFFFFE7
FFFFFFE2
FFFFFFF5
FFFFFFE9
FFFFFFF4
0000001B
00000006
FFFFFFF9
00000009
00000010
00000031
0000000A
0000000D
0000000D
FFFFFFE0
0000000C
00000005
0000001E
FFFFFFF3
FFFFFFEF
00000015
FFFFFFF6
00000000
FFFFFFF6
FFFFFFF9
00000007
FFFFFFD5
00000021
0000001C
FFFFFFE1
FFFFFFEE
00000012
00000019
00000009
FFFFFFD4
FFFFFFE8
0000003E
FFFFFFD5
FFFFFFE2
0000001A
00000023
FFFFFFFF
00000022
00000023
FFFFFFDA
00000025
FFFFFFF0
FFFFFFF0
FFFFFFFF
FFFFFFF5
0000000D
00000005
FFFFFFF7
00000013
0000001D
00000006
0000000D
FFFFFFED
00000044
FFFFFFE7
00000004
00000010
FFFFFFEE
00000002
FFFFFFD6
0000001B
FFFFFFE3
FFFFFFF8
FFFFFFEF
00000001
00000019
0000000E
FFFFFFEB
00000020
0000000D
00000024
FFFFFFE8
00000026
FFFFFFEA
FFFFFFEE
FFFFFFE2
FFFFFFEF
FFFFFFE7
FFFFFFE5
FFFFFFE0
FFFFFFE9
0000000E
00000015
00000008
00000022
FFFFFFF4
00000004
00000004
FFFFFFDE
00000000
00000025
00000022
00000009
FFFFFFFE
FFFFFFE6
FFFFFFF4
00000019
FFFFFFF0
00000015
FFFFFFF0
FFFFFFDC
00000027
FFFFFFE8
0000000C
FFFFFFFF
FFFFFFCC
00000022
FFFFFFE9
FFFFFFEA
0000001F
FFFFFFF3
00000007
00000003
00000003
FFFFFFFF
00000001
00000008
FFFFFFF3
0000001A
FFFFFFF7
FFFFFFFF
0000002A
FFFFFFF0
00000002
FFFFFFEF
00000016
0000001B
FFFFFFE8
00000007
00000010
FFFFFFF1
FFFFFFE3
FFFFFFFE
FFFFFFE2
0000000F
FFFFFFD9
0000002F
FFFFFFE3
00000013
FFFFFFFA
00000028
00000001
0000000B
FFFFFFED
FFFFFFE1
FFFFFFFD
FFFFFFE0
FFFFFFF0
00000010
0000000B
FFFFFFDB
0000001A
FFFFFFEF
FFFFFFF3
00000018
FFFFFFE9
00000019
FFFFFFE3
FFFFFFDA
00000024
00000013
FFFFFFD8
FFFFFFDE
00000000
FFFFFFF7
FFFFFFE6
FFFFFFF0
FFFFFFD4
00000019
0000000D
00000006
FFFFFFF8
FFFFFFDF
FFFFFFF4
FFFFFFF6
FFFFFFDE
00000010
00000012
0000001D
00000015
FFFFFFDE
00000010
0000002E
00000008
FFFFFFF7
FFFFFFE4
FFFFFFF6
FFFFFFE0
FFFFFFDC
00000015
FFFFFFDE
0000000A
0000000A
00000026
FFFFFFF4
00000006
00000008
00000007
FFFFFFF0
FFFFFFFA
FFFFFFE1
00000016
00000016
FFFFFFF4
FFFFFFEB
00000017
00000023
00000015
FFFFFFDF
FFFFFFEC
FFFFFFE8
00000001
00000027
00000016
FFFFFFED
FFFFFFEA
00000020
00000020
0000001F
00000011
FFFFFFFB
FFFFFFF6
FFFFFFE0
0000001A
00000010
00000022
00000020
00000029
0000000E
FFFFFFE9
FFFFFFE8
00000010
FFFFFFE6
FFFFFFFD
FFFFFFDF
FFFFFFF6
FFFFFFF8
FFFFFFE9
00000017
FFFFFFE1
FFFFFFE0
0000000B
00000020
FFFFFFE8
00000004
00000001
00000011
0000001C
FFFFFFF8
0000001E
00000035
00000015
0000001E
00000001
00000028
00000024
FFFFFFF9
FFFFFFFD
0000000C
FFFFFFE4
0000000A
00000002
00000016
0000001E
00000021
0000000E
FFFFFFE3
00000024
00000018
FFFFFFFE
FFFFFFFA
FFFFFFD7
00000013
00000013
0000001D
FFFFFFFF
0000000D
FFFFFFE4
FFFFFFEA
00000004
00000036
FFFFFFE5
FFFFFFF0
0000001A
FFFFFFF9
FFFFFFE8
00000006
00000027
00000009
0000001C
FFFFFFFB
FFFFFFCC
00000001
FFFFFFFB
FFFFFFF1
0000000A
00000013
00000003
00000027
00000004
FFFFFFF7
FFFFFFF6
00000029
FFFFFFEB
00000009
00000031
0000001C
0000000D
FFFFFFE3
00000027
00000001
00000015
FFFFFFF5
FFFFFFF8
FFFFFFEF
00000036
FFFFFFF8
FFFFFFF6
FFFFFFDD
0000000A
FFFFFFF4
FFFFFFD9
FFFFFFE4
FFFFFFE2
0000001E
FFFFFFF8
00000020
FFFFFFD7
0000002A
FFFFFFFD
00000002
0000001E
FFFFFFEE
FFFFFFD9
00000014
00000015
FFFFFFE3
FFFFFFD7
00000007
0000001F
FFFFFFE1
FFFFFFE9
FFFFFFF5
FFFFFFF5
FFFFFFE5
FFFFFFF8
00000018
00000031
00000002
0000001C
0000000A
00000003
00000022
00000025
00000006
00000031
0000002C
FFFFFFFA
0000000D
FFFFFFDB
FFFFFFF2
0000000D
0000001C
FFFFFFFD
FFFFFFF5
FFFFFFFB
00000005
0000002B
FFFFFFE8
FFFFFFF0
00000004
0000002C
0000000F
FFFFFFDB
FFFFFFFD
00000035
FFFFFFED
FFFFFFFF
0000001B
FFFFFFFD
00000000
00000014
FFFFFFFD
00000010
FFFFFFF2
0000001A
0000000E
FFFFFFFB
FFFFFFFC
0000002A
0000002B
00000011
FFFFFFFD
00000002
0000000B
FFFFFFF3
0000002D
FFFFFFFC
FFFFFFE7
0000000F
00000016
0000002D
00000008
FFFFFFF6
FFFFFFF8
FFFFFFDF
0000000F
00000028
FFFFFFEA
FFFFFFFF
00000022
0000000A
00000014
FFFFFFF9
00000019
00000030
0000000F
0000002E
FFFFFFFA
00000019
00000018
00000019
00000015
00000022
0000002C
00000002
FFFFFFE7
00000014
0000003A
00000013
FFFFFFF9
FFFFFFFB
0000000E
00000022
FFFFFFE9
FFFFFFFF
00000010
00000015
0000001A
FFFFFFEC
00000007
00000027
FFFFFFEC
00000002
FFFFFFEE
FFFFFFE1
00000005
00000004
00000019
FFFFFFE6
00000020
0000000B
0000002C
00000019
FFFFFFEE
0000002B
00000024
0000001F
00000014
0000002A
0000001C
FFFFFFE4
FFFFFFDC
FFFFFFD9
00000024
00000030
00000013
FFFFFFF5
0000001F
00000005
00000014
0000001C
FFFFFFCA
FFFFFFF5
FFFFFFF4
FFFFFFE2
00000020
00000015
FFFFFFFE
00000002
FFFFFFE9
FFFFFFE6
00000013
0000000C
0000002B
00000023
00000013
FFFFFFE4
00000002
FFFFFFE9
0000001E
FFFFFFE7
FFFFFFE6
00000009
00000012
FFFFFFFE
0000000A
FFFFFFE7
FFFFFFEE
00000008
00000003
00000002
FFFFFFE2
00000023
FFFFFFD7
0000001E
00000033
FFFFFFFE
00000000
0000001B
FFFFFFE5
0000000C
FFFFFFFA
00000013
00000024
FFFFFFE3
00000022
FFFFFFF7
FFFFFFDF
FFFFFFFB
00000006
FFFFFFE3
FFFFFFE5
FFFFFFE9
00000029
FFFFFFF4
0000001E
FFFFFFF9
0000001C
00000003
FFFFFFFE
0000000A
00000018
00000015
FFFFFFE3
FFFFFFF6
FFFFFFE0
FFFFFFFE
FFFFFFE2
00000010
00000022
00000028
00000018
0000002A
FFFFFFD1
00000004
00000006
00000022
00000025
FFFFFFF7
FFFFFFE5
0000000A
FFFFFFC7
FFFFFFEE
0000000A
0000001D
FFFFFFE4
00000003
FFFFFFCD
0000000D
FFFFFFF1
00000033
FFFFFFFD
00000025
0000000E
00000002
FFFFFFEB
00000006
FFFFFFFB
0000000C
00000003
0000001D
0000000D
0000001A
FFFFFFDC
00000003
00000004
0000002C
00000022
00000023
0000000E
0000001D
00000009
FFFFFFD2
00000007
00000002
0000000A
FFFFFFEF
FFFFFFE4
0000000E
00000002
FFFFFFF0
FFFFFFE9
FFFFFFE6
FFFFFFD9
0000001C
00000004
0000001B
FFFFFFF7
FFFFFFE3
FFFFFFE6
00000028
FFFFFFE2
FFFFFFCC
00000002
FFFFFFEF
FFFFFFFC
FFFFFFCE
FFFFFFF5
FFFFFFF8
00000004
FFFFFFF6
00000026
FFFFFFDA
FFFFFFEF
FFFFFFF5
00000018
00000002
FFFFFFFE
FFFFFFFF
FFFFFFF5
FFFFFFEF
0000000A
FFFFFFE0
FFFFFFDF
00000024
0000001E
FFFFFFC7
00000018
00000014
FFFFFFFE
00000005
00000021
00000029
FFFFFFE9
0000000B
FFFFFFE5
FFFFFFF6
0000001B
00000012
FFFFFFEE
00000017
FFFFFFE5
FFFFFFE9
FFFFFFD2
0000000F
FFFFFFE7
00000011
FFFFFFFE
0000001B
FFFFFFE0
FFFFFFFB
FFFFFFEC
0000000B
00000025
00000004
FFFFFFF3
FFFFFFD4
FFFFFFE0
FFFFFFE2
FFFFFFC9
0000002D
0000002B
FFFFFFF9
0000001D
0000001D
FFFFFFF7
FFFFFFDE
FFFFFFFF
FFFFFFE6
00000003
FFFFFFF3
00000024
00000015
FFFFFFF8
FFFFFFE5
00000015
FFFFFFE2
00000016
FFFFFFF9
FFFFFFFE
00000007
FFFFFFDD
0000000E
FFFFFFE9
00000000
00000010
FFFFFFFC
FFFFFFE3
0000001E
FFFFFFF5
FFFFFFF6
FFFFFFF2
0000001B
00000021
00000024
FFFFFFF0
00000018
00000011
00000006
00000023
FFFFFFE6
FFFFFFF9
00000022
00000009
0000002F
FFFFFFEB
0000002F
00000015
0000001F
00000019
FFFFFFEC
00000020
0000002D
00000029
00000003
FFFFFFEF
FFFFFFDF
00000004
FFFFFFE7
FFFFFFE9
00000001
0000000E
FFFFFFE9
FFFFFFCB
FFFFFFF0
FFFFFFDB
0000000D
FFFFFFEE
FFFFFFDD
FFFFFFE4
00000008
FFFFFFF5
0000001F
0000002E
FFFFFFDD
00000011
00000004
00000012
FFFFFFED
0000002F
00000017
FFFFFFF7
FFFFFFE1
0000001E
0000000C
FFFFFFEF
0000001F
00000023
0000001D
0000001D
FFFFFFEC
FFFFFFFB
0000000D
FFFFFFE0
0000001F
FFFFFFF7
FFFFFFF1
0000000D
00000014
0000000F
FFFFFFDC
00000024
FFFFFFFE
00000022
FFFFFFE0
FFFFFFF0
FFFFFFFC
FFFFFFE6
FFFFFFFE
00000008
0000001A
FFFFFFDD
00000015
FFFFFFF0
FFFFFFDE
0000002E
FFFFFFFB
0000001D
FFFFFFEC
00000002
00000018
00000001
00000006
FFFFFFF2
FFFFFFD7
FFFFFFFA
FFFFFFF2
00000027
00000018
FFFFFFE2
FFFFFFF1
00000031
00000002
FFFFFFF9
FFFFFFF8
00000033
00000016
FFFFFFD9
FFFFFFEC
FFFFFFEB
00000026
0000001F
FFFFFFFE
00000027
FFFFFFDC
FFFFFFFE
0000000E
00000031
FFFFFFF1
00000004
0000001D
FFFFFFED
FFFFFFE4
FFFFFFEE
0000000E
FFFFFFF9
00000019
0000001F
00000006
FFFFFFD5
FFFFFFFA
00000003
00000027
FFFFFFFA
FFFFFFE4
00000008
FFFFFFDC
0000000A
00000001
FFFFFFD4
00000007
FFFFFFD5
00000030
FFFFFFF6
FFFFFFE6
0000000F
FFFFFFDC
00000012
0000000B
00000007
00000019
FFFFFFFD
FFFFFFDB
00000011
FFFFFFE6
00000021
FFFFFFF0
FFFFFFEA
0000000C
00000002
FFFFFFE2
FFFFFFE9
FFFFFFF3
00000010
FFFFFFF2
00000019
00000006
FFFFFFE9
0000002C
0000000D
00000012
0000001F
00000017
0000000B
00000007
00000013
00000011
00000032
0000000C
00000025
00000016
0000000C
00000018
00000008
00000019
FFFFFFFA
FFFFFFEE
FFFFFFF7
00000018
00000029
FFFFFFDA
FFFFFFF7
FFFFFFDE
0000002A
0000001A
0000000A
00000030
FFFFFFDF
FFFFFFDB
00000029
0000000F
FFFFFFE1
00000001
00000062
FFFFFFF6
0000001F
00000017
0000001F
FFFFFFDF
00000010
FFFFFFE1
0000000B
00000015
00000019
FFFFFFD5
FFFFFFFF
00000023
00000033
0000001B
FFFFFFF6
0000000E
0000001A
00000028
00000025
00000031
0000001C
0000001E
0000001E
FFFFFFF1
00000025
FFFFFFF4
0000001D
FFFFFFE5
0000000A
00000019
00000017
00000007
00000002
0000002B
FFFFFFDB
00000007
00000002
FFFFFFE7
0000000F
FFFFFFEF
0000002A
0000000D
FFFFFFDA
0000001B
0000002A
00000005
FFFFFFF5
FFFFFFE5
FFFFFFE2
FFFFFFE1
FFFFFFF8
00000007
FFFFFFF9
0000000F
0000001C
00000019
FFFFFFEF
FFFFFFF3
00000008
FFFFFFFA
0000001D
FFFFFFEF
FFFFFFF2
00000006
FFFFFFE8
FFFFFFD5
00000020
00000029
0000002D
FFFFFFF6
0000000B
00000026
FFFFFFE2
FFFFFFEC
00000026
FFFFFFF4
FFFFFFF5
FFFFFFFA
0000000C
00000003
0000002C
00000020
FFFFFFED
FFFFFFF5
FFFFFFE0
FFFFFFFF
FFFFFFF8
00000012
00000032
0000000A
FFFFFFE0
FFFFFFEF
00000022
FFFFFFDD
FFFFFFDF
0000001C
FFFFFFFE
00000017
00000004
FFFFFFEB
FFFFFFFD
FFFFFFD8
0000002C
0000001E
FFFFFFE7
0000000A
FFFFFFF6
FFFFFFF5
00000006
FFFFFFDD
FFFFFFF1
FFFFFFE6
0000000E
00000014
FFFFFFD5
FFFFFFF0
FFFFFFF6
FFFFFFE4
00000008
00000007
FFFFFFFD
00000016
0000001C
0000002C
0000000B
00000005
FFFFFFF7
FFFFFFEE
FFFFFFF4
00000021
0000002F
0000000C
00000020
00000011
FFFFFFE3
00000001
0000001E
FFFFFFE4
00000019
00000021
00000000
0000001B
0000002E
00000000
FFFFFFE3
00000024
00000021
00000021
FFFFFFD7
00000000
FFFFFFEE
FFFFFFF6
FFFFFFDD
FFFFFFEC
FFFFFFEC
FFFFFFDF
FFFFFFE3
00000008
FFFFFFF2
00000029
FFFFFFF5
FFFFFFDF
FFFFFFF5
FFFFFFF1
FFFFFFEB
FFFFFFFA
0000001C
FFFFFFF3
FFFFFFEF
FFFFFFE5
FFFFFFD9
00000006
FFFFFFED
00000009
00000005
00000005
00000009
00000006
0000000B
FFFFFFE6
FFFFFFFD
FFFFFFFF
00000001
0000000C
FFFFFFFB
FFFFFFE7
00000018
FFFFFFEE
FFFFFFEC
00000010
0000000F
FFFFFFF6
0000000F
FFFFFFC6
FFFFFFE5
00000024
FFFFFFFE
00000023
FFFFFFD5
00000006
FFFFFFE3
00000023
0000000D
FFFFFFD9
00000020
00000016
FFFFFFE8
FFFFFFF9
0000001D
00000011
0000001A
00000005
FFFFFFDE
FFFFFFE4
0000000E
0000000A
FFFFFFEA
00000018
FFFFFFFB
00000002
FFFFFFF1
00000000
FFFFFFE5
FFFFFFF9
FFFFFFDE
00000009
FFFFFFF6
00000015
FFFFFFF0
00000004
FFFFFFFE
0000001B
FFFFFFF4
0000000A
00000001
FFFFFFEF
0000000B
00000018
00000017
FFFFFFE4
0000001A
00000002
00000005
FFFFFFF5
FFFFFFFF
FFFFFFE7
00000005
00000013
00000011
FFFFFFEE
FFFFFFE9
FFFFFFDC
00000017
00000025
0000000C
FFFFFFFE
0000001A
0000001F
FFFFFFFD
00000034
00000019
00000002
00000016
FFFFFFF8
FFFFFFE6
0000001D
FFFFFFD6
00000014
00000022
00000023
00000027
00000002
FFFFFFFD
FFFFFFF8
00000009
FFFFFFDE
FFFFFFF1
FFFFFFF8
00000006
FFFFFFF6
FFFFFFEA
00000010
00000015
00000021
00000023
0000001F
00000021
00000007
00000010
00000020
00000010
00000004
FFFFFFDC
FFFFFFDE
FFFFFFE7
FFFFFFFE
FFFFFFD6
00000016
FFFFFFE4
FFFFFFF1
FFFFFFF4
FFFFFFF0
0000002C
00000007
00000011
00000025
FFFFFFFC
00000014
00000029
0000001A
0000002F
FFFFFFD5
0000001A
00000009
FFFFFFD6
00000006
FFFFFFE1
FFFFFFFA
FFFFFFE1
FFFFFFEF
FFFFFFE1
00000008
00000009
0000000D
FFFFFFF3
0000001E
0000000E
00000021
0000001C
00000028
FFFFFFFE
FFFFFFE7
00000016
FFFFFFE9
00000027
FFFFFFCF
00000004
FFFFFFF9
FFFFFFE2
0000001F
FFFFFFE8
00000022
0000001B
FFFFFFE6
FFFFFFD7
00000007
FFFFFFEB
FFFFFFEE
00000005
FFFFFFD8
FFFFFFDB
FFFFFFE1
FFFFFFF6
0000002A
FFFFFFEE
FFFFFFFC
FFFFFFE9
FFFFFFF4
00000030
FFFFFFEB
FFFFFFF9
FFFFFFD8
FFFFFFE9
00000012
FFFFFFF5
FFFFFFE6
00000016
0000001F
0000002F
FFFFFFF7
00000007
FFFFFFE5
FFFFFFFA
FFFFFFFB
FFFFFFE7
00000023
FFFFFFFA
00000016
00000027
FFFFFFFE
FFFFFFD0
FFFFFFD8
FFFFFFE2
00000010
0000001C
0000000C
FFFFFFE4
FFFFFFE8
00000000
0000001E
00000030
FFFFFFE1
FFFFFFF5
FFFFFFE2
FFFFFFEA
0000001C
FFFFFFF4
FFFFFFFD
FFFFFFF8
00000007
FFFFFFFA
00000010
FFFFFFE9
0000001B
FFFFFFD6
00000016
00000028
0000000E
0000001F
FFFFFFE8
00000021
FFFFFFF4
FFFFFFEE
FFFFFFE9
FFFFFFFC
0000002B
FFFFFFD3
FFFFFFFB
FFFFFFDE
00000004
FFFFFFE2
FFFFFFE1
FFFFFFF7
00000014
00000009
FFFFFFFC
FFFFFFE9
00000017
00000011
00000011
FFFFFFDF
00000024
0000000B
00000022
FFFFFFEC
FFFFFFF8
00000017
FFFFFFF5
00000039
FFFFFFF3
FFFFFFF6
00000002
FFFFFFFB
FFFFFFFE
00000029
00000008
FFFFFFFA
00000020
FFFFFFFF
FFFFFFF7
00000003
FFFFFFD4
FFFFFFF8
FFFFFFF7
00000023
FFFFFFDB
00000021
0000002E
FFFFFFF7
FFFFFFFA
FFFFFFFB
FFFFFFE2
00000012
FFFFFFED
00000008
0000002A
FFFFFFE7
FFFFFFEA
FFFFFFD5
FFFFFFE2
0000001E
FFFFFFD5
FFFFFFE5
0000001C
0000002B
00000023
00000005
00000017
FFFFFFF8
FFFFFFE3
00000003
0000001A
0000000E
00000028
FFFFFFDE
00000021
FFFFFFFF
00000029
00000022
00000029
00000018
00000005
FFFFFFE6
0000000A
0000000E
FFFFFFEE
0000001A
0000000B
0000002C
0000001F
FFFFFFF3
FFFFFFF7
FFFFFFF9
FFFFFFEF
00000019
FFFFFFF5
FFFFFFFF
00000020
FFFFFFE2
00000015
00000023
FFFFFFDF
FFFFFFEC
FFFFFFE9
FFFFFFFA
00000015
00000009
FFFFFFE8
FFFFFFF5
0000002B
0000001F
00000008
00000021
FFFFFFEF
00000022
00000010
FFFFFFF9
00000013
FFFFFFE4
00000000
FFFFFFDF
FFFFFFE6
0000001B
FFFFFFCE
00000012
0000001F
0000000F
FFFFFFF8
FFFFFFCF
0000001A
FFFFFFCF
00000014
0000000F
00000021
FFFFFFFC
FFFFFFD5
00000000
00000008
FFFFFFD7
00000015
00000009
00000021
0000000A
FFFFFFE8
FFFFFFF2
FFFFFFD5
FFFFFFDE
FFFFFFFD
FFFFFFF7
FFFFFFF0
FFFFFFF8
0000000F
00000014
FFFFFFF3
FFFFFFF9
FFFFFFE6
FFFFFFFB
0000001C
00000003
00000019
FFFFFFE7
FFFFFFDD
FFFFFFFC
0000001F
