FFFFFFE4
00000030
FFFFFFDE
00000038
FFFFFFF9
0000003C
FFFFFFFD
0000001F
00000022
FFFFFFDA
00000033
FFFFFFE6
FFFFFFFE
0000003E
00000020
FFFFFFFC
0000001B
FFFFFFE3
FFFFFFD1
FFFFFFFE
00000006
00000030
00000002
00000013
FFFFFFF9
FFFFFFD8
FFFFFFE1
FFFFFFCA
FFFFFFED
FFFFFFF2
FFFFFFEC
FFFFFFCC
FFFFFFF5
FFFFFFD4
FFFFFFF8
0000003C
FFFFFFF6
FFFFFFD0
FFFFFFCB
FFFFFFEC
FFFFFFEB
FFFFFFCC
00000024
FFFFFFF9
FFFFFFDC
0000000C
FFFFFFD1
00000026
FFFFFFFA
0000000F
FFFFFFEE
0000000E
FFFFFFE9
0000001C
0000000A
00000000
FFFFFFF6
0000000A
00000006
0000001E
FFFFFFF1
FFFFFFE2
00000001
00000010
FFFFFFB3
00000018
FFFFFFDB
0000001C
0000001D
0000001F
0000001C
00000019
FFFFFFF3
FFFFFFDE
FFFFFFE9
FFFFFFFA
FFFFFFF9
00000003
FFFFFFE9
0000002C
0000001F
00000034
FFFFFFEA
00000021
0000001D
00000009
00000038
FFFFFFD8
0000001C
00000034
FFFFFFD6
FFFFFFFC
FFFFFFED
0000000E
00000012
FFFFFFD8
FFFFFFF9
FFFFFFCB
00000020
0000004F
FFFFFFFA
FFFFFFFE
00000016
0000000D
00000001
00000010
FFFFFFED
FFFFFFE1
0000004E
0000002B
00000009
FFFFFFEF
00000033
FFFFFFFC
00000027
0000002E
FFFFFFD6
0000001C
00000023
FFFFFFB6
FFFFFFCC
FFFFFFD2
00000034
FFFFFFD7
0000000C
FFFFFFFD
FFFFFFC7
FFFFFFB8
00000011
00000002
00000003
FFFFFFE5
00000004
FFFFFFDF
FFFFFFD1
FFFFFFD7
FFFFFFDF
00000004
FFFFFFDD
00000037
00000000
FFFFFFC1
00000047
FFFFFFDB
FFFFFFBD
FFFFFFE0
00000009
00000020
FFFFFFE6
00000017
FFFFFFFA
00000015
0000001F
FFFFFFE4
FFFFFFF1
FFFFFFF2
0000000E
00000007
FFFFFFEF
FFFFFFF0
00000015
FFFFFFC2
FFFFFFCB
0000000C
0000002F
FFFFFFE9
0000002E
00000001
FFFFFFD0
FFFFFFF5
FFFFFFE0
FFFFFFB8
00000007
00000027
00000001
0000001C
00000039
FFFFFFDD
00000011
00000000
0000000D
FFFFFFE5
00000015
FFFFFFC6
00000009
0000001E
0000000F
FFFFFFF8
00000000
FFFFFFFD
FFFFFFF6
00000027
00000004
FFFFFFCF
00000017
FFFFFFEF
0000001B
0000003E
00000044
FFFFFFF5
0000001C
FFFFFFFC
00000034
FFFFFFD5
FFFFFFC7
FFFFFFC8
FFFFFFFE
00000034
00000015
0000000E
FFFFFFCF
00000017
0000000A
00000004
FFFFFFFA
FFFFFFF1
FFFFFFEF
00000018
0000000A
00000010
FFFFFFF6
0000000F
00000004
00000019
00000011
0000002C
00000013
FFFFFFF2
00000016
00000016
00000006
0000000C
FFFFFFEF
FFFFFFDB
0000001A
00000000
00000034
FFFFFFE3
FFFFFFF7
0000002F
FFFFFFF4
00000019
0000002E
00000018
0000001E
00000021
FFFFFFFF
FFFFFFE7
FFFFFFF9
FFFFFFF4
FFFFFFFA
FFFFFFC7
FFFFFFFF
00000036
FFFFFFFE
0000001C
FFFFFFF6
00000022
0000000F
FFFFFFE8
00000025
00000011
00000006
FFFFFFDD
FFFFFFCB
FFFFFFF3
FFFFFFDB
00000037
FFFFFFD9
00000034
0000002A
FFFFFFF9
FFFFFFF7
0000000A
FFFFFFE9
00000013
FFFFFFF9
00000008
00000009
0000001C
FFFFFFF3
FFFFFFEC
FFFFFFEF
FFFFFFFC
FFFFFFD6
FFFFFFCA
FFFFFFFF
00000027
FFFFFFF4
0000003E
FFFFFFE2
FFFFFFE5
FFFFFFC1
FFFFFFFD
FFFFFFE8
FFFFFFE4
FFFFFFCD
0000001F
FFFFFFD7
FFFFFFFD
FFFFFFF8
00000026
FFFFFFFD
00000003
00000032
00000009
00000012
00000026
00000003
FFFFFFF7
00000014
00000031
00000011
00000004
FFFFFFE6
0000000D
FFFFFFDC
FFFFFFFB
0000002A
00000022
FFFFFFD5
FFFFFFD0
FFFFFFF0
FFFFFFEA
00000000
FFFFFFED
FFFFFFEC
00000001
00000037
0000000D
00000001
FFFFFFE2
FFFFFFE7
FFFFFFF9
FFFFFFD2
FFFFFFE0
FFFFFFDE
00000003
00000040
00000011
0000002D
00000005
FFFFFFF7
FFFFFFE9
00000001
0000000F
FFFFFFE6
FFFFFFDE
FFFFFFF2
FFFFFFF3
00000005
FFFFFFEC
0000001A
FFFFFFC5
FFFFFFFE
FFFFFFFE
FFFFFFFD
00000015
FFFFFFE0
0000000E
00000016
00000030
FFFFFFCF
00000005
FFFFFFFE
0000001B
FFFFFFDC
FFFFFFF0
00000027
FFFFFFC3
00000015
00000001
FFFFFFFC
00000018
0000000F
FFFFFFE0
FFFFFFE3
FFFFFFE0
FFFFFFC6
00000018
0000001E
00000008
FFFFFFCF
00000024
00000003
0000002E
FFFFFFE9
00000030
00000008
00000034
FFFFFFDC
00000024
FFFFFFDA
FFFFFFEC
FFFFFFD8
FFFFFFC2
00000019
0000000B
FFFFFFEB
00000031
FFFFFFF3
FFFFFFF2
00000009
FFFFFFC7
0000001A
0000002F
FFFFFFDD
0000001A
FFFFFFEE
FFFFFFD2
FFFFFFF1
FFFFFFCD
FFFFFFEA
FFFFFFF0
FFFFFFFF
FFFFFFFA
00000010
FFFFFFF1
FFFFFFF8
00000025
00000002
0000002D
FFFFFFE3
FFFFFFAC
FFFFFFC9
FFFFFFD4
00000057
FFFFFFF8
FFFFFFEF
FFFFFFCA
0000000B
00000010
FFFFFFF1
FFFFFFF2
FFFFFFE6
00000015
FFFFFFEC
FFFFFFF4
00000019
00000019
FFFFFFDE
00000013
00000009
00000023
FFFFFFE8
FFFFFFD3
FFFFFFEA
00000005
00000017
FFFFFFE4
FFFFFFFC
FFFFFFFF
0000001F
00000016
0000000B
FFFFFFDF
00000039
FFFFFFDA
00000032
00000036
0000001C
FFFFFFD4
00000016
FFFFFFEE
00000004
00000006
0000001F
0000002A
00000024
0000002B
FFFFFFDC
FFFFFFF0
FFFFFFD8
00000003
00000029
FFFFFFEF
00000018
00000026
00000021
0000000F
00000020
00000010
00000005
00000031
FFFFFFFD
FFFFFFDA
0000000A
FFFFFFFA
00000037
FFFFFFFC
00000007
00000028
00000024
00000028
00000013
00000015
00000012
0000001A
00000016
FFFFFFF4
FFFFFFF8
FFFFFFCB
00000007
0000000F
00000017
00000011
00000039
FFFFFFCF
FFFFFFD8
00000001
0000000B
FFFFFFFD
00000035
FFFFFFF2
00000002
00000014
00000008
0000000E
FFFFFFF9
FFFFFFC3
00000020
00000002
00000012
FFFFFFDA
FFFFFFDB
0000000D
FFFFFFD1
00000039
0000001A
FFFFFFCE
FFFFFFFA
00000035
FFFFFFFF
FFFFFFC4
00000025
00000003
FFFFFFC8
FFFFFFF7
00000024
00000006
00000009
FFFFFFE5
FFFFFFC2
FFFFFFE3
FFFFFFDF
FFFFFFEE
FFFFFFF6
FFFFFFDB
00000027
00000001
00000004
00000004
0000003C
00000000
0000000D
00000025
FFFFFFFB
FFFFFFEB
00000000
FFFFFFE5
0000000E
FFFFFFE7
FFFFFFD1
FFFFFFDB
FFFFFFCB
0000002E
00000029
FFFFFFE0
0000002D
FFFFFFE1
FFFFFFE8
00000008
FFFFFFDA
00000007
00000004
00000012
FFFFFFD2
FFFFFFD2
0000001F
0000001D
FFFFFFF5
00000006
FFFFFFE3
00000008
00000031
FFFFFFF0
00000019
00000027
FFFFFFFD
FFFFFFC0
0000000E
00000019
00000000
00000001
0000002D
FFFFFFFA
00000015
FFFFFFFC
FFFFFFE6
00000013
FFFFFFD3
00000016
00000022
FFFFFFEA
00000003
00000005
FFFFFFE5
0000000F
0000001E
00000034
00000007
00000028
00000002
FFFFFFE8
0000003F
00000015
0000001A
FFFFFFEF
0000000F
FFFFFFF4
FFFFFFEA
00000009
FFFFFFCF
FFFFFFFB
0000004A
00000027
00000005
0000000F
FFFFFFD4
FFFFFFF3
FFFFFFDB
0000000B
00000029
FFFFFFCF
FFFFFFBB
FFFFFFFE
FFFFFFD4
00000028
FFFFFFD2
FFFFFFE3
00000032
FFFFFFD6
00000042
00000031
00000013
FFFFFFC5
FFFFFFF4
FFFFFFF7
FFFFFFDA
0000000A
00000006
FFFFFFEA
FFFFFFE0
00000004
FFFFFFE7
0000002D
00000027
00000030
00000030
FFFFFFE9
00000009
FFFFFFE3
00000024
FFFFFFE2
FFFFFFDE
FFFFFFEC
FFFFFFEF
FFFFFFC2
FFFFFFCF
00000014
00000025
FFFFFFD4
0000001F
00000020
00000007
00000048
FFFFFFF3
FFFFFFF4
FFFFFFDF
00000005
FFFFFFF3
FFFFFFF0
00000007
00000021
FFFFFFDB
FFFFFFEF
00000009
0000000B
FFFFFFF6
FFFFFFEA
FFFFFFD9
FFFFFFEF
0000001A
0000002C
00000014
FFFFFFE1
FFFFFFD6
FFFFFFED
00000006
00000037
FFFFFFF5
FFFFFFD9
FFFFFFFF
FFFFFFD9
FFFFFFCF
00000034
00000022
0000002B
00000008
0000001B
0000000C
FFFFFFE3
00000009
00000010
FFFFFFED
00000024
00000000
00000034
00000005
0000001D
FFFFFFF1
00000013
FFFFFFD9
00000017
00000031
FFFFFFF7
FFFFFFF5
FFFFFFDF
00000003
00000018
00000009
00000008
FFFFFFF8
FFFFFFF9
00000009
00000028
FFFFFFE8
00000017
FFFFFFF7
00000013
0000000F
00000012
00000003
00000028
0000001A
0000000A
FFFFFFEA
FFFFFFBA
00000018
00000000
0000000B
0000002D
00000035
0000001A
0000003A
FFFFFFEF
00000021
00000021
00000018
00000036
FFFFFFF0
00000000
FFFFFFEF
00000036
0000003F
FFFFFFF9
00000033
00000009
00000049
00000030
00000018
0000002D
0000002B
00000033
00000002
0000000D
FFFFFFCF
00000018
0000000E
FFFFFFD7
FFFFFFE1
FFFFFFF1
00000032
FFFFFFE9
FFFFFFE8
0000000D
00000020
FFFFFFE3
FFFFFFEA
FFFFFFF9
FFFFFFDC
FFFFFFE3
00000028
00000014
00000010
FFFFFFD0
00000014
0000001F
00000021
00000024
FFFFFFF4
00000002
0000001C
FFFFFFE3
FFFFFFDE
0000002B
FFFFFFE5
00000015
FFFFFFB4
00000036
FFFFFFEA
0000000C
00000036
00000019
00000026
00000014
0000002C
00000017
FFFFFFE4
FFFFFFE4
FFFFFFE4
FFFFFFE8
0000001A
0000002D
00000020
00000019
FFFFFFBA
00000046
0000000B
FFFFFFEC
FFFFFFFF
0000002D
FFFFFFE6
FFFFFFEF
FFFFFFF1
FFFFFFE6
0000001B
0000003D
FFFFFFF5
FFFFFFE1
FFFFFFC7
FFFFFFDA
0000001E
FFFFFFBB
FFFFFFFD
FFFFFFCB
FFFFFFF7
00000034
FFFFFFDC
00000024
00000020
00000012
00000001
FFFFFFC3
0000002E
00000000
FFFFFFEA
00000017
00000030
00000000
FFFFFFF8
0000000A
FFFFFFF1
FFFFFFED
00000000
00000022
00000009
0000000D
00000027
00000011
FFFFFFF3
FFFFFFDF
FFFFFFED
0000001C
00000008
FFFFFFF8
0000000F
0000002A
FFFFFFEF
0000003B
FFFFFFFB
FFFFFFFC
FFFFFFDD
00000016
00000034
FFFFFFDE
FFFFFFE6
FFFFFFE1
FFFFFFDC
FFFFFFFA
FFFFFFFD
0000001C
00000020
FFFFFFE1
FFFFFFCE
00000014
00000024
00000029
00000028
FFFFFFC8
0000000E
FFFFFFF5
FFFFFFDC
0000003A
0000002C
00000040
00000020
FFFFFFED
00000003
00000039
FFFFFFE8
00000032
0000002A
FFFFFFE5
00000024
00000008
FFFFFFF2
0000000B
0000002B
00000023
FFFFFFC7
FFFFFFE3
FFFFFFE5
00000000
00000013
FFFFFFEF
00000002
FFFFFFD3
0000002D
FFFFFFC9
00000003
FFFFFFBE
00000030
FFFFFFDF
FFFFFFEA
00000016
00000000
00000012
0000002C
FFFFFFE7
FFFFFFE7
00000002
00000027
0000000F
FFFFFFF7
00000030
00000013
0000001F
FFFFFFDE
00000030
FFFFFFDF
FFFFFFF9
0000002B
00000020
00000010
FFFFFFE3
FFFFFFEF
0000000D
FFFFFFC0
0000002C
FFFFFFFF
FFFFFFD6
00000019
0000001D
00000010
FFFFFFC3
FFFFFFE7
FFFFFFE0
FFFFFFE0
00000036
00000009
00000027
00000038
FFFFFFC7
FFFFFFC3
FFFFFFDA
00000010
FFFFFFF8
00000022
00000000
FFFFFFE1
00000012
00000002
00000012
00000026
00000014
FFFFFFED
FFFFFFC3
00000009
FFFFFFE6
00000014
FFFFFFEB
00000010
00000017
FFFFFFC3
00000014
00000002
00000011
00000002
FFFFFFCC
00000021
FFFFFFCB
00000039
FFFFFFEB
0000001B
00000014
00000036
00000000
0000001B
FFFFFFEE
0000001C
00000017
0000001F
00000047
00000004
00000004
FFFFFFD8
00000029
FFFFFFFC
00000034
FFFFFFC3
00000004
0000001F
00000003
FFFFFFE4
00000010
0000002E
FFFFFFD1
00000021
FFFFFFDC
FFFFFFB0
FFFFFFFD
00000010
00000000
00000011
FFFFFFF0
FFFFFFE7
FFFFFFDB
0000000E
FFFFFFFF
FFFFFFFE
FFFFFFF2
0000002C
FFFFFFFF
FFFFFFDA
00000012
00000038
00000017
FFFFFFE5
FFFFFFE5
0000002E
00000029
FFFFFFFE
FFFFFFFA
FFFFFFDA
00000011
00000012
00000003
FFFFFFED
FFFFFFD2
00000039
00000016
FFFFFFD3
0000000F
00000044
0000002A
FFFFFFB2
00000025
FFFFFFDC
0000002F
FFFFFFE5
FFFFFFFD
FFFFFFE6
0000001F
0000001F
FFFFFFEA
FFFFFFEB
00000014
0000002D
FFFFFFDE
00000015
FFFFFFF7
FFFFFFE8
FFFFFFDD
FFFFFFE4
FFFFFFD8
FFFFFFDC
0000001C
FFFFFFE8
00000002
0000003F
FFFFFFF2
00000036
FFFFFFD3
FFFFFFD9
00000015
FFFFFFFA
00000033
FFFFFFDE
00000006
00000016
FFFFFFFA
FFFFFFD8
00000018
FFFFFFE2
FFFFFFFD
FFFFFFF9
FFFFFFDE
00000004
FFFFFFEC
00000018
FFFFFFD9
FFFFFFD9
FFFFFFEB
FFFFFFF7
FFFFFFFF
00000019
FFFFFFDC
FFFFFFF6
FFFFFFE4
00000014
FFFFFFC9
FFFFFFE3
0000000C
00000027
00000031
FFFFFFF7
0000001F
0000001E
FFFFFFF3
00000028
FFFFFFE8
FFFFFFEB
FFFFFFE2
FFFFFFEB
00000015
FFFFFFD0
00000017
FFFFFFCC
00000006
FFFFFFE7
00000022
FFFFFFFC
00000023
FFFFFFF1
00000014
FFFFFFEC
FFFFFFFC
FFFFFFDF
00000016
FFFFFFE2
00000023
FFFFFFEB
FFFFFFF0
FFFFFFD5
FFFFFFE9
00000009
0000002F
0000000C
00000012
FFFFFFF1
FFFFFFC8
FFFFFFF7
FFFFFFE0
00000029
00000028
00000012
FFFFFFDA
FFFFFFE5
FFFFFFC8
0000001B
FFFFFFFC
00000000
FFFFFFFD
0000003C
FFFFFFF3
FFFFFFC6
FFFFFFDF
0000002F
0000000F
FFFFFFC6
FFFFFFF4
FFFFFFFD
FFFFFFD1
00000026
FFFFFFF6
00000027
FFFFFFFC
FFFFFFD7
0000003D
FFFFFFE1
FFFFFFFF
00000002
00000024
FFFFFFF0
00000032
FFFFFFF7
0000000A
00000026
FFFFFFE2
00000019
FFFFFFD5
00000017
FFFFFFEE
FFFFFFCD
00000000
FFFFFFFF
0000001E
00000031
FFFFFFEA
00000022
FFFFFFDF
0000000C
FFFFFFDE
FFFFFFDE
FFFFFFC9
00000020
0000000C
FFFFFFEA
0000000C
0000000A
00000007
FFFFFFF8
00000013
0000002E
00000002
FFFFFFFB
FFFFFFD4
00000017
0000000B
FFFFFFF2
FFFFFFF7
00000020
00000034
0000000D
00000028
00000028
00000010
00000033
FFFFFFD9
FFFFFFC9
FFFFFFFA
00000003
0000002B
FFFFFFFD
FFFFFFDB
FFFFFFFA
00000003
0000004B
FFFFFFCF
FFFFFFE5
0000003A
FFFFFFEC
FFFFFFFB
FFFFFFDC
FFFFFFF3
FFFFFFDC
FFFFFFF3
00000019
FFFFFFE0
00000016
FFFFFFDB
FFFFFFED
0000001A
FFFFFFDB
00000015
0000001A
00000000
00000033
FFFFFFE8
00000017
0000002F
00000022
0000001C
FFFFFFF8
FFFFFFE1
00000013
00000015
FFFFFFCE
00000008
FFFFFFF7
FFFFFFF2
FFFFFFD3
0000001A
FFFFFFE6
00000011
FFFFFFD0
00000008
FFFFFFFC
00000033
0000001F
FFFFFFCE
00000021
0000002E
00000031
FFFFFFEF
0000000E
00000017
FFFFFFFE
FFFFFFD0
FFFFFFC7
0000000E
0000001B
FFFFFFF4
00000015
FFFFFFF7
FFFFFFEC
FFFFFFBE
0000004F
00000009
00000032
00000031
00000029
FFFFFFC4
00000003
00000027
0000001D
FFFFFFE9
00000023
00000016
00000032
FFFFFFFC
0000002F
FFFFFFF3
FFFFFFF8
FFFFFFF8
FFFFFFE8
00000014
00000023
FFFFFFE1
FFFFFFC4
FFFFFFF3
FFFFFFF9
0000001B
00000020
FFFFFFE0
FFFFFFFB
FFFFFFED
00000015
00000003
FFFFFFF7
0000000F
00000036
00000006
00000030
FFFFFFF3
0000002D
00000009
0000003D
FFFFFFDB
00000031
00000021
FFFFFFFB
0000000F
00000000
0000002A
0000003B
00000002
00000018
FFFFFFEB
FFFFFFE1
FFFFFFFC
00000034
00000012
FFFFFFF7
00000023
FFFFFFF4
00000011
00000013
FFFFFFD9
FFFFFFF3
FFFFFFE5
FFFFFFE9
00000009
00000009
00000026
00000012
00000043
0000000C
FFFFFFF4
FFFFFFC9
FFFFFFF8
FFFFFFEB
FFFFFFFF
0000003C
FFFFFFDE
FFFFFFEF
FFFFFFF6
00000013
FFFFFFDC
00000021
FFFFFFE0
00000019
FFFFFFBB
00000040
00000012
00000017
FFFFFFDC
FFFFFFED
00000046
FFFFFFE4
FFFFFFD1
FFFFFFDA
FFFFFFE9
FFFFFFEA
00000010
FFFFFFD2
FFFFFFDB
FFFFFFC4
00000024
00000034
0000001E
FFFFFFF0
FFFFFFEC
FFFFFFC2
00000037
00000023
0000002A
00000020
0000003B
00000010
FFFFFFD7
0000001A
00000009
0000000D
00000017
FFFFFFF3
00000020
FFFFFFE1
FFFFFFEE
0000000A
0000002C
FFFFFFD0
FFFFFFF3
00000014
FFFFFFEF
FFFFFFF6
00000028
00000021
0000001F
00000000
FFFFFFF2
FFFFFFDD
FFFFFFD0
0000001C
FFFFFFD6
FFFFFFD9
FFFFFFC5
FFFFFFF3
00000036
00000042
00000000
FFFFFFE8
FFFFFFDB
0000002C
00000021
FFFFFFD8
FFFFFFD0
00000016
FFFFFFCB
FFFFFFDA
00000013
FFFFFFDE
00000017
00000008
0000000F
0000002B
00000026
0000001D
FFFFFFFC
FFFFFFD9
FFFFFFFC
FFFFFFEF
FFFFFFFC
0000001F
FFFFFFEC
FFFFFFE5
0000000E
FFFFFFE9
FFFFFFF9
FFFFFFE9
FFFFFFCA
00000016
00000023
00000000
FFFFFFF5
FFFFFFCE
FFFFFFDB
0000001A
00000027
FFFFFFED
00000017
00000010
00000013
00000010
FFFFFFDB
FFFFFFFC
00000008
FFFFFFFB
FFFFFFFC
FFFFFFDD
FFFFFFC0
0000000B
00000012
FFFFFFDF
FFFFFFF5
FFFFFFCE
FFFFFFEA
0000002D
0000000A
FFFFFFF5
00000007
FFFFFFC0
0000000C
0000000B
0000000C
FFFFFFBB
00000030
00000021
FFFFFFF2
00000039
0000000D
0000001C
00000003
00000012
FFFFFFDE
FFFFFFD9
00000010
FFFFFFEB
FFFFFFE9
00000021
0000001A
00000024
FFFFFFE7
FFFFFFDE
00000026
FFFFFFC9
FFFFFFE9
FFFFFFF3
00000024
0000003F
FFFFFFF8
00000030
FFFFFFDB
00000031
FFFFFFC9
FFFFFFD9
FFFFFFE3
FFFFFFE2
FFFFFFDF
FFFFFFD4
00000003
FFFFFFEB
0000000B
FFFFFFD7
FFFFFFF0
FFFFFFEB
FFFFFFE7
0000000B
FFFFFFEF
00000036
0000002A
0000002A
FFFFFFB2
FFFFFFE9
FFFFFFD0
FFFFFFED
0000002F
FFFFFFD0
0000005A
FFFFFFE5
0000002A
00000032
FFFFFFD4
FFFFFFF6
0000002B
FFFFFFD1
FFFFFFE7
00000000
00000028
0000000F
FFFFFFDD
00000023
FFFFFFD4
FFFFFFD5
00000001
FFFFFFE7
FFFFFFDA
0000001B
FFFFFFE3
00000009
FFFFFFDC
00000011
FFFFFFF3
00000007
00000027
00000007
00000020
00000000
FFFFFFF6
00000024
FFFFFFD7
00000025
FFFFFFFE
FFFFFFD8
0000000D
00000005
00000020
00000005
0000002C
00000003
0000000D
FFFFFFDE
00000038
FFFFFFDA
FFFFFFDC
FFFFFFCB
0000002E
FFFFFFF7
00000000
0000001D
FFFFFFDE
00000033
00000009
FFFFFFEF
FFFFFFC0
00000012
0000000C
00000025
0000000D
0000000F
00000024
FFFFFFFD
FFFFFFE4
00000020
FFFFFFFD
FFFFFFE6
00000027
00000014
FFFFFFCD
FFFFFFD9
FFFFFFF9
FFFFFFF1
00000020
00000031
FFFFFFC5
FFFFFFDF
FFFFFFFB
FFFFFFC5
00000007
FFFFFFCB
0000002E
FFFFFFFF
FFFFFFFF
FFFFFFF3
FFFFFFDF
00000031
FFFFFFE8
FFFFFFAB
0000000D
00000019
FFFFFFEF
FFFFFFED
00000014
FFFFFFF4
FFFFFFFE
FFFFFFDA
FFFFFFF9
FFFFFFEA
0000000F
00000026
FFFFFFD4
00000045
00000023
FFFFFFE0
0000002E
FFFFFFF9
FFFFFFF7
0000000A
FFFFFFEB
FFFFFFD1
0000001E
FFFFFFE5
FFFFFFB4
00000006
FFFFFFF9
FFFFFFF7
FFFFFFF1
FFFFFFBE
FFFFFFDD
00000031
FFFFFFD3
00000023
00000021
0000002F
00000029
FFFFFFF9
FFFFFFEB
0000001E
FFFFFFF5
FFFFFFE6
0000001B
0000000D
00000041
FFFFFFDB
00000017
0000002D
0000002D
FFFFFFED
00000015
00000015
FFFFFFF1
FFFFFFCD
0000000D
00000032
00000023
0000000D
0000002A
FFFFFFF4
FFFFFFF6
0000000D
00000047
FFFFFFE9
00000003
00000001
00000037
00000007
0000001B
FFFFFFE0
00000007
FFFFFFD2
0000002D
0000003B
0000001D
00000002
FFFFFFFC
FFFFFFD1
00000005
00000022
00000020
00000003
0000003B
0000003D
FFFFFFEB
FFFFFFE1
0000001F
00000007
FFFFFFE1
00000014
0000001F
00000020
FFFFFFF6
0000002A
00000021
FFFFFFF3
00000036
00000001
00000011
0000001C
FFFFFFDA
FFFFFFD3
FFFFFFF4
FFFFFFFC
00000007
00000026
0000000E
0000002A
0000001E
00000004
FFFFFFF6
0000002C
00000004
FFFFFFB6
FFFFFFDB
0000002E
00000007
FFFFFFEA
0000002F
00000036
00000003
0000002C
00000011
FFFFFFF4
FFFFFFE2
00000030
0000003A
FFFFFFE4
00000027
00000001
FFFFFFD3
0000001F
00000035
00000010
00000035
00000003
0000000E
00000013
FFFFFFDB
00000022
0000001F
FFFFFFF7
00000052
00000026
0000001F
00000015
FFFFFFF9
0000002F
0000001A
0000002C
00000033
FFFFFFE2
FFFFFFC0
FFFFFFFF
FFFFFFDE
0000003A
FFFFFFFA
FFFFFFD2
FFFFFFED
FFFFFFF2
0000002D
FFFFFFCF
00000033
FFFFFFB9
0000003B
0000001E
00000003
0000001C
0000004C
00000004
FFFFFFFE
FFFFFFF9
00000001
00000031
0000004E
00000016
FFFFFFEB
00000017
FFFFFFD4
FFFFFFFF
0000000D
FFFFFFFE
FFFFFFF1
00000011
FFFFFFFC
FFFFFFF4
00000004
00000018
00000026
FFFFFFF0
0000002D
FFFFFFDF
FFFFFFDA
FFFFFFCF
00000014
00000008
FFFFFFF7
FFFFFFD0
FFFFFFEF
FFFFFFD9
FFFFFFF7
0000000F
FFFFFFEA
00000035
0000002A
00000015
00000024
FFFFFFD7
FFFFFFE2
00000015
FFFFFFBF
FFFFFFB6
00000012
FFFFFFEA
00000007
FFFFFFED
00000002
FFFFFFE9
FFFFFFEC
0000000E
00000014
FFFFFFEB
00000045
00000004
00000005
FFFFFFEA
0000002B
00000015
00000012
00000010
FFFFFFF4
0000003C
00000011
00000013
FFFFFFF8
0000000D
FFFFFFE7
FFFFFFD2
00000020
FFFFFFE1
00000024
FFFFFFD2
0000003B
00000016
FFFFFFED
FFFFFFF3
FFFFFFCD
00000000
FFFFFFDE
00000016
0000002A
FFFFFFF0
0000002F
00000041
FFFFFFEA
FFFFFFF8
00000007
FFFFFFDF
00000025
00000033
FFFFFFD0
0000001D
FFFFFFDF
FFFFFFD7
FFFFFFFB
FFFFFFD8
0000003D
FFFFFFF8
0000000D
0000002C
FFFFFFFE
00000019
00000002
FFFFFFEF
FFFFFFDB
00000019
0000002C
00000004
00000021
FFFFFFFF
FFFFFFF3
0000001C
FFFFFFD4
FFFFFFDC
0000002E
00000020
FFFFFFE3
00000039
00000014
FFFFFFD6
00000008
FFFFFFDD
00000012
0000000F
FFFFFFDC
00000022
0000002C
00000029
0000002A
0000003F
0000001E
00000047
00000008
00000016
FFFFFFF2
00000008
00000034
00000032
FFFFFFEE
FFFFFFCD
FFFFFFE8
0000002E
FFFFFFFA
0000002D
FFFFFFE5
FFFFFFDB
00000011
FFFFFFCE
FFFFFFE0
00000012
FFFFFFDD
0000001E
FFFFFFC5
FFFFFFE5
00000001
FFFFFFC4
FFFFFFD0
00000007
FFFFFFEA
FFFFFFD2
0000001D
0000000D
00000037
00000032
00000009
FFFFFFED
FFFFFFEC
FFFFFFC0
00000000
0000002F
00000041
00000016
FFFFFFC1
0000000A
FFFFFFFA
0000002A
00000033
00000003
FFFFFFF8
0000002D
0000002F
00000026
FFFFFFF5
00000002
FFFFFFE3
FFFFFFF7
FFFFFFDC
FFFFFFE3
FFFFFFDD
00000010
0000001D
00000025
FFFFFFDC
00000020
FFFFFFD4
00000001
FFFFFFEC
00000023
FFFFFFC9
FFFFFFD5
FFFFFFF9
FFFFFFD0
FFFFFFF2
00000017
0000002C
0000001F
FFFFFFEA
FFFFFFF3
FFFFFFF3
FFFFFFFC
0000003B
0000002C
FFFFFFDE
FFFFFFDC
FFFFFFF8
00000021
FFFFFFC7
0000000E
FFFFFFE2
FFFFFFCF
FFFFFFE6
FFFFFFE7
FFFFFFCC
0000003D
FFFFFFCA
FFFFFFE9
00000007
FFFFFFD5
FFFFFFDD
FFFFFFDD
0000002F
00000014
FFFFFFF8
00000035
FFFFFFCE
00000039
00000009
FFFFFFD2
FFFFFFDA
FFFFFFF0
00000003
0000002C
0000002D
0000000D
00000032
00000007
FFFFFFF2
FFFFFFF8
FFFFFFFA
0000000E
00000050
FFFFFFE0
00000039
FFFFFFF8
0000002A
0000003F
FFFFFFE2
0000000B
00000012
00000037
FFFFFFD8
00000040
FFFFFFFC
0000002A
00000017
00000032
00000000
0000001B
00000036
0000001F
00000015
0000003B
FFFFFFD2
0000000F
FFFFFFFA
FFFFFFF0
0000003C
0000002C
00000007
0000002E
FFFFFFFB
0000000C
FFFFFFDE
00000028
00000003
FFFFFFE8
0000000D
FFFFFFF3
FFFFFFDA
FFFFFFDD
FFFFFFDF
00000017
FFFFFFD4
FFFFFFDC
00000028
FFFFFFEF
00000021
FFFFFFDF
FFFFFFEB
FFFFFFF2
00000003
0000003A
00000033
FFFFFFDB
FFFFFFFB
00000026
0000001F
00000014
00000005
FFFFFFE3
0000003A
FFFFFFFE
00000026
0000000F
00000022
0000001D
00000037
00000027
00000007
00000024
FFFFFFDB
FFFFFFF8
00000017
FFFFFFE8
0000001F
0000000E
00000021
FFFFFFDF
FFFFFFE9
FFFFFFFC
00000007
FFFFFFD7
00000031
FFFFFFD4
00000009
FFFFFFE5
FFFFFFEB
FFFFFFDB
FFFFFFE7
00000033
0000000E
00000012
FFFFFFDF
0000003A
FFFFFFBF
FFFFFFDD
FFFFFFCF
00000023
FFFFFFFD
00000020
00000033
FFFFFFD2
FFFFFFDF
0000002B
FFFFFFCA
FFFFFFD8
FFFFFFED
FFFFFFFD
FFFFFFFC
00000002
00000010
00000013
00000045
00000012
00000013
00000018
00000029
FFFFFFF0
00000020
FFFFFFDC
00000025
00000028
FFFFFFF0
FFFFFFCA
00000027
00000009
00000021
00000012
00000032
00000017
FFFFFFBA
0000000E
FFFFFFCA
FFFFFFFB
0000002D
FFFFFFE5
FFFFFFDF
FFFFFFFA
FFFFFFF7
FFFFFFDF
FFFFFFFD
0000001A
00000031
FFFFFFD5
00000011
0000004B
FFFFFFEB
00000008
00000026
FFFFFFED
00000015
00000010
00000031
00000011
0000000E
FFFFFFE4
FFFFFFE2
00000039
00000025
00000007
FFFFFFFD
0000002C
0000000D
FFFFFFFF
FFFFFFEB
FFFFFFF7
00000002
00000022
00000021
FFFFFFE8
00000027
FFFFFFCF
0000001B
00000036
0000003A
FFFFFFCA
00000002
00000012
00000032
FFFFFFDB
0000000E
00000014
0000001C
00000021
FFFFFFD5
FFFFFFD6
FFFFFFE3
00000033
0000002D
FFFFFFE8
FFFFFFFC
0000001F
0000001C
FFFFFFE4
00000022
00000011
00000041
00000029
0000000A
0000000F
0000001C
FFFFFFF0
FFFFFFE7
FFFFFFDC
0000003B
00000027
0000000A
00000023
FFFFFFFD
FFFFFFC9
FFFFFFD1
FFFFFFD0
00000026
FFFFFFE2
00000029
FFFFFFF1
FFFFFFDC
0000001C
FFFFFFE7
FFFFFFD9
FFFFFFD6
00000022
FFFFFFF1
FFFFFFC8
FFFFFFFD
FFFFFFD7
00000002
FFFFFFDE
FFFFFFE9
00000021
00000001
0000000E
FFFFFFED
00000023
FFFFFFEC
00000026
0000001F
00000030
FFFFFFE7
FFFFFFE9
FFFFFFBE
FFFFFFFC
FFFFFFEF
00000013
00000006
FFFFFFF3
FFFFFFF9
FFFFFFF2
FFFFFFFD
FFFFFFC0
00000027
FFFFFFC8
FFFFFFE9
FFFFFFF0
0000001B
00000031
FFFFFFEB
FFFFFFCD
FFFFFFE4
FFFFFFF2
FFFFFFFD
FFFFFFD2
00000007
00000037
FFFFFFDB
FFFFFFD8
FFFFFFD4
FFFFFFD4
00000031
00000028
FFFFFFD4
FFFFFFE5
FFFFFFE8
0000000A
00000013
0000001B
FFFFFFE5
FFFFFFEB
0000000F
FFFFFFFE
00000004
FFFFFFFE
FFFFFFEF
FFFFFFE2
00000017
00000006
0000002B
FFFFFFDE
00000020
FFFFFFFD
00000015
00000032
FFFFFFE1
0000001E
00000030
00000018
00000024
FFFFFFFF
0000001A
00000020
FFFFFFCD
00000019
FFFFFFE7
FFFFFFF5
00000005
FFFFFFE3
00000023
FFFFFFE8
0000000E
0000002B
00000010
0000000B
0000002C
FFFFFFF8
FFFFFFD5
FFFFFFC7
FFFFFFCF
FFFFFFC9
0000001E
FFFFFFDD
FFFFFFF8
FFFFFFDC
0000002E
00000035
FFFFFFD4
FFFFFFF5
FFFFFFF7
00000006
FFFFFFE4
FFFFFFD8
FFFFFFDC
FFFFFFF1
0000004C
FFFFFFD5
00000004
FFFFFFF3
0000002A
FFFFFFD7
FFFFFFF9
FFFFFFCD
00000004
0000002B
0000000E
FFFFFFFF
FFFFFFCA
FFFFFFD9
FFFFFFE0
FFFFFFED
FFFFFFE0
00000000
00000032
FFFFFFF2
FFFFFFDC
FFFFFFD5
00000012
0000000D
FFFFFFDA
FFFFFFF7
FFFFFFEA
0000001A
00000024
00000016
FFFFFFF4
0000002A
FFFFFFEA
FFFFFFE3
0000002C
FFFFFFC4
FFFFFFF4
00000021
00000014
FFFFFFCF
FFFFFFF0
00000025
00000020
00000001
FFFFFFD6
00000030
FFFFFFF0
00000013
0000003C
FFFFFFDD
0000001F
00000023
00000006
0000001D
FFFFFFDD
0000001F
FFFFFFE6
FFFFFFE7
FFFFFFDC
00000036
00000039
FFFFFFE4
00000014
00000011
FFFFFFEC
FFFFFFE5
FFFFFFE7
FFFFFFD1
FFFFFFD4
0000000E
00000001
00000007
FFFFFFEE
FFFFFFE6
00000020
FFFFFFE1
00000011
FFFFFFF8
0000002F
00000019
FFFFFFF9
00000014
00000032
FFFFFFFD
FFFFFFD1
FFFFFFCD
00000013
00000009
00000018
FFFFFFDD
00000038
00000006
00000005
FFFFFFC7
0000002A
FFFFFFEC
FFFFFFFE
00000028
00000022
FFFFFFFE
0000002A
00000014
FFFFFFDD
00000023
00000013
FFFFFFC5
FFFFFFED
0000002C
FFFFFFFC
FFFFFFEF
FFFFFFED
00000028
00000040
00000018
FFFFFFE6
0000002A
FFFFFFE9
FFFFFFFD
00000002
00000010
FFFFFFF0
0000001A
FFFFFFE1
0000000D
00000030
FFFFFFC6
FFFFFFFD
FFFFFFF5
00000008
0000000C
FFFFFFD5
FFFFFFF6
FFFFFFE3
00000006
FFFFFFFF
0000001A
FFFFFFD9
FFFFFFF5
0000004E
00000021
FFFFFFBC
FFFFFFD9
FFFFFFD1
FFFFFFF8
FFFFFFE2
FFFFFFFF
FFFFFFF9
FFFFFFD1
0000000D
FFFFFFF5
FFFFFFEA
00000008
FFFFFFFB
FFFFFFD4
FFFFFFDC
0000000E
FFFFFFDB
0000003B
FFFFFFF6
0000000F
FFFFFFE1
00000019
FFFFFFDD
00000001
00000010
FFFFFFF5
FFFFFFFA
FFFFFFDA
FFFFFFF3
FFFFFFF4
FFFFFFD7
00000020
00000018
00000033
FFFFFFEE
0000001A
FFFFFFED
FFFFFFF8
0000003D
0000003B
FFFFFFF2
FFFFFFEF
00000010
FFFFFFF1
00000006
00000001
00000039
FFFFFFE8
00000039
FFFFFFEC
00000013
00000016
FFFFFFDC
0000000C
FFFFFFE6
00000022
0000000D
0000003A
FFFFFFE4
FFFFFFEE
FFFFFFE1
FFFFFFE4
00000018
FFFFFFF8
FFFFFFEB
FFFFFFD9
00000013
00000032
FFFFFFE2
00000022
FFFFFFE1
00000028
FFFFFFD5
FFFFFFE4
FFFFFFF9
FFFFFFFC
FFFFFFE1
FFFFFFF1
FFFFFFE9
FFFFFFFF
FFFFFFE6
00000011
FFFFFFB2
00000040
00000011
FFFFFFE0
FFFFFFE8
FFFFFFD3
FFFFFFC8
00000024
FFFFFFE7
00000038
FFFFFFDB
FFFFFFEA
FFFFFFFD
0000001E
FFFFFFEC
FFFFFFFB
00000015
FFFFFFEE
0000000E
FFFFFFDE
00000007
00000010
FFFFFFF9
FFFFFFFF
0000001A
FFFFFFFD
0000002E
0000001F
0000000C
00000014
FFFFFFF5
FFFFFFF7
0000002A
FFFFFFD1
FFFFFFD6
FFFFFFFD
FFFFFFE0
FFFFFFED
0000000E
00000006
00000031
FFFFFFE5
00000030
FFFFFFC9
FFFFFFCE
FFFFFFC5
0000001D
FFFFFFFE
00000014
FFFFFFEE
00000015
FFFFFFD6
FFFFFFED
FFFFFFE9
FFFFFFFE
FFFFFFFC
FFFFFFF4
FFFFFFE8
FFFFFFF7
00000039
00000023
00000031
FFFFFFFA
00000002
00000004
FFFFFFE2
0000002C
0000002C
FFFFFFFA
00000018
FFFFFFE9
FFFFFFEA
FFFFFFEE
00000026
00000005
00000013
0000001E
FFFFFFF0
FFFFFFE6
FFFFFFEA
FFFFFFDF
FFFFFFFC
FFFFFFEE
00000006
00000026
FFFFFFE5
00000023
FFFFFFEE
00000028
00000023
FFFFFFFC
0000000F
00000001
0000002D
FFFFFFF5
00000032
00000005
FFFFFFD9
FFFFFFE8
FFFFFFF5
00000039
00000025
00000007
FFFFFFEE
FFFFFFF7
FFFFFFDC
00000030
00000024
FFFFFFC6
00000017
FFFFFFD3
FFFFFFF8
00000004
FFFFFFFC
FFFFFFE8
00000007
FFFFFFE6
FFFFFFEC
FFFFFFDB
0000002F
00000004
FFFFFFEB
FFFFFFD8
00000009
00000000
00000018
FFFFFFD2
00000026
00000021
00000009
00000001
0000001B
FFFFFFD9
00000002
00000006
FFFFFFE6
00000025
00000007
FFFFFFDF
FFFFFFE3
00000009
FFFFFFCD
FFFFFFF7
00000009
00000001
FFFFFFFA
FFFFFFE5
00000022
00000039
0000002C
FFFFFFD0
0000003B
FFFFFFE8
0000002E
00000010
00000029
FFFFFFF9
00000027
FFFFFFE2
00000040
00000029
00000004
FFFFFFE9
FFFFFFD6
00000009
00000014
00000042
FFFFFFFD
FFFFFFD4
FFFFFFFF
00000002
00000017
00000005
00000010
00000026
FFFFFFD6
FFFFFFFA
FFFFFFE2
0000002B
FFFFFFE2
FFFFFFFA
FFFFFFF4
0000002E
FFFFFFD3
FFFFFFBE
00000029
0000001C
FFFFFFF6
0000000B
0000000F
FFFFFFD8
0000002B
FFFFFFFB
00000000
00000011
FFFFFFDF
00000029
FFFFFFF7
FFFFFFB4
FFFFFFD9
FFFFFFFD
00000000
FFFFFFED
FFFFFFEF
FFFFFFD2
FFFFFFDE
FFFFFFC7
00000047
00000005
0000001F
0000003C
00000011
00000035
00000005
0000001A
00000005
0000000A
0000001E
FFFFFFED
00000013
0000001D
FFFFFFDE
FFFFFFCC
FFFFFFCE
FFFFFFEA
0000001A
00000030
00000012
FFFFFFF9
00000041
00000025
FFFFFFFD
00000029
00000001
0000004F
0000002C
00000007
00000021
00000010
FFFFFFC3
00000017
FFFFFFF5
00000015
FFFFFFD1
00000009
00000018
FFFFFFD8
FFFFFFFB
00000039
FFFFFFEC
0000003D
FFFFFFFB
FFFFFFF7
0000003A
00000018
00000022
FFFFFFC8
0000001B
0000002A
FFFFFFF1
FFFFFFE3
00000009
0000002F
FFFFFFC9
FFFFFFD8
FFFFFFE5
FFFFFFD8
FFFFFFD5
00000027
0000000F
00000034
FFFFFFF3
FFFFFFF7
FFFFFFF4
0000000C
FFFFFFD7
00000025
0000001E
0000003B
FFFFFFCD
FFFFFFF8
00000012
00000023
00000033
0000000F
FFFFFFDD
0000002E
00000021
FFFFFFC8
FFFFFFE4
00000010
00000004
00000006
00000011
FFFFFFCB
FFFFFFC1
FFFFFFEB
00000030
FFFFFFF1
00000027
00000006
0000002D
00000024
0000004B
00000022
00000035
00000009
00000021
0000002C
0000000C
00000011
0000000E
FFFFFFD8
0000001C
0000000E
FFFFFFDC
FFFFFFF7
FFFFFFC8
00000003
FFFFFFEA
00000025
FFFFFFDB
FFFFFFC8
FFFFFFD4
FFFFFFEC
00000015
00000016
FFFFFFFD
0000001A
00000002
FFFFFFE5
FFFFFFE2
FFFFFFFD
FFFFFFEB
FFFFFFDA
FFFFFFE5
FFFFFFE1
FFFFFFDF
0000003D
FFFFFFED
00000001
FFFFFFFA
FFFFFFFA
0000001A
0000002D
0000001F
00000020
0000002D
FFFFFFCE
0000001F
FFFFFFD3
FFFFFFCB
FFFFFFF9
FFFFFFDB
0000000D
0000001B
00000007
00000025
FFFFFFFA
00000044
FFFFFFE8
00000014
00000006
00000039
00000001
00000022
00000003
0000004C
FFFFFFFD
FFFFFFF2
FFFFFFD6
0000000A
FFFFFFEA
0000000E
FFFFFFDE
0000002C
00000021
00000023
FFFFFFF1
00000007
FFFFFFCD
FFFFFFD2
FFFFFFFB
0000001D
FFFFFFDF
FFFFFFE9
00000034
FFFFFFF6
0000001F
FFFFFFC6
0000002B
FFFFFFEF
0000002E
FFFFFFC7
FFFFFFE6
FFFFFFDE
00000016
FFFFFFE2
FFFFFFE2
FFFFFFD3
00000000
FFFFFFDB
FFFFFFC8
FFFFFFE0
00000002
FFFFFFF7
FFFFFFD7
00000004
FFFFFFF8
00000035
FFFFFFEF
FFFFFFD4
0000000F
0000000A
00000005
FFFFFFFE
0000003A
FFFFFFF5
0000001C
0000001A
FFFFFFF3
00000018
FFFFFFED
FFFFFFCF
FFFFFFD6
FFFFFFDC
FFFFFFDC
00000014
FFFFFFBE
0000001C
FFFFFFF3
FFFFFFF1
FFFFFFD7
0000002E
0000000C
FFFFFFF7
FFFFFFD0
FFFFFFE0
00000014
FFFFFFCA
00000014
00000013
00000008
0000002F
00000022
FFFFFFEC
00000018
0000001C
00000009
FFFFFFDA
FFFFFFFF
00000009
00000005
0000000C
00000032
0000000C
00000011
00000038
FFFFFFCE
FFFFFFCF
0000004B
00000004
FFFFFFE9
FFFFFFDF
00000018
00000027
00000021
FFFFFFE5
FFFFFFF8
FFFFFFCD
FFFFFFFC
0000003A
FFFFFFE1
0000002F
00000035
FFFFFFFC
00000036
FFFFFFEB
00000004
FFFFFFE3
FFFFFFEE
0000000A
0000002D
0000000A
0000000C
FFFFFFEA
FFFFFFD8
FFFFFFEE
FFFFFFF4
FFFFFFCF
00000027
00000023
00000011
0000001D
FFFFFFD4
FFFFFFFA
00000038
FFFFFFDD
00000018
0000002C
00000021
0000001F
00000003
FFFFFFCC
0000002E
0000000E
FFFFFFFB
FFFFFFF1
FFFFFFCE
FFFFFFE4
FFFFFFF2
00000021
FFFFFFB5
FFFFFFE6
FFFFFFEF
0000001F
FFFFFFC4
FFFFFFFA
FFFFFFEC
FFFFFFEB
FFFFFFDC
00000016
FFFFFFDF
00000020
FFFFFFFA
0000001F
FFFFFFFC
0000002B
00000011
00000013
00000023
FFFFFFED
00000031
00000002
0000002A
FFFFFFE7
0000000A
00000038
0000001F
FFFFFFCD
00000028
FFFFFFB9
FFFFFFF1
FFFFFFE5
00000000
FFFFFFC9
FFFFFFD8
00000013
FFFFFFDC
00000005
00000007
FFFFFFE5
00000020
0000000A
FFFFFFDE
FFFFFFF6
00000012
0000003A
00000016
FFFFFFFC
00000002
0000000A
FFFFFFFA
0000001B
FFFFFFFA
FFFFFFBC
00000042
FFFFFFE6
00000000
0000001C
00000011
0000003B
FFFFFFEB
FFFFFFFE
FFFFFFFD
FFFFFFEA
00000005
FFFFFFE5
0000000A
FFFFFFDF
FFFFFFF5
0000000E
FFFFFFEE
FFFFFFF0
FFFFFFE4
00000037
0000001E
00000026
00000011
00000010
00000024
00000037
FFFFFFF2
FFFFFFC9
FFFFFFD5
0000000A
FFFFFFD2
00000015
00000002
0000003C
FFFFFFFC
FFFFFFED
0000004B
FFFFFFE0
00000009
0000004B
FFFFFFDB
FFFFFFF5
FFFFFFE6
FFFFFFFF
00000033
0000002C
00000004
0000001F
FFFFFFFF
FFFFFFE5
0000002A
0000001A
00000006
00000029
0000001F
0000002D
0000003F
00000023
00000001
00000010
FFFFFFDD
FFFFFFE2
FFFFFFED
00000007
00000009
FFFFFFF5
00000040
FFFFFFF7
00000005
00000004
00000010
0000000E
FFFFFFFE
00000004
FFFFFFDE
00000010
FFFFFFEC
00000015
FFFFFFDC
FFFFFFE7
0000000B
FFFFFFE8
00000014
00000018
00000024
FFFFFFF9
00000032
FFFFFFF2
FFFFFFDC
00000022
0000002E
FFFFFFE6
FFFFFFE8
FFFFFFE1
00000034
00000040
0000000D
00000019
00000030
FFFFFFFD
00000022
00000023
0000000B
00000006
FFFFFFF3
FFFFFFF3
FFFFFFE6
FFFFFFE0
00000036
00000001
00000006
00000008
FFFFFFFD
00000019
0000002E
00000015
FFFFFFE3
FFFFFFE1
FFFFFFF5
00000009
FFFFFFC3
00000016
FFFFFFFB
00000008
00000003
0000000C
0000002A
FFFFFFFD
FFFFFFE8
FFFFFFDC
0000000D
0000000E
0000000E
FFFFFFF6
FFFFFFCC
00000034
FFFFFFDC
FFFFFFE6
0000003B
FFFFFFED
0000002B
00000026
00000011
00000014
00000032
00000022
FFFFFFFF
FFFFFFEE
FFFFFFC3
FFFFFFFE
FFFFFFF6
FFFFFFDC
FFFFFFF1
FFFFFFFC
0000000A
FFFFFFEA
FFFFFFE1
00000014
FFFFFFED
00000018
FFFFFFCA
FFFFFFFE
FFFFFFDB
FFFFFFDB
FFFFFFF8
00000003
00000030
0000002F
FFFFFFFA
0000002F
FFFFFFEF
FFFFFFE2
FFFFFFDF
00000004
FFFFFFE5
0000001A
00000023
FFFFFFF3
0000002B
FFFFFFFD
00000002
FFFFFFFA
00000002
00000011
FFFFFFF0
FFFFFFFC
00000000
FFFFFFDF
00000028
FFFFFFD8
FFFFFFE7
FFFFFFFE
FFFFFFF5
00000031
FFFFFFDA
00000024
FFFFFFE7
0000001F
FFFFFFFD
FFFFFFF8
FFFFFFF3
FFFFFFE7
FFFFFFE5
FFFFFFDA
00000006
00000042
FFFFFFFA
FFFFFFFC
FFFFFFE7
FFFFFFE9
FFFFFFF8
FFFFFFDD
FFFFFFE3
FFFFFFF2
FFFFFFE8
FFFFFFE4
FFFFFFEE
FFFFFFF7
FFFFFFE9
FFFFFFD8
0000001A
FFFFFFE7
00000033
FFFFFFEF
00000004
FFFFFFEA
00000029
00000035
00000041
0000002E
0000000F
00000018
0000000C
FFFFFFCA
00000002
0000002E
0000001E
00000030
FFFFFFF4
FFFFFFF8
0000001F
00000030
00000033
FFFFFFFA
00000001
FFFFFFE2
0000001C
00000007
FFFFFFEC
0000002A
FFFFFFF5
00000024
FFFFFFDD
00000000
FFFFFFD8
FFFFFFFB
00000002
FFFFFFF9
0000001D
FFFFFFE6
FFFFFFF9
00000007
FFFFFFFE
00000021
FFFFFFD9
00000004
0000001D
FFFFFFE5
FFFFFFF4
00000023
00000029
00000002
0000003F
0000002C
FFFFFFDD
FFFFFFF2
00000051
FFFFFFEE
FFFFFFDF
FFFFFFF3
00000008
00000022
FFFFFFFB
FFFFFFD0
0000003E
FFFFFFD2
FFFFFFEC
FFFFFFD4
00000012
FFFFFFED
00000014
FFFFFFFB
00000049
FFFFFFCC
0000000B
00000004
FFFFFFF8
00000018
FFFFFFE2
0000002C
0000002E
00000013
FFFFFFF7
FFFFFFE6
FFFFFFF0
FFFFFFFB
0000001F
FFFFFFBE
0000003C
0000000A
0000000D
FFFFFFF7
00000026
0000000C
FFFFFFE3
00000007
FFFFFFD1
FFFFFFD3
00000015
FFFFFFE0
FFFFFFCF
FFFFFFFC
FFFFFFCF
FFFFFFEB
FFFFFFCB
FFFFFFD7
00000026
0000000E
00000007
0000000E
0000003A
0000001D
00000006
FFFFFFF4
FFFFFFFA
FFFFFFDA
0000000A
00000007
FFFFFFF6
FFFFFFE8
FFFFFFDF
00000017
FFFFFFD5
FFFFFFDC
00000010
FFFFFFEF
00000031
0000000D
FFFFFFF1
FFFFFFDD
00000015
00000004
FFFFFFD8
FFFFFFFB
00000021
0000003F
FFFFFFC0
00000021
00000008
00000036
00000021
00000000
FFFFFFF9
FFFFFFF5
0000000A
00000017
0000002A
FFFFFFE8
FFFFFFF9
00000029
00000032
00000002
FFFFFFCF
00000012
00000027
00000006
00000034
00000028
FFFFFFE5
FFFFFFEE
00000037
FFFFFFE9
FFFFFFE0
FFFFFFC8
FFFFFFB4
FFFFFFDA
0000001C
00000031
00000007
FFFFFFD1
FFFFFFE4
FFFFFFD2
FFFFFFD7
00000011
FFFFFFE4
0000003E
00000031
00000027
FFFFFFE2
0000000A
0000001E
FFFFFFE6
0000000F
FFFFFFE9
FFFFFFD9
FFFFFFEB
FFFFFFCD
0000003F
0000000C
FFFFFFFF
FFFFFFE2
FFFFFFFC
0000000B
00000002
FFFFFFE0
FFFFFFDB
FFFFFFEA
FFFFFFF3
00000039
FFFFFFF2
FFFFFFF9
FFFFFFD0
00000029
FFFFFFF9
00000015
0000000A
0000001F
FFFFFFDE
00000017
FFFFFFFD
00000007
00000032
0000002F
00000045
FFFFFFE7
FFFFFFF2
FFFFFFEE
0000001E
FFFFFFB6
00000009
FFFFFFFA
00000017
FFFFFFD7
00000031
FFFFFFCF
0000001F
FFFFFFD8
FFFFFFFD
00000006
00000027
0000001A
FFFFFFDB
0000001E
FFFFFFF2
00000004
FFFFFFFE
00000038
0000000B
00000022
FFFFFFD6
00000004
FFFFFFFA
FFFFFFDD
00000010
0000003B
00000001
FFFFFFF3
FFFFFFD5
FFFFFFF5
FFFFFFDE
00000010
00000024
FFFFFFD6
00000017
FFFFFFEE
00000022
00000010
FFFFFFCA
FFFFFFD7
00000010
0000000A
FFFFFFC1
0000001B
00000000
00000025
00000028
FFFFFFD8
00000018
0000001A
FFFFFFF4
00000000
0000002F
00000013
00000017
FFFFFFD0
FFFFFFFE
FFFFFFF7
FFFFFFF5
00000039
00000009
FFFFFFF3
00000022
00000029
FFFFFFEE
00000020
FFFFFFF3
FFFFFFF3
00000011
0000001F
FFFFFFDC
00000033
FFFFFFF2
0000001D
0000000F
0000002F
FFFFFFFD
0000002C
0000000F
00000029
FFFFFFDB
00000031
00000017
0000001C
00000021
00000021
00000016
FFFFFFE6
FFFFFFD3
FFFFFFCC
00000036
FFFFFFDE
00000032
00000039
FFFFFFE0
00000018
FFFFFFCE
FFFFFFCA
00000056
00000014
00000023
00000026
FFFFFFEB
FFFFFFD4
FFFFFFDD
00000030
FFFFFFCA
FFFFFFC8
00000022
00000031
0000000C
00000034
FFFFFFE2
FFFFFFD4
0000003A
FFFFFFF3
FFFFFFF8
0000001A
FFFFFFF6
00000028
0000001C
00000006
FFFFFFCF
0000001E
00000025
0000000A
FFFFFFDA
FFFFFFFB
00000000
00000015
FFFFFFEB
FFFFFFDD
FFFFFFF3
0000001F
0000003F
00000026
00000009
FFFFFFE5
FFFFFFD0
00000025
0000000A
00000019
00000017
FFFFFFC5
0000001F
00000027
FFFFFFDD
FFFFFFEA
FFFFFFE8
00000005
00000000
FFFFFFF6
00000022
FFFFFFC4
FFFFFFED
0000001C
00000039
FFFFFFF9
00000020
FFFFFFED
FFFFFFF7
00000008
00000014
FFFFFFF8
FFFFFFDF
00000003
00000016
00000011
00000005
0000000E
FFFFFFDB
FFFFFFF2
FFFFFFE4
00000004
00000007
FFFFFFE9
00000002
FFFFFFED
FFFFFFE7
FFFFFFE3
FFFFFFF5
FFFFFFF9
0000002E
FFFFFFD1
00000007
FFFFFFCB
00000012
FFFFFFC2
00000044
0000004E
FFFFFFE6
0000001C
00000016
FFFFFFF2
FFFFFFC0
FFFFFFDF
00000016
FFFFFFF9
FFFFFFE4
00000014
0000000C
00000005
FFFFFFE8
FFFFFFF5
FFFFFFE9
FFFFFFF6
FFFFFFD1
00000028
00000010
00000021
FFFFFFFF
00000031
FFFFFFE5
FFFFFFE7
00000008
00000028
FFFFFFD4
0000001E
FFFFFFDA
0000001E
00000010
00000023
FFFFFFF4
FFFFFFFE
00000029
FFFFFFF1
0000000B
FFFFFFF5
FFFFFFE0
0000000E
00000036
FFFFFFF7
FFFFFFE3
00000012
FFFFFFD7
0000003F
FFFFFFCC
0000001C
FFFFFFE8
00000031
00000005
FFFFFFDB
00000011
FFFFFFF3
FFFFFFDA
00000035
00000036
0000003D
00000000
00000004
FFFFFFD5
00000032
00000029
FFFFFFE7
FFFFFFC1
FFFFFFDC
0000002F
FFFFFFF0
0000002C
FFFFFFE2
FFFFFFF6
00000044
FFFFFFD8
FFFFFFF6
FFFFFFCC
0000000E
0000003C
FFFFFFFE
FFFFFFED
FFFFFFE4
FFFFFFE8
00000003
00000028
00000027
00000021
FFFFFFF3
0000001D
0000003D
FFFFFFF4
00000037
FFFFFFF7
FFFFFFFE
FFFFFFE4
0000001E
0000003F
FFFFFFED
FFFFFFC1
FFFFFFED
FFFFFFCD
FFFFFFDE
FFFFFFCB
FFFFFFF6
0000001B
FFFFFFE9
00000015
FFFFFFE9
0000001F
00000009
00000000
00000024
FFFFFFD4
FFFFFFE9
0000002F
FFFFFFEF
00000026
00000010
FFFFFFFE
00000025
FFFFFFF5
0000003D
0000001D
FFFFFFF0
FFFFFFDA
00000032
00000027
00000006
00000003
0000000B
0000000B
00000007
FFFFFFDF
00000026
0000000C
00000003
0000002F
FFFFFFD1
00000026
0000002E
00000007
FFFFFFEF
0000004C
FFFFFFE1
FFFFFFFB
0000001D
FFFFFFCD
00000023
00000018
FFFFFFD1
00000008
FFFFFFF0
FFFFFFFB
00000032
00000040
FFFFFFC5
00000013
FFFFFFD5
FFFFFFEA
0000001C
0000000D
00000007
00000008
0000001D
0000002F
FFFFFFDA
00000020
00000018
00000019
FFFFFFE7
00000038
FFFFFFEC
FFFFFFCD
0000002C
0000002C
00000021
0000000A
00000025
00000021
0000002D
00000029
00000017
0000000F
FFFFFFFD
FFFFFFEF
0000000E
FFFFFFD8
00000014
FFFFFFCF
00000014
FFFFFFFF
0000001F
FFFFFFFC
FFFFFFF5
00000031
FFFFFFCD
FFFFFFF9
FFFFFFC8
00000026
00000013
00000013
FFFFFFD4
00000036
0000002D
00000057
FFFFFFD8
FFFFFFDC
00000013
00000022
00000005
00000034
FFFFFFBA
FFFFFFE4
FFFFFFF2
FFFFFFF8
0000001E
FFFFFFF1
FFFFFFC9
FFFFFFCF
00000003
FFFFFFFE
FFFFFFF6
00000000
FFFFFFED
00000016
FFFFFFFA
0000000D
00000022
00000015
FFFFFFEB
FFFFFFD4
0000002E
0000002E
FFFFFFFC
FFFFFFE5
00000017
00000000
FFFFFFFD
00000004
FFFFFFE1
00000042
00000020
FFFFFFF1
FFFFFFD5
00000023
FFFFFFC8
0000001B
FFFFFFD4
FFFFFFA9
00000030
00000026
FFFFFFF6
FFFFFFF1
0000003D
00000038
FFFFFFFA
FFFFFFD7
0000001C
FFFFFFD6
FFFFFFDB
00000018
FFFFFFC0
FFFFFFF6
00000008
0000002B
0000002A
00000004
00000036
00000024
00000000
00000001
0000002B
00000029
FFFFFFEC
FFFFFFF1
FFFFFFDE
0000000F
FFFFFFC7
0000001F
00000037
00000003
FFFFFFD8
00000024
FFFFFFE3
00000035
00000013
FFFFFFFA
FFFFFFF0
FFFFFFE7
FFFFFFFE
FFFFFFE6
FFFFFFDD
0000002C
00000019
FFFFFFCD
00000008
0000001A
0000001B
FFFFFFE9
FFFFFFEC
00000024
0000000E
FFFFFFE3
FFFFFFF7
00000008
00000005
0000003A
FFFFFFD9
FFFFFFDF
FFFFFFFE
00000047
FFFFFFC8
FFFFFFD8
00000042
00000001
FFFFFFDD
0000002B
FFFFFFCD
FFFFFFD9
FFFFFFC6
FFFFFFE2
FFFFFFD4
0000002E
FFFFFFFC
00000005
0000002C
00000026
00000012
FFFFFFD8
00000011
FFFFFFDE
0000000D
0000000F
00000018
FFFFFFC7
FFFFFFF0
FFFFFFCD
0000000C
FFFFFFD3
00000015
00000015
0000001A
0000002D
0000001A
FFFFFFFE
FFFFFFF6
FFFFFFF2
FFFFFFD7
00000020
FFFFFFD4
00000032
FFFFFFEE
FFFFFFF7
00000028
FFFFFFF6
00000027
FFFFFFDB
FFFFFFF7
00000013
FFFFFFCC
0000002A
FFFFFFC6
00000029
00000001
FFFFFFFB
00000000
0000000C
FFFFFFFE
FFFFFFEC
FFFFFFE7
FFFFFFCA
FFFFFFD1
0000000C
0000002B
00000026
FFFFFFD5
00000024
00000010
FFFFFFD3
0000002B
FFFFFFD2
FFFFFFFB
FFFFFFE1
FFFFFFEF
00000014
FFFFFFDD
FFFFFFCE
FFFFFFE2
00000000
FFFFFFD4
FFFFFFDA
FFFFFFD8
00000030
FFFFFFFA
00000018
FFFFFFE8
00000036
00000026
FFFFFFB5
FFFFFFF8
FFFFFFCE
FFFFFFF5
00000001
FFFFFFBE
FFFFFFC3
0000001E
0000001A
0000001F
00000018
00000019
0000000E
00000010
FFFFFFF6
FFFFFFF3
FFFFFFDB
FFFFFFE6
FFFFFFE5
0000000B
FFFFFFE2
FFFFFFF1
FFFFFFF6
0000002A
FFFFFFD5
0000000E
00000005
0000001F
FFFFFFE6
0000001B
00000002
FFFFFFD8
FFFFFFC4
00000017
FFFFFFE5
00000022
00000022
FFFFFFEC
FFFFFFDD
0000000C
FFFFFFC3
00000015
FFFFFFE6
FFFFFFE9
FFFFFFFB
FFFFFFFD
FFFFFFDD
FFFFFFC4
FFFFFFE3
00000030
FFFFFFEB
FFFFFFF7
FFFFFFF8
00000016
0000001B
00000027
FFFFFFD4
FFFFFFD7
FFFFFFF6
FFFFFFC4
FFFFFFDB
FFFFFFE0
00000022
FFFFFFEE
00000029
FFFFFFCC
FFFFFFFD
FFFFFFEE
FFFFFFFE
FFFFFFDF
00000026
00000025
00000013
0000002E
00000016
FFFFFFE7
FFFFFFE9
00000025
00000029
FFFFFFC9
FFFFFFDC
0000002C
00000003
FFFFFFE5
FFFFFFF8
FFFFFFD7
0000000A
FFFFFFF9
00000029
FFFFFFF4
00000028
0000001D
00000029
00000009
00000013
FFFFFFDF
FFFFFFDF
FFFFFFF3
00000008
00000017
FFFFFFDE
0000001B
FFFFFFCE
FFFFFFEB
FFFFFFF8
00000023
00000001
00000001
FFFFFFE5
0000000B
FFFFFFE5
00000002
FFFFFFDE
0000002F
FFFFFFED
00000026
FFFFFFF8
FFFFFFFF
00000008
00000020
FFFFFFDD
FFFFFFEC
FFFFFFE8
FFFFFFEF
0000001F
FFFFFFEE
00000000
FFFFFFD9
00000022
FFFFFFF3
FFFFFFB0
00000014
FFFFFFC9
00000000
FFFFFFE5
FFFFFFFA
00000012
0000002B
0000001C
FFFFFFD4
00000016
FFFFFFFA
00000025
FFFFFFDC
FFFFFFD0
00000029
00000016
FFFFFFE4
00000008
FFFFFFFC
FFFFFFDC
FFFFFFF2
FFFFFFF9
00000029
00000018
00000017
00000030
0000001B
00000000
FFFFFFD0
00000008
FFFFFFC9
FFFFFFF2
FFFFFFFD
FFFFFFA7
FFFFFFD7
00000008
00000018
00000005
FFFFFFFF
00000021
FFFFFFF2
00000006
FFFFFFFD
FFFFFFF6
00000004
FFFFFFFD
FFFFFFEE
0000001B
FFFFFFDD
FFFFFFCB
FFFFFFDB
0000002A
FFFFFFCE
00000013
00000024
FFFFFFF9
00000010
FFFFFFD8
00000004
FFFFFFE4
FFFFFFE1
FFFFFFF4
00000016
FFFFFFF0
0000000C
FFFFFFE2
00000022
00000031
FFFFFFD7
FFFFFFDC
0000000F
FFFFFFF3
00000049
00000023
FFFFFFD4
00000001
00000024
FFFFFFEA
FFFFFFF9
FFFFFFC9
FFFFFFE5
0000002D
00000007
00000005
00000013
00000013
00000009
0000000C
FFFFFFF9
0000001F
0000002F
FFFFFFE9
FFFFFFF7
00000000
0000003F
FFFFFFD2
00000025
FFFFFFF5
FFFFFFFC
00000031
FFFFFFED
00000030
FFFFFFFD
00000020
00000010
00000021
00000029
FFFFFFD8
00000024
FFFFFFFB
FFFFFFE0
FFFFFFDB
00000028
FFFFFFEC
FFFFFFDA
FFFFFFC6
00000009
FFFFFFF2
FFFFFFEC
FFFFFFE3
00000034
0000001C
FFFFFFD4
FFFFFFF4
FFFFFFD1
FFFFFFC9
FFFFFFC9
FFFFFFB5
00000020
00000028
00000004
00000020
FFFFFFFF
0000001D
FFFFFFF7
0000001D
FFFFFFCE
FFFFFFE9
FFFFFFCB
FFFFFFE0
00000034
FFFFFFD5
FFFFFFF1
FFFFFFD3
0000002A
FFFFFFFC
FFFFFFC3
FFFFFFD9
00000024
FFFFFFDD
FFFFFFD8
FFFFFFDD
00000015
00000022
00000016
FFFFFFF8
0000000E
FFFFFFD8
00000005
00000005
FFFFFFC6
00000005
00000001
00000007
00000025
00000024
00000013
FFFFFFAB
FFFFFFE3
FFFFFFFD
FFFFFFD9
00000019
00000020
FFFFFFDA
FFFFFFED
FFFFFFC6
FFFFFFF7
0000001C
0000001B
0000001D
FFFFFFFA
FFFFFFC9
FFFFFFD4
00000020
FFFFFFD7
FFFFFFD7
00000008
00000001
0000000F
0000001A
FFFFFFDA
00000016
FFFFFFD9
FFFFFFC1
FFFFFFDF
FFFFFFFB
FFFFFFBB
FFFFFFE5
0000001F
00000001
0000000D
FFFFFFE1
00000000
00000039
FFFFFFFC
0000001A
FFFFFFD1
0000000F
00000001
FFFFFFD0
FFFFFFFE
00000006
FFFFFFF3
0000001B
00000011
FFFFFFF1
FFFFFFD8
FFFFFFF4
00000000
00000005
FFFFFFDB
00000032
00000002
00000031
00000006
FFFFFFDD
FFFFFFFC
FFFFFFE0
00000009
FFFFFFF5
00000010
FFFFFFEA
00000045
FFFFFFF8
00000015
00000027
FFFFFFCD
FFFFFFD8
FFFFFFCB
FFFFFFF9
FFFFFFB4
FFFFFFE9
FFFFFFFC
FFFFFFE8
00000000
FFFFFFFA
FFFFFFE4
00000012
FFFFFFF1
FFFFFFD5
FFFFFFED
00000017
00000025
FFFFFFE0
00000011
00000024
FFFFFFE6
00000036
FFFFFFEA
00000042
FFFFFFC4
00000007
FFFFFFD8
00000022
FFFFFFF5
FFFFFFFD
FFFFFFD7
FFFFFFD1
0000000E
0000001F
FFFFFFDF
00000009
FFFFFFEF
00000009
0000003F
FFFFFFFB
00000020
0000001A
0000001E
FFFFFFE0
FFFFFFC6
0000000A
FFFFFFDD
FFFFFFDB
00000023
FFFFFFCE
FFFFFFD0
0000002B
FFFFFFED
FFFFFFE9
FFFFFFFD
00000039
0000002C
FFFFFFE2
FFFFFFFC
00000056
00000028
0000000E
FFFFFFFA
00000000
00000008
FFFFFFD4
00000017
FFFFFFBF
FFFFFFFC
00000013
00000025
00000029
00000039
0000001A
0000003E
00000019
00000042
FFFFFFF2
0000001B
00000013
FFFFFFEB
00000025
00000016
FFFFFFCE
0000001A
FFFFFFFC
0000002A
0000000F
0000001B
00000027
FFFFFFEA
FFFFFFDA
00000011
FFFFFFCA
00000053
00000010
00000038
FFFFFFD8
FFFFFFF9
FFFFFFFA
FFFFFFF2
FFFFFFCF
FFFFFFED
00000006
FFFFFFF3
00000029
FFFFFFD1
FFFFFFF4
0000002A
0000000C
00000001
00000007
00000012
FFFFFFFF
00000013
00000004
FFFFFFD9
FFFFFFD6
FFFFFFED
00000031
FFFFFFFC
FFFFFFED
00000013
0000000F
00000019
FFFFFFF1
FFFFFFE9
FFFFFFF8
FFFFFFF3
FFFFFFC0
00000007
00000030
00000022
00000029
00000019
0000000D
FFFFFFFB
00000015
00000009
00000027
FFFFFFE5
00000009
00000029
FFFFFFF2
FFFFFFDB
FFFFFFDA
FFFFFFD6
0000001A
FFFFFFDD
00000018
00000000
FFFFFFF2
FFFFFFFA
FFFFFFED
0000004E
FFFFFFFB
00000001
FFFFFFF6
FFFFFFE1
00000001
0000001A
FFFFFFD5
0000001E
FFFFFFD7
0000000F
FFFFFFDF
0000002B
00000010
00000037
00000012
FFFFFFE7
FFFFFFE2
0000001F
00000026
FFFFFFF7
FFFFFFFA
FFFFFFF1
0000001A
FFFFFFEF
0000001F
FFFFFFF1
00000013
00000045
0000002A
00000013
00000008
FFFFFFC1
0000000E
00000024
00000017
00000002
FFFFFFFB
FFFFFFCC
FFFFFFE2
00000023
FFFFFFFA
00000002
FFFFFFFA
00000041
0000002F
00000024
FFFFFFEB
FFFFFFD9
00000006
0000003B
0000002F
FFFFFFDB
FFFFFFDC
0000001E
0000002F
FFFFFFF0
0000002F
FFFFFFE1
0000003D
FFFFFFBE
FFFFFFD2
FFFFFFE7
00000033
FFFFFFC1
FFFFFFDF
FFFFFFEB
FFFFFFE9
00000019
FFFFFFF6
00000016
FFFFFFEE
00000008
00000013
FFFFFFD4
FFFFFFF5
FFFFFFD4
FFFFFFDC
0000002D
FFFFFFDD
0000001B
0000000B
FFFFFFF6
0000000B
00000005
FFFFFFEB
FFFFFFFF
FFFFFFDD
FFFFFFE2
FFFFFFCA
00000029
0000000E
00000020
0000000D
0000001A
00000027
FFFFFFFF
00000013
FFFFFFF5
0000000B
FFFFFFF4
00000001
FFFFFFE4
00000000
FFFFFFDF
00000012
FFFFFFFE
FFFFFFE7
FFFFFFDB
00000034
00000030
0000000E
FFFFFFD6
FFFFFFFD
0000000E
FFFFFFF6
FFFFFFE9
0000003E
00000002
FFFFFFE4
00000012
FFFFFFF8
FFFFFFCC
FFFFFFEB
0000003E
FFFFFFF2
0000002E
FFFFFFEC
FFFFFFF9
00000021
FFFFFFCB
00000029
00000029
00000056
00000014
00000000
FFFFFFF0
00000019
0000003F
00000027
00000029
00000019
0000000A
00000008
FFFFFFE8
FFFFFFE7
FFFFFFE2
0000002E
FFFFFFE0
FFFFFFC7
FFFFFFE1
FFFFFFE8
FFFFFFDA
FFFFFFEE
FFFFFFEE
0000001B
00000016
00000018
FFFFFFE3
00000015
00000034
FFFFFFFE
FFFFFFDF
0000001B
0000001A
FFFFFFEB
00000004
FFFFFFF4
FFFFFFFE
00000000
FFFFFFFE
00000038
00000012
FFFFFFFD
FFFFFFDD
00000030
FFFFFFE0
00000032
00000024
FFFFFFFF
00000025
FFFFFFF1
0000001B
0000004B
FFFFFFD9
00000006
FFFFFFEF
0000002A
00000017
FFFFFFDC
FFFFFFED
FFFFFFD9
FFFFFFF5
00000010
0000000C
FFFFFFFA
0000002C
0000002E
FFFFFFE7
0000000E
FFFFFFE5
00000009
FFFFFFDC
00000006
0000001D
00000014
00000031
0000002F
FFFFFFE6
00000003
00000025
FFFFFFD4
FFFFFFDB
FFFFFFD5
00000037
FFFFFFFF
FFFFFFF6
FFFFFFC9
FFFFFFE3
FFFFFFF4
00000025
FFFFFFC4
FFFFFFFC
FFFFFFF6
FFFFFFC8
00000009
00000024
0000001D
0000001F
00000020
00000004
FFFFFFC1
00000013
FFFFFFC7
FFFFFFE6
0000000B
FFFFFFEA
00000038
00000016
0000000F
FFFFFFD7
0000001A
00000023
00000016
FFFFFFD9
FFFFFFFA
FFFFFFD4
00000043
FFFFFFE9
FFFFFFE9
FFFFFFE6
00000010
FFFFFFE2
0000003C
FFFFFFF2
00000029
0000003A
FFFFFFE3
00000008
0000000D
0000002E
00000027
FFFFFFDF
FFFFFFDC
0000001E
0000001B
00000037
FFFFFFF8
FFFFFFFC
00000008
FFFFFFD6
FFFFFFDC
00000009
FFFFFFF0
FFFFFFFC
00000041
FFFFFFF1
FFFFFFF9
0000002C
FFFFFFF6
00000011
0000000C
FFFFFFD9
FFFFFFF3
00000010
FFFFFFDC
FFFFFFF3
FFFFFFCA
00000021
00000019
FFFFFFF3
00000022
00000007
FFFFFFE4
FFFFFFE6
FFFFFFC9
FFFFFFE1
FFFFFFE8
0000000D
00000003
FFFFFFFB
00000025
FFFFFFEA
FFFFFFE9
FFFFFFF6
00000010
FFFFFFE6
00000028
FFFFFFFB
FFFFFFDD
FFFFFFEB
FFFFFFCB
00000022
FFFFFFE2
0000000B
00000000
FFFFFFEE
00000009
FFFFFFCC
00000006
FFFFFFD4
FFFFFFF1
0000000D
FFFFFFCB
00000025
FFFFFFF8
00000025
00000013
00000001
FFFFFFFE
00000003
FFFFFFCD
00000008
0000000D
0000004A
00000026
FFFFFFD2
00000024
FFFFFFCA
00000024
FFFFFFFA
00000008
FFFFFFE9
00000029
00000012
FFFFFFE0
FFFFFFFD
00000017
FFFFFFEB
FFFFFFDE
FFFFFFE4
FFFFFFF9
00000024
FFFFFFE1
00000002
FFFFFFDD
00000008
00000024
FFFFFFE3
FFFFFFE6
0000001C
00000020
FFFFFFF4
FFFFFFFC
0000000A
00000019
FFFFFFE2
00000000
FFFFFFE7
00000028
0000001C
FFFFFFE9
00000025
FFFFFFEC
FFFFFFEE
00000003
00000009
FFFFFFFA
FFFFFFE2
FFFFFFCE
FFFFFFD4
00000035
FFFFFFE7
FFFFFFF9
FFFFFFC7
FFFFFFEF
FFFFFFFE
FFFFFFD6
00000000
FFFFFFD6
FFFFFFDB
00000023
FFFFFFFE
0000001C
00000010
00000027
FFFFFFE8
FFFFFFF5
0000000D
FFFFFFDA
FFFFFFFB
FFFFFFD3
FFFFFFDA
00000029
FFFFFFFC
00000000
00000024
FFFFFFDA
00000030
00000003
FFFFFFD2
00000009
FFFFFFE6
0000000B
0000001F
00000037
00000032
FFFFFFED
0000000A
0000001B
00000029
FFFFFFD7
00000011
FFFFFFF5
FFFFFFF9
FFFFFFE7
00000022
FFFFFFBE
FFFFFFDE
00000019
FFFFFFEC
FFFFFFCD
FFFFFFD7
FFFFFFD6
00000036
00000029
00000016
00000029
FFFFFFE0
00000013
00000038
00000018
FFFFFFFF
00000032
FFFFFFE3
00000038
00000025
00000019
FFFFFFDC
00000027
FFFFFFF1
FFFFFFDF
0000003A
00000005
00000018
0000001C
FFFFFFE1
00000010
0000001F
00000026
00000036
FFFFFFD6
FFFFFFFA
00000038
00000020
00000013
0000000B
FFFFFFCF
00000035
FFFFFFE5
FFFFFFC1
0000000D
00000023
FFFFFFCF
FFFFFFEB
00000019
0000001E
00000034
00000008
FFFFFFF8
FFFFFFE7
FFFFFFE5
00000003
FFFFFFFC
0000002E
0000002B
FFFFFFDA
00000020
00000005
0000002F
FFFFFFDC
FFFFFFE1
FFFFFFE1
FFFFFFDE
FFFFFFD5
FFFFFFF8
00000018
0000000D
FFFFFFF6
FFFFFFD1
00000022
FFFFFFEB
FFFFFFDD
00000013
FFFFFFC5
0000002E
00000020
00000031
0000001A
0000002D
00000012
FFFFFFF5
00000000
FFFFFFF8
00000005
0000000B
00000037
FFFFFFE3
00000019
FFFFFFFD
FFFFFFCD
00000019
0000002F
FFFFFFF9
0000001C
FFFFFFF9
00000003
00000026
FFFFFFE2
FFFFFFFA
0000003F
0000000D
FFFFFFD5
00000019
FFFFFFBA
FFFFFFE0
0000001C
00000001
0000000B
00000036
0000000D
00000011
00000025
0000002B
FFFFFFC9
FFFFFFF8
FFFFFFE7
00000035
FFFFFFE4
00000036
0000000F
0000000D
00000000
0000004C
00000033
00000008
0000000D
00000048
FFFFFFFF
FFFFFFD3
FFFFFFEC
0000002A
00000001
00000001
FFFFFFD6
00000040
FFFFFFED
00000006
00000041
FFFFFFE9
FFFFFFCF
FFFFFFD9
00000038
00000048
FFFFFFDB
FFFFFFFE
FFFFFFE8
FFFFFFEE
0000002A
FFFFFFF6
00000015
FFFFFFE8
FFFFFFD9
FFFFFFDF
FFFFFFD0
FFFFFFE1
FFFFFFEA
FFFFFFE5
FFFFFFE9
0000003A
FFFFFFD2
0000002D
FFFFFFE8
FFFFFFD1
0000002D
FFFFFFF7
00000038
00000024
00000028
0000001E
00000026
00000023
00000006
FFFFFFF7
FFFFFFD3
0000000B
FFFFFFF7
FFFFFFE9
0000001D
00000033
FFFFFFCB
FFFFFFCB
0000002C
0000001F
00000025
FFFFFFF2
00000031
0000000A
00000006
FFFFFFDE
FFFFFFE8
0000000C
FFFFFFE7
FFFFFFF4
00000006
FFFFFFEA
FFFFFFC9
0000001F
FFFFFFCC
FFFFFFF9
0000002B
FFFFFFE3
00000009
0000002D
0000004A
0000000A
FFFFFFD9
FFFFFFE4
FFFFFFFE
FFFFFFFC
00000035
00000044
FFFFFFF6
FFFFFFF6
FFFFFFE6
00000011
00000013
0000001A
0000001E
00000016
FFFFFFC7
FFFFFFFC
FFFFFFFF
00000002
FFFFFFCB
FFFFFFE1
FFFFFFE8
0000000B
FFFFFFC7
FFFFFFD5
00000008
FFFFFFEA
FFFFFFE3
00000026
0000001A
0000003A
00000041
00000048
0000003A
FFFFFFF2
FFFFFFE7
FFFFFFDB
FFFFFFE8
00000007
00000010
0000001B
FFFFFFEF
0000001E
FFFFFFEC
FFFFFFE2
00000001
00000020
0000001A
0000001D
0000000E
FFFFFFDF
0000001A
0000003A
0000001E
00000014
FFFFFFF6
FFFFFFC1
00000004
FFFFFFED
FFFFFFFB
0000002E
FFFFFFE4
FFFFFFFD
FFFFFFF3
FFFFFFF3
00000000
FFFFFFDA
FFFFFFDE
FFFFFFEB
FFFFFFFF
00000023
00000009
0000001E
00000033
00000016
00000020
FFFFFFCA
00000014
00000001
00000012
FFFFFFE2
0000003D
00000000
0000002D
00000035
FFFFFFEC
0000001D
0000001B
00000022
00000028
00000014
FFFFFFFE
00000041
0000000A
FFFFFFFB
00000016
0000003A
FFFFFFDF
00000014
FFFFFFE8
0000001D
0000001D
FFFFFFFA
FFFFFFDF
FFFFFFED
FFFFFFF1
FFFFFFF2
00000028
FFFFFFED
FFFFFFF6
FFFFFFF6
FFFFFFE4
00000001
FFFFFFF6
00000017
FFFFFFF1
00000015
00000033
00000027
00000027
FFFFFFC4
0000000E
FFFFFFD9
0000001B
FFFFFFF1
FFFFFFE5
FFFFFFC3
FFFFFFD1
FFFFFFD7
FFFFFFF2
FFFFFFCF
FFFFFFCF
FFFFFFE0
0000004F
FFFFFFC8
FFFFFFF6
FFFFFFD0
0000000D
00000018
0000002C
00000023
00000022
00000014
FFFFFFD0
FFFFFFFD
0000001B
FFFFFFD3
00000016
00000028
FFFFFFFA
FFFFFFF7
00000000
FFFFFFF9
FFFFFFF7
FFFFFFF9
00000000
0000002F
00000025
0000000E
0000000D
0000002B
FFFFFFEA
0000001E
FFFFFFBD
FFFFFFB6
00000030
FFFFFFFE
00000028
FFFFFFE6
00000008
FFFFFFF8
0000001A
0000000E
00000012
00000011
00000034
00000019
FFFFFFF1
FFFFFFE9
FFFFFFD2
00000032
FFFFFFDC
FFFFFFD7
FFFFFFEB
00000013
00000037
00000033
FFFFFFB8
FFFFFFE7
FFFFFFED
FFFFFFC2
00000018
00000009
FFFFFFF9
FFFFFFDC
FFFFFFF9
0000000E
FFFFFFD3
FFFFFFF7
00000015
0000003B
00000027
FFFFFFD7
00000022
FFFFFFD6
0000002D
00000015
FFFFFFEC
0000002E
FFFFFFCA
00000004
00000027
00000001
0000000F
00000026
0000002A
FFFFFFFB
00000029
00000003
00000037
FFFFFFF4
00000005
00000022
0000000E
FFFFFFF6
FFFFFFD8
00000031
FFFFFFE9
FFFFFFCB
FFFFFFF1
FFFFFFDF
00000010
FFFFFFE9
00000007
FFFFFFDD
FFFFFFE4
FFFFFFF3
00000013
FFFFFFF5
00000024
FFFFFFFE
FFFFFFEC
0000000E
00000013
00000039
FFFFFFBF
00000017
FFFFFFF7
FFFFFFDC
0000000E
0000000E
FFFFFFC8
0000002B
00000024
0000000D
FFFFFFF9
0000002C
0000000E
FFFFFFEC
0000002B
0000003D
00000032
0000000A
00000017
00000000
FFFFFFCE
0000000E
0000000F
FFFFFFFF
FFFFFFEB
00000019
00000002
FFFFFFE9
FFFFFFD2
FFFFFFED
FFFFFFDC
0000000B
00000026
00000024
0000000C
0000001D
FFFFFFF8
00000017
0000003A
FFFFFFF9
00000008
0000000C
00000009
0000000E
FFFFFFF8
0000002B
00000028
00000001
FFFFFFC4
FFFFFFE3
00000019
FFFFFFCD
0000001D
FFFFFFF1
00000047
00000035
00000008
FFFFFFD8
FFFFFFDF
FFFFFFED
FFFFFFCE
FFFFFFED
FFFFFFE8
FFFFFFE9
00000020
FFFFFFE6
00000013
FFFFFFCA
0000002C
FFFFFFE8
0000000F
FFFFFFE8
00000001
FFFFFFF5
FFFFFFE2
FFFFFFD5
00000016
FFFFFFDF
00000024
FFFFFFE5
FFFFFFC1
00000022
FFFFFFE7
FFFFFFFD
00000016
FFFFFFD3
FFFFFFEF
00000008
FFFFFFF7
FFFFFFD9
FFFFFFD7
FFFFFFD2
FFFFFFF2
00000044
FFFFFFE5
00000001
FFFFFFCB
00000014
FFFFFFD7
FFFFFFFB
FFFFFFF4
0000001F
FFFFFFF6
FFFFFFC9
00000014
FFFFFFE8
00000009
FFFFFFDC
FFFFFFDD
FFFFFFD9
00000020
FFFFFFF4
0000001C
00000028
00000001
00000033
00000023
FFFFFFFC
0000001E
00000008
00000025
FFFFFFEB
00000010
00000005
0000003F
00000004
0000000E
0000003E
FFFFFFF9
00000039
00000022
00000008
FFFFFFD0
0000001F
FFFFFFD8
0000000B
FFFFFFE3
FFFFFFF0
0000002F
FFFFFFCB
00000029
00000015
FFFFFFDC
0000003E
0000001D
FFFFFFDF
00000006
FFFFFFE8
00000018
FFFFFFED
FFFFFFCF
FFFFFFF2
FFFFFFD3
FFFFFFE7
FFFFFFD2
FFFFFFFE
00000019
00000000
FFFFFFFC
0000003A
FFFFFFE6
FFFFFFED
00000004
00000024
FFFFFFE0
FFFFFFDE
FFFFFFE7
00000016
00000005
0000000C
FFFFFFFF
00000011
FFFFFFEB
00000029
0000002A
00000022
FFFFFFFC
00000030
00000017
FFFFFFEA
0000003B
0000002A
00000035
0000002C
00000017
FFFFFFCE
FFFFFFC1
FFFFFFD3
00000033
FFFFFFF9
00000000
FFFFFFF8
FFFFFFF2
FFFFFFDB
FFFFFFF7
00000012
FFFFFFF3
00000011
00000022
0000002A
FFFFFFE1
FFFFFFF5
0000001A
00000019
00000015
0000002F
FFFFFFEA
FFFFFFBF
FFFFFFC8
00000026
0000000B
FFFFFFCF
00000015
0000000F
00000002
0000001A
FFFFFFE6
00000024
00000024
00000015
FFFFFFD8
0000001C
0000000B
0000001E
0000002B
00000007
0000002F
00000019
FFFFFFF8
FFFFFFE2
00000037
FFFFFFE9
FFFFFFF9
00000014
FFFFFFF2
FFFFFFFF
00000008
0000000E
FFFFFFD8
FFFFFFE3
0000000E
00000019
0000002B
FFFFFFFF
FFFFFFEB
FFFFFFEC
FFFFFFFA
00000028
FFFFFFEE
00000003
FFFFFFF0
00000029
FFFFFFFC
FFFFFFCD
0000001C
00000047
FFFFFFF0
00000012
00000039
FFFFFFC4
00000029
00000019
FFFFFFF9
FFFFFFFA
FFFFFFC9
0000001A
FFFFFFFB
FFFFFFCA
0000001E
FFFFFFF6
00000032
FFFFFFF6
FFFFFFD3
0000001F
00000031
00000014
FFFFFFFF
0000000F
0000002A
FFFFFFDB
FFFFFFEE
FFFFFFE3
FFFFFFE4
FFFFFFF6
FFFFFFFF
00000007
0000001F
0000003C
FFFFFFD7
FFFFFFCE
FFFFFFE4
FFFFFFC7
FFFFFFB9
FFFFFFBC
FFFFFFC3
FFFFFFE8
0000000B
00000044
0000002D
00000000
FFFFFFD6
00000024
00000011
0000002B
FFFFFFEE
00000036
00000017
FFFFFFFA
00000023
00000034
00000004
FFFFFFE5
FFFFFFE2
00000020
FFFFFFFE
0000002C
FFFFFFDA
0000001C
FFFFFFF9
0000000D
FFFFFFD7
FFFFFFDB
FFFFFFE0
00000017
FFFFFFC2
FFFFFFE2
00000032
00000030
0000002F
00000015
00000015
00000005
0000001E
0000002E
0000003B
FFFFFFD5
0000000D
0000002E
00000003
FFFFFFE1
FFFFFFDC
00000008
00000044
FFFFFFF6
FFFFFFF1
00000000
FFFFFFF8
FFFFFFDF
0000000B
0000001C
FFFFFFF7
00000027
00000046
00000025
FFFFFFF6
0000000C
FFFFFFC7
00000026
00000046
FFFFFFEA
00000004
00000011
0000000B
0000001A
00000006
00000035
FFFFFFFD
FFFFFFFA
00000032
00000028
00000012
00000013
0000002B
00000008
FFFFFFFA
FFFFFFD7
FFFFFFD9
FFFFFFD7
FFFFFFF7
00000027
00000000
0000002B
00000036
0000003A
FFFFFFF7
FFFFFFF0
FFFFFFFC
0000003E
00000029
00000015
FFFFFFD8
FFFFFFD9
00000012
FFFFFFBC
0000002C
FFFFFFFA
FFFFFFF0
FFFFFFF7
FFFFFFCD
FFFFFFF8
00000013
0000000C
00000003
00000035
00000045
FFFFFFE4
0000003A
FFFFFFF7
FFFFFFF3
00000015
FFFFFFE5
FFFFFFEA
00000018
FFFFFFF1
00000014
00000009
00000026
00000037
FFFFFFF0
FFFFFFDC
FFFFFFE4
FFFFFFFA
0000001C
FFFFFFE1
FFFFFFEF
FFFFFFE1
FFFFFFA3
00000027
FFFFFFF3
FFFFFFDB
FFFFFFD4
FFFFFFEA
0000000B
0000000F
0000002C
FFFFFFFA
FFFFFFEE
FFFFFFD9
FFFFFFEA
00000023
0000000C
FFFFFFD7
FFFFFFF8
00000001
FFFFFFE9
FFFFFFEE
0000000B
FFFFFFD8
00000029
00000028
FFFFFFED
0000001E
FFFFFFE7
FFFFFFE9
FFFFFFFB
FFFFFFE2
FFFFFFDE
00000005
0000002A
00000023
FFFFFFF3
FFFFFFFE
FFFFFFFD
0000002D
FFFFFFF6
0000003A
FFFFFFD8
0000002E
FFFFFFF4
FFFFFFDD
FFFFFFF1
FFFFFFDA
00000007
FFFFFFFC
FFFFFFF1
00000009
00000011
FFFFFFFD
0000001B
FFFFFFDF
00000006
00000030
0000001F
00000030
FFFFFFBF
FFFFFFEB
0000001D
FFFFFFC4
00000007
FFFFFFD2
FFFFFFE0
0000000C
0000000E
00000036
0000001F
FFFFFFC9
FFFFFFF2
FFFFFFE6
0000001D
00000027
FFFFFFF9
FFFFFFCA
FFFFFFEF
0000002F
FFFFFFDF
FFFFFFFC
FFFFFFEA
FFFFFFF9
FFFFFFEE
0000000D
FFFFFFF3
00000001
FFFFFFF7
FFFFFFE0
FFFFFFFD
FFFFFFE4
00000002
00000023
FFFFFFED
FFFFFFC6
00000032
0000001C
FFFFFFC9
0000002A
0000002D
FFFFFFEC
FFFFFFF0
00000000
00000021
FFFFFFE4
00000013
FFFFFFED
00000022
FFFFFFD3
FFFFFFC2
FFFFFFF4
FFFFFFD9
FFFFFFF0
FFFFFFD3
00000023
FFFFFFFF
FFFFFFD6
0000001B
00000021
FFFFFFED
00000012
00000030
00000022
FFFFFFE8
0000001B
FFFFFFF2
0000000F
FFFFFFE2
FFFFFFF6
00000025
FFFFFFCA
0000001D
FFFFFFE9
FFFFFFE6
0000001B
FFFFFFC7
FFFFFFE2
00000002
FFFFFFED
00000019
00000039
00000032
0000000E
FFFFFFDC
00000012
FFFFFFE9
FFFFFFF0
0000001B
FFFFFFF2
00000003
00000027
00000010
FFFFFFEC
FFFFFFD5
00000022
0000001C
00000006
00000008
FFFFFFFD
FFFFFFF4
FFFFFFF9
0000002B
00000015
FFFFFFEE
00000012
FFFFFFF4
FFFFFFD1
FFFFFFE7
00000018
FFFFFFD8
00000017
00000001
00000005
00000036
00000033
FFFFFFF3
FFFFFFD6
0000000B
00000036
FFFFFFC2
FFFFFFD8
00000042
FFFFFFFE
00000000
00000036
FFFFFFFB
FFFFFFFA
FFFFFFED
00000016
FFFFFFD9
FFFFFFD4
00000031
0000002F
00000007
00000016
FFFFFFED
FFFFFFF4
00000011
00000006
0000000F
FFFFFFD6
FFFFFFF4
00000021
FFFFFFD0
FFFFFFEF
FFFFFFE8
FFFFFFFE
0000000F
FFFFFFE2
0000003C
00000012
0000003F
FFFFFFFE
FFFFFFE7
00000035
0000002B
00000013
FFFFFFCF
00000016
FFFFFFFB
FFFFFFD5
FFFFFFDD
00000006
FFFFFFEC
0000001B
FFFFFFFD
00000000
0000000F
00000024
FFFFFFFB
00000026
00000037
FFFFFFF7
00000026
0000002F
FFFFFFE0
FFFFFFDC
FFFFFFDA
FFFFFFD3
FFFFFFE3
FFFFFFE5
FFFFFFD0
FFFFFFFE
0000003C
00000034
FFFFFFCF
00000016
FFFFFFDB
FFFFFFFD
00000000
FFFFFFCB
FFFFFFC3
00000012
00000021
FFFFFFEF
00000015
00000002
0000000F
FFFFFFFB
00000040
FFFFFFD5
00000032
FFFFFFE7
FFFFFFF7
00000009
FFFFFFCF
00000002
FFFFFFEE
FFFFFFEB
FFFFFFE2
00000034
00000027
FFFFFFF0
00000036
FFFFFFD9
00000025
00000038
0000002C
FFFFFFE9
00000018
FFFFFFFB
FFFFFFF9
00000017
00000007
0000000D
00000024
FFFFFFD7
FFFFFFE1
00000034
00000029
FFFFFFDA
FFFFFFDB
00000014
0000002C
FFFFFFC2
FFFFFFD0
0000002C
FFFFFFFE
FFFFFFD0
FFFFFFE6
FFFFFFED
00000016
FFFFFFDF
0000000D
00000020
FFFFFFEA
0000002A
FFFFFFDE
00000027
00000039
FFFFFFE5
0000000A
FFFFFFE3
FFFFFFFD
00000020
00000036
00000023
FFFFFFD9
00000000
FFFFFFF2
00000052
00000008
00000028
FFFFFFEF
0000002E
0000002C
FFFFFFF9
FFFFFFF4
FFFFFFF7
0000002B
00000014
0000003F
FFFFFFFC
FFFFFFF4
FFFFFFC9
FFFFFFEB
0000002E
0000002D
00000001
0000000E
0000003D
00000039
0000001E
00000002
00000018
00000016
00000011
FFFFFFDE
FFFFFFDA
FFFFFFC8
FFFFFFD4
00000007
FFFFFFE1
0000003A
00000010
FFFFFFD0
FFFFFFF2
00000009
0000001F
FFFFFFC6
FFFFFFD9
FFFFFFE3
00000022
FFFFFFD0
FFFFFFDD
00000002
00000005
FFFFFFDA
00000034
00000020
00000004
FFFFFFDB
0000001B
FFFFFFF7
FFFFFFE4
00000013
00000021
00000001
0000002A
00000006
FFFFFFF6
00000003
FFFFFFD1
FFFFFFFF
FFFFFFEB
0000001E
FFFFFFED
0000002D
00000026
00000001
00000042
FFFFFFCD
FFFFFFDC
0000000D
0000001E
FFFFFFFD
FFFFFFD3
00000017
FFFFFFDC
FFFFFFE6
FFFFFFE3
FFFFFFD4
00000013
00000032
FFFFFFF5
00000000
FFFFFFFB
00000035
00000026
0000001C
FFFFFFE7
0000002B
00000002
0000003B
00000014
00000015
00000022
0000000B
00000025
FFFFFFE0
00000009
00000032
FFFFFFE8
FFFFFFF9
FFFFFFFF
00000038
FFFFFFF1
0000001B
00000032
FFFFFFFA
FFFFFFE8
FFFFFFFB
0000001A
00000000
00000009
00000019
FFFFFFD3
0000001A
FFFFFFE0
00000008
FFFFFFCB
FFFFFFCF
00000010
FFFFFFFD
00000003
00000025
0000001A
FFFFFFD4
00000028
00000016
00000035
00000018
FFFFFFD9
0000001D
0000000F
00000007
00000003
0000002D
0000001C
FFFFFFD9
FFFFFFED
FFFFFFCF
00000010
FFFFFFCB
FFFFFFD8
00000023
FFFFFFCF
00000001
00000036
FFFFFFF5
FFFFFFF2
00000006
00000013
FFFFFFF2
0000000F
FFFFFFF7
FFFFFFDA
0000001F
0000001C
00000039
0000000D
FFFFFFF8
FFFFFFE5
00000035
FFFFFFF0
FFFFFFF3
FFFFFFF2
00000033
0000003C
FFFFFFF3
00000013
FFFFFFDB
00000030
00000040
FFFFFFF3
FFFFFFD2
0000002E
FFFFFFF3
00000017
FFFFFFCD
FFFFFFDC
0000001F
00000039
FFFFFFED
00000009
0000002E
00000032
FFFFFFF3
FFFFFFE0
0000003E
FFFFFFD1
00000020
00000016
00000036
FFFFFFE1
00000021
00000013
FFFFFFE0
00000018
FFFFFFE3
00000013
FFFFFFDF
0000002D
0000000B
0000002B
00000029
00000018
0000001E
FFFFFFF2
00000035
FFFFFFFF
FFFFFFF0
00000027
00000028
00000017
0000000A
FFFFFFD2
FFFFFFFD
FFFFFFEC
00000021
00000029
0000003A
0000000B
FFFFFFF7
FFFFFFFD
00000003
0000000B
00000021
00000010
FFFFFFE0
00000026
FFFFFFF4
FFFFFFD4
FFFFFFE8
FFFFFFEF
0000000D
00000014
00000023
00000002
FFFFFFF9
00000003
FFFFFFE8
0000000C
0000001C
00000010
0000001B
0000001E
FFFFFFF0
FFFFFFF2
0000001A
00000021
0000003C
0000000D
FFFFFFFE
FFFFFFF8
00000023
FFFFFFF1
0000001D
FFFFFFF0
0000001C
00000039
0000000A
FFFFFFF4
00000025
FFFFFFD5
00000024
FFFFFFEA
FFFFFFF9
FFFFFFF2
0000001B
FFFFFFDA
00000019
0000000A
FFFFFFDE
0000000B
0000000E
FFFFFFED
FFFFFFF3
FFFFFFE4
0000001B
FFFFFFE8
0000002D
0000001F
00000008
FFFFFFF9
FFFFFFE6
00000005
FFFFFFE8
00000029
FFFFFFDA
00000027
00000004
FFFFFFF3
00000034
00000015
00000036
FFFFFFE9
FFFFFFDD
0000001A
00000003
FFFFFFF3
0000000C
FFFFFFDF
00000031
FFFFFFF0
FFFFFFC5
FFFFFFE1
FFFFFFEE
00000029
FFFFFFFA
FFFFFFFA
00000020
FFFFFFD6
FFFFFFCA
FFFFFFF3
0000003F
00000034
0000002B
0000002D
FFFFFFC6
FFFFFFF4
0000002F
FFFFFFCB
FFFFFFD4
0000000B
FFFFFFEF
00000012
00000024
00000018
FFFFFFDD
FFFFFFFD
FFFFFFCE
FFFFFFE0
00000022
00000018
FFFFFFCA
00000009
FFFFFFFD
FFFFFFE9
FFFFFFEC
0000000B
FFFFFFFB
FFFFFFD2
FFFFFFFD
FFFFFFD1
FFFFFFFD
FFFFFFFD
FFFFFFE0
00000021
00000012
FFFFFFEF
FFFFFFF2
00000024
00000028
0000001A
00000020
00000018
0000000B
0000002E
FFFFFFFF
00000002
FFFFFFED
00000004
00000019
FFFFFFE1
0000001A
FFFFFFF4
FFFFFFE0
FFFFFFF3
FFFFFFFD
FFFFFFFC
FFFFFFD2
00000009
FFFFFFEB
FFFFFFEE
00000030
00000006
00000025
0000002D
0000001B
00000003
FFFFFFE0
0000001D
FFFFFFF3
FFFFFFD4
00000015
0000002B
0000001E
FFFFFFE0
00000005
0000001B
FFFFFFF6
FFFFFFF7
00000004
FFFFFFED
00000000
00000016
FFFFFFCF
00000007
FFFFFFE1
00000022
00000004
00000014
FFFFFFC3
0000003C
FFFFFFDC
00000039
FFFFFFE3
00000027
00000013
00000034
FFFFFFF1
FFFFFFE1
FFFFFFD8
00000019
FFFFFFF1
00000022
FFFFFFD5
FFFFFFD5
00000035
00000014
0000001D
FFFFFFD1
0000001E
FFFFFFCA
FFFFFFD7
00000020
FFFFFFFE
FFFFFFD5
FFFFFFFB
0000001A
00000044
0000002C
FFFFFFC2
00000027
0000000D
00000005
FFFFFFF1
00000051
FFFFFFEB
00000046
00000032
00000013
0000001C
FFFFFFD8
00000009
FFFFFFCA
00000026
FFFFFFFC
0000002E
00000015
00000012
0000002F
FFFFFFFF
FFFFFFDF
00000034
00000032
FFFFFFD2
00000010
00000012
FFFFFFC0
00000031
00000034
FFFFFFDF
0000001A
0000000A
00000040
FFFFFFD5
00000030
FFFFFFEE
00000008
00000018
00000005
FFFFFFF5
FFFFFFEA
FFFFFFF8
FFFFFFF9
00000006
0000000E
FFFFFFCE
0000002F
00000018
00000015
0000000A
FFFFFFD8
FFFFFFF0
00000023
FFFFFFCF
FFFFFFE9
00000031
FFFFFFE7
FFFFFFCA
FFFFFFF0
0000001F
FFFFFFF8
00000024
FFFFFFFE
FFFFFFDB
FFFFFFEF
00000001
FFFFFFFA
00000031
FFFFFFDD
FFFFFFC7
FFFFFFF1
00000038
FFFFFFD1
FFFFFFC3
FFFFFFDF
00000029
00000016
FFFFFFD6
00000048
FFFFFFEA
0000000E
0000000B
0000003A
00000005
00000022
FFFFFFD5
FFFFFFB1
FFFFFFF7
FFFFFFEE
FFFFFFF4
00000034
FFFFFFDB
FFFFFFD4
00000030
00000030
00000010
00000008
00000039
FFFFFFF1
0000001D
FFFFFFFD
0000002D
FFFFFFC0
00000027
FFFFFFD6
0000003E
FFFFFFE1
FFFFFFE9
FFFFFFF3
00000033
FFFFFFD2
FFFFFFD6
00000019
FFFFFFBC
FFFFFFDB
FFFFFFC5
FFFFFFFA
FFFFFFF4
00000028
00000036
FFFFFFEB
FFFFFFFB
FFFFFFCF
00000011
00000012
FFFFFFF1
00000023
FFFFFFE3
00000014
0000001E
FFFFFFEB
0000001E
00000015
00000014
FFFFFFE0
00000022
FFFFFFFD
0000001F
FFFFFFF6
0000001A
00000030
FFFFFFD6
00000009
FFFFFFF9
00000024
FFFFFFFA
FFFFFFDE
FFFFFFDB
FFFFFFE5
00000004
FFFFFFCB
0000002C
FFFFFFEE
00000016
FFFFFFFF
FFFFFFF0
00000010
FFFFFFE0
FFFFFFF1
00000005
0000002C
FFFFFFE0
0000000D
FFFFFFCB
00000006
FFFFFFEC
00000034
00000016
FFFFFFE4
FFFFFFDC
FFFFFFCA
FFFFFFE4
00000011
0000002B
00000013
FFFFFFED
00000020
FFFFFFC9
FFFFFFE2
FFFFFFF7
00000033
FFFFFFD2
FFFFFFEB
FFFFFFFB
FFFFFFCA
00000024
FFFFFFE9
0000000E
00000025
0000000B
00000018
0000000C
0000003C
FFFFFFD6
FFFFFFD2
00000024
00000020
FFFFFFD8
00000006
FFFFFFF7
0000001F
FFFFFFE9
FFFFFFE8
0000001F
0000001F
FFFFFFE4
FFFFFFE6
00000045
00000006
FFFFFFFC
FFFFFFCA
0000001A
FFFFFFE9
00000026
FFFFFFC2
00000014
FFFFFFEF
FFFFFFE2
00000020
0000000D
0000002B
FFFFFFE9
00000046
FFFFFFD5
FFFFFFF0
FFFFFFFB
FFFFFFDA
00000016
FFFFFFD4
00000001
FFFFFFF3
FFFFFFCD
00000005
FFFFFFEA
FFFFFFE7
FFFFFFD1
0000002A
FFFFFFE8
00000055
FFFFFFF4
FFFFFFCA
FFFFFFC8
FFFFFFFB
00000021
00000000
00000020
00000018
FFFFFFBA
0000001B
FFFFFFC9
FFFFFFE0
FFFFFFF1
0000001A
00000038
00000010
00000039
FFFFFFEA
FFFFFFE2
FFFFFFE3
0000000E
0000003E
00000006
00000010
FFFFFFFD
0000002F
FFFFFFD0
FFFFFFF0
0000000B
00000009
00000004
FFFFFFDA
FFFFFFEA
0000002C
00000052
00000035
00000017
FFFFFFC0
FFFFFFD2
FFFFFFE7
0000002F
0000002D
FFFFFFEC
00000018
FFFFFFD2
00000000
00000044
FFFFFFE9
0000000E
FFFFFFEF
FFFFFFFB
FFFFFFDF
FFFFFFFA
00000015
0000000D
FFFFFFED
00000011
00000001
FFFFFFCC
0000000E
00000015
0000002C
FFFFFFE8
FFFFFFF8
00000009
FFFFFFDA
00000028
00000007
FFFFFFCF
FFFFFFD6
0000003B
FFFFFFD5
00000006
00000009
00000012
00000018
FFFFFFE4
FFFFFFD4
00000012
FFFFFFE1
FFFFFFDF
00000029
FFFFFFCE
FFFFFFF9
00000017
FFFFFFF6
FFFFFFF6
FFFFFFEB
FFFFFFEE
0000000F
0000000B
FFFFFFD6
FFFFFFEA
FFFFFFD5
FFFFFFDC
FFFFFFE0
00000011
FFFFFFF4
FFFFFFD0
FFFFFFF4
FFFFFFF9
00000018
0000000D
FFFFFFFE
FFFFFFFA
FFFFFFFF
00000002
0000001E
00000015
0000003A
0000000F
00000041
0000000B
FFFFFFEB
00000028
0000001E
FFFFFFF1
00000022
0000000A
FFFFFFBC
FFFFFFCB
FFFFFFFF
0000000F
00000028
FFFFFFD3
0000001B
00000001
FFFFFFF3
0000002C
FFFFFFF3
00000014
FFFFFFED
00000029
FFFFFFE8
FFFFFFD4
FFFFFFDA
FFFFFFF9
FFFFFFCD
00000004
0000001B
00000005
0000000A
00000000
FFFFFFF1
FFFFFFEF
0000002C
00000033
FFFFFFE6
FFFFFFE8
0000000E
FFFFFFF7
FFFFFFF9
FFFFFFEE
0000002D
FFFFFFF1
FFFFFFC4
FFFFFFFD
FFFFFFC2
FFFFFFF0
0000003D
0000003E
FFFFFFBC
FFFFFFEF
FFFFFFFC
FFFFFFD9
00000012
00000006
FFFFFFE5
00000004
FFFFFFE2
FFFFFFE9
0000002E
00000006
FFFFFFFC
FFFFFFEB
00000007
0000000F
FFFFFFF6
FFFFFFEE
FFFFFFFE
00000032
00000029
00000032
00000037
FFFFFFD5
0000002E
FFFFFFE7
00000013
FFFFFFEF
FFFFFFC5
0000002B
FFFFFFDA
FFFFFFFC
FFFFFFFC
FFFFFFCE
FFFFFFE1
FFFFFFE9
FFFFFFDA
0000001D
FFFFFFFE
FFFFFFF9
0000000B
FFFFFFD7
FFFFFFCA
FFFFFFDD
00000007
0000001A
FFFFFFEE
00000006
FFFFFFD9
0000002A
00000009
00000001
0000000D
00000017
00000008
00000015
FFFFFFFB
00000004
FFFFFFDD
FFFFFFED
FFFFFFF6
00000026
0000001E
00000014
0000003F
FFFFFFF6
0000000D
FFFFFFEF
FFFFFFD3
FFFFFFE6
0000001D
FFFFFFDB
FFFFFFD1
FFFFFFFE
0000002E
FFFFFFF7
FFFFFFF3
00000022
FFFFFFDD
FFFFFFF2
00000000
FFFFFFCA
00000039
FFFFFFF7
FFFFFFF5
FFFFFFCD
00000021
0000002F
FFFFFFD4
FFFFFFD3
00000016
FFFFFFC7
0000003C
FFFFFFC7
0000001B
FFFFFFDB
0000002A
0000001C
FFFFFFEB
0000000E
00000005
FFFFFFFF
00000004
00000019
FFFFFFFF
FFFFFFB5
00000004
00000002
FFFFFFDF
00000007
00000044
0000003A
FFFFFFFD
FFFFFFE4
FFFFFFE0
00000034
00000017
0000002C
FFFFFFF6
00000029
00000029
FFFFFFE8
00000004
FFFFFFE9
FFFFFFD4
FFFFFFF1
00000033
FFFFFFB5
0000003C
FFFFFFE4
00000011
FFFFFFF7
0000000C
FFFFFFED
00000012
00000022
0000001F
0000003C
FFFFFFE4
FFFFFFF7
FFFFFFFF
00000009
00000014
FFFFFFDE
0000000E
FFFFFFFD
00000023
FFFFFFC0
00000024
FFFFFFE3
FFFFFFE1
FFFFFFF5
00000013
00000030
00000003
00000021
00000009
0000003D
00000028
FFFFFFEF
0000000D
FFFFFFE4
FFFFFFEB
00000003
0000003D
FFFFFFF6
FFFFFFE7
FFFFFFE8
FFFFFFD8
00000006
0000003B
00000006
00000010
FFFFFFF3
0000000B
00000012
0000003A
FFFFFFE8
00000007
FFFFFFF6
0000002B
FFFFFFFC
FFFFFFE8
FFFFFFFB
00000001
0000000D
FFFFFFEE
FFFFFFDC
00000013
0000000B
FFFFFFEA
00000009
00000015
FFFFFFF5
0000000D
00000034
FFFFFFF3
FFFFFFF3
FFFFFFFF
FFFFFFFA
00000025
00000038
00000026
FFFFFFFD
00000001
FFFFFFF9
00000021
0000003F
00000015
00000021
FFFFFFC5
FFFFFFEE
FFFFFFE4
00000031
FFFFFFF5
FFFFFFCF
FFFFFFD7
00000018
FFFFFFEE
00000033
FFFFFFF3
0000002D
00000029
00000037
FFFFFFF9
00000028
00000012
00000041
FFFFFFDB
0000002D
FFFFFFD8
00000007
00000001
00000017
FFFFFFD8
0000002D
FFFFFFCF
00000029
0000002B
00000025
00000007
00000047
FFFFFFF0
00000024
FFFFFFF4
00000005
FFFFFFDE
00000008
0000000B
FFFFFFF9
00000035
FFFFFFF1
FFFFFFCD
FFFFFFF4
FFFFFFF9
FFFFFFEC
FFFFFFDC
FFFFFFF2
FFFFFFE8
FFFFFFC3
00000030
00000014
00000034
FFFFFFE1
0000000D
0000002C
00000018
FFFFFFCF
00000027
FFFFFFF6
00000024
00000047
FFFFFFDD
00000003
0000000F
00000020
FFFFFFEA
FFFFFFE4
00000038
00000038
FFFFFFD6
0000002A
00000034
FFFFFFDE
0000003C
00000028
00000036
FFFFFFFC
0000003A
00000019
FFFFFFD6
00000011
00000002
0000004B
FFFFFFE1
FFFFFFEF
00000017
FFFFFFDD
FFFFFFEA
FFFFFFF7
00000011
0000000C
FFFFFFDF
0000001B
FFFFFFC3
FFFFFFE6
00000037
FFFFFFCE
0000001E
FFFFFFEF
FFFFFFE6
0000000E
FFFFFFFB
00000006
00000014
FFFFFFE3
0000000D
FFFFFFC6
00000005
00000000
00000048
00000006
FFFFFFDE
FFFFFFEB
00000021
0000001C
00000023
00000019
FFFFFFE2
00000021
FFFFFFE3
0000002D
FFFFFFF2
FFFFFFEA
00000017
0000002C
FFFFFFDC
00000008
00000025
FFFFFFEF
FFFFFFF7
00000031
FFFFFFF7
00000040
0000000A
00000020
FFFFFFD0
00000003
0000002F
00000003
0000003A
FFFFFFDE
FFFFFFF8
0000001E
0000001B
0000000A
FFFFFFE4
FFFFFFDA
00000007
0000002D
FFFFFFEE
0000002F
FFFFFFE1
0000001E
00000010
00000004
0000002F
FFFFFFFE
FFFFFFF0
00000035
FFFFFFDD
0000000A
00000006
FFFFFFF5
FFFFFFCD
FFFFFFF4
FFFFFFD8
FFFFFFD3
FFFFFFFA
FFFFFFF2
FFFFFFDD
FFFFFFD2
FFFFFFEF
00000023
00000012
00000004
FFFFFFFC
FFFFFFEE
FFFFFFFC
FFFFFFC3
FFFFFFDF
FFFFFFC8
0000000C
FFFFFFFE
FFFFFFDC
FFFFFFF2
FFFFFFE4
00000032
FFFFFFF3
0000002E
00000038
00000010
FFFFFFCC
00000015
0000001B
FFFFFFF0
00000014
FFFFFFD9
00000030
0000001A
00000027
00000028
FFFFFFFD
0000003E
0000000A
00000018
FFFFFFEC
00000006
FFFFFFE2
FFFFFFCE
0000001C
FFFFFFEC
FFFFFFF3
FFFFFFE2
00000039
FFFFFFD8
00000027
00000020
FFFFFFDC
FFFFFFD5
FFFFFFE8
FFFFFFDB
00000013
00000012
0000000C
0000002A
FFFFFFD4
FFFFFFE4
0000002A
00000030
00000028
00000027
00000012
FFFFFFCA
FFFFFFF5
00000009
FFFFFFC1
00000008
FFFFFFEC
0000001A
00000022
FFFFFFF1
FFFFFFEC
FFFFFFDD
FFFFFFE5
FFFFFFE1
00000004
00000013
FFFFFFDF
0000001C
FFFFFFDB
FFFFFFF0
FFFFFFE2
FFFFFFE9
00000008
00000029
00000014
FFFFFFE9
FFFFFFF9
00000001
FFFFFFE3
FFFFFFE8
00000033
00000024
0000001B
00000007
FFFFFFCD
00000013
FFFFFFDE
FFFFFFE0
00000016
0000002D
0000002A
FFFFFFFD
FFFFFFE7
00000016
00000021
00000013
FFFFFFD5
FFFFFFC5
FFFFFFC4
FFFFFFCC
FFFFFFD4
FFFFFFEE
00000013
00000012
FFFFFFEA
00000005
FFFFFFFF
0000003A
FFFFFFD4
FFFFFFF7
FFFFFFDD
00000030
00000019
0000000F
0000001F
FFFFFFED
FFFFFFED
0000001F
00000003
FFFFFFC2
FFFFFFEB
00000000
FFFFFFEF
FFFFFFD0
00000007
00000008
00000023
00000016
00000001
FFFFFFF6
FFFFFFCB
FFFFFFE8
FFFFFFFA
FFFFFFF3
00000011
0000002F
0000001B
FFFFFFFF
FFFFFFF9
FFFFFFD0
00000034
FFFFFFF2
FFFFFFF7
00000029
00000018
FFFFFFFB
FFFFFFD5
FFFFFFF7
0000001B
FFFFFFFA
00000041
FFFFFFF2
00000042
00000015
0000001F
FFFFFFD9
FFFFFFE7
FFFFFFFB
FFFFFFE3
FFFFFFD5
00000032
FFFFFFF4
0000000B
FFFFFFD2
00000025
00000011
FFFFFFED
00000028
FFFFFFD5
FFFFFFFD
FFFFFFD1
00000002
00000018
00000015
00000005
0000001C
FFFFFFEB
FFFFFFDC
FFFFFFED
FFFFFFEF
0000001F
00000023
FFFFFFCD
FFFFFFC8
0000000D
FFFFFFF1
FFFFFFEA
FFFFFFFA
FFFFFFE5
FFFFFFE3
FFFFFFD6
FFFFFFC3
FFFFFFD7
FFFFFFF9
00000025
00000029
FFFFFFFA
FFFFFFEE
00000024
00000035
FFFFFFF4
FFFFFFDD
FFFFFFBF
FFFFFFDD
00000000
FFFFFFF4
FFFFFFE2
00000005
00000001
FFFFFFDC
FFFFFFD9
FFFFFFFD
FFFFFFD7
FFFFFFF7
0000000D
FFFFFFD4
FFFFFFEA
00000021
FFFFFFED
00000017
FFFFFFE8
00000036
0000002A
FFFFFFFB
00000027
00000007
0000001B
FFFFFFE0
FFFFFFFE
00000028
FFFFFFD0
0000000C
00000018
0000002D
FFFFFFDE
FFFFFFD9
00000044
00000015
00000008
FFFFFFED
FFFFFFE5
FFFFFFEB
0000001F
FFFFFFF9
00000023
0000000F
00000029
0000001B
0000002B
FFFFFFD7
FFFFFFFD
00000026
00000001
FFFFFFC6
FFFFFFCE
0000002B
00000004
FFFFFFF5
00000033
FFFFFFD4
FFFFFFF6
00000010
FFFFFFE7
FFFFFFCF
0000002D
0000003F
0000000F
00000022
00000030
00000004
00000000
00000029
00000011
FFFFFFFC
00000007
FFFFFFFF
00000032
FFFFFFD5
FFFFFFF5
FFFFFFE7
FFFFFFEC
0000000B
00000012
FFFFFFED
FFFFFFEB
FFFFFFDE
FFFFFFEB
FFFFFFD3
00000037
FFFFFFDE
FFFFFFFA
0000001F
FFFFFFD0
0000001F
FFFFFFD7
00000010
FFFFFFF3
FFFFFFEA
FFFFFFDB
0000000A
0000000F
FFFFFFE5
00000023
0000001C
FFFFFFFD
FFFFFFE5
FFFFFFCE
FFFFFFEA
00000017
0000000E
00000005
0000003D
FFFFFFE9
FFFFFFF3
FFFFFFFD
00000006
0000001D
00000023
00000023
FFFFFFED
FFFFFFF8
FFFFFFCB
00000031
00000006
00000033
FFFFFFF1
FFFFFFEA
FFFFFFD7
00000047
0000003F
00000017
FFFFFFE1
FFFFFFE4
00000047
FFFFFFF3
00000015
00000019
FFFFFFFC
00000016
00000009
00000022
FFFFFFE1
FFFFFFE0
00000034
FFFFFFCB
0000000B
0000000E
00000042
FFFFFFF0
00000002
FFFFFFED
00000016
FFFFFFE5
FFFFFFED
0000000D
FFFFFFC0
00000006
FFFFFFD4
00000029
FFFFFFF8
00000020
FFFFFFBC
FFFFFFF1
00000030
00000022
FFFFFFDE
00000020
0000002F
00000016
00000029
0000001E
00000000
0000002E
FFFFFFF3
FFFFFFBB
0000000A
00000024
FFFFFFFF
00000017
00000019
FFFFFFF4
0000000E
FFFFFFE1
FFFFFFED
FFFFFFD2
FFFFFFD3
FFFFFFCD
0000000B
00000037
FFFFFFFC
0000001A
00000005
FFFFFFF6
00000040
00000003
0000002A
FFFFFFCC
FFFFFFE6
00000039
00000003
FFFFFFDC
0000000E
0000000D
FFFFFFE0
FFFFFFD6
00000004
FFFFFFC1
FFFFFFD8
FFFFFFE0
00000030
FFFFFFDD
FFFFFFFC
00000036
00000007
FFFFFFEA
00000013
0000002C
00000025
00000023
FFFFFFCF
FFFFFFF0
FFFFFFF6
0000003B
00000031
FFFFFFDF
0000001E
00000029
FFFFFFE7
FFFFFFED
00000038
FFFFFFE9
FFFFFFE7
00000018
FFFFFFF6
00000033
FFFFFFFE
FFFFFFCE
0000000E
00000024
FFFFFFE6
00000004
0000000E
00000021
0000000E
00000007
FFFFFFE3
00000011
FFFFFFFA
00000006
FFFFFFD0
FFFFFFCE
FFFFFFF4
0000004E
FFFFFFE2
FFFFFFFB
0000002D
00000043
00000000
00000004
00000003
FFFFFFE4
00000028
FFFFFFDB
0000002B
FFFFFFFB
00000009
00000027
0000002C
FFFFFFF4
FFFFFFD2
FFFFFFF1
FFFFFFFC
FFFFFFEE
FFFFFFEE
FFFFFFF3
0000001F
00000003
00000011
FFFFFFD7
FFFFFFDB
00000008
0000002B
0000000D
FFFFFFF4
00000003
FFFFFFEA
0000001A
00000026
FFFFFFF3
00000035
00000022
0000000A
00000019
00000010
0000001D
00000015
FFFFFFC8
FFFFFFFF
FFFFFFC9
FFFFFFED
00000025
FFFFFFFB
00000016
FFFFFFF8
0000000E
FFFFFFFC
FFFFFFEC
00000019
FFFFFFFD
FFFFFFF9
FFFFFFF8
FFFFFFCA
00000035
FFFFFFD7
FFFFFFCE
0000000F
00000001
00000020
00000027
0000002E
00000021
0000001B
00000020
00000023
00000038
00000029
FFFFFFFF
FFFFFFEC
FFFFFFC1
00000012
00000012
00000018
0000000B
00000007
FFFFFFF6
FFFFFFFC
0000002B
FFFFFFF9
0000000E
FFFFFFB0
00000013
00000040
FFFFFFF1
00000006
0000000F
00000047
00000019
FFFFFFF0
FFFFFFCF
0000001A
FFFFFFEF
0000000E
FFFFFFEB
FFFFFFF6
FFFFFFD8
FFFFFFFA
FFFFFFD8
FFFFFFC8
00000024
FFFFFFD2
FFFFFFF2
00000013
FFFFFFFC
00000021
FFFFFFE1
FFFFFFD9
0000000F
00000031
00000020
00000018
0000000E
FFFFFFF5
0000000C
00000026
FFFFFFD1
FFFFFFD1
FFFFFFE8
00000003
FFFFFFDF
00000010
FFFFFFCF
0000002D
FFFFFFD6
00000039
FFFFFFDA
FFFFFFFC
0000003C
00000024
00000022
FFFFFFF9
00000029
FFFFFFC8
0000001B
FFFFFFC9
0000002B
FFFFFFD4
00000032
FFFFFFED
FFFFFFD1
FFFFFFEB
FFFFFFFB
FFFFFFF9
0000000C
FFFFFFEB
FFFFFFF9
0000001E
0000002B
FFFFFFFF
0000000D
FFFFFFE5
FFFFFFEB
00000014
FFFFFFF4
0000001F
00000006
FFFFFFF4
0000001B
0000003E
FFFFFFD8
0000000F
FFFFFFE6
FFFFFFFB
FFFFFFE9
00000036
FFFFFFDA
0000001D
00000036
0000003E
0000001A
00000036
FFFFFFE0
00000009
00000006
0000002B
FFFFFFFA
0000002F
0000001F
FFFFFFFF
FFFFFFEF
FFFFFFE9
FFFFFFF5
FFFFFFD7
FFFFFFE0
0000000D
FFFFFFF3
FFFFFFD4
FFFFFFE5
FFFFFFFD
00000034
FFFFFFF7
0000000F
0000000D
00000024
FFFFFFEC
0000000D
FFFFFFD0
00000019
FFFFFFE2
FFFFFFF2
FFFFFFD7
00000005
00000007
00000001
0000001A
FFFFFFF0
FFFFFFD9
00000029
00000030
0000000E
FFFFFFF9
FFFFFFFC
FFFFFFE5
00000039
FFFFFFBB
FFFFFFEC
FFFFFFC7
FFFFFFE6
00000018
0000002B
FFFFFFDC
00000029
0000000A
00000008
00000004
FFFFFFCB
0000000A
0000001D
0000001A
00000038
FFFFFFDB
00000022
FFFFFFDE
FFFFFFDC
FFFFFFFB
00000031
0000000E
00000022
00000007
0000002B
0000000A
FFFFFFF0
FFFFFFF5
00000032
FFFFFFE3
0000000F
FFFFFFE0
00000006
0000000E
FFFFFFEE
00000019
00000031
FFFFFFE5
FFFFFFFE
FFFFFFF7
FFFFFFFB
FFFFFFE5
0000001D
FFFFFFEE
00000031
00000030
FFFFFFF0
0000000F
FFFFFFDF
0000002A
0000001C
FFFFFFEF
FFFFFFB7
FFFFFFE9
FFFFFFFF
0000002A
00000024
FFFFFFF1
0000000C
0000002D
00000029
FFFFFFC4
0000000F
0000002B
FFFFFFFE
00000030
FFFFFFED
FFFFFFFC
0000002E
0000000E
FFFFFFDA
FFFFFFD0
0000000A
0000000B
00000024
FFFFFFF6
FFFFFFFA
00000001
FFFFFFF8
00000016
FFFFFFE2
FFFFFFE9
FFFFFFFE
FFFFFFE9
00000003
00000007
FFFFFFFF
FFFFFFF8
00000011
00000040
FFFFFFE7
FFFFFFEB
0000003A
00000020
00000001
00000017
00000020
FFFFFFF9
00000014
00000042
FFFFFFF4
00000039
00000004
FFFFFFF5
00000004
00000019
0000000B
FFFFFFFB
FFFFFFE7
FFFFFFDF
FFFFFFED
00000019
FFFFFFFA
FFFFFFCC
0000003D
00000007
FFFFFFFC
FFFFFFED
FFFFFFD9
0000002E
00000038
0000000B
00000006
FFFFFFDB
FFFFFFC9
FFFFFFE2
00000035
00000002
FFFFFFF7
0000000C
0000001D
00000029
00000019
00000015
FFFFFFFB
FFFFFFE4
FFFFFFDE
FFFFFFDE
00000011
FFFFFFDE
00000029
FFFFFFD7
FFFFFFF3
FFFFFFCC
0000000E
FFFFFFDA
FFFFFFEB
FFFFFFF7
FFFFFFFC
00000015
FFFFFFF6
FFFFFFDF
FFFFFFCA
FFFFFFEB
FFFFFFF8
0000001F
0000001D
00000005
FFFFFFE9
FFFFFFE6
FFFFFFF8
00000008
00000032
FFFFFFDB
FFFFFFF8
00000001
0000001A
00000015
FFFFFFD9
0000000F
FFFFFFB9
FFFFFFF5
FFFFFFE4
FFFFFFCE
FFFFFFFA
00000013
0000000B
FFFFFFC2
00000019
FFFFFFEC
FFFFFFF3
00000029
00000029
0000000E
FFFFFFFD
FFFFFFCF
FFFFFFD8
FFFFFFD5
FFFFFFE9
FFFFFFEE
FFFFFFDD
FFFFFFD8
FFFFFFFE
FFFFFFBF
FFFFFFF2
00000010
00000001
FFFFFFD9
00000003
00000035
FFFFFFDC
00000013
FFFFFFCD
FFFFFFD3
0000000F
00000021
FFFFFFD4
00000000
00000048
FFFFFFD1
0000003A
FFFFFFDB
00000007
FFFFFFE7
FFFFFFCB
FFFFFFFE
00000031
0000002C
00000021
FFFFFFD4
00000031
FFFFFFE5
FFFFFFD3
FFFFFFFF
00000000
FFFFFFF9
FFFFFFE7
FFFFFFF8
00000001
00000026
0000003C
0000001B
00000001
FFFFFFE0
00000019
FFFFFFFC
FFFFFFF4
FFFFFFF7
FFFFFFD7
0000001A
FFFFFFFA
FFFFFFE6
00000021
FFFFFFED
FFFFFFEF
FFFFFFFD
0000001F
FFFFFFFF
0000001A
FFFFFFD9
0000002A
FFFFFFE4
00000010
FFFFFFEE
FFFFFFD7
0000004E
00000007
00000018
FFFFFFE3
0000000E
0000000C
0000000B
FFFFFFD3
00000014
FFFFFFFF
0000000F
FFFFFFE1
FFFFFFFF
FFFFFFD9
FFFFFFDF
FFFFFFD3
FFFFFFF6
00000010
FFFFFFDB
0000002B
00000012
FFFFFFC4
FFFFFFFD
FFFFFFE3
FFFFFFE8
FFFFFFF6
FFFFFFE6
00000037
00000002
00000001
0000000D
FFFFFFE7
FFFFFFF6
0000001B
00000042
0000000D
FFFFFFF1
00000023
FFFFFFD4
FFFFFFE6
00000013
00000035
00000017
00000016
FFFFFFEB
FFFFFFF5
FFFFFFC5
FFFFFFDF
00000016
00000022
FFFFFFF0
00000004
0000002B
00000005
00000019
00000027
FFFFFFE9
FFFFFFDD
00000016
FFFFFFFC
FFFFFFFA
FFFFFFDD
00000036
FFFFFFD7
FFFFFFE0
0000001B
00000002
0000002C
FFFFFFD1
0000002A
FFFFFFFA
FFFFFFE3
00000001
FFFFFFE2
0000002D
FFFFFFE4
0000001F
FFFFFFE0
FFFFFFCC
00000036
FFFFFFF1
00000017
FFFFFFEF
00000000
FFFFFFC4
FFFFFFE6
0000001F
00000030
FFFFFFFF
00000001
FFFFFFF6
FFFFFFCF
00000016
FFFFFFE9
00000026
00000006
FFFFFFE3
FFFFFFF5
FFFFFFFA
0000000D
FFFFFFF9
0000002F
00000014
FFFFFFFB
0000000C
00000035
FFFFFFE1
FFFFFFF6
FFFFFFE4
00000010
FFFFFFBB
0000002F
00000024
FFFFFFF7
0000002D
0000001A
00000014
0000001A
00000023
00000033
00000001
00000019
00000032
00000017
00000021
0000002A
FFFFFFEF
0000000F
FFFFFFE4
0000000C
00000007
0000001B
FFFFFFFB
00000011
FFFFFFE3
FFFFFFD8
0000001A
00000019
FFFFFFDF
FFFFFFED
0000003C
FFFFFFD2
0000000F
0000001D
FFFFFFD1
FFFFFFE5
FFFFFFFA
FFFFFFCC
00000004
FFFFFFF5
00000020
FFFFFFF7
00000006
FFFFFFDA
FFFFFFC7
00000024
00000018
00000029
FFFFFFF9
0000000B
FFFFFFD7
00000002
00000010
00000008
0000000E
FFFFFFFB
00000021
00000011
0000004E
00000041
00000023
00000039
FFFFFFD2
0000003E
0000000F
0000001C
FFFFFFD5
FFFFFFF4
FFFFFFEE
FFFFFFEE
FFFFFFCC
00000037
FFFFFFDE
00000014
FFFFFFF0
FFFFFFF3
FFFFFFF2
00000033
FFFFFFD3
00000005
FFFFFFBB
00000007
FFFFFFD9
00000018
FFFFFFF7
0000000D
FFFFFFE9
0000001B
FFFFFFDF
0000000F
FFFFFFFF
FFFFFFF0
FFFFFFDF
00000033
00000007
FFFFFFFE
00000012
FFFFFFD3
FFFFFFFB
FFFFFFFC
FFFFFFD5
FFFFFFEC
FFFFFFEE
0000001B
0000001D
00000015
FFFFFFC9
00000006
FFFFFFE7
FFFFFFE4
00000009
FFFFFFF8
FFFFFFD9
FFFFFFED
00000019
00000023
FFFFFFE0
00000014
0000002A
FFFFFFF1
0000000D
00000037
00000022
00000014
00000018
FFFFFFFC
FFFFFFDF
0000000D
0000002C
FFFFFFFC
FFFFFFDA
00000010
FFFFFFED
FFFFFFEE
FFFFFFFE
FFFFFFFF
FFFFFFE4
00000020
0000000E
FFFFFFCD
00000006
FFFFFFF9
FFFFFFEC
00000025
00000022
FFFFFFF5
0000001C
00000037
FFFFFFF2
FFFFFFE1
FFFFFFF6
0000001A
0000002E
FFFFFFEF
00000017
FFFFFFEB
FFFFFFE6
FFFFFFE0
0000003B
0000002D
FFFFFFBF
FFFFFFFB
00000021
0000002A
FFFFFFCE
FFFFFFEF
FFFFFFD9
FFFFFFD4
0000000A
FFFFFFDC
00000020
FFFFFFFD
0000001F
FFFFFFCE
FFFFFFE7
FFFFFFDF
0000000E
0000002A
FFFFFFE6
FFFFFFE0
FFFFFFD8
00000017
FFFFFFD2
FFFFFFF3
FFFFFFE7
00000033
FFFFFFE2
FFFFFFEE
FFFFFFD5
0000000A
00000026
FFFFFFEF
FFFFFFE2
FFFFFFFB
00000001
FFFFFFF5
0000000D
00000006
00000011
FFFFFFF1
0000002F
FFFFFFF8
00000001
00000025
FFFFFFFF
0000000D
FFFFFFD8
FFFFFFF7
00000015
FFFFFFF6
FFFFFFEA
00000005
00000004
00000017
FFFFFFDF
FFFFFFD5
FFFFFFE2
00000007
FFFFFFF7
0000003C
FFFFFFE2
00000030
FFFFFFE9
FFFFFFD8
FFFFFFC5
00000038
00000012
FFFFFFE5
00000039
FFFFFFF5
FFFFFFEE
FFFFFFFF
FFFFFFC4
00000010
00000008
FFFFFFED
FFFFFFFA
FFFFFFD9
FFFFFFF6
FFFFFFFD
00000037
00000026
0000001B
0000004A
0000000A
0000001C
00000008
FFFFFFD5
0000001E
FFFFFFF6
00000013
FFFFFFDD
FFFFFFDF
00000012
0000001C
00000001
00000019
FFFFFFDB
FFFFFFEE
0000002B
FFFFFFF3
0000001E
0000001F
0000002B
FFFFFFF4
FFFFFFE1
FFFFFFDF
FFFFFFDC
00000008
FFFFFFF2
00000014
FFFFFFD8
00000028
00000000
FFFFFFD7
0000000B
FFFFFFE3
0000003D
0000002A
FFFFFFD7
00000036
0000002F
FFFFFFF4
00000013
FFFFFFF0
FFFFFFD4
FFFFFFC9
00000027
00000021
0000001C
00000025
FFFFFFFE
00000003
00000024
0000000F
00000025
0000004A
FFFFFFD6
FFFFFFE0
00000022
FFFFFFBA
00000003
FFFFFFC1
FFFFFFCE
00000014
00000025
FFFFFFF1
FFFFFFF8
FFFFFFD7
FFFFFFFC
FFFFFFF4
00000012
00000029
FFFFFFCE
00000023
00000004
00000012
0000001F
FFFFFFD1
FFFFFFEA
FFFFFFED
FFFFFFCF
FFFFFFFA
00000011
FFFFFFD9
FFFFFFF9
00000004
FFFFFFE6
FFFFFFDA
FFFFFFF8
00000026
FFFFFFFF
00000029
FFFFFFE9
FFFFFFB1
0000002C
00000000
00000016
0000000E
0000003D
FFFFFFDC
FFFFFFD1
FFFFFFF5
00000010
00000003
00000013
0000001F
00000011
0000000A
FFFFFFF6
FFFFFFF7
00000050
00000015
0000003D
FFFFFFED
FFFFFFEE
FFFFFFEA
00000016
00000047
00000003
FFFFFFC4
FFFFFFCF
00000010
FFFFFFE9
FFFFFFD3
0000002C
0000000D
0000000D
0000001E
00000015
0000000A
FFFFFFD1
FFFFFFC7
0000002C
FFFFFFD1
FFFFFFFD
FFFFFFF0
FFFFFFD3
FFFFFFF1
FFFFFFD7
00000026
00000012
FFFFFFF4
FFFFFFDE
00000014
FFFFFFD6
FFFFFFD3
00000002
FFFFFFE6
00000018
FFFFFFF4
FFFFFFE5
00000001
00000009
FFFFFFDC
0000002A
00000015
00000031
00000048
FFFFFFD0
00000020
0000002D
00000032
0000001E
FFFFFFE9
0000001D
0000000C
00000034
FFFFFFE4
FFFFFFF2
00000004
00000029
FFFFFFE4
00000004
FFFFFFB7
00000022
FFFFFFE9
0000004C
00000009
0000001F
FFFFFFF0
00000024
FFFFFFE4
FFFFFFF0
00000025
00000012
00000029
0000002B
FFFFFFFA
00000001
00000008
0000001E
0000001E
00000003
0000001C
0000001D
FFFFFFBC
0000002B
FFFFFFE4
00000015
0000003D
0000003C
0000002F
FFFFFFF1
FFFFFFDB
FFFFFFFD
FFFFFFF4
FFFFFFF0
FFFFFFFE
FFFFFFEB
FFFFFFDF
0000000C
00000054
0000000C
0000002F
0000000D
0000002E
0000000A
0000002F
FFFFFFC3
FFFFFFFF
FFFFFFF6
FFFFFFC8
00000006
FFFFFFD0
00000008
0000000F
FFFFFFFF
00000011
00000023
0000001D
FFFFFFE5
FFFFFFF3
0000000B
FFFFFFD3
00000000
00000023
00000005
00000010
FFFFFFF5
00000026
00000012
0000001B
FFFFFFD4
0000000B
00000014
FFFFFFD7
FFFFFFBA
0000000C
0000003A
00000031
FFFFFFD8
FFFFFFCA
0000000D
FFFFFFDE
00000016
0000000E
00000017
00000031
00000009
00000014
FFFFFFFD
FFFFFFEA
FFFFFFED
0000003A
00000016
FFFFFFE7
FFFFFFE9
0000002A
0000000C
FFFFFFEE
FFFFFFE0
00000019
00000008
FFFFFFDA
FFFFFFD1
FFFFFFCF
00000044
FFFFFFDD
0000001B
FFFFFFDD
FFFFFFEE
FFFFFFF1
00000038
0000001D
FFFFFFE0
00000004
FFFFFFE0
00000003
00000008
0000001E
00000023
00000023
00000016
FFFFFFE4
00000011
00000010
FFFFFFBE
FFFFFFDC
FFFFFFE8
00000029
00000000
FFFFFFD6
00000017
00000006
FFFFFFD5
FFFFFFEF
FFFFFFE9
0000002F
00000017
FFFFFFE8
00000001
FFFFFFF3
00000034
00000012
00000013
FFFFFFFF
00000008
FFFFFFF7
FFFFFFF7
FFFFFFD6
0000000F
FFFFFFCA
FFFFFFEF
00000017
FFFFFFF7
00000018
FFFFFFE0
00000021
00000014
00000002
FFFFFFDE
00000000
FFFFFFE3
FFFFFFF5
FFFFFFEA
FFFFFFE8
00000027
FFFFFFE1
FFFFFFD2
0000003A
FFFFFFCC
00000019
00000024
00000013
00000017
FFFFFFDA
FFFFFFD3
FFFFFFDE
FFFFFFDA
00000030
FFFFFFEF
00000025
FFFFFFEF
FFFFFFFC
00000003
FFFFFFFA
FFFFFFF5
FFFFFFF9
FFFFFFE7
0000002A
0000000D
00000026
0000001D
FFFFFFCD
FFFFFFCE
00000013
0000001C
FFFFFFD4
00000019
0000000B
FFFFFFFB
00000037
FFFFFFD6
00000006
FFFFFFD3
00000031
FFFFFFEE
00000003
FFFFFFF5
FFFFFFE8
FFFFFFC2
FFFFFFE1
0000002C
00000030
FFFFFFE9
FFFFFFEA
00000006
00000018
00000030
00000032
0000001D
00000036
00000012
FFFFFFF6
0000002E
FFFFFFD5
0000000E
00000008
FFFFFFEC
0000002A
00000007
00000031
0000003E
FFFFFFD8
FFFFFFD9
FFFFFFF3
FFFFFFE4
0000001B
FFFFFFED
00000028
FFFFFFE5
00000028
0000001C
FFFFFFF9
FFFFFFEA
FFFFFFDF
FFFFFFF2
FFFFFFDA
FFFFFFDA
0000003D
FFFFFFF8
FFFFFFDE
FFFFFFD4
FFFFFFD2
FFFFFFC5
0000001C
FFFFFFE8
00000020
FFFFFFED
FFFFFFE3
00000039
00000034
FFFFFFF8
FFFFFFDE
0000002A
FFFFFFF4
FFFFFFE4
00000014
00000033
00000016
00000008
FFFFFFE5
00000013
FFFFFFC6
0000003B
FFFFFFCE
FFFFFFF1
FFFFFFFA
FFFFFFED
FFFFFFF9
FFFFFFEF
FFFFFFF1
00000040
FFFFFFE8
FFFFFFEB
FFFFFFE4
00000026
0000001D
00000016
FFFFFFD5
FFFFFFE0
00000005
FFFFFFE9
FFFFFFFC
FFFFFFEE
00000005
00000000
0000002F
FFFFFFF8
0000002F
FFFFFFDE
00000020
0000002F
FFFFFFF8
0000001D
FFFFFFC2
00000016
FFFFFFE0
FFFFFFF4
00000004
0000002C
FFFFFFE7
FFFFFFDC
00000033
0000001F
FFFFFFF3
00000031
FFFFFFED
00000001
0000000C
00000029
FFFFFFD7
FFFFFFC5
FFFFFFEB
00000001
00000027
00000003
FFFFFFF1
FFFFFFD3
00000039
0000001B
0000000B
0000000F
00000019
0000000D
00000013
0000001C
00000031
00000007
0000002C
FFFFFFFA
FFFFFFFD
FFFFFFF0
FFFFFFEC
00000029
FFFFFFDA
FFFFFFFB
00000010
FFFFFFED
FFFFFFCA
00000028
00000009
FFFFFFF5
FFFFFFBE
FFFFFFF3
FFFFFFDC
FFFFFFE4
00000038
00000014
FFFFFFE6
0000000B
00000016
FFFFFFD8
0000002F
FFFFFFDE
00000023
0000001E
FFFFFFF5
FFFFFFC5
00000020
FFFFFFE3
FFFFFFC3
FFFFFFD3
00000031
00000004
00000038
FFFFFFEA
FFFFFFDD
FFFFFFC8
0000002C
0000002A
00000027
00000027
FFFFFFEC
FFFFFFF4
00000038
0000002B
FFFFFFC8
0000002C
FFFFFFE3
00000019
FFFFFFE3
00000020
00000002
0000003B
00000027
FFFFFFE7
00000000
0000001A
0000002D
00000020
00000008
0000000B
FFFFFFFA
0000000E
FFFFFFE8
FFFFFFDF
FFFFFFF0
FFFFFFCD
0000000C
FFFFFFEA
0000000F
00000010
FFFFFFCB
00000025
00000004
00000000
FFFFFFD3
0000002B
0000002F
FFFFFFEB
0000000E
0000002B
FFFFFFE1
FFFFFFDC
FFFFFFE2
00000034
FFFFFFE1
00000020
FFFFFFF4
0000000F
FFFFFFDD
FFFFFFCF
FFFFFFF5
FFFFFFD5
00000000
FFFFFFD5
0000003E
FFFFFFDE
00000031
0000002C
FFFFFFD9
00000010
FFFFFFF4
FFFFFFD7
FFFFFFFC
FFFFFFF4
00000002
00000013
00000014
FFFFFFD8
FFFFFFD6
FFFFFFEF
FFFFFFF2
00000030
00000024
FFFFFFD0
FFFFFFEB
0000003A
FFFFFFC9
FFFFFFE6
00000016
0000001C
FFFFFFFC
00000017
FFFFFFF4
00000020
0000002C
00000032
FFFFFFEF
0000001B
0000001A
00000009
0000001B
00000020
FFFFFFFD
00000027
00000000
FFFFFFF2
00000025
00000039
00000024
FFFFFFE4
FFFFFFD6
FFFFFFF4
00000017
0000002D
00000030
FFFFFFEE
FFFFFFDD
FFFFFFD3
00000003
FFFFFFF0
FFFFFFF5
FFFFFFF1
00000026
00000018
FFFFFFD4
00000036
FFFFFFE9
FFFFFFCE
00000012
FFFFFFC4
00000014
0000002E
FFFFFFDC
00000034
FFFFFFED
00000040
FFFFFFE4
00000018
0000003E
FFFFFFFE
00000030
00000030
FFFFFFD9
FFFFFFCB
FFFFFFCC
00000017
FFFFFFF2
FFFFFFF9
0000000D
00000005
FFFFFFCC
0000001A
00000038
FFFFFFF9
00000028
00000039
0000003F
FFFFFFC8
00000017
FFFFFFF3
0000003B
FFFFFFC7
0000001F
00000038
0000001D
00000037
FFFFFFCC
FFFFFFCA
FFFFFFF7
FFFFFFF1
0000002F
FFFFFFEF
00000048
00000029
0000002D
FFFFFFFF
FFFFFFE4
00000005
0000001E
FFFFFFDB
0000000F
0000000E
0000001C
FFFFFFF6
FFFFFFD4
FFFFFFFE
00000001
00000036
0000001B
0000000F
0000003C
FFFFFFE1
00000025
00000004
00000011
0000002B
00000014
FFFFFFDA
FFFFFFFE
0000001D
FFFFFFFB
0000001F
FFFFFFFF
FFFFFFF0
00000025
FFFFFFB4
FFFFFFED
FFFFFFEE
00000005
FFFFFFD9
FFFFFFFB
FFFFFFEA
0000001B
FFFFFFFE
FFFFFFFF
FFFFFFF4
FFFFFFF9
FFFFFFF8
00000026
00000007
FFFFFFF8
FFFFFFDA
0000000A
0000000C
FFFFFFE2
FFFFFFD7
FFFFFFD2
FFFFFFEE
00000002
FFFFFFE5
00000013
00000001
FFFFFFF0
00000003
0000001E
FFFFFFF7
00000010
FFFFFFC5
0000000E
00000029
FFFFFFD8
00000034
00000033
00000028
00000018
FFFFFFE4
FFFFFFEB
0000000C
FFFFFFF7
00000008
FFFFFFE3
0000002B
00000011
FFFFFFFE
FFFFFFFD
FFFFFFEE
FFFFFFEF
00000017
00000017
0000001C
00000005
00000003
FFFFFFFD
FFFFFFED
00000009
FFFFFFEC
FFFFFFFF
00000004
FFFFFFD1
FFFFFFE7
0000000E
FFFFFFEA
00000023
FFFFFFD2
FFFFFFE9
00000026
00000043
0000001B
00000035
00000003
00000015
FFFFFFE1
00000010
FFFFFFF0
FFFFFFED
FFFFFFF4
0000003A
FFFFFFE2
FFFFFFDD
FFFFFFFC
00000009
FFFFFFC5
FFFFFFE1
00000023
FFFFFFED
FFFFFFE3
0000002A
FFFFFFF0
FFFFFFD4
00000018
FFFFFFF7
FFFFFFD8
00000001
FFFFFFF6
FFFFFFD8
00000012
FFFFFFB8
0000000E
FFFFFFF0
FFFFFFDB
00000038
00000024
00000012
FFFFFFDD
FFFFFFF9
FFFFFFCC
0000002B
FFFFFFD0
0000003D
00000001
FFFFFFF7
00000023
00000033
00000021
00000024
FFFFFFDF
FFFFFFD5
00000020
FFFFFFDB
00000011
0000000A
00000000
00000022
00000018
FFFFFFE5
FFFFFFC3
00000030
FFFFFFE3
0000001D
FFFFFFD2
00000014
00000015
00000003
FFFFFFE8
0000003C
0000001E
0000003D
00000002
00000000
FFFFFFD7
FFFFFFEC
FFFFFFE3
FFFFFFF3
00000012
FFFFFFF8
00000024
00000017
FFFFFFDD
FFFFFFF7
0000002B
00000003
00000009
FFFFFFFD
00000033
FFFFFFE5
00000019
FFFFFFEB
00000026
FFFFFFFE
00000023
FFFFFFEF
00000013
0000002B
FFFFFFCF
0000000B
00000028
FFFFFFFD
FFFFFFEB
00000012
0000002A
00000023
00000038
00000000
FFFFFFFB
00000034
00000026
FFFFFFF9
FFFFFFD6
FFFFFFD1
00000023
0000000C
00000025
00000041
FFFFFFD7
FFFFFFD1
0000002F
FFFFFFD7
00000021
00000010
00000038
FFFFFFEB
0000000C
0000001E
FFFFFFE7
FFFFFFEF
FFFFFFE6
FFFFFFDB
00000000
0000001F
0000004E
00000015
FFFFFFE6
FFFFFFEF
00000025
00000030
00000022
00000015
00000000
00000002
0000000F
FFFFFFF5
FFFFFFE2
FFFFFFF9
00000030
00000034
00000026
0000001D
FFFFFFDB
00000033
00000038
00000029
FFFFFFD5
00000001
FFFFFFF8
FFFFFFF3
FFFFFFF2
0000003B
00000018
FFFFFFDE
00000037
FFFFFFFA
00000019
FFFFFFDB
FFFFFFFC
FFFFFFEF
00000002
00000036
FFFFFFEE
00000010
0000001A
00000002
00000000
FFFFFFEC
FFFFFFE9
FFFFFFFF
00000027
FFFFFFCC
00000008
00000008
FFFFFFDF
FFFFFFEA
FFFFFFB9
FFFFFFDF
0000000B
FFFFFFF7
0000000F
00000012
FFFFFFEE
FFFFFFDF
0000000F
00000036
00000024
FFFFFFEA
FFFFFFEF
FFFFFFF6
FFFFFFEA
FFFFFFF2
0000000F
00000023
00000013
FFFFFFF8
0000000D
FFFFFFE7
FFFFFFFC
FFFFFFDB
FFFFFFF8
0000001F
FFFFFFF8
00000019
FFFFFFCB
00000030
FFFFFFFB
0000002A
00000001
0000001C
00000010
0000003B
FFFFFFD4
FFFFFFF8
FFFFFFFF
00000027
00000039
FFFFFFFA
00000037
FFFFFFE9
0000002D
00000036
FFFFFFFD
00000005
0000003A
FFFFFFD5
0000003E
0000000F
00000029
00000002
FFFFFFE2
FFFFFFFF
FFFFFFE5
FFFFFFE2
FFFFFFF6
0000002D
FFFFFFC9
FFFFFFE8
FFFFFFE6
FFFFFFD8
FFFFFFE4
00000024
00000003
FFFFFFE3
00000006
00000024
00000023
0000000E
00000004
00000021
FFFFFFDF
0000000C
00000003
FFFFFFFA
00000001
FFFFFFF6
00000018
00000000
00000035
FFFFFFC3
0000001D
FFFFFFE2
FFFFFFE5
00000026
FFFFFFCF
FFFFFFD8
0000001A
FFFFFFCC
00000033
0000002A
FFFFFFEB
00000034
FFFFFFE9
00000020
00000047
FFFFFFD8
FFFFFFEC
00000019
FFFFFFE0
FFFFFFE4
FFFFFFD2
FFFFFFD3
FFFFFFD9
FFFFFFF1
0000001E
00000013
00000015
FFFFFFB8
00000005
FFFFFFFC
FFFFFFF1
00000002
FFFFFFE1
00000000
00000031
FFFFFFF6
FFFFFFEA
FFFFFFC8
FFFFFFEF
FFFFFFD2
FFFFFFCB
FFFFFFFA
00000006
FFFFFFD5
00000006
0000002B
00000025
FFFFFFE6
00000043
0000000A
FFFFFFF1
0000004D
00000039
FFFFFFED
0000002C
FFFFFFDD
00000008
00000018
FFFFFFD4
FFFFFFFD
00000004
00000022
00000033
FFFFFFD3
00000012
FFFFFFD9
00000006
FFFFFFD9
00000003
FFFFFFE8
FFFFFFF9
FFFFFFDE
00000005
FFFFFFEB
00000011
00000016
FFFFFFEA
FFFFFFF8
FFFFFFFB
FFFFFFCC
0000002F
00000035
FFFFFFE6
00000029
FFFFFFB3
00000047
FFFFFFEE
00000020
FFFFFFF6
00000011
0000003E
00000012
FFFFFFD7
0000002F
FFFFFFF5
FFFFFFDF
FFFFFFF9
FFFFFFE6
FFFFFFF1
00000002
00000024
FFFFFFEA
FFFFFFD5
00000010
FFFFFFD0
FFFFFFE3
0000000F
0000001B
0000002B
FFFFFFE9
FFFFFFC3
00000010
FFFFFFE2
00000031
00000009
FFFFFFEA
00000011
FFFFFFE0
FFFFFFF7
FFFFFFEE
FFFFFFD2
0000002F
FFFFFFE6
0000002D
FFFFFFFC
FFFFFFFF
00000014
0000001D
0000001B
00000008
0000000A
FFFFFFF2
FFFFFFFC
00000028
00000020
FFFFFFCB
00000001
0000000A
00000010
00000021
0000003A
0000002D
FFFFFFD4
FFFFFFE9
00000002
FFFFFFCA
FFFFFFEA
FFFFFFFC
FFFFFFCE
0000001B
FFFFFFF2
FFFFFFE2
FFFFFFF2
00000005
FFFFFFD3
0000002D
0000001C
00000029
0000000F
FFFFFFD5
00000025
00000022
FFFFFFCC
0000001E
FFFFFFE1
FFFFFFD7
FFFFFFE2
FFFFFFFE
FFFFFFF9
00000001
FFFFFFE2
00000007
0000000A
FFFFFFE4
FFFFFFF9
FFFFFFFB
FFFFFFEF
00000030
0000000F
FFFFFFF9
FFFFFFD7
0000004B
FFFFFFCE
00000018
FFFFFFF0
FFFFFFF8
00000011
FFFFFFD5
0000003F
FFFFFFF0
00000010
FFFFFFFF
00000014
0000002B
FFFFFFE9
FFFFFFC2
FFFFFFD3
FFFFFFC6
0000001E
00000032
FFFFFFDC
00000020
FFFFFFDD
FFFFFFFC
FFFFFFE4
00000011
FFFFFFCB
00000032
00000029
00000001
0000002A
0000000C
FFFFFFF8
FFFFFFF4
FFFFFFF7
FFFFFFFB
0000001F
00000041
FFFFFFF6
FFFFFFD2
FFFFFFC6
FFFFFFF7
00000022
FFFFFFF7
00000024
FFFFFFF6
00000029
0000002A
00000017
FFFFFFEC
00000026
FFFFFFDB
FFFFFFE4
00000020
00000034
00000009
FFFFFFEE
00000020
FFFFFFFF
0000001E
00000010
FFFFFFFD
FFFFFFFC
FFFFFFFA
FFFFFFF6
FFFFFFF3
0000000A
00000027
00000031
00000039
FFFFFFFE
0000001F
FFFFFFD3
FFFFFFFE
FFFFFFF3
FFFFFFDA
00000013
00000022
00000034
00000029
FFFFFFF9
00000027
FFFFFFCD
FFFFFFC2
0000000F
00000005
FFFFFFCE
FFFFFFF7
FFFFFFFA
00000021
0000001A
0000001E
FFFFFFC6
0000003D
FFFFFFD0
0000000C
00000003
FFFFFFF9
0000000A
00000033
00000008
FFFFFFE4
00000038
00000021
0000001A
00000018
FFFFFFDE
00000018
00000015
FFFFFFEF
0000000E
FFFFFFC1
00000009
00000017
00000016
FFFFFFDA
FFFFFFEC
0000004A
0000000B
FFFFFFF8
00000012
00000024
FFFFFFE7
FFFFFFE4
00000039
FFFFFFCC
00000006
00000033
FFFFFFCB
00000031
FFFFFFF5
FFFFFFF1
FFFFFFF9
00000032
00000035
00000016
00000003
00000016
FFFFFFF2
FFFFFFBE
00000006
0000001D
0000001C
FFFFFFD2
00000021
FFFFFFFF
FFFFFFE2
FFFFFFC9
00000018
FFFFFFE6
FFFFFFF7
FFFFFFD3
0000000F
FFFFFFF0
00000023
FFFFFFE9
00000006
FFFFFFD2
FFFFFFEC
00000022
00000013
FFFFFFF1
00000009
FFFFFFD0
FFFFFFF2
FFFFFFEE
FFFFFFE9
00000000
FFFFFFDC
FFFFFFFD
FFFFFFFA
0000002E
FFFFFFE5
FFFFFFDA
00000005
FFFFFFD0
0000000B
FFFFFFFD
00000005
FFFFFFFB
00000017
0000002A
00000001
00000022
00000001
FFFFFFD0
FFFFFFC4
FFFFFFFB
FFFFFFD9
0000001A
00000004
FFFFFFF7
FFFFFFD7
FFFFFFEE
FFFFFFCB
00000008
FFFFFFED
FFFFFFE3
FFFFFFFF
FFFFFFFD
0000000C
00000028
FFFFFFD6
00000041
0000000F
0000001C
FFFFFFF7
FFFFFFF4
FFFFFFC9
FFFFFFE1
FFFFFFC9
00000033
00000005
00000030
00000037
FFFFFFDD
FFFFFFF3
FFFFFFFC
00000004
FFFFFFD9
FFFFFFF9
00000004
FFFFFFEC
FFFFFFCD
FFFFFFE8
FFFFFFFE
FFFFFFE6
FFFFFFF6
FFFFFFD3
00000008
00000000
FFFFFFF2
FFFFFFD5
00000006
00000001
00000016
0000002C
0000000D
00000016
0000000F
0000001B
00000039
00000001
00000024
00000020
0000000D
FFFFFFD0
FFFFFFF3
00000016
FFFFFFFB
00000011
FFFFFFC3
FFFFFFC4
0000000B
00000012
0000001E
FFFFFFE2
FFFFFFEB
00000013
00000031
FFFFFFD7
0000001C
FFFFFFD9
FFFFFFE7
FFFFFFFC
FFFFFFEB
FFFFFFDE
FFFFFFEA
FFFFFFCB
FFFFFFF0
FFFFFFF9
FFFFFFF1
FFFFFFDA
FFFFFFF0
0000000E
FFFFFFD2
00000030
0000001E
00000024
FFFFFFC5
FFFFFFEC
FFFFFFCB
0000002B
FFFFFFF0
FFFFFFE5
0000001E
00000021
00000003
FFFFFFD3
0000001C
FFFFFFDD
FFFFFFF0
0000002F
0000001C
FFFFFFE6
00000007
00000011
FFFFFFDE
FFFFFFE6
FFFFFFE8
0000001C
0000001F
00000006
FFFFFFF5
0000002A
00000013
00000002
FFFFFFDE
0000002D
FFFFFFD2
FFFFFFF4
FFFFFFCC
0000001A
00000008
FFFFFFDC
00000034
00000021
0000001E
FFFFFFDF
00000029
00000008
FFFFFFF1
FFFFFFED
00000023
0000000B
0000001F
FFFFFFEA
00000032
0000000E
FFFFFFFC
00000012
FFFFFFF8
0000000A
FFFFFFFA
0000002D
0000003A
FFFFFFC6
FFFFFFF9
FFFFFFDF
00000011
FFFFFFFC
FFFFFFEF
00000018
00000019
FFFFFFE9
00000000
FFFFFFF3
FFFFFFF3
FFFFFFDE
FFFFFFD0
FFFFFFF1
FFFFFFC5
FFFFFFDE
FFFFFFF0
FFFFFFE2
00000001
FFFFFFCF
FFFFFFD9
FFFFFFE7
FFFFFFC8
0000000E
FFFFFFDA
00000021
0000001D
00000037
00000026
0000001E
0000001F
0000000A
FFFFFFEC
FFFFFFD4
00000020
0000001D
00000001
00000015
00000010
FFFFFFE9
FFFFFFC5
0000001D
00000027
FFFFFFD2
00000026
FFFFFFE1
00000009
00000002
FFFFFFE7
FFFFFFE3
00000026
0000002E
00000018
00000029
FFFFFFD9
FFFFFFE6
0000001C
0000000A
FFFFFFF7
00000006
0000000F
FFFFFFCD
FFFFFFE2
0000001B
FFFFFFCD
FFFFFFDC
FFFFFFFD
FFFFFFF2
0000000C
0000000B
0000000A
FFFFFFDF
00000008
0000003D
FFFFFFE2
FFFFFFE0
0000002B
0000003C
00000002
FFFFFFE3
FFFFFFE2
FFFFFFF6
FFFFFFF4
00000029
00000022
FFFFFFF8
0000000F
00000035
FFFFFFFE
0000002D
FFFFFFDA
00000004
0000000E
0000000D
FFFFFFCE
FFFFFFF1
FFFFFFF2
FFFFFFDC
0000000B
00000002
0000000C
00000017
FFFFFFE5
0000001C
FFFFFFDD
FFFFFFF8
FFFFFFF7
00000008
00000008
FFFFFFF8
FFFFFFD8
FFFFFFFA
00000039
FFFFFFFB
0000002F
FFFFFFF9
00000000
FFFFFFEA
FFFFFFD5
FFFFFFFA
FFFFFFF9
FFFFFFD9
FFFFFFC2
00000033
FFFFFFE0
00000027
00000021
FFFFFFC4
FFFFFFE2
0000001F
FFFFFFF8
FFFFFFE9
00000029
00000037
FFFFFFDF
00000034
FFFFFFF4
FFFFFFBB
FFFFFFE0
FFFFFFEF
FFFFFFBD
FFFFFFE4
00000026
FFFFFFFD
FFFFFFE6
0000001C
0000001F
00000015
0000000D
00000003
00000017
FFFFFFD2
FFFFFFF6
0000002E
FFFFFFEB
FFFFFFD5
FFFFFFC1
0000000A
FFFFFFE9
FFFFFFC8
00000016
00000011
FFFFFFFE
0000000E
00000005
0000001C
0000001E
FFFFFFC6
FFFFFFF1
FFFFFFDF
00000017
00000026
0000002F
0000002F
FFFFFFEA
FFFFFFFC
00000004
FFFFFFD9
FFFFFFE2
FFFFFFE8
0000000B
FFFFFFE8
0000002E
FFFFFFD8
0000000C
00000024
FFFFFFCF
FFFFFFD9
00000007
FFFFFFFB
00000013
00000026
00000023
FFFFFFF7
00000022
00000025
FFFFFFFD
00000005
FFFFFFFE
00000039
00000001
0000000B
00000013
00000013
0000001A
FFFFFFE9
FFFFFFF0
FFFFFFD6
FFFFFFF1
FFFFFFEE
0000000E
FFFFFFF7
00000026
FFFFFFEF
00000014
00000004
00000039
00000009
0000001A
FFFFFFE6
00000033
FFFFFFFF
0000001A
FFFFFFE5
0000000B
00000021
FFFFFFFE
FFFFFFCB
00000025
00000007
0000002C
FFFFFFCB
00000001
FFFFFFFB
0000001C
00000037
0000002E
FFFFFFEF
FFFFFFE7
FFFFFFF6
FFFFFFD5
FFFFFFF4
00000006
00000008
FFFFFFD5
FFFFFFC6
FFFFFFEC
00000008
00000003
00000022
0000002B
FFFFFFED
FFFFFFCB
00000017
FFFFFFF1
FFFFFFF5
FFFFFFD0
0000002C
FFFFFFCC
FFFFFFD6
FFFFFFCF
FFFFFFF4
00000001
00000016
FFFFFFE1
0000002F
00000021
00000036
0000001C
FFFFFFDA
0000002A
00000030
FFFFFFE3
00000006
00000007
FFFFFFBF
FFFFFFDF
00000007
FFFFFFF0
00000023
0000001E
0000000E
0000002A
FFFFFFEC
00000033
00000003
00000034
FFFFFFFC
00000019
FFFFFFD0
FFFFFFBE
FFFFFFF8
00000001
FFFFFFD1
FFFFFFD7
0000000F
FFFFFFF2
FFFFFFD7
00000022
FFFFFFB8
0000002E
FFFFFFF4
0000001B
00000015
00000028
00000001
00000040
00000013
FFFFFFDD
FFFFFFC5
FFFFFFDD
FFFFFFF9
FFFFFFE0
0000002A
00000016
FFFFFFCA
FFFFFFDC
FFFFFFCC
00000032
FFFFFFD1
00000025
0000001C
00000013
00000045
00000020
FFFFFFCC
00000011
FFFFFFF5
00000004
FFFFFFE1
00000022
00000009
0000002B
00000027
FFFFFFF7
00000017
0000000D
00000033
FFFFFFE5
0000003D
FFFFFFD2
0000002F
FFFFFFD2
FFFFFFEB
0000002B
FFFFFFFB
0000002B
00000018
FFFFFFAD
00000008
00000020
00000029
00000010
0000000B
00000020
FFFFFFEF
00000039
FFFFFFFC
00000037
FFFFFFE3
FFFFFFDF
00000016
00000001
00000018
0000000E
FFFFFFC9
0000001F
00000021
FFFFFFC7
FFFFFFF3
00000022
FFFFFFF8
FFFFFFE9
FFFFFFD5
FFFFFFF9
0000002C
FFFFFFF3
0000002D
0000003A
FFFFFFC6
0000003B
FFFFFFF4
FFFFFFFF
00000021
FFFFFFDE
FFFFFFBB
FFFFFFCC
00000020
00000037
0000003D
FFFFFFCB
FFFFFFD3
00000013
00000014
FFFFFFF3
FFFFFFF1
0000002D
00000016
00000020
00000048
FFFFFFCB
FFFFFFFF
FFFFFFD0
FFFFFFFF
0000002B
0000001A
00000000
FFFFFFF2
00000006
00000028
00000015
0000002A
0000001D
FFFFFFEC
0000001D
FFFFFFFB
FFFFFFBE
0000000A
00000011
FFFFFFE7
00000005
FFFFFFF3
00000009
FFFFFFF4
00000010
FFFFFFEA
00000035
FFFFFFF5
00000006
00000036
0000000B
FFFFFFEF
00000027
FFFFFFDA
00000018
00000040
0000001D
FFFFFFC2
00000018
00000029
0000002E
FFFFFFEB
00000024
FFFFFFDF
FFFFFFF9
FFFFFFED
0000000D
00000014
FFFFFFFA
FFFFFFF6
FFFFFFCD
FFFFFFFB
0000001B
FFFFFFF1
0000002F
FFFFFFDA
00000023
FFFFFFCC
FFFFFFFD
FFFFFFBC
FFFFFFF4
00000011
0000000B
00000008
FFFFFFF0
0000000F
FFFFFFE6
FFFFFFF4
FFFFFFD2
00000006
00000042
FFFFFFD0
FFFFFFE0
0000005A
0000001A
FFFFFFF7
0000002B
00000017
0000000D
FFFFFFF4
0000002B
FFFFFFE2
00000011
0000002C
00000017
00000010
FFFFFFE9
00000015
FFFFFFED
FFFFFFF5
FFFFFFDA
0000002B
FFFFFFD5
00000005
FFFFFFDE
FFFFFFC9
00000016
FFFFFFEB
0000002A
FFFFFFFD
FFFFFFFA
0000004B
FFFFFFF9
FFFFFFD9
00000033
FFFFFFB8
0000000F
00000025
FFFFFFBE
FFFFFFDC
FFFFFFDE
FFFFFFF8
FFFFFFEF
FFFFFFD0
0000000E
FFFFFFF9
FFFFFFF8
00000006
FFFFFFFE
FFFFFFDB
0000002B
FFFFFFDF
FFFFFFC4
00000020
FFFFFFD8
FFFFFFF4
FFFFFFB6
FFFFFFE8
0000001C
0000002C
FFFFFFE3
FFFFFFE9
0000001E
FFFFFFF0
0000000B
0000000E
00000025
00000000
FFFFFFDF
FFFFFFD3
FFFFFFE9
FFFFFFBE
00000003
00000024
FFFFFFE1
FFFFFFF0
00000019
FFFFFFE7
00000013
0000001C
FFFFFFF0
FFFFFFF7
FFFFFFE5
00000023
0000001E
00000003
FFFFFFFA
FFFFFFE9
0000002B
FFFFFFEE
0000000E
FFFFFFF2
FFFFFFE4
0000001C
00000010
00000024
00000013
FFFFFFF8
FFFFFFCB
0000001C
FFFFFFE2
00000028
FFFFFFE3
FFFFFFCF
FFFFFFF4
FFFFFFDF
00000029
00000001
00000004
FFFFFFE2
00000008
00000020
00000028
FFFFFFCA
00000009
FFFFFFCE
00000016
FFFFFFD7
0000000F
FFFFFFE9
FFFFFFFF
0000000F
FFFFFFCB
0000003F
0000001C
FFFFFFDC
0000002B
FFFFFFFA
FFFFFFF5
FFFFFFE8
00000010
0000000C
00000034
FFFFFFDD
FFFFFFE9
0000000A
FFFFFFF0
FFFFFFED
0000000A
FFFFFFE2
00000021
FFFFFFC4
00000009
FFFFFFD6
0000003E
FFFFFFD0
00000021
0000003A
00000022
00000005
FFFFFFDE
FFFFFFDA
00000026
00000016
00000019
FFFFFFF1
00000017
FFFFFFBD
FFFFFFD3
FFFFFFCE
