FFFFFFC9
FFFFFFE6
0000003C
0000004E
00000000
00000042
00000031
FFFFFFFE
0000003B
00000037
FFFFFFDC
FFFFFFE0
0000003D
00000002
FFFFFFE8
FFFFFFCC
FFFFFFE9
FFFFFFC2
FFFFFFBE
FFFFFFA0
FFFFFFB2
0000001F
00000027
FFFFFFEE
FFFFFFFD
00000042
00000040
00000008
00000005
00000049
00000032
0000004E
00000041
00000027
00000040
FFFFFFC7
00000015
FFFFFFF8
00000000
FFFFFFD1
00000023
FFFFFFFF
FFFFFFEB
00000029
0000003D
0000002C
00000028
0000001A
0000002D
00000023
00000058
0000003E
0000000A
FFFFFFF3
FFFFFFF2
00000020
FFFFFFEB
FFFFFFFB
FFFFFFF7
FFFFFFB7
FFFFFFC4
FFFFFFBD
FFFFFFC1
FFFFFFE5
00000031
0000002B
FFFFFFE5
00000033
00000046
0000002E
FFFFFFED
00000044
00000040
FFFFFF83
FFFFFF9F
00000021
00000028
FFFFFFBB
FFFFFFCA
FFFFFFF4
FFFFFFC8
FFFFFFF0
00000006
0000003D
00000001
0000001A
0000000F
FFFFFFAD
FFFFFF92
FFFFFFBA
FFFFFFF0
FFFFFFDF
FFFFFFCF
00000006
FFFFFFD3
FFFFFFF2
FFFFFFEE
FFFFFFC6
FFFFFFE4
FFFFFFB2
FFFFFFD0
00000026
00000054
00000031
FFFFFFFD
00000034
0000003D
00000016
00000051
0000001A
FFFFFF81
FFFFFF98
