FFFFFFEA
FFFFFFFF
FFFFFFFF
00000027
FFFFFFEC
0000000B
00000006
FFFFFFED
FFFFFFFB
FFFFFFD6
00000006
00000003
0000001C
00000012
00000003
0000000B
0000000A
00000000
00000000
00000002
FFFFFFF4
FFFFFFD3
FFFFFFEE
00000018
0000004C
00000002
00000010
FFFFFFFC
FFFFFFDE
FFFFFFE9
00000008
FFFFFFFF
00000011
00000013
FFFFFFF2
00000013
FFFFFFF6
FFFFFFEF
FFFFFFF3
00000004
FFFFFFF0
00000005
00000005
0000003F
FFFFFFE8
00000028
00000003
00000015
FFFFFFE9
FFFFFFF3
FFFFFFF9
0000000D
00000010
0000001E
FFFFFFE5
0000002A
FFFFFFDE
00000005
FFFFFFEC
FFFFFFFF
00000016
0000000C
00000024
FFFFFFEA
FFFFFFDA
00000005
FFFFFFFB
FFFFFFE1
FFFFFFF4
00000011
FFFFFFD7
00000035
FFFFFFF5
00000023
00000018
00000027
00000011
0000000C
FFFFFFFD
FFFFFFD7
00000014
0000000F
00000011
FFFFFFFC
00000021
FFFFFFE1
00000009
00000013
FFFFFFFE
FFFFFFFB
00000002
FFFFFFFE
FFFFFFF5
FFFFFFFD
FFFFFFFC
00000019
00000007
0000001D
00000012
FFFFFFD6
FFFFFFDB
00000011
FFFFFFE7
00000021
FFFFFFD9
00000004
FFFFFFF2
FFFFFFD8
0000002D
00000016
00000023
0000000E
00000005
00000004
0000000C
FFFFFFED
FFFFFFF1
FFFFFFD2
00000026
0000001D
00000002
00000018
0000000F
00000006
FFFFFFE0
00000005
FFFFFFF8
00000013
00000001
FFFFFFFA
FFFFFFFA
FFFFFFF1
FFFFFFDA
00000003
00000006
FFFFFFFB
FFFFFFEB
00000003
00000021
FFFFFFFC
00000028
FFFFFFEE
FFFFFFF7
FFFFFFF4
00000022
FFFFFFEF
FFFFFFF8
00000027
FFFFFFE9
00000023
FFFFFFCC
00000017
00000006
0000001A
00000035
FFFFFFDC
FFFFFFF9
00000035
FFFFFFE9
FFFFFFF3
0000002F
00000021
FFFFFFE9
FFFFFFF9
0000001C
00000026
00000020
00000019
FFFFFFEC
00000005
FFFFFFF6
00000022
FFFFFFEA
00000029
00000023
00000034
0000001F
00000027
00000028
0000000E
0000001B
00000004
FFFFFFF0
00000004
00000002
FFFFFFE2
00000008
00000018
00000014
00000013
FFFFFFF3
0000000F
00000006
FFFFFFEF
0000001F
FFFFFFE1
FFFFFFFF
FFFFFFFF
FFFFFFE8
FFFFFFCF
00000024
00000007
00000000
00000028
00000040
FFFFFFF6
00000025
00000006
FFFFFFEC
FFFFFFE5
0000002A
00000001
FFFFFFFE
FFFFFFDD
00000000
00000000
FFFFFFEA
0000001B
FFFFFFFF
00000005
00000021
0000000C
0000001A
00000000
FFFFFFFD
0000000C
00000015
00000024
FFFFFFEE
FFFFFFFF
FFFFFFF1
00000023
00000023
FFFFFFDE
FFFFFFF6
00000007
FFFFFFE1
0000000B
FFFFFFEE
0000002A
00000008
FFFFFFF6
0000001F
FFFFFFE6
0000000C
FFFFFFC1
FFFFFFD8
00000030
FFFFFFED
FFFFFFF8
0000001F
00000008
0000001B
FFFFFFBE
0000002A
00000009
00000019
00000026
0000001D
FFFFFFED
0000002C
0000000B
FFFFFFDC
FFFFFFFA
0000002D
00000021
0000001F
00000007
00000011
FFFFFFFA
FFFFFFD7
00000014
FFFFFFDE
FFFFFFE3
00000000
00000009
FFFFFFF5
0000001A
00000016
0000001C
FFFFFFDC
00000014
00000007
00000013
FFFFFFC5
00000023
00000002
00000026
FFFFFFDF
00000011
FFFFFFE6
FFFFFFE8
FFFFFFE4
FFFFFFE9
FFFFFFFF
FFFFFFE7
FFFFFFFC
00000005
0000001E
FFFFFFF1
00000001
00000005
00000024
0000002B
FFFFFFDB
FFFFFFFF
0000001C
00000022
FFFFFFFB
00000022
00000012
0000000A
00000005
0000001F
00000005
0000000D
0000000F
0000000B
00000009
FFFFFFEA
00000039
0000001E
00000010
FFFFFFEB
00000001
0000000C
00000041
FFFFFFD0
FFFFFFF1
0000001D
FFFFFFFB
FFFFFFF4
FFFFFFEB
00000007
00000007
FFFFFFF5
FFFFFFEC
FFFFFFE7
FFFFFFF5
00000005
0000001D
00000009
00000010
00000007
00000017
00000010
0000001A
FFFFFFEA
0000002A
00000018
FFFFFFEB
00000008
00000014
00000028
00000019
00000016
FFFFFFD5
00000009
FFFFFFCE
00000012
0000000D
FFFFFFFA
FFFFFFFA
0000001B
FFFFFFEB
FFFFFFE4
0000000C
00000008
00000001
00000030
00000006
FFFFFFEA
FFFFFFF3
00000018
00000007
FFFFFFE3
00000000
0000000B
FFFFFFE7
FFFFFFE6
0000000E
00000014
0000001D
FFFFFFFD
00000016
FFFFFFF8
00000002
FFFFFFE5
0000000F
FFFFFFF2
FFFFFFEB
00000029
FFFFFFCC
00000005
FFFFFFD0
FFFFFFFA
FFFFFFFD
FFFFFFF4
00000012
FFFFFFF6
00000021
FFFFFFF6
FFFFFFF8
FFFFFFFC
FFFFFFED
FFFFFFE3
0000002D
00000008
00000003
00000015
FFFFFFFB
00000018
FFFFFFDF
00000013
00000026
FFFFFFD8
00000014
FFFFFFEC
00000014
00000019
0000001E
FFFFFFEB
FFFFFFDC
FFFFFFE8
0000000F
0000000F
FFFFFFF6
FFFFFFFD
FFFFFFFF
FFFFFFF1
FFFFFFE9
00000014
00000005
FFFFFFF0
FFFFFFEB
0000002F
FFFFFFEB
00000016
00000009
FFFFFFDD
FFFFFFFC
0000001E
FFFFFFFE
FFFFFFEE
FFFFFFD7
FFFFFFFB
00000018
00000010
00000034
00000015
00000020
0000001D
FFFFFFF2
0000002C
00000010
0000003B
FFFFFFF7
00000026
FFFFFFDF
FFFFFFE4
0000000B
00000017
FFFFFFE9
FFFFFFEE
00000006
FFFFFFF9
FFFFFFD3
FFFFFFF2
00000008
00000001
0000000C
00000002
00000003
0000001B
00000007
FFFFFFE6
00000014
00000008
FFFFFFE7
0000000C
0000000F
FFFFFFEF
FFFFFFD4
FFFFFFD4
FFFFFFDD
FFFFFFE6
00000006
00000013
0000001E
00000022
FFFFFFF0
FFFFFFEF
FFFFFFE5
FFFFFFDE
00000014
FFFFFFEB
0000000A
FFFFFFD3
FFFFFFF4
FFFFFFF9
FFFFFFFD
00000011
FFFFFFFA
00000018
00000019
FFFFFFFC
00000010
0000000E
00000008
FFFFFFFB
00000008
FFFFFFE1
00000016
FFFFFFF9
0000001A
FFFFFFF4
0000001F
00000031
00000009
FFFFFFFC
FFFFFFFB
00000018
00000004
00000001
00000017
FFFFFFE5
FFFFFFFA
FFFFFFF3
FFFFFFE4
00000003
00000003
FFFFFFF1
FFFFFFDF
00000007
0000001A
00000004
0000000C
0000001C
0000000B
00000017
FFFFFFE0
FFFFFFE7
00000006
00000036
FFFFFFDB
0000003A
00000003
FFFFFFF5
00000009
FFFFFFF7
0000001F
00000010
FFFFFFF0
0000000A
00000022
0000000B
FFFFFFEC
0000001F
FFFFFFDB
0000001A
00000007
00000018
FFFFFFEC
FFFFFFE1
FFFFFFEC
FFFFFFEB
00000004
00000024
0000002F
FFFFFFF1
0000000F
FFFFFFF2
00000034
FFFFFFFF
00000027
00000029
FFFFFFE1
FFFFFFFC
0000000F
FFFFFFFB
00000034
FFFFFFD8
00000018
00000000
FFFFFFDA
0000000D
00000014
FFFFFFF9
FFFFFFE1
FFFFFFE9
FFFFFFF7
0000003B
0000000C
00000012
FFFFFFEB
FFFFFFDA
0000001C
0000000B
00000000
FFFFFFDE
0000001B
0000000D
00000001
FFFFFFEF
00000006
FFFFFFFB
FFFFFFEE
FFFFFFF1
FFFFFFEF
00000016
FFFFFFF0
FFFFFFFB
FFFFFFF9
0000001D
00000040
FFFFFFE5
00000016
FFFFFFF3
FFFFFFF9
00000012
0000001F
00000011
FFFFFFFA
FFFFFFFA
FFFFFFFC
00000027
FFFFFFEA
FFFFFFE9
00000008
00000009
0000000A
00000029
FFFFFFE9
0000000C
00000007
0000001A
00000009
FFFFFFF1
00000018
0000000C
0000001F
0000000C
00000029
0000001A
00000020
FFFFFFF1
FFFFFFF7
FFFFFFEF
0000002D
00000017
00000013
FFFFFFFC
FFFFFFED
00000017
00000026
00000016
00000002
00000018
00000021
FFFFFFF9
00000017
00000002
00000012
FFFFFFF4
00000005
00000007
FFFFFFFA
00000019
FFFFFFEC
FFFFFFF1
FFFFFFE6
FFFFFFF0
00000017
00000018
00000016
00000028
0000001F
FFFFFFFD
FFFFFFEA
FFFFFFF8
FFFFFFE6
00000012
FFFFFFFA
FFFFFFDA
0000001F
00000011
00000021
00000018
00000000
FFFFFFEE
00000014
0000000F
00000012
00000009
FFFFFFFF
0000000B
FFFFFFF3
00000030
00000009
0000000C
0000001E
FFFFFFFE
0000003C
00000006
FFFFFFF8
00000014
00000027
00000007
00000022
00000014
FFFFFFD4
00000014
00000016
FFFFFFDA
FFFFFFF2
00000001
FFFFFFFA
0000001B
0000000D
FFFFFFFD
00000003
FFFFFFEB
FFFFFFF5
00000036
00000014
FFFFFFFE
00000013
00000018
0000001D
00000000
00000011
FFFFFFF9
0000000D
FFFFFFF3
00000017
FFFFFFFF
FFFFFFF9
00000007
FFFFFFE5
0000000A
00000027
00000009
0000003D
FFFFFFEA
0000000E
FFFFFFFB
00000020
00000000
FFFFFFF1
FFFFFFF5
FFFFFFF8
00000029
FFFFFFFA
0000000D
FFFFFFEE
FFFFFFD6
FFFFFFF1
FFFFFFFD
00000002
00000000
FFFFFFEF
0000000A
0000000A
00000005
0000001C
0000002D
FFFFFFF2
FFFFFFF1
FFFFFFE7
FFFFFFE5
FFFFFFEF
FFFFFFFE
FFFFFFEB
FFFFFFE8
0000001C
0000001F
FFFFFFF1
0000000D
0000002E
00000003
0000002D
FFFFFFE4
FFFFFFFE
00000016
0000002A
FFFFFFE1
FFFFFFED
0000001B
FFFFFFFA
00000012
00000007
FFFFFFE5
00000021
FFFFFFF1
FFFFFFF8
00000005
00000016
FFFFFFFE
0000001D
FFFFFFFE
0000001E
FFFFFFFA
0000000E
FFFFFFE4
00000005
FFFFFFE6
00000015
0000001A
FFFFFFE1
FFFFFFE7
00000019
FFFFFFF6
00000011
FFFFFFFA
0000001F
FFFFFFF1
00000001
FFFFFFE1
FFFFFFF7
00000000
FFFFFFEB
FFFFFFE0
0000000D
FFFFFFF2
FFFFFFF6
00000023
0000000E
0000001D
0000000A
FFFFFFFC
FFFFFFE1
0000001B
FFFFFFF6
FFFFFFFD
0000000F
00000024
0000001E
00000006
0000000F
00000036
FFFFFFE4
0000002C
00000027
FFFFFFF0
00000030
FFFFFFDB
00000002
0000001B
FFFFFFF9
FFFFFFFE
00000005
0000001B
FFFFFFF7
00000031
0000000B
FFFFFFF2
00000008
00000011
FFFFFFD6
FFFFFFE9
00000008
FFFFFFF9
FFFFFFEC
FFFFFFF4
0000000E
00000013
FFFFFFF5
FFFFFFEE
FFFFFFF9
0000001B
00000003
00000019
FFFFFFFA
0000001E
00000011
0000001B
00000014
FFFFFFD9
00000025
0000001B
00000014
FFFFFFF6
FFFFFFE5
00000021
00000016
00000006
0000000C
FFFFFFE9
0000000E
00000007
0000001B
FFFFFFD8
FFFFFFE8
00000027
0000000F
0000003C
0000000F
0000000D
FFFFFFE3
00000009
00000020
00000022
00000027
0000000D
FFFFFFCD
00000009
FFFFFFED
0000000D
00000018
0000001D
00000026
FFFFFFFA
FFFFFFDC
FFFFFFFC
00000021
00000009
00000010
FFFFFFCD
0000000A
FFFFFFDD
FFFFFFE9
FFFFFFF1
00000016
FFFFFFFA
0000000A
0000000A
0000001C
FFFFFFE7
FFFFFFDA
FFFFFFEE
FFFFFFF7
FFFFFFF9
0000001B
FFFFFFF8
0000001C
FFFFFFEE
0000000D
FFFFFFF7
FFFFFFED
0000001A
FFFFFFE6
00000005
0000002B
00000020
0000001F
FFFFFFFB
FFFFFFF2
FFFFFFF8
00000002
00000009
00000002
00000006
FFFFFFFE
FFFFFFEB
0000000D
00000012
00000015
FFFFFFFA
00000005
FFFFFFE4
00000007
00000018
FFFFFFEC
00000015
00000015
00000009
FFFFFFF1
00000007
0000001D
00000028
0000001A
FFFFFFDC
0000000B
FFFFFFD4
0000001A
0000000B
FFFFFFFD
00000004
FFFFFFD6
FFFFFFF2
0000000E
FFFFFFE2
00000022
00000020
FFFFFFEF
00000015
FFFFFFE7
00000000
0000000F
00000018
00000003
00000006
0000000D
FFFFFFF1
FFFFFFE5
0000001F
0000000D
FFFFFFC0
FFFFFFDB
FFFFFFF9
0000001E
FFFFFFDF
FFFFFFF0
0000000C
0000000F
0000001D
FFFFFFF2
FFFFFFE3
FFFFFFFA
FFFFFFD2
FFFFFFFF
00000020
FFFFFFDA
FFFFFFDA
FFFFFFE7
FFFFFFFF
FFFFFFD9
FFFFFFF2
FFFFFFF5
00000007
FFFFFFDA
00000001
00000003
0000001A
00000032
00000001
FFFFFFF6
0000001A
00000014
0000001D
00000003
00000015
0000001F
0000001A
FFFFFFFA
00000004
00000005
FFFFFFEF
00000005
FFFFFFF4
FFFFFFE9
FFFFFFE1
FFFFFFEF
00000004
FFFFFFFE
FFFFFFF9
0000001E
FFFFFFDD
FFFFFFF9
FFFFFFEE
FFFFFFED
FFFFFFEE
00000008
FFFFFFF3
FFFFFFE4
00000001
00000000
FFFFFFEC
FFFFFFF0
FFFFFFEB
00000000
FFFFFFEA
00000032
FFFFFFEF
FFFFFFEA
FFFFFFE5
FFFFFFF5
0000003C
FFFFFFC4
FFFFFFE0
FFFFFFFD
FFFFFFF1
00000013
00000009
FFFFFFF9
FFFFFFD4
0000001A
FFFFFFEC
00000002
0000000C
0000000D
0000001D
FFFFFFEE
FFFFFFF8
00000015
00000006
0000002C
FFFFFFE3
FFFFFFF1
00000038
00000032
FFFFFFE7
FFFFFFDC
FFFFFFF6
FFFFFFC7
FFFFFFE7
FFFFFFEF
FFFFFFD6
00000001
FFFFFFF6
0000000B
FFFFFFF6
FFFFFFF2
0000000C
FFFFFFEB
FFFFFFDC
00000021
0000000B
00000001
00000012
00000007
FFFFFFD4
FFFFFFE8
FFFFFFF4
FFFFFFFA
FFFFFFE3
FFFFFFFA
00000000
00000000
FFFFFFD9
FFFFFFE7
FFFFFFE2
FFFFFFE2
0000002C
00000016
00000027
00000036
FFFFFFFC
00000015
FFFFFFDD
00000000
FFFFFFF7
00000009
FFFFFFF0
00000018
FFFFFFD9
FFFFFFF6
00000005
00000020
00000016
00000008
FFFFFFDC
00000013
0000002D
FFFFFFDB
0000000D
00000016
FFFFFFEF
FFFFFFED
FFFFFFDE
0000000F
00000015
00000012
0000001F
00000014
FFFFFFFB
00000021
FFFFFFF0
0000002C
00000025
FFFFFFFC
FFFFFFEE
FFFFFFF5
FFFFFFFE
0000000C
00000008
FFFFFFF7
FFFFFFFC
0000002B
FFFFFFFB
00000011
0000002F
FFFFFFDD
00000011
00000004
00000020
0000000D
FFFFFFED
0000000B
00000009
FFFFFFF7
0000002B
FFFFFFF9
00000015
0000002C
FFFFFFE9
FFFFFFFE
00000008
FFFFFFE2
00000021
0000000D
00000029
0000000C
FFFFFFDA
00000019
FFFFFFF8
FFFFFFFA
FFFFFFEC
0000002C
FFFFFFE7
FFFFFFF7
FFFFFFF5
FFFFFFF2
00000024
FFFFFFDC
FFFFFFFC
0000000B
00000001
FFFFFFFA
FFFFFFE8
FFFFFFF0
FFFFFFE6
00000025
00000016
FFFFFFF4
00000023
FFFFFFEF
FFFFFFED
00000012
0000000B
00000011
0000000C
00000012
0000000C
FFFFFFE4
FFFFFFF2
00000008
0000001B
0000002D
0000004C
00000008
0000001A
00000003
FFFFFFFD
0000001F
00000024
00000027
FFFFFFFF
00000003
0000000E
00000020
FFFFFFFF
FFFFFFDA
00000024
0000005B
FFFFFFDD
0000000B
00000006
0000001F
FFFFFFF8
FFFFFFE6
FFFFFFD4
FFFFFFE4
00000020
00000001
FFFFFFE2
FFFFFFE0
FFFFFFF5
00000003
FFFFFFFD
0000000C
FFFFFFC8
00000010
00000017
0000002E
FFFFFFFC
FFFFFFF8
00000002
00000005
00000003
00000003
00000013
0000001F
00000005
FFFFFFF5
FFFFFFDC
FFFFFFF1
FFFFFFCD
FFFFFFF8
0000002A
0000002A
00000001
00000014
FFFFFFFA
FFFFFFE6
FFFFFFF1
FFFFFFF4
00000015
00000035
FFFFFFEE
FFFFFFEF
FFFFFFF3
00000031
FFFFFFF1
00000006
FFFFFFE8
00000020
FFFFFFEE
FFFFFFFC
0000000C
FFFFFFDC
FFFFFFF9
00000006
FFFFFFF5
0000001D
FFFFFFEA
00000018
FFFFFFEF
FFFFFFF7
0000001D
00000018
0000001E
0000000D
00000020
00000008
00000012
FFFFFFF8
00000016
FFFFFFF2
FFFFFFF4
00000008
0000000E
0000001D
0000002A
FFFFFFF9
00000011
FFFFFFFC
00000021
FFFFFFF5
00000021
0000001F
00000020
00000007
00000019
0000003A
FFFFFFE5
00000007
00000014
FFFFFFFE
FFFFFFFA
0000000E
00000007
FFFFFFE5
0000002A
00000032
FFFFFFF5
00000005
00000000
00000013
0000000C
00000026
00000044
FFFFFFF3
0000004B
00000010
0000001B
00000022
FFFFFFDA
0000000E
0000001E
00000028
FFFFFFE1
00000019
FFFFFFFB
00000028
FFFFFFD2
FFFFFFF7
FFFFFFE0
0000000B
00000000
FFFFFFE6
0000001E
00000000
FFFFFFEB
00000006
0000000D
00000017
FFFFFFFA
00000006
FFFFFFEB
FFFFFFFC
FFFFFFF7
FFFFFFEF
FFFFFFEF
FFFFFFF9
FFFFFFFE
FFFFFFF7
00000004
FFFFFFFA
FFFFFFFE
FFFFFFEB
00000012
FFFFFFFE
0000001B
FFFFFFF3
FFFFFFF5
FFFFFFED
0000000E
00000038
00000015
0000001A
FFFFFFFC
FFFFFFF4
00000015
FFFFFFFE
00000020
00000006
00000020
00000019
FFFFFFF7
FFFFFFE7
FFFFFFF2
00000016
FFFFFFE6
00000002
0000002F
FFFFFFF4
0000000E
00000021
FFFFFFFA
00000036
FFFFFFF3
00000001
00000001
FFFFFFF8
FFFFFFE7
FFFFFFFE
FFFFFFF2
FFFFFFE9
00000021
00000007
FFFFFFFB
FFFFFFED
00000012
00000002
00000002
FFFFFFFE
00000029
00000010
FFFFFFDD
FFFFFFF1
FFFFFFF9
FFFFFFFB
00000013
FFFFFFFB
00000028
FFFFFFC5
FFFFFFE7
FFFFFFF4
00000013
FFFFFFF4
00000016
0000001E
00000032
00000034
0000000C
0000000F
FFFFFFEB
FFFFFFFB
0000001C
00000013
0000001D
FFFFFFCA
FFFFFFE0
FFFFFFF1
FFFFFFF6
00000008
00000015
0000001D
00000003
FFFFFFE1
FFFFFFFA
00000042
0000000A
FFFFFFF7
00000022
00000001
FFFFFFFC
00000004
0000001A
FFFFFFE1
FFFFFFFC
FFFFFFFD
00000013
FFFFFFEE
FFFFFFF4
FFFFFFF8
00000010
FFFFFFF2
00000002
0000000C
FFFFFFCF
FFFFFFFE
FFFFFFE8
00000012
00000002
FFFFFFF4
00000029
00000024
00000017
0000000E
FFFFFFF4
FFFFFFE0
00000006
00000004
FFFFFFEB
FFFFFFFC
FFFFFFF2
FFFFFFF4
FFFFFFD9
00000001
00000007
00000007
0000000C
FFFFFFED
00000018
00000020
0000001E
00000001
0000001A
00000012
FFFFFFE3
00000030
00000016
00000029
FFFFFFDC
FFFFFFFC
00000010
FFFFFFE4
FFFFFFF2
0000000E
00000018
00000016
FFFFFFF5
00000006
00000024
FFFFFFE5
FFFFFFE5
FFFFFFE9
FFFFFFEC
FFFFFFE5
FFFFFFD6
00000009
00000006
FFFFFFE5
0000001B
FFFFFFED
0000000B
FFFFFFF2
FFFFFFCF
00000007
00000018
FFFFFFDA
0000000F
FFFFFFF4
FFFFFFF3
FFFFFFF8
00000001
FFFFFFDF
00000012
FFFFFFFB
00000011
0000001B
00000014
00000001
FFFFFFF7
FFFFFFEE
FFFFFFEB
FFFFFFC4
FFFFFFCB
0000000B
FFFFFFE6
FFFFFFF9
00000001
FFFFFFF1
FFFFFFE2
FFFFFFF3
00000002
FFFFFFDE
00000025
FFFFFFEE
FFFFFFE6
FFFFFFE8
FFFFFFF2
FFFFFFEE
FFFFFFEB
00000001
FFFFFFD5
00000017
0000000F
00000018
00000000
00000001
FFFFFFE7
FFFFFFF6
FFFFFFFB
FFFFFFE9
00000014
FFFFFFE5
0000002C
FFFFFFE8
00000002
00000007
0000002E
FFFFFFDC
FFFFFFEA
00000004
00000035
FFFFFFE6
FFFFFFEA
FFFFFFF2
FFFFFFED
00000009
00000004
00000019
FFFFFFDB
FFFFFFE0
FFFFFFDC
00000001
0000001E
FFFFFFEE
FFFFFFFD
00000008
FFFFFFFD
00000014
00000002
00000025
0000000E
FFFFFFE8
0000001E
00000028
0000000D
FFFFFFFE
00000007
00000003
0000000A
00000003
FFFFFFFE
0000001B
0000001C
FFFFFFD9
0000002D
0000001A
FFFFFFFF
00000009
00000007
00000007
FFFFFFDD
00000014
00000007
0000001F
FFFFFFEF
0000000F
FFFFFFF0
00000013
FFFFFFF4
FFFFFFED
FFFFFFF8
00000018
FFFFFFE2
FFFFFFE1
FFFFFFD0
00000008
0000000A
00000002
0000001B
0000001D
00000015
00000017
0000002D
FFFFFFF5
0000000F
FFFFFFE0
00000022
0000000C
0000000C
FFFFFFF4
FFFFFFCF
00000007
0000001C
FFFFFFE7
FFFFFFEB
00000008
FFFFFFF3
FFFFFFEA
FFFFFFFA
FFFFFFE2
FFFFFFE9
0000001D
FFFFFFFA
00000018
FFFFFFE8
FFFFFFE7
00000014
FFFFFFF6
FFFFFFE1
00000014
FFFFFFB9
FFFFFFE2
00000002
00000011
FFFFFFE5
0000000C
FFFFFFE6
00000013
FFFFFFF6
00000007
FFFFFFE7
FFFFFFEA
00000010
0000000A
00000000
FFFFFFF2
FFFFFFFC
0000000A
00000002
00000015
0000000A
00000002
00000005
00000008
00000028
00000013
FFFFFFF6
0000000A
FFFFFFFF
0000002D
00000002
0000000F
FFFFFFF8
FFFFFFFF
FFFFFFEA
FFFFFFF2
FFFFFFE7
00000007
FFFFFFF3
FFFFFFE7
FFFFFFF7
0000000D
FFFFFFEE
00000001
0000002D
FFFFFFFE
FFFFFFFE
00000000
FFFFFFE8
0000001F
FFFFFFED
FFFFFFF1
FFFFFFEA
00000008
FFFFFFFD
FFFFFFEB
00000002
FFFFFFFF
0000002F
FFFFFFF9
FFFFFFEB
FFFFFFF7
00000006
FFFFFFFD
0000000F
FFFFFFDD
FFFFFFFC
0000000E
00000007
FFFFFFDE
00000006
00000015
FFFFFFE1
00000004
FFFFFFF5
FFFFFFFD
0000000F
0000001E
0000000C
FFFFFFEE
FFFFFFF4
00000029
0000001F
0000001D
FFFFFFEA
FFFFFFD1
0000001A
FFFFFFF3
FFFFFFFE
00000006
0000000C
FFFFFFE7
00000007
00000007
0000001F
FFFFFFF9
FFFFFFDD
0000000C
FFFFFFED
FFFFFFFF
FFFFFFE2
FFFFFFF5
0000000D
FFFFFFEA
FFFFFFE2
00000010
FFFFFFF3
00000014
FFFFFFED
FFFFFFF9
FFFFFFF5
FFFFFFEC
00000011
00000002
FFFFFFE8
00000025
0000001F
FFFFFFF1
FFFFFFFC
FFFFFFF0
0000001A
0000000B
FFFFFFFD
00000027
00000041
FFFFFFF7
FFFFFFF9
00000006
FFFFFFF0
00000013
00000000
FFFFFFFD
FFFFFFFC
FFFFFFEF
0000000F
FFFFFFFB
00000003
FFFFFFE0
00000014
0000000D
FFFFFFEC
FFFFFFE6
FFFFFFF6
FFFFFFD7
0000000F
FFFFFFF8
00000005
00000014
FFFFFFEF
FFFFFFE3
00000022
FFFFFFDA
0000000E
FFFFFFF3
00000015
00000020
00000001
FFFFFFD9
FFFFFFFA
0000000E
0000003D
00000004
00000000
FFFFFFC8
FFFFFFE3
00000038
0000002B
FFFFFFF7
00000033
FFFFFFFA
0000002C
00000019
FFFFFFEF
0000001F
FFFFFFF1
FFFFFFCC
00000010
FFFFFFF1
FFFFFFF9
FFFFFFFC
FFFFFFEE
FFFFFFFB
FFFFFFE3
FFFFFFE4
00000026
FFFFFFFD
00000006
FFFFFFFB
00000019
FFFFFFEA
00000019
00000018
FFFFFFE7
00000005
FFFFFFE5
00000010
00000006
00000018
00000006
00000007
0000000C
FFFFFFF6
00000007
00000012
0000000A
0000000E
00000013
0000000C
FFFFFFF1
FFFFFFF8
00000037
FFFFFFFC
00000009
FFFFFFFE
00000010
FFFFFFFD
0000000B
00000019
FFFFFFEF
00000007
FFFFFFE0
FFFFFFF0
0000002E
0000001D
00000005
00000004
00000017
FFFFFFDC
0000001D
FFFFFFEC
00000015
00000007
00000010
FFFFFFF1
00000009
00000009
00000009
FFFFFFF1
0000000A
FFFFFFDB
00000020
FFFFFFE1
FFFFFFFA
00000006
FFFFFFF3
00000005
00000001
00000000
0000000F
FFFFFFE3
FFFFFFEE
FFFFFFFF
00000018
FFFFFFE1
00000018
FFFFFFDE
FFFFFFB4
FFFFFFF8
FFFFFFF2
0000000D
00000016
00000003
0000000C
FFFFFFFC
00000002
FFFFFFDE
00000029
0000001C
FFFFFFE3
00000018
FFFFFFE4
FFFFFFDB
00000019
FFFFFFDC
FFFFFFDA
00000002
0000001D
00000024
00000007
FFFFFFFD
0000002C
0000000F
00000006
00000036
FFFFFFF8
FFFFFFD8
0000001E
00000006
00000008
FFFFFFE5
00000005
00000008
FFFFFFFC
FFFFFFD5
FFFFFFD5
0000002D
FFFFFFE5
00000006
FFFFFFFD
FFFFFFF9
FFFFFFFD
00000020
FFFFFFF1
FFFFFFF0
00000006
FFFFFFF0
00000038
0000000E
00000019
FFFFFFF3
00000013
FFFFFFFB
FFFFFFF4
00000001
FFFFFFED
00000006
FFFFFFFE
00000016
FFFFFFFB
FFFFFFF5
FFFFFFEA
00000015
FFFFFFF0
FFFFFFEA
FFFFFFF8
FFFFFFF7
00000012
0000000D
FFFFFFF5
FFFFFFDF
00000026
FFFFFFED
00000005
FFFFFFFE
FFFFFFE5
FFFFFFF6
00000002
FFFFFFFC
00000013
00000014
00000001
00000005
FFFFFFCE
FFFFFFEB
00000011
0000000E
FFFFFFDF
FFFFFFFA
FFFFFFB9
0000000E
FFFFFFFB
FFFFFFFA
0000001B
FFFFFFFB
FFFFFFE8
00000003
FFFFFFF5
FFFFFFEB
00000005
FFFFFFD4
00000000
00000010
00000006
FFFFFFF3
FFFFFFFF
FFFFFFEA
FFFFFFDB
00000026
00000020
00000017
0000002B
FFFFFFF6
0000001A
FFFFFFED
FFFFFFEA
0000001A
0000001E
0000000B
FFFFFFFE
FFFFFFD5
FFFFFFF4
0000000C
FFFFFFFA
0000001E
FFFFFFDC
00000006
FFFFFFE3
0000000D
00000000
0000001E
0000001E
00000022
00000003
FFFFFFFE
0000001A
FFFFFFED
FFFFFFFD
0000001E
FFFFFFE8
00000006
0000000F
00000000
FFFFFFEC
FFFFFFE3
FFFFFFE4
FFFFFFEB
FFFFFFF2
0000000D
00000015
FFFFFFFE
00000001
00000012
00000020
FFFFFFF8
FFFFFFFF
FFFFFFFF
00000017
0000001B
00000002
FFFFFFF9
FFFFFFEC
FFFFFFF5
0000001D
00000013
FFFFFFEE
FFFFFFF9
FFFFFFF3
FFFFFFE0
FFFFFFF7
00000019
FFFFFFEE
FFFFFFD7
FFFFFFFC
FFFFFFDE
FFFFFFD7
FFFFFFF0
FFFFFFFF
0000000C
FFFFFFFD
FFFFFFEE
00000001
00000012
FFFFFFFA
00000019
FFFFFFE2
FFFFFFF3
00000005
FFFFFFF5
00000019
FFFFFFF5
FFFFFFF9
FFFFFFEC
0000002F
FFFFFFC2
00000025
00000018
0000000B
00000022
FFFFFFF2
0000000A
FFFFFFFF
00000006
00000003
0000002C
FFFFFFF8
FFFFFFDF
FFFFFFE5
00000008
FFFFFFF7
FFFFFFD5
FFFFFFF3
0000000B
FFFFFFF1
FFFFFFFA
FFFFFFEB
0000002E
FFFFFFF5
00000007
FFFFFFED
FFFFFFF4
FFFFFFE4
00000007
0000000E
00000005
00000008
00000014
0000002C
0000002E
00000009
0000001F
FFFFFFF9
FFFFFFDC
0000000D
FFFFFFF5
FFFFFFEE
0000000F
00000007
00000004
00000001
0000000A
0000000C
FFFFFFED
0000000F
00000008
FFFFFFF3
0000000E
FFFFFFFB
0000000B
00000025
00000014
FFFFFFF2
00000018
00000005
FFFFFFF8
FFFFFFFD
FFFFFFF2
FFFFFFEF
FFFFFFD8
0000002A
00000007
FFFFFFEE
00000014
0000000D
FFFFFFF4
0000001B
00000023
FFFFFFD3
FFFFFFEE
FFFFFFFE
00000029
00000023
0000000B
00000013
00000025
FFFFFFE9
FFFFFFDE
FFFFFFFA
FFFFFFF4
FFFFFFF2
FFFFFFF9
00000009
FFFFFFD6
0000001E
00000040
FFFFFFFA
FFFFFFD7
00000003
FFFFFFEF
00000030
00000017
00000040
FFFFFFEC
00000039
FFFFFFEB
FFFFFFF6
0000002A
0000000F
FFFFFFDC
FFFFFFC0
00000031
FFFFFFE6
FFFFFFF8
0000001B
0000001C
0000000D
FFFFFFF2
FFFFFFF2
FFFFFFE7
FFFFFFFD
00000022
00000016
FFFFFFFE
FFFFFFE9
FFFFFFF1
00000034
00000009
0000000C
00000003
FFFFFFDC
FFFFFFE1
00000030
00000033
00000000
FFFFFFE4
00000008
0000000C
FFFFFFEC
FFFFFFE5
0000002E
00000019
00000019
FFFFFFF6
FFFFFFDF
0000000B
FFFFFFD0
0000001D
0000001B
FFFFFFD9
00000039
00000014
00000014
FFFFFFFC
00000016
0000000C
FFFFFFFE
0000000C
0000001D
00000019
FFFFFFFA
FFFFFFEA
FFFFFFE7
FFFFFFE5
FFFFFFD3
FFFFFFFA
FFFFFFF7
FFFFFFD3
FFFFFFFA
FFFFFFEF
FFFFFFF7
00000001
00000006
0000001B
00000004
FFFFFFD3
FFFFFFEC
00000014
00000014
0000000B
FFFFFFFB
FFFFFFE1
FFFFFFEF
00000009
FFFFFFEC
00000002
FFFFFFF5
FFFFFFFE
00000016
00000007
FFFFFFD5
FFFFFFE9
FFFFFFE3
00000017
00000009
FFFFFFEE
FFFFFFF2
FFFFFFE3
00000001
00000030
00000011
FFFFFFFA
0000003A
FFFFFFFD
00000016
FFFFFFE5
0000000B
FFFFFFEA
FFFFFFF5
0000000F
FFFFFFFB
0000001E
00000026
00000006
0000001A
00000005
FFFFFFFB
00000000
FFFFFFFB
FFFFFFE0
FFFFFFFB
FFFFFFFC
FFFFFFD9
FFFFFFDE
00000014
FFFFFFE4
00000001
00000007
FFFFFFEA
00000007
00000011
00000003
0000004C
00000019
0000000A
00000028
0000002E
FFFFFFFD
0000004B
0000002D
00000002
00000027
00000004
FFFFFFFA
00000019
FFFFFFEF
FFFFFFE5
0000000F
FFFFFFE9
00000034
0000002A
FFFFFFE4
00000015
0000000C
00000012
FFFFFFFC
FFFFFFFA
FFFFFFE2
00000024
FFFFFFF6
0000001D
FFFFFFD4
FFFFFFFA
FFFFFFEA
FFFFFFDD
FFFFFFEE
FFFFFFF6
00000001
0000000B
0000001B
00000004
FFFFFFF9
FFFFFFFE
00000025
0000001E
FFFFFFFF
FFFFFFFB
FFFFFFEC
0000001E
FFFFFFF1
FFFFFFEB
00000019
FFFFFFFB
FFFFFFF0
FFFFFFF5
0000000F
FFFFFFF8
FFFFFFF4
00000019
FFFFFFF7
0000000A
00000010
00000022
FFFFFFFF
0000000D
00000014
00000007
FFFFFFDD
FFFFFFFE
0000001E
00000005
FFFFFFD7
FFFFFFEB
FFFFFFEF
0000000A
FFFFFFE7
FFFFFFF6
0000001F
FFFFFFF5
00000021
FFFFFFFA
0000002E
00000010
FFFFFFD6
00000010
0000001E
0000001C
0000000D
FFFFFFD5
00000031
FFFFFFE4
FFFFFFFD
00000000
FFFFFFF2
FFFFFFE8
00000025
FFFFFFF3
00000001
0000001D
FFFFFFF0
00000005
FFFFFFF2
FFFFFFC9
FFFFFFF3
FFFFFFE1
FFFFFFED
0000000D
FFFFFFEA
00000007
FFFFFFE0
00000007
00000013
00000029
FFFFFFF4
00000015
FFFFFFE7
0000000B
0000001B
FFFFFFEB
00000005
00000005
00000006
00000025
FFFFFFE7
FFFFFFDC
00000012
FFFFFFFA
FFFFFFF6
FFFFFFFF
FFFFFFBF
00000002
FFFFFFEF
00000006
FFFFFFC5
FFFFFFF0
00000019
FFFFFFED
00000002
FFFFFFFA
FFFFFFD9
FFFFFFF8
FFFFFFE6
0000001D
00000017
FFFFFFF6
00000019
00000011
FFFFFFFB
0000000C
FFFFFFE2
FFFFFFF5
0000000C
FFFFFFF5
00000011
00000010
FFFFFFEC
0000000C
FFFFFFF2
00000020
FFFFFFF2
FFFFFFED
FFFFFFEC
00000017
FFFFFFFE
FFFFFFF6
FFFFFFDA
0000000E
00000008
00000008
FFFFFFF1
00000009
00000035
FFFFFFF4
0000001E
FFFFFFFF
00000016
FFFFFFCB
FFFFFFE3
FFFFFFFD
00000001
0000000D
00000008
0000000C
00000007
00000018
FFFFFFFB
FFFFFFF5
FFFFFFEB
FFFFFFE8
0000001A
0000001D
FFFFFFDC
0000000D
FFFFFFE3
FFFFFFE2
00000001
FFFFFFF9
00000002
00000004
00000006
00000009
0000001C
FFFFFFEA
00000020
00000015
FFFFFFD2
00000018
0000000E
0000000E
FFFFFFEE
0000000F
0000001D
00000000
FFFFFFC9
00000029
0000001A
00000004
00000049
00000001
FFFFFFF7
00000012
0000001E
FFFFFFEC
FFFFFFEC
00000000
00000007
FFFFFFF2
00000004
FFFFFFE9
FFFFFFF7
FFFFFFD6
FFFFFFE0
FFFFFFE4
FFFFFFF3
00000016
00000000
0000000B
00000012
FFFFFFED
00000000
FFFFFFDA
0000000B
00000024
00000003
0000000D
FFFFFFFF
0000001F
FFFFFFF2
00000015
FFFFFFF2
00000015
FFFFFFFF
FFFFFFF1
00000003
FFFFFFF0
FFFFFFE2
FFFFFFF1
0000000F
0000001A
FFFFFFF9
00000018
FFFFFFE2
FFFFFFF7
0000000A
FFFFFFD6
00000000
FFFFFFFD
00000023
00000039
00000027
FFFFFFEA
FFFFFFFB
FFFFFFF1
FFFFFFF1
00000012
FFFFFFEE
0000002A
0000000D
FFFFFFD5
FFFFFFE0
0000001A
0000000E
00000019
FFFFFFDA
FFFFFFD7
FFFFFFE1
FFFFFFDD
00000001
FFFFFFF7
FFFFFFEE
FFFFFFE7
FFFFFFFA
FFFFFFEA
00000009
FFFFFFFD
0000003B
FFFFFFFF
00000027
FFFFFFD4
FFFFFFE6
00000004
FFFFFFF5
FFFFFFD8
00000010
0000002D
0000000B
00000007
00000011
FFFFFFF0
00000009
FFFFFFFE
FFFFFFED
FFFFFFFC
0000002B
FFFFFFE9
00000013
00000007
00000013
FFFFFFCB
FFFFFFF8
00000003
FFFFFFBE
FFFFFFEF
0000000E
0000000A
00000018
00000004
00000008
FFFFFFFF
00000014
FFFFFFD0
FFFFFFFA
FFFFFFEC
00000002
FFFFFFDD
FFFFFFE8
FFFFFFEA
FFFFFFF0
00000030
00000029
00000011
0000002A
00000020
00000008
00000010
00000019
FFFFFFEC
00000008
0000000F
00000008
00000031
00000016
FFFFFFE5
00000017
00000003
FFFFFFE3
FFFFFFE8
FFFFFFDE
0000003D
FFFFFFE1
0000002C
0000000E
00000031
00000025
FFFFFFEB
0000000B
FFFFFFFB
00000003
FFFFFFF2
00000010
FFFFFFF9
00000009
FFFFFFF8
00000005
FFFFFFF0
00000036
0000000F
FFFFFFE8
00000009
00000016
00000004
00000024
00000004
FFFFFFE6
00000016
FFFFFFEF
0000001E
00000002
0000000F
0000003D
FFFFFFED
00000021
00000038
FFFFFFF5
0000000B
0000000E
FFFFFFF8
0000001D
00000028
FFFFFFEB
0000000F
0000000D
0000000E
FFFFFFF9
00000006
FFFFFFE9
0000001D
00000011
FFFFFFE8
00000007
0000000D
FFFFFFE7
FFFFFFF7
0000003B
FFFFFFFB
0000002E
0000000D
FFFFFFEE
FFFFFFFA
00000019
00000023
FFFFFFF6
FFFFFFE1
0000000A
00000021
FFFFFFE7
FFFFFFFE
00000018
FFFFFFE4
FFFFFFFA
FFFFFFD3
00000033
00000020
FFFFFFFE
FFFFFFE0
00000023
0000002A
00000011
00000008
00000014
FFFFFFF7
00000031
00000018
FFFFFFE0
00000017
0000000C
0000000F
0000000D
00000007
00000002
00000001
00000001
FFFFFFFB
00000016
FFFFFFEA
0000001F
00000026
00000005
FFFFFFE3
00000010
FFFFFFFC
00000013
00000017
0000002A
00000036
FFFFFFFA
FFFFFFFD
FFFFFFFB
FFFFFFF8
FFFFFFDA
FFFFFFF6
0000000C
00000006
FFFFFFE2
FFFFFFFC
FFFFFFEC
00000004
0000000C
FFFFFFF9
0000000C
0000000A
FFFFFFEA
FFFFFFF9
00000019
FFFFFFDA
00000001
00000023
FFFFFFF7
0000002E
00000000
00000034
0000003C
FFFFFFED
00000009
00000029
00000022
FFFFFFEF
00000003
FFFFFFF1
FFFFFFE4
00000009
0000002F
FFFFFFFF
00000002
00000005
FFFFFFDF
FFFFFFEF
FFFFFFDF
00000010
00000006
FFFFFFF8
0000000B
FFFFFFEF
0000001A
FFFFFFF1
FFFFFFF1
00000012
00000010
0000000B
FFFFFFF3
00000026
FFFFFFDF
00000005
FFFFFFD9
00000038
FFFFFFF7
FFFFFFF4
0000000D
00000006
FFFFFFF8
FFFFFFF5
FFFFFFFA
00000017
00000042
0000000A
FFFFFFED
FFFFFFFA
0000000C
FFFFFFE5
FFFFFFF0
0000002A
00000009
00000024
FFFFFFF1
FFFFFFD9
FFFFFFF1
FFFFFFCD
00000017
FFFFFFF5
0000000B
FFFFFFEF
00000015
00000018
FFFFFFEF
FFFFFFF3
FFFFFFEC
00000000
00000006
FFFFFFFD
FFFFFFEA
00000019
00000003
0000001B
FFFFFFE5
00000026
00000030
FFFFFFFD
00000017
FFFFFFFE
00000016
00000000
00000018
0000000B
FFFFFFF5
00000009
FFFFFFE3
00000039
FFFFFFE7
00000000
FFFFFFF0
FFFFFFFD
0000000F
FFFFFFE7
FFFFFFE1
00000014
0000000B
FFFFFFF2
00000009
00000031
00000011
FFFFFFFC
FFFFFFEE
0000000E
00000004
0000000D
FFFFFFE4
FFFFFFFF
FFFFFFF8
00000006
FFFFFFF6
FFFFFFDF
FFFFFFFA
FFFFFFFE
00000009
00000014
0000000C
00000007
FFFFFFE7
00000011
FFFFFFF2
FFFFFFF4
00000011
0000000E
FFFFFFDD
FFFFFFF5
FFFFFFFE
00000001
FFFFFFDC
0000001A
FFFFFFFC
00000002
FFFFFFE1
0000000D
FFFFFFE6
0000000C
00000008
0000000C
FFFFFFFD
FFFFFFEA
00000024
FFFFFFEE
FFFFFFC4
FFFFFFD9
FFFFFFEF
00000005
FFFFFFE4
FFFFFFDD
0000001D
FFFFFFFC
00000034
00000002
00000000
00000015
FFFFFFF1
00000001
FFFFFFFE
00000023
00000012
FFFFFFFC
FFFFFFF5
00000004
FFFFFFEE
00000021
FFFFFFEB
0000000A
FFFFFFFC
00000033
FFFFFFFC
0000000D
FFFFFFD1
0000001D
FFFFFFF7
FFFFFFEE
FFFFFFE8
00000006
00000006
0000001A
FFFFFFFF
FFFFFFF5
FFFFFFEB
FFFFFFFD
FFFFFFFE
FFFFFFE3
00000009
FFFFFFEE
FFFFFFFD
00000002
00000027
FFFFFFE6
00000002
FFFFFFE3
FFFFFFEF
00000006
FFFFFFCA
FFFFFFF2
00000021
00000022
0000000E
00000016
0000000E
00000027
FFFFFFE3
FFFFFFE4
00000023
0000003B
00000002
FFFFFFE7
00000025
FFFFFFEA
FFFFFFFD
00000006
0000001E
00000005
FFFFFFE3
00000027
00000024
00000017
FFFFFFEC
0000000B
00000009
00000003
0000002F
00000013
FFFFFFFC
FFFFFFD8
FFFFFFFC
FFFFFFDB
00000014
FFFFFFF0
00000006
FFFFFFFE
FFFFFFCE
FFFFFFF3
FFFFFFE9
0000001F
FFFFFFD4
FFFFFFF9
FFFFFFEA
FFFFFFFA
FFFFFFC5
FFFFFFFD
FFFFFFF9
FFFFFFF6
FFFFFFE0
FFFFFFF4
00000026
FFFFFFFA
00000021
00000021
0000001B
00000026
0000001A
00000011
00000007
FFFFFFF9
00000000
00000002
00000012
0000002E
00000019
FFFFFFEA
00000006
00000010
FFFFFFF2
00000036
FFFFFFEE
FFFFFFEA
0000000C
FFFFFFF6
00000012
FFFFFFE2
00000023
FFFFFFFD
00000016
FFFFFFFD
00000020
00000006
FFFFFFFD
FFFFFFED
FFFFFFDE
0000001B
00000016
0000000A
00000013
00000019
FFFFFFEB
0000001E
00000008
FFFFFFFC
00000004
00000019
00000024
0000001B
00000014
FFFFFFE9
00000017
00000006
00000005
FFFFFFF7
0000000D
FFFFFFFF
00000010
FFFFFFFB
FFFFFFF7
00000008
FFFFFFE8
00000017
0000001C
0000002C
00000016
FFFFFFEF
FFFFFFE5
FFFFFFFD
00000020
00000016
00000008
FFFFFFF2
FFFFFFFA
00000001
FFFFFFEA
0000001B
00000007
FFFFFFCB
00000005
00000010
00000037
00000007
0000000B
00000005
00000004
0000002B
FFFFFFF6
00000019
FFFFFFF1
FFFFFFEC
00000029
00000005
FFFFFFF9
00000013
00000018
FFFFFFFC
00000016
FFFFFFFB
00000006
00000020
0000000E
00000000
00000017
0000001D
0000000E
00000006
FFFFFFDC
00000018
00000029
FFFFFFE4
00000006
FFFFFFDD
00000021
0000001B
FFFFFFFE
FFFFFFF1
FFFFFFE9
00000009
0000000D
FFFFFFFA
00000006
FFFFFFF2
0000000E
0000000E
00000009
00000016
FFFFFFED
FFFFFFDE
0000000C
0000001A
FFFFFFFB
0000000E
00000012
00000011
FFFFFFFD
FFFFFFEA
00000022
FFFFFFE3
FFFFFFE9
0000000F
00000000
00000010
FFFFFFEA
FFFFFFF3
FFFFFFF4
0000001A
FFFFFFFB
00000019
0000000E
FFFFFFFF
FFFFFFEC
0000001E
0000002D
FFFFFFF7
FFFFFFF5
00000006
FFFFFFE6
00000006
00000003
0000001F
00000002
00000026
FFFFFFF7
FFFFFFF7
00000018
FFFFFFFD
00000001
FFFFFFF6
FFFFFFDC
00000012
00000004
0000001C
FFFFFFF5
00000008
FFFFFFF3
FFFFFFFC
FFFFFFF6
0000001E
FFFFFFFC
00000009
FFFFFFFE
FFFFFFF9
00000014
00000027
FFFFFFEC
FFFFFFF8
FFFFFFEF
00000008
0000001C
00000020
00000035
FFFFFFF5
00000031
FFFFFFF1
00000010
00000015
0000000F
0000001D
FFFFFFE6
FFFFFFE6
FFFFFFFE
0000000E
0000001F
0000001A
0000001B
00000001
FFFFFFEB
FFFFFFD2
FFFFFFFC
00000004
00000015
FFFFFFE7
00000018
00000012
FFFFFFDF
00000010
FFFFFFE4
00000018
FFFFFFFA
00000003
00000007
FFFFFFF3
FFFFFFC8
0000001A
00000001
00000014
00000013
00000013
FFFFFFEE
0000000B
00000024
0000001C
FFFFFFF1
FFFFFFEF
00000001
FFFFFFF6
00000011
FFFFFFE6
FFFFFFEB
00000004
00000016
00000005
00000005
00000018
0000001F
00000000
0000001A
FFFFFFFA
FFFFFFDA
0000001D
00000014
0000000C
0000000F
00000003
FFFFFFF9
FFFFFFE0
00000017
0000001E
00000011
0000000D
00000017
00000028
FFFFFFE1
FFFFFFED
FFFFFFF3
00000005
FFFFFFF3
0000001F
FFFFFFFD
FFFFFFF4
00000025
FFFFFFF1
0000001D
FFFFFFFE
00000026
FFFFFFE5
00000003
FFFFFFFF
FFFFFFD1
FFFFFFE8
0000002B
FFFFFFE2
0000001D
00000008
0000000B
FFFFFFF3
FFFFFFE7
0000001B
0000001F
0000001A
FFFFFFFF
00000018
00000004
FFFFFFFD
FFFFFFF8
00000007
FFFFFFFA
FFFFFFF6
00000021
FFFFFFFE
00000019
FFFFFFDE
0000001E
00000019
FFFFFFF0
00000012
00000003
00000011
FFFFFFF5
FFFFFFDD
00000002
FFFFFFD9
0000000C
0000000F
00000006
FFFFFFEE
00000011
00000016
00000023
00000032
0000002B
00000017
FFFFFFE1
FFFFFFD0
00000010
0000000A
00000012
00000000
FFFFFFF5
00000004
0000001E
FFFFFFE2
0000001F
FFFFFFE5
0000000C
00000013
FFFFFFFB
0000000A
0000001F
00000010
0000000C
FFFFFFE9
FFFFFFFB
00000009
FFFFFFEB
0000001D
00000006
FFFFFFE0
0000001F
00000018
FFFFFFD3
FFFFFFEE
00000021
FFFFFFFD
00000010
0000001B
FFFFFFF2
FFFFFFF8
FFFFFFF1
00000000
0000000F
FFFFFFDE
FFFFFFEC
FFFFFFEA
00000005
FFFFFFFE
00000001
00000011
00000011
0000000C
00000028
00000019
FFFFFFE8
FFFFFFF4
FFFFFFD6
00000017
FFFFFFFD
FFFFFFFD
00000013
0000000C
FFFFFFFF
00000001
00000016
0000001B
FFFFFFEA
00000021
0000000C
FFFFFFEC
00000014
FFFFFFFF
00000017
00000023
0000001A
FFFFFFD4
FFFFFFF0
0000000F
FFFFFFD8
00000015
00000019
FFFFFFEB
FFFFFFD9
FFFFFFFE
00000010
FFFFFFE7
FFFFFFF0
FFFFFFFB
00000002
0000000B
FFFFFFE8
FFFFFFFC
00000031
00000019
FFFFFFF2
00000009
0000000D
FFFFFFE5
FFFFFFFE
FFFFFFE2
0000001D
0000002A
0000001B
FFFFFFE0
00000019
FFFFFFEB
00000022
00000007
00000007
00000008
00000026
FFFFFFF2
FFFFFFFC
FFFFFFF6
00000004
FFFFFFFC
0000000A
FFFFFFE9
00000014
0000000B
00000016
00000022
0000000B
FFFFFFF6
FFFFFFF7
00000004
FFFFFFF5
FFFFFFF1
0000000A
00000029
00000002
00000007
0000000A
FFFFFFEC
00000020
00000022
00000009
0000000A
00000018
0000000B
00000022
FFFFFFFA
FFFFFFE0
0000000F
00000001
FFFFFFFC
FFFFFFE8
FFFFFFFF
FFFFFFD1
FFFFFFEE
FFFFFFF4
0000000C
FFFFFFD6
FFFFFFF2
FFFFFFF9
FFFFFFFB
FFFFFFF7
FFFFFFE0
00000017
FFFFFFFB
00000020
00000010
00000019
FFFFFFD1
0000000F
0000000C
00000017
00000009
00000001
FFFFFFF3
00000010
FFFFFFEC
00000007
00000004
00000018
00000033
0000000A
FFFFFFF8
FFFFFFF2
0000000F
FFFFFFE6
0000000F
00000002
FFFFFFDB
FFFFFFF4
00000008
00000014
00000000
00000037
00000023
00000008
00000010
0000001A
00000009
FFFFFFEF
00000019
FFFFFFF2
FFFFFFDE
FFFFFFEA
00000029
FFFFFFFC
00000013
00000005
FFFFFFF7
FFFFFFF1
00000027
00000018
00000013
00000000
00000024
00000006
FFFFFFFB
00000004
FFFFFFFA
FFFFFFE6
00000011
00000033
00000004
00000023
FFFFFFF2
00000007
FFFFFFF4
0000001F
00000002
00000011
00000018
00000023
0000001F
FFFFFFF8
00000004
0000001B
00000001
0000001D
00000025
00000027
00000005
00000023
00000009
FFFFFFE5
FFFFFFFA
00000028
FFFFFFF1
FFFFFFFF
0000001B
00000004
00000018
00000004
0000001F
FFFFFFEF
0000001C
FFFFFFF0
FFFFFFF0
0000001A
FFFFFFF2
00000019
0000001F
0000000C
FFFFFFDE
0000000F
FFFFFFF1
FFFFFFFA
0000000D
00000001
FFFFFFF9
FFFFFFF0
FFFFFFF7
FFFFFFF0
00000015
FFFFFFFD
00000002
0000000D
00000015
00000020
00000013
00000020
FFFFFFF5
00000024
FFFFFFDB
00000000
FFFFFFDC
FFFFFFEE
00000011
0000000C
00000018
0000001F
FFFFFFC5
00000002
00000000
FFFFFFEC
FFFFFFE9
0000001E
FFFFFFE3
0000002B
0000000A
0000000D
00000006
FFFFFFEA
FFFFFFEC
00000013
00000005
FFFFFFF3
0000000B
FFFFFFF5
FFFFFFE2
FFFFFFF3
FFFFFFFD
FFFFFFF4
FFFFFFFB
00000017
0000001B
0000002A
FFFFFFD4
00000012
00000009
FFFFFFF3
0000001C
00000010
00000004
0000000A
FFFFFFEB
0000000A
0000000C
0000000E
00000001
00000014
0000001A
00000002
FFFFFFEC
FFFFFFF6
00000021
0000001F
0000001D
FFFFFFFA
00000001
0000004A
FFFFFFFC
FFFFFFDC
FFFFFFE4
FFFFFFE0
00000024
FFFFFFD5
FFFFFFDC
00000006
FFFFFFFB
00000013
00000010
00000032
FFFFFFDA
0000001E
FFFFFFF8
FFFFFFE4
0000001A
00000006
FFFFFFD7
0000002E
FFFFFFF9
FFFFFFDD
00000028
0000001A
00000010
00000033
FFFFFFD6
00000006
00000042
FFFFFFE5
00000013
00000018
00000027
00000019
00000002
FFFFFFED
FFFFFFE8
FFFFFFF6
FFFFFFFD
0000000B
0000002E
00000012
FFFFFFE5
00000005
FFFFFFEC
FFFFFFDC
00000012
00000019
0000002D
0000002F
0000001E
0000002E
00000014
0000001D
0000002D
00000014
FFFFFFEC
00000026
00000017
FFFFFFCC
0000001C
FFFFFFE0
FFFFFFDD
00000005
FFFFFFE6
FFFFFFE2
FFFFFFFB
00000008
FFFFFFF2
FFFFFFF7
FFFFFFEE
00000007
FFFFFFEB
0000002A
FFFFFFFB
FFFFFFFA
FFFFFFFC
0000001A
00000014
FFFFFFF4
FFFFFFEC
00000024
00000017
00000013
00000018
FFFFFFD1
FFFFFFEB
00000002
FFFFFFF6
0000000C
00000020
FFFFFFE8
00000006
FFFFFFC7
0000001B
00000001
FFFFFFEB
00000008
FFFFFFFA
00000015
FFFFFFFD
FFFFFFEA
00000001
FFFFFFFD
0000000E
00000004
00000009
FFFFFFEE
0000000E
0000001C
FFFFFFEC
0000001D
00000002
FFFFFFFB
00000001
0000002F
FFFFFFF4
00000018
0000000A
0000000C
00000000
FFFFFFEF
FFFFFFDE
FFFFFFE8
0000000D
00000000
00000015
00000009
FFFFFFFA
00000011
FFFFFFE0
0000000A
00000017
FFFFFFFC
FFFFFFC9
0000001A
00000003
00000019
0000001C
00000003
00000004
00000006
00000001
FFFFFFF7
0000002C
0000001C
FFFFFFD9
00000028
0000000C
00000024
00000007
0000001D
00000015
00000025
00000006
FFFFFFFD
00000007
FFFFFFFA
00000003
0000001E
0000002E
FFFFFFF5
FFFFFFEE
FFFFFFE6
0000002F
00000005
00000000
00000000
FFFFFFE0
00000015
FFFFFFFD
0000000B
0000001B
00000016
0000001C
00000011
00000014
00000013
0000000C
FFFFFFF0
00000004
00000022
FFFFFFFB
FFFFFFF1
00000001
FFFFFFEF
FFFFFFEA
FFFFFFF0
0000002A
00000005
FFFFFFF0
00000005
0000000E
00000007
FFFFFFF9
FFFFFFF2
FFFFFFF3
FFFFFFFB
FFFFFFE2
00000016
00000022
FFFFFFFA
FFFFFFF5
0000001B
00000014
FFFFFFFC
FFFFFFE5
FFFFFFFD
FFFFFFFC
00000040
0000002D
FFFFFFCD
00000003
00000012
00000006
FFFFFFC8
0000000F
FFFFFFE8
FFFFFFE1
00000006
0000001D
00000021
0000003E
FFFFFFF4
00000012
00000014
0000001D
FFFFFFED
00000000
00000020
FFFFFFF1
FFFFFFD3
00000016
00000009
FFFFFFE0
FFFFFFC6
FFFFFFD4
FFFFFFEF
FFFFFFCC
0000000A
FFFFFFFB
FFFFFFF3
0000003E
00000012
00000002
FFFFFFFE
00000002
FFFFFFED
FFFFFFFF
FFFFFFEE
FFFFFFE8
FFFFFFD4
FFFFFFD4
FFFFFFEE
FFFFFFE2
FFFFFFEB
00000008
FFFFFFFB
0000000D
0000002F
FFFFFFE7
0000000E
0000002A
FFFFFFFA
FFFFFFCB
0000002D
0000000D
0000000B
00000029
FFFFFFEF
00000018
FFFFFFF9
FFFFFFE7
00000004
FFFFFFF2
FFFFFFDB
00000009
0000001D
FFFFFFDB
FFFFFFF8
0000002C
FFFFFFDE
00000047
FFFFFFF8
FFFFFFA9
FFFFFFD5
0000001E
00000019
00000043
FFFFFFE4
00000004
FFFFFFFE
00000008
00000008
FFFFFFFF
FFFFFFF8
00000002
0000004F
00000015
FFFFFFFD
00000017
00000003
FFFFFFEF
00000020
FFFFFFD9
0000001B
FFFFFFF3
FFFFFFFF
FFFFFFF2
FFFFFFF7
0000002A
FFFFFFE0
FFFFFFEA
00000000
00000026
FFFFFFD9
FFFFFFDF
FFFFFFEF
00000007
00000020
0000001C
00000026
FFFFFFF6
FFFFFFD0
00000024
0000001F
FFFFFFF1
FFFFFFF1
00000027
0000001D
FFFFFFF6
00000000
FFFFFFDC
FFFFFFDD
FFFFFFF0
FFFFFFF3
00000020
0000001E
0000001C
0000000E
FFFFFFFC
0000001B
00000017
FFFFFFEC
FFFFFFFC
00000000
FFFFFFDB
FFFFFFF4
FFFFFFF0
FFFFFFF1
FFFFFFEC
0000000B
FFFFFFFC
00000016
FFFFFFE7
FFFFFFEC
00000009
00000014
00000016
00000010
FFFFFFE9
00000008
FFFFFFEC
00000006
0000000F
FFFFFFE7
FFFFFFD3
00000002
FFFFFFF5
0000001C
FFFFFFFD
00000043
FFFFFFFD
0000000F
FFFFFFF7
00000007
FFFFFFC7
00000007
FFFFFFF8
FFFFFFFC
FFFFFFBE
FFFFFFF0
FFFFFFEF
FFFFFFF4
00000007
00000008
FFFFFFE7
FFFFFFDC
0000000B
FFFFFFEF
00000004
00000009
FFFFFFEE
FFFFFFDB
FFFFFFFC
00000026
0000000E
FFFFFFE6
0000000A
00000020
00000008
00000005
FFFFFFEE
FFFFFFE0
FFFFFFC4
FFFFFFFF
FFFFFFF1
FFFFFFFB
FFFFFFED
00000013
00000020
FFFFFFEE
0000000B
00000008
00000027
FFFFFFD7
FFFFFFC7
00000005
FFFFFFD2
FFFFFFE8
00000020
00000021
0000000B
00000003
FFFFFFEA
FFFFFFEE
0000000B
FFFFFFEE
FFFFFFFD
00000017
FFFFFFF7
0000000C
FFFFFFEE
FFFFFFDD
FFFFFFFA
FFFFFFD6
FFFFFFEB
00000016
00000026
FFFFFFF4
00000008
00000029
00000022
0000002A
FFFFFFF8
FFFFFFED
00000010
FFFFFFE6
FFFFFFFB
FFFFFFEF
00000007
FFFFFFCE
00000016
FFFFFFF4
FFFFFFE6
FFFFFFF0
FFFFFFDA
00000000
00000014
0000000E
FFFFFFEF
00000021
FFFFFFF7
00000008
FFFFFFFD
FFFFFFE7
FFFFFFF2
00000024
FFFFFFE4
FFFFFFFF
FFFFFFF9
FFFFFFFA
FFFFFFFE
00000040
FFFFFFF4
00000010
FFFFFFEE
00000008
0000000D
00000003
0000001B
FFFFFFF6
00000008
FFFFFFE9
0000001E
00000002
FFFFFFED
00000032
00000007
00000004
00000005
00000009
FFFFFFFA
FFFFFFD9
FFFFFFF9
00000017
0000000A
0000000E
0000000C
FFFFFFEF
0000001E
00000002
00000003
00000023
FFFFFFC4
FFFFFFD4
FFFFFFF1
00000008
FFFFFFF1
FFFFFFD6
FFFFFFF9
00000003
00000010
00000002
FFFFFFE0
00000003
00000005
FFFFFFDB
FFFFFFEC
0000000D
FFFFFFFF
00000023
0000000C
FFFFFFFD
00000027
0000001F
00000006
00000025
FFFFFFDE
00000008
FFFFFFEF
FFFFFFE8
00000022
FFFFFFF9
00000021
0000001E
00000006
00000011
FFFFFFDF
0000000C
FFFFFFC0
00000021
00000026
00000008
00000023
00000019
FFFFFFFE
FFFFFFF1
0000001B
FFFFFFFF
00000018
FFFFFFE8
0000001E
00000021
FFFFFFE7
00000000
FFFFFFEB
FFFFFFEB
00000001
0000001A
00000002
0000000E
00000027
FFFFFFD9
00000011
0000001B
FFFFFFE6
FFFFFFF2
FFFFFFF6
FFFFFFD9
00000023
FFFFFFF9
00000003
00000005
0000001A
FFFFFFF3
FFFFFFFF
00000015
FFFFFFF7
FFFFFFE8
00000000
FFFFFFE5
0000001A
FFFFFFFB
0000000B
00000001
00000010
FFFFFFF4
0000002A
00000016
FFFFFFE0
FFFFFFF1
0000000D
FFFFFFF2
00000019
FFFFFFF6
00000010
FFFFFFE5
00000013
00000022
FFFFFFFB
FFFFFFFE
FFFFFFFE
00000019
0000000F
FFFFFFEF
FFFFFFE9
FFFFFFFE
FFFFFFDA
0000002B
00000025
00000019
0000001E
00000029
FFFFFFE9
00000014
00000029
FFFFFFEE
0000001D
0000001A
FFFFFFF4
00000013
FFFFFFE9
0000001E
00000003
0000001B
FFFFFFF8
00000017
FFFFFFF0
FFFFFFE4
FFFFFFF4
0000000A
00000010
FFFFFFFC
00000048
00000009
00000008
0000000B
00000039
00000010
0000000F
FFFFFFDA
0000000D
00000009
00000025
FFFFFFEF
0000001C
FFFFFFFD
FFFFFFF7
FFFFFFFD
00000006
FFFFFFF1
FFFFFFEA
FFFFFFEB
FFFFFFFA
0000001F
0000002F
00000012
FFFFFFF2
00000000
0000002C
00000017
00000019
FFFFFFE7
00000006
0000003B
0000003D
0000001F
00000022
FFFFFFF4
0000001A
FFFFFFEE
FFFFFFEB
FFFFFFF2
FFFFFFE0
FFFFFFEC
00000017
FFFFFFE8
FFFFFFE7
FFFFFFF3
FFFFFFEA
0000000A
00000017
FFFFFFF1
FFFFFFFC
00000005
00000006
FFFFFFF7
0000001D
FFFFFFFC
0000001B
00000009
00000010
FFFFFFFE
FFFFFFED
FFFFFFF6
00000021
FFFFFFDF
FFFFFFF8
FFFFFFF7
FFFFFFE7
FFFFFFF1
00000026
FFFFFFE9
0000000F
00000007
0000001B
00000029
FFFFFFF9
00000020
00000006
0000000D
00000000
0000001A
FFFFFFD6
FFFFFFF2
FFFFFFD9
FFFFFFF0
FFFFFFF3
FFFFFFFE
00000017
FFFFFFCA
FFFFFFFC
FFFFFFDC
00000010
00000023
FFFFFFFD
FFFFFFDD
00000006
FFFFFFE5
FFFFFFEB
0000003C
00000004
FFFFFFF0
0000000E
FFFFFFF1
00000014
FFFFFFED
FFFFFFED
FFFFFFE6
00000035
FFFFFFEB
0000000A
FFFFFFD3
FFFFFFF6
00000027
FFFFFFF6
FFFFFFE7
FFFFFFFB
0000001B
00000018
00000008
FFFFFFEF
00000000
00000028
FFFFFFF5
0000001A
0000000A
00000006
FFFFFFE9
FFFFFFFC
FFFFFFE0
0000001C
FFFFFFF9
00000005
0000000D
0000001D
00000021
00000022
FFFFFFF1
FFFFFFFA
00000033
FFFFFFF0
FFFFFFE1
FFFFFFE4
00000018
FFFFFFF4
0000000F
0000000C
00000001
FFFFFFF6
FFFFFFD9
FFFFFFED
0000000D
FFFFFFEC
0000000D
FFFFFFF2
FFFFFFEE
00000036
0000000E
FFFFFFD0
FFFFFFF7
00000012
FFFFFFE5
00000014
FFFFFFF8
0000001F
00000006
00000028
FFFFFFF2
0000000A
FFFFFFF7
0000002E
FFFFFFF0
00000003
0000000C
FFFFFFE5
0000002F
00000022
FFFFFFFE
FFFFFFE0
FFFFFFF1
00000012
0000000E
FFFFFFE4
FFFFFFFC
FFFFFFF1
00000000
FFFFFFF3
00000026
FFFFFFF3
FFFFFFDF
00000019
00000012
FFFFFFF3
FFFFFFF7
FFFFFFF2
0000001C
FFFFFFFB
FFFFFFDC
FFFFFFFF
FFFFFFFA
0000002B
00000024
00000005
00000006
FFFFFFF1
FFFFFFF1
00000001
00000009
00000019
00000000
00000005
00000003
FFFFFFE4
FFFFFFFE
00000015
FFFFFFFA
FFFFFFE4
FFFFFFF6
FFFFFFFC
0000000A
00000015
FFFFFFE6
FFFFFFF1
FFFFFFFA
FFFFFFFE
00000013
FFFFFFF3
FFFFFFFD
FFFFFFEF
FFFFFFC7
00000009
0000000D
00000015
FFFFFFE7
00000007
FFFFFFE2
FFFFFFEF
FFFFFFE1
00000011
FFFFFFED
FFFFFFE2
FFFFFFE9
00000005
FFFFFFE6
FFFFFFF6
FFFFFFE8
FFFFFFF5
00000001
00000007
FFFFFFE7
FFFFFFF4
00000004
FFFFFFF6
00000008
FFFFFFEF
00000015
00000017
0000000F
FFFFFFFF
0000000C
FFFFFFDD
00000029
00000005
00000015
FFFFFFED
FFFFFFEC
00000018
FFFFFFEC
FFFFFFFB
00000018
00000016
00000003
FFFFFFE6
FFFFFFF5
00000000
0000001F
FFFFFFE5
0000001B
00000007
00000033
0000001C
FFFFFFF3
FFFFFFE5
00000005
FFFFFFE5
FFFFFFFC
FFFFFFE8
00000010
00000001
0000001B
FFFFFFDF
FFFFFFF9
00000008
00000014
00000023
FFFFFFE9
00000015
FFFFFFF9
00000003
FFFFFFEC
0000001A
0000001D
FFFFFFEE
00000014
FFFFFFF8
00000008
0000001B
00000011
00000015
FFFFFFF3
FFFFFFF7
FFFFFFFE
FFFFFFDA
0000001C
00000006
FFFFFFEC
FFFFFFF7
0000001D
FFFFFFFB
FFFFFFEC
00000005
00000005
FFFFFFE9
00000016
00000024
0000000A
00000016
0000002C
0000001A
FFFFFFE8
00000009
FFFFFFF6
00000004
00000019
0000000B
00000022
FFFFFFF1
00000007
00000015
00000014
FFFFFFFD
00000025
00000010
FFFFFFF8
FFFFFFF4
0000001D
00000011
FFFFFFEF
FFFFFFF2
0000002F
FFFFFFDD
00000013
00000004
FFFFFFE3
00000016
FFFFFFFC
FFFFFFFC
00000012
0000002C
FFFFFFF1
00000010
FFFFFFF5
00000016
FFFFFFF1
00000015
FFFFFFF8
00000010
00000010
00000022
0000000D
FFFFFFF2
00000016
0000001C
FFFFFFF2
0000000C
FFFFFFF2
FFFFFFFE
FFFFFFF5
FFFFFFF1
00000022
FFFFFFE9
FFFFFFF3
FFFFFFE0
FFFFFFE4
FFFFFFF5
FFFFFFE7
00000005
FFFFFFCD
FFFFFFED
00000017
FFFFFFFE
FFFFFFFB
FFFFFFF0
FFFFFFE7
00000020
0000002F
FFFFFFF4
00000011
0000000C
FFFFFFF5
FFFFFFF4
00000015
0000000D
00000023
00000013
00000018
FFFFFFFF
00000019
FFFFFFFE
FFFFFFE2
FFFFFFFD
FFFFFFFB
FFFFFFEE
00000016
FFFFFFF2
00000019
FFFFFFEB
00000014
FFFFFFD9
00000007
FFFFFFE6
0000001D
FFFFFFFB
0000000C
00000018
FFFFFFF9
00000018
00000005
00000009
FFFFFFF2
00000017
FFFFFFF3
0000000E
00000000
00000019
00000005
FFFFFFF5
FFFFFFF9
FFFFFFFE
00000003
FFFFFFE1
00000001
FFFFFFE9
00000009
FFFFFFF3
FFFFFFFF
0000001A
00000011
FFFFFFF2
00000030
00000004
FFFFFFD9
FFFFFFE2
FFFFFFE5
FFFFFFF6
FFFFFFF2
FFFFFFD8
0000000B
FFFFFFEA
0000002D
FFFFFFD8
FFFFFFF6
FFFFFFF9
FFFFFFE8
FFFFFFEE
FFFFFFD4
0000001E
FFFFFFD9
00000016
FFFFFFFB
0000000B
0000000C
0000001D
FFFFFFF1
0000000A
00000006
FFFFFFF7
00000015
FFFFFFEC
00000025
00000004
00000005
00000007
00000020
FFFFFFEF
00000011
00000002
FFFFFFDC
00000001
FFFFFFFA
FFFFFFF8
FFFFFFE0
FFFFFFF7
0000001B
00000011
FFFFFFFB
FFFFFFE9
FFFFFFE9
FFFFFFF4
00000013
00000005
00000019
00000007
00000019
00000010
00000013
00000005
FFFFFFDE
0000000B
00000008
00000018
FFFFFFF8
FFFFFFD0
FFFFFFF0
FFFFFFF7
FFFFFFDF
FFFFFFEE
00000004
0000001F
0000001E
00000009
FFFFFFE4
FFFFFFF3
00000025
0000001E
FFFFFFF7
00000012
FFFFFFD8
FFFFFFF1
FFFFFFE6
0000001D
0000000C
FFFFFFFC
FFFFFFF0
FFFFFFEC
00000017
FFFFFFF9
00000000
00000015
FFFFFFFA
00000019
FFFFFFFD
00000012
0000000A
00000033
FFFFFFE7
00000003
0000002F
FFFFFFFB
0000002A
FFFFFFF4
0000000C
00000020
0000001D
FFFFFFFA
00000018
00000016
0000001B
00000012
FFFFFFEF
FFFFFFFC
00000024
00000001
FFFFFFED
00000014
FFFFFFF9
FFFFFFE3
00000017
00000019
FFFFFFEE
00000019
00000014
FFFFFFE2
00000021
00000026
00000013
0000000B
FFFFFFEC
00000011
0000001C
00000019
00000021
0000001F
FFFFFFF3
00000000
FFFFFFF4
00000001
00000016
FFFFFFF6
00000016
FFFFFFCB
FFFFFFF3
00000014
FFFFFFFE
00000018
FFFFFFF2
FFFFFFEB
FFFFFFFD
FFFFFFE4
FFFFFFF4
00000002
00000037
00000008
FFFFFFE9
FFFFFFF6
00000000
FFFFFFDE
FFFFFFF0
0000000A
FFFFFFE6
FFFFFFF3
00000016
FFFFFFFC
FFFFFFEF
00000013
0000001A
00000010
00000009
FFFFFFE2
FFFFFFF5
0000001B
FFFFFFEC
FFFFFFE9
FFFFFFEB
FFFFFFF1
00000021
FFFFFFF5
00000010
00000000
FFFFFFF8
00000027
00000005
00000015
00000014
00000014
FFFFFFE1
00000014
00000007
FFFFFFE9
FFFFFFF0
0000001D
00000029
FFFFFFED
FFFFFFD9
FFFFFFF0
00000001
FFFFFFF0
00000024
0000000F
00000014
00000006
00000013
FFFFFFE8
FFFFFFF7
0000001A
00000005
FFFFFFED
FFFFFFF2
00000012
00000004
00000012
FFFFFFFB
0000000E
00000002
00000016
00000020
00000019
FFFFFFCE
FFFFFFDA
FFFFFFE3
0000000D
FFFFFFF3
00000031
FFFFFFFB
0000003F
00000027
FFFFFFEF
0000000F
FFFFFFD9
0000001F
00000015
FFFFFFE0
00000008
00000005
00000020
FFFFFFE3
FFFFFFFA
00000010
FFFFFFFD
FFFFFFD6
0000001C
FFFFFFE8
0000000E
FFFFFFF7
FFFFFFF3
0000001F
00000000
FFFFFFDF
00000006
0000001A
0000000A
FFFFFFD8
FFFFFFFC
0000000B
FFFFFFF2
0000001E
FFFFFFEA
FFFFFFED
00000010
FFFFFFDF
00000012
00000000
0000002A
00000008
FFFFFFFE
00000022
FFFFFFEF
00000018
0000001B
00000015
0000001B
FFFFFFC5
00000005
FFFFFFDE
FFFFFFF0
00000021
00000001
0000001C
00000013
00000005
FFFFFFF0
FFFFFFF9
FFFFFFF3
00000001
FFFFFFF8
00000000
00000007
FFFFFFD1
0000001E
FFFFFFE6
FFFFFFE1
FFFFFFF5
0000000A
0000000A
FFFFFFF7
FFFFFFEE
00000012
0000000B
FFFFFFEF
0000001A
FFFFFFEF
00000021
FFFFFFEC
0000000D
0000002A
FFFFFFF0
FFFFFFF8
00000020
00000028
00000014
FFFFFFEC
FFFFFFE7
00000034
00000008
00000006
FFFFFFEB
FFFFFFFA
0000001B
00000009
00000016
FFFFFFFB
FFFFFFE2
00000012
FFFFFFC5
00000004
FFFFFFFC
0000001B
FFFFFFEF
00000000
00000007
00000008
00000005
0000000C
00000012
00000013
FFFFFFD8
FFFFFFFE
00000004
FFFFFFFB
00000009
FFFFFFF0
FFFFFFFD
0000001D
FFFFFFF1
0000000E
FFFFFFFB
FFFFFFF5
00000000
FFFFFFFC
0000000A
0000001D
FFFFFFAC
0000001F
FFFFFFED
00000035
FFFFFFE5
FFFFFFF5
0000001D
0000000C
FFFFFFD1
00000019
FFFFFFF1
FFFFFFE6
0000000E
00000011
0000000E
FFFFFFE8
FFFFFFE1
0000000C
FFFFFFF4
0000000C
FFFFFFFD
FFFFFFE3
00000013
00000008
00000005
0000002F
0000001A
FFFFFFF4
FFFFFFF9
00000005
FFFFFFFC
00000016
FFFFFFF0
00000005
FFFFFFDB
FFFFFFF7
FFFFFFF3
00000028
0000000F
0000001E
00000017
FFFFFFF8
FFFFFFD3
FFFFFFDC
0000001A
00000014
FFFFFFF9
FFFFFFFE
FFFFFFED
FFFFFFE2
FFFFFFE2
FFFFFFE1
00000014
00000006
0000000D
00000021
FFFFFFF6
0000000D
FFFFFFD3
0000001A
00000008
00000004
FFFFFFFA
00000006
FFFFFFE3
00000009
FFFFFFEA
FFFFFFE3
FFFFFFEE
FFFFFFE0
FFFFFFEA
FFFFFFFB
0000000D
00000011
FFFFFFF1
00000008
00000031
FFFFFFEF
FFFFFFE1
00000003
FFFFFFE3
0000000D
0000001B
00000011
0000001B
0000000A
FFFFFFE5
00000009
FFFFFFFC
00000000
00000018
00000009
FFFFFFFD
FFFFFFEB
00000007
00000021
00000001
FFFFFFE6
00000010
FFFFFFEA
00000014
FFFFFFFD
FFFFFFFB
FFFFFFDF
00000018
00000012
00000015
FFFFFFFE
00000000
00000013
0000000E
FFFFFFFF
0000000C
00000017
FFFFFFF8
00000003
0000000F
00000006
00000018
00000003
FFFFFFEA
FFFFFFDB
FFFFFFC7
00000009
FFFFFFEE
FFFFFFC1
0000000F
FFFFFFF3
FFFFFFF3
FFFFFFF8
FFFFFFDD
0000001F
00000001
00000011
FFFFFFEE
FFFFFFFB
FFFFFFE1
00000015
FFFFFFF5
FFFFFFE2
FFFFFFF1
0000000F
00000000
00000010
0000002B
FFFFFFE0
FFFFFFEE
FFFFFFDA
00000010
0000000D
00000023
0000001C
00000010
00000031
0000001C
FFFFFFEB
00000001
FFFFFFF2
FFFFFFED
FFFFFFF5
00000015
00000030
00000025
FFFFFFE2
FFFFFFEB
00000013
FFFFFFF9
FFFFFFE6
FFFFFFF4
00000015
FFFFFFD1
FFFFFFDC
FFFFFFEA
00000005
FFFFFFF4
FFFFFFD9
FFFFFFFD
0000000C
00000012
00000012
FFFFFFFF
FFFFFFE0
00000015
00000004
FFFFFFE5
FFFFFFF8
FFFFFFEC
0000000A
00000026
00000015
00000000
00000001
FFFFFFB5
00000025
00000005
00000008
FFFFFFEC
00000023
FFFFFFFD
FFFFFFE9
0000001E
FFFFFFDE
FFFFFFE1
FFFFFFE1
FFFFFFE9
FFFFFFF0
FFFFFFFF
FFFFFFFD
00000019
FFFFFFF6
00000003
FFFFFFF4
00000003
0000002F
00000011
0000000E
00000008
FFFFFFF5
00000006
FFFFFFE6
FFFFFFD5
0000000C
00000008
0000002C
FFFFFFE6
0000002E
FFFFFFF6
FFFFFFD4
FFFFFFF2
FFFFFFF9
FFFFFFFA
00000006
FFFFFFE5
00000012
FFFFFFE3
0000000C
00000017
00000003
FFFFFFF8
FFFFFFFA
FFFFFFD9
0000000F
00000038
FFFFFFF7
0000000C
00000010
00000014
FFFFFFFE
FFFFFFF2
FFFFFFF2
00000021
00000002
FFFFFFFC
00000011
00000006
FFFFFFF0
FFFFFFF6
FFFFFFFC
0000001D
00000006
FFFFFFE6
FFFFFFE9
FFFFFFD8
00000004
0000000C
00000007
FFFFFFF6
00000001
0000000B
00000013
FFFFFFF1
00000004
FFFFFFFD
00000013
FFFFFFF2
00000000
0000000E
FFFFFFF4
FFFFFFDF
FFFFFFFB
FFFFFFEA
FFFFFFEA
00000014
00000010
0000001D
FFFFFFFF
00000006
00000013
FFFFFFFE
00000002
FFFFFFD9
FFFFFFED
FFFFFFFA
00000018
0000001C
00000017
FFFFFFEA
FFFFFFE6
FFFFFFF3
FFFFFFF4
0000000A
00000008
FFFFFFEC
FFFFFFEF
FFFFFFE2
FFFFFFE8
FFFFFFED
00000010
FFFFFFE1
FFFFFFED
FFFFFFEA
FFFFFFF3
0000002B
FFFFFFF6
0000001F
FFFFFFF3
00000005
FFFFFFEF
00000025
00000005
0000001F
00000012
00000007
00000019
00000034
00000020
0000001D
0000000F
FFFFFFFD
FFFFFFDA
00000017
00000005
FFFFFFC9
FFFFFFF8
FFFFFFF7
FFFFFFE5
FFFFFFED
0000000E
00000008
00000009
00000032
0000001A
FFFFFFE7
FFFFFFF0
00000014
00000019
FFFFFFEB
00000014
0000000A
0000001F
00000010
FFFFFFE9
FFFFFFDC
00000027
FFFFFFF7
00000011
FFFFFFED
FFFFFFEE
FFFFFFE7
FFFFFFFC
FFFFFFF0
00000000
FFFFFFD4
FFFFFFFB
00000012
00000020
00000018
FFFFFFFE
00000011
FFFFFFF7
00000003
00000016
00000006
00000013
00000014
FFFFFFF4
00000004
FFFFFFE5
0000001F
00000002
00000005
00000025
00000020
FFFFFFF5
FFFFFFFE
FFFFFFF1
FFFFFFFF
0000000C
0000000E
FFFFFFFD
00000007
FFFFFFF6
FFFFFFF3
FFFFFFE7
00000018
00000000
FFFFFFF0
00000016
FFFFFFF4
00000024
FFFFFFDC
0000000D
FFFFFFFC
FFFFFFEB
FFFFFFF8
00000011
00000020
FFFFFFE6
FFFFFFFF
00000002
0000002B
FFFFFFFE
FFFFFFE9
FFFFFFFE
FFFFFFF0
FFFFFFE4
FFFFFFE8
FFFFFFF7
FFFFFFE7
00000024
FFFFFFFE
FFFFFFF5
FFFFFFEA
FFFFFFF3
FFFFFFF4
00000018
0000000C
FFFFFFE7
0000000A
FFFFFFF0
00000006
FFFFFFF7
00000029
0000000B
FFFFFFEF
FFFFFFDE
FFFFFFE7
00000001
FFFFFFF9
FFFFFFFD
FFFFFFC3
00000004
00000015
00000001
00000014
00000000
0000000F
FFFFFFF7
FFFFFFE2
00000005
00000032
FFFFFFEC
00000015
0000002F
00000010
00000000
FFFFFFF1
0000000C
00000023
FFFFFFC5
00000024
FFFFFFEE
FFFFFFFE
0000000E
FFFFFFFC
FFFFFFFF
00000026
0000000C
00000017
FFFFFFF7
00000016
FFFFFFE8
FFFFFFF0
00000025
FFFFFFFD
FFFFFFED
FFFFFFEE
00000014
FFFFFFF5
FFFFFFD0
FFFFFFE2
FFFFFFF2
FFFFFFE2
FFFFFFE3
00000002
00000018
00000019
FFFFFFEE
0000001C
FFFFFFFF
FFFFFFEC
FFFFFFF0
FFFFFFDD
FFFFFFE2
FFFFFFD8
0000000C
FFFFFFFA
0000000E
FFFFFFF3
0000000C
FFFFFFEC
00000016
FFFFFFFC
00000011
00000011
FFFFFFF7
FFFFFFEA
00000012
FFFFFFFC
00000031
00000000
00000007
00000018
FFFFFFCF
FFFFFFF7
00000020
0000000A
FFFFFFFB
00000027
FFFFFFEB
FFFFFFD4
00000009
FFFFFFDD
00000006
FFFFFFE3
FFFFFFE5
00000006
00000024
00000014
FFFFFFF6
0000000A
FFFFFFE6
FFFFFFFF
FFFFFFD6
0000001B
00000017
FFFFFFE3
FFFFFFD2
FFFFFFF5
FFFFFFFB
00000000
FFFFFFE7
FFFFFFF8
00000000
FFFFFFF2
FFFFFFD6
00000008
FFFFFFEF
FFFFFFED
FFFFFFF8
00000026
00000023
00000007
0000000C
FFFFFFDF
0000001B
00000007
0000000F
0000000E
FFFFFFF3
FFFFFFE1
0000002D
FFFFFFC7
FFFFFFF9
00000004
00000002
FFFFFFE6
FFFFFFEE
FFFFFFE3
0000002A
00000011
00000007
FFFFFFEF
FFFFFFE5
00000012
FFFFFFF6
00000038
00000002
00000010
FFFFFFEF
FFFFFFB7
0000001D
0000000D
00000004
FFFFFFF8
FFFFFFD8
00000015
FFFFFFF4
0000001B
FFFFFFFE
FFFFFFF4
FFFFFFEE
00000032
FFFFFFE4
00000006
FFFFFFFD
FFFFFFFE
0000000C
00000003
FFFFFFD5
FFFFFFEA
00000032
00000006
FFFFFFDE
00000008
00000011
FFFFFFF0
0000002F
00000011
FFFFFFD3
FFFFFFF1
0000002C
00000001
0000000F
0000001E
FFFFFFDC
FFFFFFEF
FFFFFFE6
FFFFFFFB
FFFFFFF9
FFFFFFDF
FFFFFFFD
FFFFFFE6
FFFFFFFE
FFFFFFF5
00000008
FFFFFFF7
0000001F
FFFFFFD7
FFFFFFF8
FFFFFFF5
00000007
0000002C
00000000
FFFFFFE1
FFFFFFD9
00000024
FFFFFFCE
0000002A
00000008
0000001B
FFFFFFD7
00000022
00000021
00000009
FFFFFFFD
FFFFFFFA
FFFFFFD7
FFFFFFF0
0000001F
00000016
00000001
FFFFFFF9
FFFFFFF5
00000001
FFFFFFF2
FFFFFFF7
0000000F
00000016
FFFFFFE0
FFFFFFE5
FFFFFFF1
FFFFFFF5
0000002C
FFFFFFEB
FFFFFFE4
0000000A
0000000C
FFFFFFF6
FFFFFFF4
FFFFFFF9
00000010
00000000
FFFFFFFF
FFFFFFF0
FFFFFFF5
0000000C
00000022
FFFFFFFC
FFFFFFFE
FFFFFFDD
00000010
FFFFFFF4
0000000C
00000000
00000002
FFFFFFF6
00000020
FFFFFFDC
FFFFFFE1
FFFFFFF9
FFFFFFF0
FFFFFFE5
FFFFFFF0
00000013
0000002F
0000001E
0000000F
FFFFFFE8
FFFFFFED
FFFFFFDB
FFFFFFE6
FFFFFFF9
FFFFFFF7
0000002E
0000000E
FFFFFFF3
FFFFFFEE
FFFFFFFD
00000056
00000008
FFFFFFF9
0000000B
00000013
00000019
0000000A
00000027
00000006
00000009
00000005
FFFFFFF2
0000001C
FFFFFFFB
00000005
0000003A
FFFFFFC8
FFFFFFE3
00000000
FFFFFFE9
FFFFFFEB
FFFFFFF2
FFFFFFF6
00000018
00000026
0000000B
FFFFFFF2
FFFFFFEA
FFFFFFEA
FFFFFFFB
00000011
00000001
FFFFFFFF
0000001F
00000003
00000002
0000001A
FFFFFFD0
FFFFFFF7
FFFFFFF0
0000001A
00000010
00000009
FFFFFFEE
FFFFFFFA
00000031
00000000
FFFFFFD9
0000000A
0000000E
FFFFFFF4
00000002
FFFFFFF3
FFFFFFFE
FFFFFFE6
00000026
FFFFFFEA
FFFFFFEA
00000009
00000004
00000030
00000025
00000028
FFFFFFDC
00000022
FFFFFFF1
FFFFFFCD
FFFFFFEB
00000011
FFFFFFFA
FFFFFFFB
0000000E
00000004
FFFFFFEF
0000000A
0000002F
FFFFFFF7
00000008
FFFFFFF7
00000002
FFFFFFE1
00000016
FFFFFFF7
FFFFFFDE
FFFFFFE2
FFFFFFE1
FFFFFFF2
00000002
FFFFFFE3
00000014
FFFFFFE5
00000003
FFFFFFFB
FFFFFFF3
FFFFFFF4
00000004
FFFFFFE7
00000003
00000031
0000000E
0000000B
00000001
0000003B
FFFFFFEA
FFFFFFE7
0000001E
0000000C
00000002
00000001
FFFFFFE0
FFFFFFFA
FFFFFFFB
00000001
0000000E
00000017
FFFFFFDC
0000001F
FFFFFFDD
FFFFFFFF
0000000D
FFFFFFFE
0000001A
FFFFFFFB
00000014
FFFFFFF1
FFFFFFE2
FFFFFFF6
FFFFFFF2
FFFFFFF7
FFFFFFFF
FFFFFFDF
FFFFFFF3
FFFFFFD5
0000000B
FFFFFFCB
0000004C
FFFFFFDB
FFFFFFFB
00000013
00000016
0000001F
FFFFFFDC
00000008
FFFFFFCF
0000002C
00000004
FFFFFFE9
00000003
FFFFFFE7
FFFFFFE7
FFFFFFF2
FFFFFFEA
FFFFFFF0
FFFFFFF4
FFFFFFEF
0000000D
FFFFFFEE
0000000A
00000035
00000005
FFFFFFFC
FFFFFFF9
FFFFFFD3
FFFFFFF5
FFFFFFFD
00000005
0000000C
FFFFFFE5
FFFFFFE1
FFFFFFFD
FFFFFFF8
FFFFFFEF
FFFFFFF1
00000019
FFFFFFD9
FFFFFFEA
FFFFFFF8
00000023
0000003A
FFFFFFDB
FFFFFFFE
00000009
00000012
00000002
00000013
00000004
00000020
00000007
FFFFFFF3
00000012
FFFFFFF4
FFFFFFFC
00000020
FFFFFFE6
0000001A
FFFFFFC1
FFFFFFFA
00000005
FFFFFFEA
0000000D
FFFFFFEE
00000004
FFFFFFF4
FFFFFFDB
0000000B
FFFFFFE7
FFFFFFF9
FFFFFFFD
FFFFFFEE
FFFFFFF5
00000004
0000000D
00000014
FFFFFFF7
FFFFFFF3
00000001
FFFFFFE5
FFFFFFE9
FFFFFFF3
00000003
00000009
0000000E
FFFFFFEE
FFFFFFFA
0000000D
FFFFFFF4
00000026
00000002
00000005
00000004
FFFFFFEC
00000006
00000007
00000018
FFFFFFE9
FFFFFFD8
FFFFFFE1
0000000D
FFFFFFF6
FFFFFFDE
FFFFFFF0
00000007
FFFFFFE7
00000011
00000008
00000005
0000000B
0000002F
0000000A
0000003D
FFFFFFF9
00000004
00000028
0000001F
00000009
00000001
FFFFFFD8
FFFFFFE3
FFFFFFDB
FFFFFFF8
00000004
FFFFFFFD
00000004
FFFFFFDB
FFFFFFFE
00000010
FFFFFFEA
FFFFFFE9
FFFFFFE7
0000000C
00000006
00000021
00000031
0000000B
FFFFFFF2
0000001A
00000003
0000000B
FFFFFFFE
FFFFFFFD
FFFFFFF4
FFFFFFEE
00000010
00000011
FFFFFFED
00000008
00000018
FFFFFFE5
FFFFFFE2
00000013
00000010
FFFFFFF5
FFFFFFE6
00000014
00000014
FFFFFFFA
FFFFFFFC
FFFFFFF6
FFFFFFFD
00000028
FFFFFFF9
00000002
0000001C
FFFFFFEC
FFFFFFF8
00000021
FFFFFFF8
FFFFFFFD
00000006
FFFFFFD5
0000001B
FFFFFFD9
00000006
FFFFFFF0
00000020
FFFFFFF4
FFFFFFEC
00000016
00000007
FFFFFFE8
00000016
00000017
FFFFFFF8
FFFFFFDE
FFFFFFED
0000000B
00000014
FFFFFFF5
00000000
00000006
00000022
0000000C
00000013
0000000D
00000022
FFFFFFF5
00000003
00000018
FFFFFFEB
00000016
FFFFFFD1
FFFFFFE0
FFFFFFFA
FFFFFFF0
00000019
0000000B
00000014
00000004
FFFFFFEE
00000017
FFFFFFF7
FFFFFFD3
00000019
FFFFFFE1
00000014
FFFFFFF3
0000002C
00000001
0000001E
00000003
00000005
00000009
00000004
FFFFFFE8
FFFFFFF4
FFFFFFE6
FFFFFFE8
FFFFFFEF
FFFFFFFB
00000014
FFFFFFDD
00000008
0000001A
FFFFFFFB
FFFFFFF4
FFFFFFEA
FFFFFFED
FFFFFFFB
0000000B
FFFFFFDD
0000002B
0000000C
00000002
0000001C
00000005
00000021
FFFFFFF7
FFFFFFF6
FFFFFFEC
00000012
FFFFFFDE
0000000A
00000022
FFFFFFF1
00000024
00000001
00000017
00000003
FFFFFFE3
00000005
FFFFFFFD
00000003
FFFFFFF6
FFFFFFF8
FFFFFFF5
00000016
00000012
00000009
00000017
00000002
00000037
00000021
00000028
FFFFFFF7
FFFFFFFC
0000000E
00000021
FFFFFFDB
FFFFFFE9
FFFFFFFC
FFFFFFEB
FFFFFFD4
FFFFFFF9
0000000E
FFFFFFF6
FFFFFFFD
00000014
FFFFFFFC
00000006
0000000E
FFFFFFFD
0000000C
FFFFFFF7
00000011
00000013
00000012
00000028
FFFFFFF0
00000015
FFFFFFF1
FFFFFFC7
FFFFFFFA
FFFFFFFD
0000002E
FFFFFFEE
00000031
00000011
0000002A
FFFFFFDD
00000003
00000028
FFFFFFF9
0000001A
00000009
FFFFFFE0
00000016
FFFFFFF0
FFFFFFEF
00000009
00000028
FFFFFFF7
00000008
00000029
00000005
FFFFFFF5
00000006
00000012
FFFFFFF2
00000024
00000019
FFFFFFFC
FFFFFFEC
00000024
FFFFFFF3
0000000B
00000019
FFFFFFF2
FFFFFFE9
FFFFFFEE
00000012
00000004
00000024
0000001C
FFFFFFFB
00000026
00000006
FFFFFFF9
FFFFFFED
FFFFFFF5
FFFFFFF8
00000021
FFFFFFEA
00000024
0000002C
0000001B
0000000D
FFFFFFF1
FFFFFFEA
00000011
FFFFFFF3
FFFFFFFB
FFFFFFF6
FFFFFFFD
FFFFFFD0
FFFFFFF5
FFFFFFF7
00000009
00000019
FFFFFFF2
00000030
00000016
FFFFFFE1
00000008
FFFFFFD7
FFFFFFFE
FFFFFFF0
00000003
00000018
FFFFFFF4
FFFFFFF3
FFFFFFFB
00000008
0000001F
00000004
00000028
0000000A
FFFFFFCE
00000027
0000000A
00000000
00000012
00000009
00000011
FFFFFFDD
00000005
FFFFFFFF
FFFFFFFF
FFFFFFF6
FFFFFFDB
FFFFFFFF
FFFFFFF8
FFFFFFF6
FFFFFFCD
00000024
00000014
0000000F
FFFFFFFB
00000025
00000013
FFFFFFF7
FFFFFFFB
00000011
0000000B
FFFFFFF9
00000002
FFFFFFEF
0000000C
00000013
FFFFFFFE
00000032
00000002
FFFFFFF6
FFFFFFFF
00000013
00000016
FFFFFFF2
00000003
00000010
0000002A
00000008
FFFFFFFC
0000000E
FFFFFFE6
0000001E
00000022
FFFFFFF7
00000019
00000007
FFFFFFF1
0000001F
FFFFFFF0
00000010
FFFFFFF7
FFFFFFEF
FFFFFFFE
00000015
00000000
0000000E
FFFFFFEB
00000021
FFFFFFE8
00000002
FFFFFFE9
FFFFFFE5
FFFFFFDA
FFFFFFDC
00000011
00000007
00000012
FFFFFFDB
FFFFFFF3
00000019
FFFFFFF5
FFFFFFE9
FFFFFFF9
0000000C
00000012
FFFFFFD6
00000012
0000002E
FFFFFFFD
FFFFFFF0
0000000B
FFFFFFF4
FFFFFFE7
FFFFFFE7
00000000
FFFFFFFB
FFFFFFE0
FFFFFFE3
FFFFFFE9
00000002
00000018
FFFFFFEB
00000026
00000011
00000002
00000026
00000013
00000026
00000011
FFFFFFDB
00000004
00000019
0000000B
00000016
00000015
FFFFFFDC
FFFFFFFC
0000001D
00000002
00000011
0000000A
FFFFFFE7
FFFFFFDF
FFFFFFFC
FFFFFFD4
0000000A
FFFFFFF3
FFFFFFEF
FFFFFFF2
FFFFFFD9
00000015
00000012
00000001
FFFFFFE0
FFFFFFFE
00000009
FFFFFFFB
FFFFFFF1
FFFFFFE5
00000006
FFFFFFDF
FFFFFFED
00000010
FFFFFFED
FFFFFFE7
00000010
FFFFFFCB
0000002B
FFFFFFE4
FFFFFFE8
FFFFFFE1
FFFFFFFB
00000013
00000004
00000011
00000025
FFFFFFE9
FFFFFFEA
00000001
FFFFFFE6
FFFFFFFE
FFFFFFEF
FFFFFFF5
FFFFFFEF
FFFFFFF5
FFFFFFDB
FFFFFFED
00000013
FFFFFFE9
00000010
FFFFFFFF
FFFFFFF2
FFFFFFFE
FFFFFFD6
FFFFFFF2
FFFFFFCE
FFFFFFF0
00000019
FFFFFFE0
FFFFFFE4
FFFFFFEE
00000009
00000000
00000005
00000029
FFFFFFE4
00000013
FFFFFFF2
00000032
FFFFFFF5
00000028
FFFFFFEF
00000009
00000018
FFFFFFFC
FFFFFFDB
FFFFFFFC
0000000A
FFFFFFDF
FFFFFFD2
00000007
0000001A
00000029
FFFFFFD9
FFFFFFE2
00000020
0000002D
00000014
00000015
FFFFFFE7
FFFFFFF6
FFFFFFE7
FFFFFFF5
00000018
FFFFFFEF
00000025
FFFFFFCE
00000021
FFFFFFED
FFFFFFE7
FFFFFFFD
FFFFFFD0
00000005
FFFFFFF7
FFFFFFDC
FFFFFFD4
00000019
FFFFFFF5
00000025
0000001D
FFFFFFDD
00000011
FFFFFFF9
FFFFFFEE
FFFFFFF8
00000005
00000026
FFFFFFED
FFFFFFFF
00000012
00000007
FFFFFFE1
FFFFFFE3
FFFFFFF6
00000021
0000000E
00000023
00000019
FFFFFFFE
00000015
FFFFFFF6
00000014
00000008
FFFFFFDA
00000016
0000000A
FFFFFFE3
FFFFFFF0
FFFFFFF0
0000001F
FFFFFFDE
FFFFFFFC
FFFFFFE7
FFFFFFEF
0000000E
00000008
FFFFFFF9
0000000F
FFFFFFF9
00000017
00000009
00000009
00000018
0000001F
00000021
0000001A
FFFFFFD9
FFFFFFFA
FFFFFFFA
FFFFFFDF
0000000B
00000011
FFFFFFF7
00000014
FFFFFFEA
00000014
FFFFFFE6
FFFFFFF9
FFFFFFEC
FFFFFFFD
00000018
FFFFFFD6
FFFFFFF8
00000008
0000000A
00000011
FFFFFFF1
FFFFFFE3
FFFFFFF7
00000012
FFFFFFD2
FFFFFFEF
FFFFFFF1
00000019
00000015
FFFFFFFA
FFFFFFEF
FFFFFFE7
00000022
00000011
FFFFFFE8
00000022
0000000E
00000004
00000025
00000006
0000000E
00000004
FFFFFFE0
00000014
FFFFFFFB
00000012
0000001D
FFFFFFFB
FFFFFFEE
00000017
FFFFFFF9
00000008
00000005
FFFFFFF8
FFFFFFF8
FFFFFFD3
FFFFFFF1
00000025
00000021
00000011
FFFFFFE5
00000001
00000018
00000022
00000010
FFFFFFE7
00000000
00000002
FFFFFFED
0000000C
0000000B
FFFFFFFB
FFFFFFEF
0000000C
FFFFFFF1
00000009
00000026
FFFFFFDD
FFFFFFCC
FFFFFFE6
FFFFFFE7
00000022
0000001B
00000011
FFFFFFF4
FFFFFFEE
00000028
00000013
FFFFFFE2
00000000
00000011
00000034
FFFFFFF9
FFFFFFD7
00000029
FFFFFFF8
00000029
0000004B
FFFFFFF1
00000008
00000007
00000013
FFFFFFEB
00000005
00000007
00000012
0000001F
00000011
FFFFFFF6
FFFFFFFC
00000021
0000000F
FFFFFFEF
0000000E
00000025
00000013
0000000E
FFFFFFFC
FFFFFFE0
FFFFFFF1
FFFFFFEF
00000018
FFFFFFF3
00000010
0000001D
00000029
FFFFFFE4
FFFFFFFF
0000001E
0000001D
FFFFFFFD
FFFFFFEC
FFFFFFE8
FFFFFFED
FFFFFFE3
00000020
0000000B
0000001D
00000018
FFFFFFF8
FFFFFFEF
00000005
00000001
0000002C
0000001A
FFFFFFFF
0000001C
00000004
FFFFFFF6
FFFFFFF6
00000028
00000019
FFFFFFF7
FFFFFFF3
00000017
00000019
00000012
00000030
00000020
FFFFFFE4
0000000B
FFFFFFEA
FFFFFFE2
0000001B
FFFFFFF6
FFFFFFF1
FFFFFFF8
0000001C
FFFFFFEC
0000000E
00000014
FFFFFFE3
0000000C
00000031
00000022
00000001
0000000F
00000018
FFFFFFF5
FFFFFFF8
00000021
00000014
00000017
FFFFFFE2
FFFFFFF3
FFFFFFEE
FFFFFFF2
FFFFFFE9
00000012
00000030
0000001D
0000001F
FFFFFFF6
00000013
FFFFFFFE
0000001C
FFFFFFD6
00000024
FFFFFFE2
FFFFFFEC
00000002
FFFFFFFD
FFFFFFF2
FFFFFFE8
00000011
00000017
00000025
FFFFFFED
00000015
0000001F
FFFFFFF8
00000009
00000022
0000000D
FFFFFFFF
FFFFFFF3
FFFFFFF2
0000002B
FFFFFFE6
FFFFFFD8
00000011
FFFFFFFA
00000019
00000006
FFFFFFF6
00000033
FFFFFFFE
0000000A
00000013
0000001A
00000008
00000032
00000013
00000003
00000006
FFFFFFFE
0000000E
00000013
00000016
0000001A
FFFFFFED
FFFFFFF7
00000019
FFFFFFED
FFFFFFF9
FFFFFFFC
00000017
FFFFFFE3
FFFFFFF4
FFFFFFFA
0000000C
00000006
0000000A
FFFFFFEA
FFFFFFEB
00000003
0000002C
00000028
FFFFFFEE
00000040
00000012
00000024
FFFFFFF6
00000021
FFFFFFE1
FFFFFFEE
FFFFFFFF
0000000E
00000012
FFFFFFE6
FFFFFFF2
FFFFFFEF
0000002B
00000000
FFFFFFF9
0000001D
FFFFFFF0
00000001
00000023
0000000D
00000014
FFFFFFCE
FFFFFFD8
0000000C
00000013
FFFFFFED
FFFFFFE9
00000024
0000000F
00000009
0000000F
00000017
00000021
00000021
FFFFFFFA
FFFFFFFA
FFFFFFE1
00000015
FFFFFFE2
FFFFFFFF
FFFFFFEB
FFFFFFD0
FFFFFFE1
FFFFFFF5
0000001B
0000000A
0000000D
00000021
00000014
FFFFFFF8
00000001
00000002
FFFFFFFB
0000001D
FFFFFFF7
0000001F
0000001A
FFFFFFF0
00000002
00000020
0000001C
FFFFFFF7
0000001C
0000002B
FFFFFFCE
FFFFFFF1
FFFFFFEC
00000025
FFFFFFE6
00000003
00000020
FFFFFFF8
FFFFFFFF
FFFFFFEC
FFFFFFF7
FFFFFFFA
00000025
0000000E
0000000C
00000008
FFFFFFF1
FFFFFFFA
FFFFFFF1
00000002
FFFFFFFC
FFFFFFDB
FFFFFFF4
FFFFFFCF
00000008
00000007
FFFFFFE3
FFFFFFE2
FFFFFFFA
FFFFFFFA
FFFFFFED
FFFFFFDC
FFFFFFDF
0000000D
FFFFFFD0
FFFFFFEC
FFFFFFE2
00000011
00000008
00000012
FFFFFFE4
0000000A
00000013
FFFFFFE1
FFFFFFEB
FFFFFFF6
FFFFFFFE
FFFFFFF0
00000011
00000017
00000012
FFFFFFF4
FFFFFFE0
00000017
00000015
00000011
FFFFFFE3
FFFFFFFD
FFFFFFEC
FFFFFFE9
FFFFFFFB
0000000C
00000015
00000031
FFFFFFE7
00000004
00000013
0000001E
FFFFFFEC
00000005
00000018
FFFFFFF4
0000000D
0000000A
0000001F
FFFFFFE3
00000001
0000001C
FFFFFFF2
FFFFFFE2
FFFFFFFB
00000015
FFFFFFF0
FFFFFFDA
FFFFFFE0
0000001F
0000002B
00000024
FFFFFFE7
FFFFFFF9
00000011
00000004
FFFFFFDE
FFFFFFDB
FFFFFFE6
FFFFFFD8
FFFFFFDF
00000006
FFFFFFC9
0000001F
00000007
FFFFFFFD
0000000E
FFFFFFEA
FFFFFFFD
FFFFFFF1
00000007
00000017
00000004
00000003
FFFFFFFA
0000001B
00000026
00000019
00000035
00000005
00000004
00000002
0000000B
00000013
00000002
00000003
00000007
FFFFFFF7
FFFFFFEE
0000001E
FFFFFFDA
00000026
FFFFFFF4
0000000D
FFFFFFF0
0000000C
00000011
FFFFFFFC
0000001E
FFFFFFEE
FFFFFFE0
FFFFFFCF
FFFFFFF8
0000000B
00000013
00000000
00000011
00000015
FFFFFFFC
FFFFFFDD
FFFFFFF5
00000021
FFFFFFE5
FFFFFFF1
0000000A
FFFFFFFE
FFFFFFF8
00000004
FFFFFFF2
00000007
FFFFFFFB
0000001A
FFFFFFF4
00000021
FFFFFFDF
FFFFFFEE
00000009
FFFFFFF0
FFFFFFD1
00000011
00000007
00000006
FFFFFFF6
FFFFFFF1
00000009
FFFFFFEF
0000001D
0000003F
0000000E
FFFFFFED
FFFFFFF4
00000009
00000024
0000001A
FFFFFFDF
FFFFFFDD
00000011
00000007
00000015
0000001E
00000020
00000003
FFFFFFF2
FFFFFFEC
FFFFFFDC
FFFFFFDD
00000015
00000004
00000007
00000017
0000000E
00000008
FFFFFFFE
FFFFFFFA
FFFFFFF6
0000001D
FFFFFFFA
FFFFFFEA
FFFFFFFF
FFFFFFF5
00000020
00000000
FFFFFFFA
00000023
00000018
00000015
00000011
00000002
0000002A
FFFFFFE1
00000031
FFFFFFF2
FFFFFFDE
00000001
00000012
00000010
0000000F
00000005
FFFFFFF6
0000001D
00000019
FFFFFFF6
00000010
00000002
FFFFFFDB
FFFFFFDD
0000002E
00000023
00000011
FFFFFFE3
00000006
0000000D
FFFFFFFC
0000000E
FFFFFFF3
00000019
0000000E
FFFFFFD4
FFFFFFFB
00000043
00000020
00000007
00000012
FFFFFFFF
FFFFFFD1
FFFFFFFA
0000000A
0000001B
FFFFFFEE
FFFFFFD5
0000001B
00000004
00000004
0000003B
00000002
FFFFFFF4
00000001
FFFFFFDF
00000023
00000005
FFFFFFF6
00000011
FFFFFFEB
0000000F
0000001C
FFFFFFF4
00000008
00000014
00000003
00000004
00000015
00000009
0000002A
FFFFFFE4
FFFFFFFA
FFFFFFE0
FFFFFFF7
0000001F
FFFFFFE0
FFFFFFEC
0000002C
FFFFFFF5
FFFFFFF6
FFFFFFF1
00000024
00000019
00000001
00000016
FFFFFFF6
00000000
FFFFFFD6
FFFFFFF5
FFFFFFFD
00000007
FFFFFFE7
FFFFFFFB
00000012
0000001A
00000002
00000011
FFFFFFEC
0000000B
00000017
FFFFFFE5
0000001A
FFFFFFF9
00000004
00000022
0000000C
00000004
00000002
00000029
FFFFFFED
FFFFFFED
0000000B
FFFFFFE6
00000011
FFFFFFDE
0000001B
FFFFFFEF
0000000A
FFFFFFFE
00000019
00000015
00000011
00000016
0000000D
00000003
0000000D
00000002
00000006
00000004
00000005
00000009
00000025
00000006
00000035
0000001E
00000028
FFFFFFF1
FFFFFFF0
0000000D
FFFFFFD0
00000012
00000019
00000006
00000038
FFFFFFF6
00000010
FFFFFFF8
0000000A
FFFFFFE4
FFFFFFF8
FFFFFFF9
0000001F
0000004C
0000000B
FFFFFFED
FFFFFFED
00000004
00000014
00000019
FFFFFFF8
0000002B
FFFFFFF6
FFFFFFF8
00000003
00000001
0000002F
0000001F
00000005
00000013
FFFFFFEA
00000009
00000009
00000011
00000000
00000009
0000001E
00000003
00000008
0000000E
00000004
0000001E
00000013
FFFFFFEC
00000033
00000023
FFFFFFDB
0000002A
FFFFFFFB
00000026
FFFFFFE3
0000000C
00000002
FFFFFFDA
FFFFFFE4
FFFFFFF3
FFFFFFDA
FFFFFFD9
00000007
0000000E
00000001
FFFFFFF2
FFFFFFEC
FFFFFFF0
0000000A
FFFFFFFD
00000002
00000003
FFFFFFF4
0000000C
00000003
00000008
0000000A
0000000F
FFFFFFF1
00000013
00000022
0000000A
00000024
FFFFFFF5
0000001A
FFFFFFF1
0000003C
00000012
00000006
00000010
0000001A
0000000B
00000007
FFFFFFFF
0000001D
0000001B
00000004
0000000B
0000001B
0000001C
FFFFFFFA
00000011
00000015
0000001E
00000014
0000000B
00000030
0000002E
00000018
FFFFFFF3
00000008
00000000
00000013
0000000B
FFFFFFF2
FFFFFFF7
FFFFFFE7
0000000B
FFFFFFE4
FFFFFFE3
FFFFFFF4
FFFFFFF6
00000016
FFFFFFF8
00000020
00000004
00000019
FFFFFFFF
FFFFFFF8
FFFFFFE8
0000000F
00000017
FFFFFFD6
FFFFFFED
FFFFFFEB
00000026
00000007
FFFFFFFC
FFFFFFEC
FFFFFFF0
FFFFFFDE
FFFFFFF6
00000010
FFFFFFE1
00000016
0000000B
FFFFFFE1
00000027
0000000F
00000012
0000001B
FFFFFFF9
00000030
FFFFFFE0
FFFFFFE7
FFFFFFFA
FFFFFFED
FFFFFFEE
00000005
FFFFFFE2
0000002A
FFFFFFF6
FFFFFFF8
FFFFFFE8
FFFFFFF7
FFFFFFFD
0000002B
FFFFFFF6
FFFFFFC3
00000004
FFFFFFE1
FFFFFFFB
FFFFFFE5
00000008
00000018
00000008
00000021
00000008
FFFFFFEF
FFFFFFE4
FFFFFFF1
FFFFFFEC
FFFFFFE9
FFFFFFE6
00000000
FFFFFFE8
00000015
FFFFFFEF
00000013
00000012
0000000F
FFFFFFCD
FFFFFFFF
FFFFFFF6
00000007
00000012
FFFFFFFE
FFFFFFFF
0000001F
FFFFFFFF
00000009
0000000F
FFFFFFFE
00000026
0000001B
FFFFFFC4
FFFFFFE8
FFFFFFFB
FFFFFFFE
00000006
FFFFFFEE
FFFFFFF6
FFFFFFD3
00000020
FFFFFFE0
0000000D
FFFFFFF8
00000015
00000011
FFFFFFE2
FFFFFFE9
0000000A
FFFFFFF6
00000005
00000022
0000001D
FFFFFFD6
00000018
FFFFFFFF
0000001B
00000006
FFFFFFE3
0000000A
00000003
FFFFFFFD
00000002
00000013
00000027
FFFFFFE7
00000010
00000011
00000005
FFFFFFFF
FFFFFFE3
00000018
0000001E
0000000B
FFFFFFDF
00000009
00000011
FFFFFFFD
FFFFFFDD
00000000
FFFFFFE7
FFFFFFFE
0000000F
0000001D
FFFFFFE9
0000001B
0000000F
FFFFFFE5
0000001A
FFFFFFF5
00000001
FFFFFFD3
FFFFFFFC
0000001D
0000000D
FFFFFFE2
FFFFFFE8
FFFFFFF1
00000001
FFFFFFDC
FFFFFFE1
FFFFFFF6
FFFFFFD9
00000004
00000000
FFFFFFED
00000005
FFFFFFFD
0000000C
0000001A
FFFFFFFA
FFFFFFFF
FFFFFFF1
00000003
00000001
FFFFFFF1
00000001
00000006
0000000D
FFFFFFFB
0000001D
FFFFFFF6
0000001A
FFFFFFD8
FFFFFFEF
FFFFFFFD
00000001
FFFFFFEB
00000006
FFFFFFDB
00000013
FFFFFFE1
0000000E
00000002
00000015
FFFFFFF2
FFFFFFDA
00000029
0000001D
00000008
00000014
00000019
00000008
FFFFFFF7
0000001E
00000002
FFFFFFFA
00000001
FFFFFFFC
FFFFFFF4
00000006
FFFFFFE9
00000032
FFFFFFF2
00000009
00000005
FFFFFFFD
00000016
FFFFFFF4
FFFFFFE3
FFFFFFF7
FFFFFFED
FFFFFFE7
00000005
FFFFFFFF
0000002D
0000000F
00000000
FFFFFFE6
00000032
00000023
0000000C
FFFFFFEE
FFFFFFF2
0000002F
FFFFFFF5
00000016
FFFFFFD9
FFFFFFE0
FFFFFFFC
FFFFFFDC
00000005
00000001
FFFFFFF0
00000013
FFFFFFEA
FFFFFFE7
FFFFFFEE
FFFFFFF5
00000021
FFFFFFFD
FFFFFFDD
00000008
00000004
00000007
FFFFFFEA
FFFFFFEE
FFFFFFCD
0000000D
0000000E
00000016
00000025
FFFFFFEB
FFFFFFF6
FFFFFFF5
0000000D
00000019
00000012
FFFFFFD3
00000025
0000000D
00000008
FFFFFFF0
00000003
FFFFFFFE
FFFFFFE5
00000011
FFFFFFF7
00000028
FFFFFFF4
FFFFFFEB
0000000E
00000011
00000018
00000019
FFFFFFFE
FFFFFFF0
FFFFFFFB
FFFFFFFD
FFFFFFEC
00000012
FFFFFFEA
FFFFFFF2
00000010
FFFFFFFF
FFFFFFD4
0000000D
FFFFFFFD
00000026
FFFFFFF0
00000004
0000002A
00000002
FFFFFFCC
FFFFFFF1
FFFFFFE0
00000032
FFFFFFDF
00000000
FFFFFFE0
00000025
00000016
FFFFFFE8
FFFFFFE3
FFFFFFFC
0000003F
FFFFFFE5
00000013
0000000B
00000013
FFFFFFE6
00000016
FFFFFFFC
FFFFFFF7
FFFFFFF5
00000014
FFFFFFF9
0000001C
00000003
FFFFFFF7
FFFFFFE0
FFFFFFFD
00000005
00000008
FFFFFFEE
FFFFFFF5
00000015
00000021
00000031
FFFFFFED
FFFFFFF1
0000001C
0000001B
FFFFFFDC
00000014
0000000C
FFFFFFDC
FFFFFFF7
FFFFFFDE
0000001C
0000001E
0000001A
00000021
FFFFFFE1
00000006
FFFFFFFC
00000013
00000002
FFFFFFEA
FFFFFFED
FFFFFFFE
FFFFFFFE
FFFFFFEF
FFFFFFFC
00000016
00000007
FFFFFFEA
0000000E
00000006
0000002A
FFFFFFF3
00000030
FFFFFFFD
0000001B
FFFFFFFA
0000000F
FFFFFFE7
FFFFFFF4
00000023
00000007
00000007
0000000D
FFFFFFF8
00000004
FFFFFFF5
00000009
00000042
00000011
00000015
0000000B
FFFFFFFC
FFFFFFF7
0000001B
FFFFFFEE
00000001
00000007
0000000E
00000025
FFFFFFDE
FFFFFFF4
00000012
0000002F
00000014
00000034
00000006
00000013
FFFFFFD6
0000001D
00000009
00000021
FFFFFFF2
FFFFFFFE
00000011
FFFFFFFD
FFFFFFE8
FFFFFFFD
00000029
FFFFFFFA
0000001E
FFFFFFEF
00000018
00000010
00000019
00000011
FFFFFFDC
00000005
00000004
00000010
FFFFFFF9
00000014
FFFFFFDB
FFFFFFD2
0000002B
00000005
0000001E
FFFFFFFC
FFFFFFF9
00000013
00000011
FFFFFFEC
FFFFFFF6
FFFFFFFD
FFFFFFEC
00000008
00000003
0000001D
0000001C
0000000B
00000019
0000002E
00000006
FFFFFFFE
FFFFFFD5
0000000B
FFFFFFFB
0000000E
0000000E
0000001F
FFFFFFDE
00000002
FFFFFFD2
00000010
FFFFFFE6
00000000
00000018
FFFFFFDB
FFFFFFF1
00000007
FFFFFFE9
FFFFFFF4
FFFFFFF4
FFFFFFF5
FFFFFFFA
0000000A
FFFFFFFD
00000004
00000004
FFFFFFF7
0000000D
FFFFFFF4
0000000F
FFFFFFEC
FFFFFFF8
0000000E
FFFFFFF0
0000001D
FFFFFFEF
00000000
00000007
00000018
FFFFFFEB
FFFFFFD4
FFFFFFE5
FFFFFFD5
00000000
FFFFFFD9
FFFFFFCE
FFFFFFED
0000000B
FFFFFFEF
0000002B
00000000
FFFFFFDF
FFFFFFF6
00000006
00000001
FFFFFFED
FFFFFFEF
FFFFFFF3
00000015
00000019
FFFFFFF7
0000000E
00000021
00000014
0000000B
00000002
FFFFFFEB
0000000E
00000023
FFFFFFF2
FFFFFFEF
0000000A
FFFFFFF0
FFFFFFFE
FFFFFFFC
FFFFFFE6
0000002D
FFFFFFD6
FFFFFFFD
00000023
FFFFFFE2
00000016
0000001B
FFFFFFFD
FFFFFFDB
FFFFFFFC
00000007
FFFFFFF1
FFFFFFFF
FFFFFFEC
FFFFFFE1
FFFFFFF5
FFFFFFE0
00000007
00000007
0000001A
FFFFFFF8
00000000
FFFFFFEE
FFFFFFF9
FFFFFFF5
0000001B
0000002F
0000000C
FFFFFFF7
00000009
FFFFFFFC
FFFFFFE9
00000020
0000000A
0000000D
FFFFFFFA
FFFFFFDE
00000009
00000028
00000012
00000002
0000000C
FFFFFFF4
FFFFFFFD
0000002C
00000017
FFFFFFF0
0000000A
0000000C
00000000
0000001E
FFFFFFFD
00000023
0000001D
FFFFFFE2
FFFFFFF8
00000019
00000038
0000001F
0000000C
0000001C
FFFFFFF0
00000015
00000012
00000004
00000005
0000000F
FFFFFFE9
FFFFFFEF
FFFFFFF2
0000000D
FFFFFFE5
0000001F
00000010
00000009
FFFFFFE8
FFFFFFE2
FFFFFFF0
FFFFFFEE
FFFFFFEA
00000017
0000000B
FFFFFFFD
00000017
00000007
00000006
FFFFFFEB
FFFFFFCA
FFFFFFFC
00000004
0000000C
FFFFFFF6
FFFFFFDD
FFFFFFEF
00000006
0000001D
FFFFFFF6
00000018
0000002C
FFFFFFEB
00000012
FFFFFFFB
FFFFFFEC
0000000B
FFFFFFDB
FFFFFFE3
FFFFFFDF
00000008
00000011
FFFFFFEA
00000011
00000017
00000005
FFFFFFE7
FFFFFFFC
FFFFFFE9
FFFFFFEB
00000008
FFFFFFFE
0000003C
FFFFFFFB
FFFFFFE6
00000010
00000000
FFFFFFF0
00000007
00000011
FFFFFFFC
00000016
0000001D
FFFFFFDA
0000001F
FFFFFFE9
0000001D
00000002
00000022
FFFFFFF3
FFFFFFE8
FFFFFFEC
00000006
0000001B
FFFFFFF5
FFFFFFEE
00000012
00000003
00000028
FFFFFFFB
FFFFFFFC
0000001A
00000010
00000015
FFFFFFE3
FFFFFFE8
FFFFFFFA
00000016
0000001B
0000001A
FFFFFFE6
FFFFFFD7
FFFFFFDE
FFFFFFF2
00000016
00000011
FFFFFFFD
FFFFFFE8
0000002B
0000002A
00000015
00000010
FFFFFFE1
0000000E
00000018
00000009
FFFFFFF7
00000023
FFFFFFF3
FFFFFFEF
00000012
00000003
FFFFFFE7
FFFFFFEC
00000009
FFFFFFF2
00000004
FFFFFFEC
0000000F
0000001E
00000022
0000000C
FFFFFFDF
00000020
FFFFFFD4
FFFFFFF2
0000001A
00000012
FFFFFFBF
00000003
FFFFFFF5
00000005
0000001E
FFFFFFE0
00000009
00000005
00000008
00000033
FFFFFFEB
00000010
00000016
FFFFFFF7
FFFFFFE3
0000002A
FFFFFFEF
00000007
00000002
FFFFFFD1
FFFFFFF4
00000006
FFFFFFF7
00000023
00000023
FFFFFFFE
00000016
00000016
00000014
0000003A
FFFFFFF1
FFFFFFEB
FFFFFFE7
00000004
00000009
FFFFFFE7
0000001A
FFFFFFD3
00000015
FFFFFFD3
FFFFFFF8
00000020
00000005
FFFFFFFB
FFFFFFF5
00000001
0000000B
FFFFFFED
FFFFFFE6
0000001D
FFFFFFBF
00000018
FFFFFFF9
00000000
00000020
FFFFFFF6
00000012
00000016
00000004
FFFFFFD8
FFFFFFEB
0000000A
00000030
00000009
00000011
FFFFFFF2
FFFFFFFC
FFFFFFF4
00000007
FFFFFFDE
00000010
0000000E
0000000A
FFFFFFE2
00000010
FFFFFFEA
FFFFFFEA
FFFFFFF8
00000001
00000000
0000000B
FFFFFFE8
00000003
00000001
FFFFFFF1
FFFFFFF2
00000010
0000000A
00000024
0000000A
0000000A
FFFFFFDF
FFFFFFE1
FFFFFFFC
FFFFFFFE
00000009
00000023
FFFFFFFA
FFFFFFF8
0000001F
0000001F
00000018
FFFFFFF8
FFFFFFD1
FFFFFFE8
FFFFFFEA
FFFFFFE4
FFFFFFFA
00000011
FFFFFFDD
00000013
FFFFFFE4
00000005
FFFFFFF5
FFFFFFF4
00000015
00000010
FFFFFFE6
0000000C
00000010
FFFFFFFB
00000013
00000020
0000000A
00000036
FFFFFFEC
FFFFFFFF
FFFFFFF7
00000024
0000000D
00000024
00000022
FFFFFFEB
00000037
00000005
FFFFFFF5
00000000
FFFFFFFD
FFFFFFE8
FFFFFFF4
00000023
FFFFFFFB
0000001F
00000012
0000000A
00000005
FFFFFFE8
FFFFFFFC
00000003
0000000D
FFFFFFDF
FFFFFFE2
FFFFFFFB
00000014
00000003
FFFFFFF5
0000001C
FFFFFFF3
0000001B
00000018
FFFFFFF2
0000001C
00000001
00000003
00000029
FFFFFFEF
00000000
00000003
FFFFFFF3
00000017
FFFFFFF1
00000010
00000016
00000016
FFFFFFFC
FFFFFFF0
FFFFFFC9
FFFFFFF1
FFFFFFEE
FFFFFFDF
FFFFFFF3
00000025
00000010
0000001B
00000011
FFFFFFDF
FFFFFFEE
00000007
0000000F
FFFFFFE8
0000004B
00000032
0000001D
FFFFFFE4
FFFFFFFB
FFFFFFE8
0000001F
00000021
0000000F
00000031
00000005
0000000F
00000012
FFFFFFF9
00000010
FFFFFFFF
0000002C
FFFFFFF6
FFFFFFD9
00000011
FFFFFFF9
00000009
FFFFFFFA
FFFFFFFB
0000000B
00000025
FFFFFFFB
00000018
0000000F
00000004
00000013
FFFFFFFE
FFFFFFF4
FFFFFFDB
00000004
00000027
0000001F
00000006
00000004
FFFFFFDE
00000023
0000001A
00000001
00000024
FFFFFFE3
FFFFFFDF
00000004
0000002C
0000001D
00000013
00000012
0000003D
FFFFFFF3
00000000
FFFFFFE6
00000027
00000018
FFFFFFF5
00000012
00000033
FFFFFFE9
00000005
00000023
FFFFFFFD
00000012
00000034
0000000F
FFFFFFF8
00000015
00000024
FFFFFFF7
0000003E
FFFFFFE2
0000000F
00000007
FFFFFFFE
00000020
FFFFFFF6
00000011
00000019
FFFFFFE2
00000021
FFFFFFEA
00000011
0000002E
FFFFFFFC
00000020
00000013
00000022
FFFFFFE8
FFFFFFEC
0000001B
FFFFFFD6
0000000F
FFFFFFFB
FFFFFFF1
00000029
0000002D
0000001B
0000003E
00000015
00000030
00000024
00000001
FFFFFFF0
00000019
00000033
00000011
00000006
FFFFFFEB
00000001
FFFFFFF0
FFFFFFF6
FFFFFFF3
FFFFFFF4
FFFFFFF6
00000026
FFFFFFE9
FFFFFFE9
00000019
0000001B
00000009
FFFFFFEC
00000014
0000000C
00000040
00000012
FFFFFFD3
00000001
FFFFFFF5
00000007
0000001F
00000034
FFFFFFEB
00000008
FFFFFFFF
00000014
00000017
00000000
FFFFFFF6
00000002
FFFFFFF1
FFFFFFEF
FFFFFFEE
00000015
FFFFFFEE
FFFFFFE7
0000002F
FFFFFFE1
00000008
FFFFFFE8
FFFFFFF3
0000001A
00000019
00000007
00000018
FFFFFFF0
00000010
0000000E
0000000D
FFFFFFFD
00000008
00000027
00000007
00000024
0000000A
00000019
00000000
FFFFFFF0
00000014
00000001
00000001
00000009
00000003
FFFFFFE2
0000003A
00000021
FFFFFFE0
0000002C
0000001D
FFFFFFE6
00000000
FFFFFFFF
FFFFFFF3
FFFFFFF8
0000001C
FFFFFFFC
FFFFFFFC
00000016
00000007
0000000D
FFFFFFFF
FFFFFFEC
00000013
00000017
00000006
0000000D
FFFFFFFF
FFFFFFFF
00000003
FFFFFFEF
0000001E
FFFFFFF0
FFFFFFFB
FFFFFFE9
0000001D
0000000B
FFFFFFE7
00000017
00000019
FFFFFFFE
FFFFFFFA
00000027
0000001F
00000002
FFFFFFED
00000011
00000008
00000000
0000000E
00000013
00000007
FFFFFFF7
00000033
FFFFFFDA
FFFFFFED
FFFFFFF6
00000011
0000002C
FFFFFFE3
0000000F
FFFFFFD6
FFFFFFF4
00000010
FFFFFFD6
FFFFFFDD
00000008
00000016
FFFFFFEA
FFFFFFF2
00000025
FFFFFFDF
00000036
00000006
FFFFFFFB
0000001C
FFFFFFE9
0000000E
00000009
00000026
0000002D
00000008
00000007
FFFFFFE6
00000003
00000018
FFFFFFED
00000029
00000012
FFFFFFF1
00000001
00000005
00000001
0000000D
00000001
0000001D
FFFFFFED
FFFFFFED
FFFFFFEF
00000004
00000007
00000010
FFFFFFF1
0000000C
0000001C
00000015
FFFFFFE9
FFFFFFE9
FFFFFFD4
00000013
0000001E
FFFFFFFC
FFFFFFD8
00000005
00000000
FFFFFFCA
0000001C
FFFFFFF1
FFFFFFF2
0000001D
0000001F
FFFFFFF4
00000016
FFFFFFF8
00000027
0000003E
FFFFFFFC
FFFFFFF4
00000026
FFFFFFDD
00000026
FFFFFFF2
00000009
FFFFFFE7
0000000E
FFFFFFE6
00000015
FFFFFFFB
00000003
FFFFFFDC
0000000B
00000004
FFFFFFE6
FFFFFFF4
FFFFFFEC
FFFFFFFC
0000000B
0000001C
00000012
00000006
00000009
FFFFFFDB
FFFFFFEF
FFFFFFFB
0000001B
00000019
00000002
FFFFFFF5
FFFFFFED
00000002
FFFFFFEA
00000002
00000008
0000000C
0000001A
00000009
FFFFFFF7
FFFFFFFB
00000009
00000015
0000000D
FFFFFFD1
FFFFFFEC
FFFFFFD6
FFFFFFF5
FFFFFFFE
00000009
00000002
00000004
FFFFFFE9
00000015
FFFFFFC9
0000001F
00000008
FFFFFFF6
00000014
00000013
FFFFFFE8
00000018
00000013
FFFFFFE4
0000001B
FFFFFFFB
FFFFFFDB
FFFFFFF1
FFFFFFDF
FFFFFFFB
FFFFFFF9
FFFFFFFB
0000000B
0000000D
FFFFFFF0
FFFFFFFA
00000000
00000027
FFFFFFE8
0000000D
00000019
FFFFFFEF
FFFFFFFD
FFFFFFD8
00000008
00000004
00000014
FFFFFFF6
FFFFFFF6
FFFFFFFC
FFFFFFFB
00000014
00000011
FFFFFFFB
FFFFFFF8
00000002
00000028
FFFFFFEF
00000007
FFFFFFE6
0000000A
00000007
0000001E
FFFFFFF7
0000001E
0000001E
FFFFFFEA
FFFFFFEE
FFFFFFED
FFFFFFDB
FFFFFFFD
FFFFFFFB
00000008
FFFFFFE8
0000000B
0000001E
FFFFFFFC
FFFFFFE9
FFFFFFEC
FFFFFFF4
FFFFFFE4
00000000
FFFFFFE9
0000001A
FFFFFFFC
FFFFFFEB
00000004
FFFFFFEE
00000009
0000000B
FFFFFFFB
FFFFFFD9
FFFFFFFC
FFFFFFEF
FFFFFFFE
FFFFFFEC
FFFFFFFF
00000025
00000010
0000001A
00000007
FFFFFFF7
FFFFFFF2
00000002
0000001C
00000002
00000005
FFFFFFF0
00000016
00000004
00000007
00000024
FFFFFFE1
FFFFFFF7
FFFFFFEA
00000000
FFFFFFD8
00000016
00000003
FFFFFFFF
00000023
00000017
FFFFFFED
FFFFFFEF
0000000C
FFFFFFFB
FFFFFFEB
00000023
0000001F
FFFFFFE7
FFFFFFF3
FFFFFFF0
0000000C
00000003
FFFFFFE6
FFFFFFEB
00000028
00000018
00000014
FFFFFFE7
FFFFFFF1
00000017
FFFFFFFE
FFFFFFFD
FFFFFFEB
00000014
FFFFFFFE
00000009
FFFFFFED
FFFFFFE2
00000011
FFFFFFFB
0000000C
00000013
0000001A
0000000D
0000000C
FFFFFFE8
FFFFFFE3
0000002C
FFFFFFFC
FFFFFFF2
00000015
0000002B
00000003
00000018
0000000C
FFFFFFFC
FFFFFFFD
0000000D
0000000A
FFFFFFFF
FFFFFFF4
00000009
FFFFFFEB
FFFFFFF2
00000007
FFFFFFEB
FFFFFFE8
00000009
0000001B
00000027
FFFFFFFC
FFFFFFE2
00000035
0000000D
00000011
FFFFFFEF
00000005
FFFFFFF2
00000005
0000000F
FFFFFFFE
00000000
00000015
FFFFFFF7
0000001B
FFFFFFF8
0000000C
FFFFFFF1
0000001E
FFFFFFE5
FFFFFFF3
0000001A
FFFFFFE2
FFFFFFF2
0000000E
0000000A
FFFFFFF5
FFFFFFEF
0000000D
00000000
00000007
FFFFFFEC
00000030
FFFFFFDB
00000016
00000003
FFFFFFFB
FFFFFFEF
00000004
00000008
FFFFFFE7
FFFFFFEE
FFFFFFF0
FFFFFFE9
FFFFFFF8
FFFFFFE4
00000007
FFFFFFF9
0000001F
00000002
0000001C
FFFFFFF0
FFFFFFFE
00000019
0000000B
FFFFFFF7
00000008
00000015
FFFFFFDC
00000004
FFFFFFF0
FFFFFFE8
FFFFFFE3
00000007
FFFFFFFD
FFFFFFED
00000017
00000017
FFFFFFF3
FFFFFFF0
FFFFFFF2
FFFFFFF6
00000008
FFFFFFE7
FFFFFFF6
0000000B
0000000F
0000000B
00000007
FFFFFFE3
FFFFFFF2
00000000
00000004
00000010
FFFFFFDE
FFFFFFF8
FFFFFFF6
FFFFFFEB
00000015
FFFFFFC9
FFFFFFDF
FFFFFFFB
FFFFFFFD
00000016
00000005
FFFFFFFD
0000001A
FFFFFFEB
00000035
FFFFFFEC
00000010
00000007
00000000
FFFFFFE5
FFFFFFE0
FFFFFFF6
FFFFFFD1
00000031
0000000B
0000000D
FFFFFFF3
00000017
00000003
FFFFFFFA
FFFFFFF0
0000003F
00000017
00000016
00000011
00000001
0000000F
FFFFFFC3
FFFFFFF6
FFFFFFDD
FFFFFFEB
00000015
00000007
FFFFFFD1
00000022
FFFFFFE9
00000001
FFFFFFFA
00000009
00000004
00000007
00000018
0000002A
0000002C
0000000F
FFFFFFF2
FFFFFFE2
FFFFFFFB
FFFFFFED
FFFFFFE0
00000013
FFFFFFF3
0000002B
0000001F
00000003
00000022
FFFFFFE6
FFFFFFE6
0000001C
0000000E
0000001A
FFFFFFF9
FFFFFFF8
FFFFFFF7
FFFFFFEF
0000000D
00000000
00000000
FFFFFFC8
00000025
0000001E
FFFFFFCB
FFFFFFE9
00000005
FFFFFFD6
FFFFFFDB
FFFFFFFC
FFFFFFF9
FFFFFFFB
00000007
FFFFFFFD
00000017
0000000A
00000019
FFFFFFE2
00000008
00000014
0000000D
FFFFFFD9
FFFFFFEF
00000003
FFFFFFD8
FFFFFFF1
00000017
FFFFFFF2
00000022
FFFFFFEC
FFFFFFE7
0000001A
FFFFFFFA
00000012
FFFFFFDD
FFFFFFF8
0000000F
00000001
00000016
00000008
00000017
0000002A
00000007
FFFFFFD9
FFFFFFE4
FFFFFFFA
FFFFFFE8
FFFFFFFC
00000003
FFFFFFFB
FFFFFFDD
00000019
00000016
FFFFFFE4
FFFFFFF7
FFFFFFE4
00000009
00000003
FFFFFFFA
00000007
00000005
0000000B
FFFFFFD8
00000000
FFFFFFF3
00000021
FFFFFFFD
00000008
FFFFFFF1
00000011
FFFFFFEF
FFFFFFE4
0000000E
FFFFFFED
00000007
FFFFFFFB
0000000B
FFFFFFFC
00000010
00000007
FFFFFFDB
FFFFFFFB
FFFFFFF2
0000001C
00000012
00000009
FFFFFFE7
00000019
0000000F
00000003
00000009
FFFFFFCA
00000016
FFFFFFEA
00000021
00000018
FFFFFFDB
0000000E
00000010
00000002
FFFFFFED
00000023
FFFFFFFF
FFFFFFE0
FFFFFFFE
00000003
FFFFFFF1
FFFFFFFD
0000000B
00000012
FFFFFFDE
FFFFFFF0
FFFFFFDF
00000009
00000015
FFFFFFEC
00000017
0000001A
0000000F
FFFFFFDB
00000021
FFFFFFFC
FFFFFFDF
00000006
00000002
00000020
0000000F
00000014
FFFFFFFD
FFFFFFDF
0000000E
FFFFFFD8
00000002
FFFFFFFF
FFFFFFE4
FFFFFFDE
00000004
FFFFFFEA
0000000F
FFFFFFE1
00000002
0000001B
00000003
00000022
0000000F
FFFFFFCE
0000001F
00000022
FFFFFFED
00000005
0000002A
FFFFFFF0
00000007
FFFFFFEC
FFFFFFFB
FFFFFFF1
00000006
00000016
FFFFFFF7
FFFFFFEF
FFFFFFE4
0000000E
FFFFFFFA
0000000E
FFFFFFEC
0000000A
00000004
FFFFFFF6
00000023
00000015
0000000D
0000002D
FFFFFFF6
FFFFFFEC
FFFFFFF8
00000022
FFFFFFEF
FFFFFFF0
00000027
FFFFFFF0
00000004
FFFFFFFC
FFFFFFF6
FFFFFFCA
FFFFFFE1
00000018
FFFFFFF5
0000000D
00000005
FFFFFFE7
0000001D
FFFFFFE3
FFFFFFF0
00000001
00000003
FFFFFFFE
00000026
FFFFFFE4
FFFFFFDE
FFFFFFFF
00000018
FFFFFFFD
FFFFFFDD
00000001
00000029
0000000A
00000010
FFFFFFDB
00000002
FFFFFFFE
00000041
FFFFFFE3
0000000C
FFFFFFD2
00000011
FFFFFFE1
FFFFFFD9
FFFFFFEE
00000011
0000003A
FFFFFFE9
00000007
FFFFFFE8
00000008
FFFFFFE1
00000007
0000001A
00000007
0000000D
FFFFFFDE
00000009
FFFFFFDF
0000003A
00000000
00000011
00000005
00000002
FFFFFFE5
00000007
0000001D
FFFFFFEC
0000003E
00000021
00000000
FFFFFFFF
FFFFFFDE
00000006
FFFFFFE7
FFFFFFFD
00000010
0000003A
FFFFFFF1
FFFFFFD2
00000011
00000000
FFFFFFF8
00000005
FFFFFFE2
FFFFFFD6
0000001F
FFFFFFF6
FFFFFFFD
FFFFFFF6
FFFFFFF6
0000000E
0000000B
FFFFFFEC
FFFFFFF8
FFFFFFE8
FFFFFFF8
FFFFFFF0
FFFFFFF8
FFFFFFF4
00000014
FFFFFFF7
0000000F
00000007
FFFFFFE8
FFFFFFFE
00000004
FFFFFFFA
00000010
0000001A
0000000D
0000000B
FFFFFFE5
0000000D
00000019
0000000C
0000001B
0000001F
00000001
00000009
0000001D
00000014
00000015
FFFFFFF2
0000001C
FFFFFFF9
FFFFFFF2
FFFFFFEA
0000001D
00000016
FFFFFFE9
00000015
0000001C
00000015
FFFFFFF9
FFFFFFFC
0000000D
00000018
0000002D
00000006
0000001A
00000024
FFFFFFCB
FFFFFFE5
FFFFFFE4
FFFFFFE5
FFFFFFFB
0000000A
00000028
0000000D
00000007
FFFFFFF5
0000000A
FFFFFFF6
00000002
0000000C
FFFFFFFE
FFFFFFE6
FFFFFFEA
00000002
FFFFFFFE
FFFFFFE5
00000024
00000000
FFFFFFF5
FFFFFFEB
FFFFFFEA
0000001F
00000003
FFFFFFF1
00000031
0000003F
0000002A
0000000F
00000018
FFFFFFEA
FFFFFFF3
FFFFFFED
00000035
FFFFFFEA
FFFFFFF1
FFFFFFED
00000015
00000012
FFFFFFF3
00000004
00000000
0000003A
00000014
FFFFFFD7
00000032
00000003
00000010
00000014
FFFFFFFC
FFFFFFF4
00000020
FFFFFFEC
00000001
FFFFFFF7
FFFFFFF0
00000003
FFFFFFFD
00000028
FFFFFFF6
FFFFFFDA
FFFFFFD3
00000006
FFFFFFE1
FFFFFFEE
0000001B
FFFFFFFE
FFFFFFE6
FFFFFFF4
00000012
0000000B
FFFFFFED
00000002
FFFFFFD6
FFFFFFF3
FFFFFFE0
FFFFFFFB
FFFFFFE5
FFFFFFF0
FFFFFFEF
FFFFFFF3
FFFFFFFE
FFFFFFEC
FFFFFFEC
0000002A
FFFFFFFA
00000022
00000007
FFFFFFFB
FFFFFFFA
FFFFFFE8
0000001D
FFFFFFF8
FFFFFFE6
0000000F
0000000B
00000007
FFFFFFFE
FFFFFFDC
00000009
00000001
FFFFFFEE
00000020
00000013
FFFFFFF7
FFFFFFF9
00000025
0000002E
0000000A
FFFFFFEC
FFFFFFF9
0000000C
00000002
00000008
FFFFFFE7
0000000F
FFFFFFE8
FFFFFFEE
FFFFFFE5
00000000
FFFFFFFE
00000027
00000002
0000004D
FFFFFFEF
FFFFFFED
00000035
0000002D
FFFFFFEB
0000001A
00000015
00000011
FFFFFFE7
FFFFFFF1
FFFFFFEC
FFFFFFF4
00000006
0000000C
FFFFFFFD
FFFFFFEE
FFFFFFB6
0000000F
00000020
0000001D
FFFFFFF7
0000001E
0000001A
FFFFFFE8
0000001D
0000000C
0000000D
0000003E
00000013
FFFFFFFA
0000001A
00000003
00000008
00000020
0000002C
FFFFFFED
00000002
00000024
00000034
0000001C
FFFFFFF4
FFFFFFFB
0000000B
00000010
FFFFFFF1
00000009
FFFFFFE8
00000009
FFFFFFF3
00000008
00000016
00000008
0000000D
FFFFFFD2
FFFFFFDD
0000000B
FFFFFFE2
00000018
00000027
00000019
FFFFFFF0
00000026
FFFFFFDE
FFFFFFD5
00000003
00000013
FFFFFFFE
FFFFFFF3
FFFFFFF9
FFFFFFFF
FFFFFFEF
00000009
00000037
00000032
FFFFFFE0
00000030
0000001B
FFFFFFD5
00000005
00000014
00000011
00000002
FFFFFFEC
FFFFFFE5
FFFFFFFD
0000000F
0000000E
FFFFFFDE
FFFFFFF2
FFFFFFF5
0000001A
00000004
FFFFFFF2
FFFFFFFE
00000033
0000000A
00000009
FFFFFFEF
FFFFFFD5
FFFFFFF3
00000008
00000013
FFFFFFF2
00000001
00000012
00000007
FFFFFFD1
00000024
FFFFFFF1
FFFFFFFC
0000001C
00000020
00000003
00000019
0000002A
00000005
0000000A
00000005
FFFFFFF2
00000027
FFFFFFED
FFFFFFFB
FFFFFFF3
0000000F
FFFFFFFA
00000000
FFFFFFF4
FFFFFFF3
0000000B
00000008
00000016
FFFFFFE9
FFFFFFFD
FFFFFFF4
00000018
00000006
FFFFFFEB
0000000F
FFFFFFDC
FFFFFFEE
FFFFFFE8
FFFFFFFE
00000024
FFFFFFEE
FFFFFFED
FFFFFFDF
FFFFFFEC
FFFFFFE3
FFFFFFFE
00000036
00000000
00000011
00000023
00000007
FFFFFFC8
00000026
00000012
FFFFFFEE
00000002
FFFFFFF3
FFFFFFFB
FFFFFFDA
FFFFFFFB
00000009
00000019
FFFFFFE7
0000000A
0000001B
00000000
FFFFFFF2
0000001D
00000009
00000018
0000000F
FFFFFFF8
FFFFFFFE
FFFFFFEA
FFFFFFDE
00000011
0000001C
FFFFFFE7
0000001D
00000011
FFFFFFE9
00000005
FFFFFFEB
FFFFFFF1
FFFFFFF5
FFFFFFF0
00000003
FFFFFFF9
00000037
0000001B
FFFFFFFC
0000001B
FFFFFFE6
FFFFFFE1
00000019
FFFFFFDF
FFFFFFC6
00000030
00000020
00000020
00000031
FFFFFFEA
FFFFFFF2
00000013
FFFFFFF3
00000005
0000001B
00000031
00000024
00000026
00000016
00000003
FFFFFFEC
FFFFFFE3
FFFFFFE6
0000000C
00000011
FFFFFFE4
FFFFFFF8
FFFFFFF5
00000015
FFFFFFD9
00000001
FFFFFFEC
00000000
0000000D
FFFFFFFD
FFFFFFDA
FFFFFFF9
FFFFFFEB
FFFFFFF6
FFFFFFE8
FFFFFFE8
00000013
FFFFFFEB
00000000
00000001
FFFFFFEB
FFFFFFF4
FFFFFFF1
00000019
FFFFFFE9
FFFFFFF8
FFFFFFE8
00000026
FFFFFFF1
FFFFFFFB
00000019
0000001F
0000000E
0000001F
FFFFFFED
00000029
0000000D
0000002F
0000000C
00000015
FFFFFFEE
0000001A
FFFFFFF1
00000013
0000000E
0000000C
FFFFFFED
00000010
00000008
FFFFFFE2
0000000F
00000010
00000006
00000000
00000004
FFFFFFFA
FFFFFFF7
FFFFFFE6
FFFFFFE2
00000016
0000000F
0000000B
00000000
00000022
FFFFFFFA
0000000B
0000001A
FFFFFFDD
FFFFFFF4
FFFFFFF1
FFFFFFFE
FFFFFFFD
FFFFFFF3
00000024
FFFFFFFF
00000008
FFFFFFFD
00000023
FFFFFFE4
00000001
FFFFFFD4
0000001C
FFFFFFFE
00000020
00000001
00000005
FFFFFFFD
00000005
00000006
0000001A
0000001E
0000002A
FFFFFFF0
00000017
00000024
00000001
00000004
00000028
FFFFFFF0
00000025
FFFFFFF2
0000000C
FFFFFFF1
FFFFFFF8
00000001
FFFFFFE9
FFFFFFDF
FFFFFFF6
FFFFFFF2
FFFFFFC2
00000012
00000004
00000008
FFFFFFF0
00000004
00000002
00000021
FFFFFFD4
00000013
0000000F
FFFFFFE3
FFFFFFF9
0000000F
00000000
00000023
FFFFFFF9
FFFFFFE6
0000000C
FFFFFFE2
00000000
00000013
0000000E
FFFFFFEF
FFFFFFF8
00000028
00000000
FFFFFFF9
00000022
FFFFFFEF
FFFFFFEE
0000000D
00000004
00000027
FFFFFFEF
FFFFFFE0
00000006
0000001A
0000000F
00000000
00000004
00000033
0000000D
FFFFFFE9
FFFFFFF9
00000016
FFFFFFDD
FFFFFFE9
FFFFFFF3
00000000
FFFFFFFF
00000024
FFFFFFF2
00000010
0000000B
00000029
FFFFFFE7
00000014
FFFFFFF7
FFFFFFE6
00000002
FFFFFFF7
00000026
00000004
FFFFFFF1
00000009
00000004
00000006
00000016
00000027
00000009
FFFFFFF7
FFFFFFF9
0000002A
FFFFFFF9
FFFFFFFB
00000002
00000002
00000024
0000003E
00000019
0000001B
FFFFFFDB
FFFFFFD7
FFFFFFFE
FFFFFFE7
00000014
00000003
00000004
FFFFFFCD
FFFFFFFD
FFFFFFD8
0000002F
00000004
FFFFFFF7
FFFFFFEC
FFFFFFEE
FFFFFFF9
FFFFFFE7
FFFFFFE1
00000020
FFFFFFE0
FFFFFFF2
FFFFFFFE
00000024
FFFFFFF8
0000000B
FFFFFFEF
FFFFFFF7
FFFFFFF0
FFFFFFE1
00000031
FFFFFFF8
FFFFFFF1
00000022
FFFFFFED
FFFFFFF4
FFFFFFF0
0000001C
FFFFFFE5
FFFFFFE1
FFFFFFFC
FFFFFFFF
FFFFFFF7
00000041
00000001
FFFFFFF5
00000000
FFFFFFEF
00000001
00000029
FFFFFFFD
FFFFFFE3
00000009
FFFFFFE6
00000014
FFFFFFF0
FFFFFFE2
FFFFFFE6
FFFFFFF4
00000011
FFFFFFEA
00000012
00000018
FFFFFFD5
00000005
FFFFFFF5
FFFFFFF6
FFFFFFFE
0000000B
00000000
FFFFFFE5
FFFFFFEB
00000021
FFFFFFF9
00000024
FFFFFFFB
00000016
00000011
FFFFFFD8
FFFFFFF3
00000018
FFFFFFCE
00000020
00000002
FFFFFFF1
00000017
00000006
00000027
FFFFFFF8
FFFFFFE4
00000014
00000014
00000007
FFFFFFFD
00000029
FFFFFFE9
FFFFFFE9
00000019
0000000B
0000000C
FFFFFFF1
00000034
FFFFFFF5
FFFFFFC6
00000004
00000001
FFFFFFF3
00000019
00000011
00000029
00000008
00000011
0000000C
00000008
FFFFFFFE
0000000D
FFFFFFF8
FFFFFFDE
FFFFFFD1
0000001C
00000015
00000018
FFFFFFEE
00000026
FFFFFFD0
00000017
00000017
00000001
FFFFFFDB
00000026
0000001B
00000002
0000003C
00000042
FFFFFFF7
FFFFFFED
0000002D
FFFFFFE0
FFFFFFF7
0000002A
0000001D
00000024
FFFFFFF5
00000002
FFFFFFFE
FFFFFFF6
FFFFFFFD
00000033
FFFFFFCF
FFFFFFFF
0000000C
00000016
00000007
FFFFFFFF
FFFFFFF2
FFFFFFCC
0000001D
FFFFFFC3
00000004
FFFFFFFC
FFFFFFD3
FFFFFFE1
00000016
00000020
00000009
FFFFFFF8
0000000D
00000001
00000026
FFFFFFEB
0000002C
00000031
0000001C
FFFFFFFA
FFFFFFC3
0000000B
00000001
00000008
00000009
0000000F
FFFFFFDB
FFFFFFE4
FFFFFFE6
FFFFFFF9
FFFFFFFB
FFFFFFE0
FFFFFFE4
FFFFFFF5
FFFFFFF5
0000001B
00000008
00000017
00000030
0000001C
00000000
FFFFFFF4
FFFFFFE9
0000000C
FFFFFFE7
00000000
FFFFFFE8
FFFFFFED
00000002
FFFFFFCE
0000000B
FFFFFFE1
00000024
00000011
0000000F
FFFFFFEB
0000000B
FFFFFFDE
FFFFFFF4
00000019
FFFFFFE2
00000026
FFFFFFD8
FFFFFFFA
FFFFFFFB
FFFFFFF8
00000018
00000013
00000013
FFFFFFD5
FFFFFFE5
0000001B
FFFFFFEE
00000021
FFFFFFEB
00000004
00000002
0000001E
FFFFFFEC
00000010
0000002D
00000007
00000007
FFFFFFF8
FFFFFFFF
FFFFFFED
FFFFFFE6
FFFFFFFC
00000000
00000018
FFFFFFFF
00000006
0000002A
FFFFFFF0
00000021
0000000C
00000015
00000012
0000001C
00000022
0000000B
FFFFFFF5
00000016
FFFFFFD5
FFFFFFE1
00000026
FFFFFFE1
FFFFFFF4
FFFFFFE5
FFFFFFCE
FFFFFFED
00000016
00000014
FFFFFFDF
0000001F
FFFFFFF8
00000016
FFFFFFE5
FFFFFFEC
00000025
00000028
FFFFFFDA
00000030
FFFFFFE5
0000000D
FFFFFFE4
FFFFFFE6
FFFFFFF3
FFFFFFF5
FFFFFFF4
FFFFFFE2
FFFFFFCF
FFFFFFF4
FFFFFFE8
00000018
00000005
0000000E
FFFFFFE8
FFFFFFFE
FFFFFFF1
FFFFFFF8
FFFFFFF5
0000000B
0000000C
FFFFFFFD
00000031
FFFFFFE4
0000000F
FFFFFFE7
FFFFFFEA
00000000
FFFFFFFB
FFFFFFEA
FFFFFFE6
00000022
00000009
FFFFFFEB
FFFFFFD2
FFFFFFDD
00000003
00000004
00000001
FFFFFFCD
00000033
FFFFFFE5
0000001F
FFFFFFDC
0000000E
FFFFFFF9
FFFFFFF7
0000000B
FFFFFFFA
FFFFFFD2
00000000
FFFFFFFE
00000022
FFFFFFF0
FFFFFFEE
FFFFFFF9
FFFFFFFF
00000030
FFFFFFF3
00000010
FFFFFFF8
FFFFFFF8
FFFFFFCD
0000000A
FFFFFFC7
FFFFFFF4
00000006
00000002
FFFFFFF9
00000002
00000007
00000003
0000000D
0000001F
FFFFFFE6
FFFFFFEB
00000016
FFFFFFF4
FFFFFFDC
0000001D
0000001B
FFFFFFE5
0000001D
FFFFFFD8
FFFFFFE7
00000012
FFFFFFFC
00000009
FFFFFFED
FFFFFFE3
00000004
00000042
00000000
0000000D
FFFFFFF1
00000037
FFFFFFF3
FFFFFFF9
FFFFFFF1
FFFFFFDA
0000000D
00000008
FFFFFFE3
FFFFFFEB
FFFFFFCD
FFFFFFFD
00000021
00000003
0000000E
FFFFFFE7
00000020
00000008
FFFFFFDE
00000019
00000014
FFFFFFE2
00000013
FFFFFFE2
FFFFFFF4
FFFFFFE0
00000002
FFFFFFF9
FFFFFFF9
FFFFFFE3
0000000D
00000008
FFFFFFF7
00000002
0000000E
00000007
00000008
FFFFFFFE
FFFFFFE7
FFFFFFE0
0000003C
FFFFFFF8
FFFFFFF9
0000001A
0000001A
00000018
FFFFFFE4
FFFFFFFD
FFFFFFFE
FFFFFFFB
FFFFFFF6
0000000F
FFFFFFFE
00000023
0000000C
FFFFFFC9
0000002A
00000024
FFFFFFD7
00000006
00000012
00000004
0000000B
FFFFFFFA
00000012
FFFFFFEC
FFFFFFE5
0000000C
0000000A
00000002
FFFFFFEE
FFFFFFED
FFFFFFD8
FFFFFFD9
00000034
00000022
FFFFFFFC
FFFFFFF2
FFFFFFE4
0000000F
00000013
0000000D
00000000
0000000C
00000019
FFFFFFF1
FFFFFFE8
00000010
00000020
00000017
FFFFFFF4
00000026
FFFFFFEF
0000001F
FFFFFFFA
00000005
FFFFFFF7
0000001E
FFFFFFF8
FFFFFFF3
00000008
00000018
FFFFFFEB
FFFFFFDF
00000017
00000009
FFFFFFF0
FFFFFFEE
00000002
FFFFFFDA
00000015
00000019
0000000F
FFFFFFDC
00000033
FFFFFFEE
00000007
FFFFFFF0
FFFFFFF8
00000027
FFFFFFDB
FFFFFFF5
FFFFFFD6
00000016
FFFFFFF5
0000001C
00000002
FFFFFFE6
FFFFFFE7
00000023
FFFFFFE9
0000002F
FFFFFFEB
00000009
0000000A
FFFFFFE0
00000005
FFFFFFF6
00000007
00000010
0000001C
00000021
FFFFFFFB
FFFFFFE8
FFFFFFDB
FFFFFFE7
00000017
FFFFFFFA
FFFFFFF2
FFFFFFEA
FFFFFFDA
00000014
0000001C
FFFFFFF4
FFFFFFF6
FFFFFFFF
00000034
FFFFFFE4
00000018
FFFFFFFA
00000011
0000002B
00000015
00000025
FFFFFFF4
FFFFFFF2
00000011
00000006
00000018
00000005
FFFFFFF5
00000013
00000003
FFFFFFE8
FFFFFFE3
00000010
FFFFFFEE
00000015
FFFFFFFA
00000003
00000003
FFFFFFE4
FFFFFFF9
FFFFFFDC
0000001F
FFFFFFFC
0000000D
FFFFFFE3
0000001D
0000000A
FFFFFFF9
0000000B
FFFFFFFE
00000020
FFFFFFE5
00000011
0000000C
FFFFFFF5
FFFFFFE9
00000004
FFFFFFE7
00000016
00000002
0000002C
FFFFFFF6
FFFFFFF8
00000007
00000022
FFFFFFF5
0000001C
FFFFFFE0
FFFFFFFD
FFFFFFE9
FFFFFFFC
00000017
FFFFFFE2
0000004A
00000012
FFFFFFE6
00000010
FFFFFFE2
0000002E
FFFFFFFA
0000000B
FFFFFFDE
00000001
00000027
00000001
FFFFFFF5
0000000B
FFFFFFD2
00000016
00000016
FFFFFFE8
0000000E
0000000E
FFFFFFF3
FFFFFFDE
FFFFFFE5
FFFFFFF0
0000000E
FFFFFFEE
00000035
FFFFFFF6
0000001C
FFFFFFFD
00000013
00000003
00000016
FFFFFFFE
FFFFFFF9
0000000F
FFFFFFD7
00000003
00000013
0000000F
FFFFFFFA
FFFFFFEE
00000011
FFFFFFED
00000001
FFFFFFDF
FFFFFFFB
FFFFFFE0
FFFFFFD1
FFFFFFDD
00000003
00000007
FFFFFFEC
FFFFFFFA
0000000F
00000003
00000023
FFFFFFF9
00000000
0000001E
FFFFFFFC
00000014
FFFFFFDD
FFFFFFDF
00000038
00000024
0000002E
FFFFFFFA
0000000F
FFFFFFF9
0000000F
FFFFFFF1
FFFFFFFE
FFFFFFE0
00000015
FFFFFFE3
0000001C
0000001A
FFFFFFED
00000005
FFFFFFF3
FFFFFFD5
0000002E
FFFFFFF3
00000012
FFFFFFFA
FFFFFFF8
0000000E
00000002
FFFFFFF9
00000006
FFFFFFFF
00000006
0000001E
FFFFFFD3
FFFFFFCE
00000037
00000010
FFFFFFE3
FFFFFFF6
00000001
FFFFFFDB
FFFFFFEB
FFFFFFF6
FFFFFFF9
00000010
FFFFFFEE
00000003
FFFFFFE7
0000000F
00000011
0000001E
FFFFFFDA
00000016
00000015
00000025
0000000B
0000000A
FFFFFFF1
00000016
0000000A
00000027
00000010
FFFFFFE3
FFFFFFFF
FFFFFFF2
FFFFFFF7
0000000A
FFFFFFFE
FFFFFFFF
00000006
FFFFFFEA
00000011
0000002A
00000015
FFFFFFF7
FFFFFFFC
00000010
00000018
FFFFFFFB
0000001A
0000000B
00000021
0000000F
0000001A
00000012
FFFFFFF1
FFFFFFE1
FFFFFFE0
0000001D
FFFFFFE3
00000000
0000001B
FFFFFFF0
FFFFFFEC
00000019
FFFFFFFA
00000000
0000000B
FFFFFFF5
FFFFFFF0
FFFFFFE5
FFFFFFF2
00000026
FFFFFFD5
FFFFFFEF
0000000B
00000002
0000000F
0000001A
00000027
FFFFFFFF
00000005
00000003
FFFFFFEE
FFFFFFEF
0000000A
00000014
0000000A
00000038
0000000F
0000001B
0000002F
00000001
FFFFFFF9
0000000E
0000000F
FFFFFFF7
00000001
0000000E
0000000C
FFFFFFD9
00000026
00000012
FFFFFFE4
0000000D
00000006
00000014
00000011
00000002
00000009
0000001D
0000001E
0000001D
00000009
FFFFFFEB
FFFFFFF9
FFFFFFDC
FFFFFFCC
FFFFFFF0
00000003
00000013
FFFFFFF0
0000000D
00000001
FFFFFFF2
00000016
00000015
00000007
FFFFFFFA
00000015
FFFFFFE6
00000026
00000004
0000000D
FFFFFFF0
FFFFFFF3
00000004
FFFFFFF4
0000002B
00000024
FFFFFFEE
0000000C
00000029
0000001A
FFFFFFF7
FFFFFFED
00000011
00000015
00000011
00000002
00000001
FFFFFFEB
00000028
FFFFFFFD
0000000E
0000000C
FFFFFFCF
FFFFFFF2
FFFFFFDF
00000003
0000001C
FFFFFFE2
0000001F
0000001E
FFFFFFE2
FFFFFFE8
0000000A
00000010
0000000B
FFFFFFF7
00000006
FFFFFFED
00000007
FFFFFFD4
FFFFFFF6
0000002B
FFFFFFFC
0000001E
FFFFFFF9
00000025
FFFFFFEA
00000005
FFFFFFE5
0000000A
FFFFFFC4
FFFFFFF6
00000020
0000000F
00000016
00000013
FFFFFFE7
FFFFFFE9
FFFFFFE8
0000000B
FFFFFFDF
00000015
FFFFFFDA
00000018
FFFFFFF3
FFFFFFEE
00000021
FFFFFFF4
FFFFFFDF
FFFFFFEB
FFFFFFEE
FFFFFFFB
FFFFFFD3
00000008
FFFFFFE2
FFFFFFF2
FFFFFFE4
FFFFFFF6
FFFFFFF3
00000004
FFFFFFE2
00000004
00000001
00000013
00000002
FFFFFFCB
FFFFFFEB
00000009
FFFFFFF2
00000005
FFFFFFFE
00000023
FFFFFFDF
00000004
FFFFFFE6
00000023
FFFFFFF7
00000014
00000010
00000024
FFFFFFDF
00000013
FFFFFFF6
00000018
FFFFFFE2
00000027
FFFFFFEF
FFFFFFF9
FFFFFFF1
00000001
0000001F
FFFFFFD9
0000001F
FFFFFFFC
00000037
FFFFFFFC
FFFFFFEE
00000004
00000002
FFFFFFF9
00000013
0000001C
FFFFFFFC
0000000C
0000001C
FFFFFFE2
00000021
0000000D
FFFFFFE3
FFFFFFF1
FFFFFFDA
00000003
00000006
00000016
00000015
00000013
FFFFFFEA
00000005
FFFFFFF5
0000000F
00000024
FFFFFFEC
FFFFFFF6
0000000D
FFFFFFE9
FFFFFFD8
00000018
FFFFFFF7
0000001E
00000019
0000000C
00000006
FFFFFFF1
00000026
00000012
00000024
FFFFFFE5
FFFFFFEC
0000000A
FFFFFFD9
00000013
FFFFFFCE
00000001
FFFFFFF9
FFFFFFFC
00000008
0000000A
FFFFFFE7
FFFFFFEE
0000001A
FFFFFFFE
FFFFFFDC
FFFFFFF9
0000001E
0000001D
FFFFFFF8
FFFFFFE4
FFFFFFFC
0000002A
FFFFFFEB
FFFFFFF4
0000000D
00000014
0000002D
0000001B
00000017
00000015
0000002B
FFFFFFF3
00000016
00000000
00000019
00000003
FFFFFFED
FFFFFFE6
0000000D
00000015
0000000E
FFFFFFFD
FFFFFFF4
FFFFFFD2
FFFFFFF9
FFFFFFED
FFFFFFEA
00000015
FFFFFFEE
00000002
FFFFFFE0
0000001A
00000011
FFFFFFE1
FFFFFFC7
00000016
FFFFFFDF
00000021
FFFFFFE4
0000001C
FFFFFFE7
FFFFFFFD
00000001
0000000D
FFFFFFE9
0000000B
00000027
FFFFFFF0
00000028
FFFFFFF3
FFFFFFF1
00000009
FFFFFFEF
FFFFFFF2
00000005
FFFFFFF8
FFFFFFFE
FFFFFFCD
0000000A
FFFFFFED
00000005
00000001
FFFFFFCE
00000012
FFFFFFF9
00000021
00000014
0000000B
FFFFFFF9
0000001F
FFFFFFE8
00000019
FFFFFFFE
FFFFFFF7
00000004
FFFFFFE7
0000002C
00000020
00000004
00000026
0000002B
00000018
00000030
FFFFFFE1
FFFFFFF2
FFFFFFF9
0000003A
FFFFFFCC
FFFFFFD5
FFFFFFFD
0000001B
FFFFFFFA
FFFFFFE3
FFFFFFF9
00000005
00000003
0000000F
FFFFFFFC
00000028
FFFFFFFA
FFFFFFF1
FFFFFFE9
FFFFFFFD
0000001C
0000000E
00000006
FFFFFFEF
00000018
00000008
00000031
FFFFFFE4
00000002
FFFFFFF4
0000000C
FFFFFFE0
00000018
FFFFFFFF
0000002E
00000016
FFFFFFF1
FFFFFFFB
FFFFFFEB
FFFFFFF2
00000015
FFFFFFF8
FFFFFFEB
FFFFFFF3
FFFFFFF3
00000026
FFFFFFD6
FFFFFFE8
FFFFFFE2
00000029
00000006
FFFFFFC8
0000001E
FFFFFFD1
00000020
00000030
FFFFFFD1
00000019
00000036
FFFFFFEF
00000020
00000010
FFFFFFD5
FFFFFFD6
00000001
0000001E
FFFFFFE5
FFFFFFFB
0000000A
0000001B
00000033
0000000A
0000000C
00000019
FFFFFFFC
FFFFFFC9
00000009
FFFFFFEF
0000002F
0000000E
00000008
00000026
00000000
00000022
FFFFFFB7
00000008
0000001B
00000004
00000029
0000001B
00000007
FFFFFFF9
0000001A
FFFFFFF0
FFFFFFF8
FFFFFFEB
00000015
00000000
FFFFFFE1
0000000E
FFFFFFBE
FFFFFFF9
FFFFFFFB
FFFFFFFA
00000015
0000000C
FFFFFFFE
00000007
00000016
FFFFFFF4
FFFFFFF2
