FFFFFE93
00000038
FFFFFFE6
FFFFFBA0
FFFFF87A
FFFFFA62
FFFFFF10
FFFFFCDE
FFFFFB03
FFFFFBBE
FFFFFE3E
FFFFFFAA
FFFFFFD5
FFFFFF2A
FFFFFE61
FFFFFB28
FFFFFCF8
FFFFFFC7
FFFFFCD3
FFFFFDA5
0000012F
FFFFFD20
FFFFFC93
FFFFFEF0
FFFFFE1A
FFFFFC69
FFFFFCD3
FFFFFF45
FFFFFE69
FFFFFD1B
FFFFFFFE
0000019C
00000081
FFFFFF1A
FFFFFBCE
00000173
FFFFFFD4
FFFFFCFB
FFFFFC8A
FFFFFCB1
FFFFFB6E
FFFFFD1B
FFFFFC51
FFFFFEA0
000001AC
000004EF
0000057D
000003F4
00000074
000000C5
000002BB
0000019E
FFFFFEE1
00000193
000000EA
FFFFFE63
000002FC
0000043A
00000185
FFFFFBA4
00000173
0000031F
00000126
000000D4
0000027E
000001F2
00000012
00000177
000001EA
00000107
000004BF
000005A5
000001CB
FFFFFE93
FFFFFFDF
FFFFFE51
000000E7
00000174
000004E8
00000180
FFFFFA53
FFFFFEDC
000000FF
FFFFFC85
FFFFFF48
FFFFFF6C
00000017
000001FC
000002A7
00000176
00000007
0000011C
00000222
0000000E
FFFFFF4B
00000036
00000235
00000012
00000199
00000190
00000283
00000331
000003A3
000003EE
000002C1
00000039
0000027D
00000483
0000040E
000001F9
00000141
FFFFFEB4
