000001CB
FFFFFE3E
00000481
FFFFFC66
FFFFFE30
00000385
FFFFFDAA
FFFFFDE9
00000064
FFFFFDCD
00000181
FFFFFFAD
FFFFFD0C
0000021D
00000354
FFFFFF21
00000291
FFFFFBE6
00000092
0000020C
FFFFFCE2
00000039
FFFFFF9D
FFFFFF9F
00000241
FFFFFE63
000001E7
FFFFFDCA
00000011
0000011F
FFFFFD73
FFFFFC72
000002B4
FFFFFC54
FFFFFCE0
000000EE
0000005C
0000024F
FFFFFDD4
000002AB
FFFFFD09
00000176
00000112
FFFFFDF0
000003EE
FFFFFEBF
00000015
FFFFFDDD
0000022D
FFFFFF3A
00000258
FFFFFF8B
FFFFFD88
00000245
0000021F
FFFFFF7C
00000156
FFFFFE8C
000001D3
FFFFFF3D
FFFFFE2D
0000037A
FFFFFD5D
FFFFFE7F
000001EF
0000022C
000001DB
000003F6
FFFFFF44
FFFFFF3B
FFFFFC6C
000000F0
FFFFFB72
FFFFFD83
00000148
FFFFFD28
0000016C
FFFFFE60
FFFFFED0
00000092
FFFFFFC8
FFFFFCF0
FFFFFEAF
00000213
0000023A
FFFFFC68
FFFFFCCF
0000001C
0000003D
000001C0
0000020F
00000402
000000A7
FFFFFD85
0000010D
FFFFFE4C
FFFFFF56
00000149
000001EF
00000247
00000043
00000009
FFFFFC69
00000160
FFFFFD49
FFFFFD4E
00000247
FFFFFE12
000000F0
00000126
00000076
FFFFFDB6
000000A5
00000065
0000021B
00000032
FFFFFE75
0000029A
000001BB
FFFFFF39
FFFFFD94
00000234
FFFFFF99
0000015C
0000024F
00000050
0000035A
00000403
FFFFFBC5
000001FF
00000066
000001FD
00000179
0000013B
0000001D
0000017D
00000229
FFFFFD8A
FFFFFEAE
000001C5
FFFFFF7E
0000025A
FFFFFF0E
0000035F
FFFFFE6A
000002F4
FFFFFFBF
FFFFFCED
00000298
0000022F
FFFFFE77
FFFFFF3A
FFFFFDAA
FFFFFF0B
FFFFFF62
FFFFFDB7
00000564
FFFFFFEA
000002E7
0000008C
00000069
00000273
FFFFFEE3
0000045D
00000321
00000016
FFFFFDE9
00000032
FFFFFDBA
FFFFFE9A
0000020E
000000C2
00000257
0000039B
00000360
FFFFFE14
00000019
FFFFFC26
00000389
FFFFFD58
00000287
FFFFFCD1
00000150
00000257
FFFFFF0A
0000001E
FFFFFBCC
FFFFFD56
FFFFFE45
000002B2
FFFFFEA9
FFFFFDA4
00000015
FFFFFDDB
FFFFFD43
FFFFFFFC
FFFFFC5F
0000004E
00000208
00000122
FFFFFF21
FFFFFE55
00000299
0000008D
0000021F
FFFFFD59
FFFFFCF1
FFFFFEF4
FFFFFE8F
00000041
000001B8
FFFFFFD0
FFFFFEFA
0000026A
FFFFFEEC
000002C9
0000042D
0000002F
FFFFFCCD
FFFFFD9D
00000177
0000013E
FFFFFDB0
00000258
000002F7
FFFFFE86
FFFFFF8E
000000D8
000001D4
00000213
000002A3
FFFFFF11
FFFFFF91
FFFFFA95
FFFFFF69
FFFFFEA1
00000503
FFFFFED8
000003EB
FFFFFF43
FFFFFD1B
FFFFFE68
FFFFFA95
0000031B
FFFFFD1D
000000B4
FFFFFF80
0000038C
FFFFFF84
FFFFFF27
000001F5
0000029F
FFFFFF47
000003A7
00000157
00000198
FFFFFD35
0000003C
FFFFFC7F
000001BE
00000100
FFFFFFC1
000002F7
0000031D
FFFFFF6E
000003AB
000001DE
FFFFFF28
FFFFFDF5
FFFFFF2A
00000117
FFFFFE21
0000019B
FFFFFF7A
000002A5
FFFFFEC7
FFFFFDFF
FFFFFEE2
FFFFFF15
0000010B
0000051F
FFFFFED8
FFFFFED7
00000050
00000004
00000177
00000294
FFFFFFDB
FFFFFE8D
FFFFFE13
000001DD
FFFFFDD4
FFFFFFD7
0000022F
FFFFFF33
00000283
FFFFFCDF
00000431
0000032A
00000029
FFFFFF61
FFFFFED9
000003EB
000001BF
000000B7
000003AB
FFFFFB8E
FFFFFCF0
000000CE
00000141
FFFFFFA4
FFFFFF03
FFFFFD35
FFFFFCED
FFFFFE4E
FFFFFE61
00000399
000001F7
000000BF
0000009A
0000034A
000000BE
FFFFFEED
0000032E
FFFFFC84
FFFFFE45
FFFFFFE1
00000052
00000110
FFFFF9F2
00000247
000001ED
FFFFFE84
FFFFFE80
FFFFFDFF
FFFFFF29
FFFFFDFD
00000255
000001D0
FFFFFEE8
FFFFFEC4
FFFFFEDF
FFFFFF88
000000D7
FFFFFD85
00000064
FFFFFE29
FFFFFE0F
FFFFFEB9
FFFFFF14
000002B6
FFFFFD32
000001C3
FFFFFD61
FFFFFFD2
000000EB
FFFFFF19
FFFFFF69
000000A7
00000203
FFFFFF6A
FFFFFEA1
FFFFFCF1
000001E7
00000073
FFFFFED3
000002C0
00000225
000001BC
00000302
FFFFFD2F
000000D7
FFFFFF62
00000290
FFFFFD28
00000069
00000300
00000202
00000335
00000232
00000196
0000036A
FFFFFFA6
FFFFFD3E
FFFFFDBC
00000202
00000136
000001A6
FFFFFFFA
FFFFFE0D
000000E2
0000011E
FFFFFE0D
00000136
00000255
FFFFFD9A
000000AB
FFFFFFD7
000002E1
0000000A
000001FD
000000CF
FFFFFE1D
000000EE
FFFFFE79
FFFFFDA9
FFFFFD47
FFFFFD7C
FFFFFEBA
FFFFFFEC
0000025F
0000018E
FFFFFE71
FFFFFF28
FFFFFF23
000000F2
0000008D
FFFFFECF
FFFFFC35
FFFFFDFC
FFFFFE61
000001EC
000000EF
FFFFFFF1
0000038D
FFFFFD2A
FFFFFFEA
FFFFFE95
FFFFFF30
FFFFFCE7
FFFFFE8A
FFFFFFC3
FFFFFD2A
FFFFFE38
FFFFFFC4
00000073
FFFFFE8D
00000260
00000109
FFFFFEBD
000002F8
FFFFFF26
FFFFFD72
FFFFFEA1
FFFFFF1E
FFFFFD62
00000191
FFFFFFC6
0000022D
0000016D
FFFFFEB5
FFFFFFD7
0000023A
00000254
FFFFFDB2
00000198
000000BA
000003A1
FFFFFFE6
FFFFFDF8
00000416
FFFFFFB7
00000049
0000002D
FFFFFF1D
000002F4
FFFFFD94
000003A6
00000356
FFFFFDFE
0000000F
000000CA
FFFFFBE9
FFFFFF50
FFFFFF99
000001F7
000001F4
FFFFFE7F
00000448
FFFFFDB3
00000024
000001D9
FFFFFE68
0000021C
00000200
000000BC
FFFFFBE4
00000201
00000033
FFFFFDEA
FFFFFDD5
000001AD
FFFFFAEF
FFFFFDE9
FFFFFFE7
FFFFFF92
FFFFFBD5
000000D8
FFFFFCB7
FFFFFE96
FFFFFC92
00000384
FFFFFE18
FFFFFFFB
FFFFFDA1
000000BA
0000027A
FFFFFDF0
FFFFFFC8
FFFFFDD0
FFFFFF35
00000220
00000173
0000030E
FFFFFF9C
00000264
00000075
00000409
0000011E
000002DF
00000152
000000A0
0000013B
FFFFFEE8
000000D7
000000A4
FFFFFE6F
0000032A
00000061
FFFFFFAE
00000188
FFFFFD61
FFFFFE98
0000001A
FFFFFE90
FFFFFE20
FFFFFE3B
FFFFFF9D
00000304
00000347
FFFFFFE7
000002B6
FFFFFFD6
FFFFFEB4
FFFFFF71
000001C9
00000103
FFFFFDAF
00000266
FFFFFFF0
FFFFFE60
00000007
00000289
000000AB
00000180
000000AC
00000073
00000101
FFFFFEB1
000002A7
FFFFFEF2
0000021B
FFFFFF04
00000007
FFFFFE6C
FFFFFE3F
00000215
00000084
FFFFFF93
000002CB
FFFFFF3B
000001A3
FFFFFFE2
0000013B
000001F9
FFFFFF68
FFFFFEF5
0000009F
FFFFFFF4
FFFFFC0C
FFFFFF08
FFFFFF33
00000111
0000022F
FFFFFD50
000001E7
FFFFFF50
0000025C
FFFFFEC8
00000231
FFFFFF56
FFFFFFD5
000001B8
00000070
0000010A
00000085
000002D6
00000076
00000087
00000130
000001DB
FFFFFFB6
FFFFFD3F
000000BC
0000020D
FFFFFE48
FFFFFE11
FFFFFEBF
00000095
0000011F
FFFFFF19
000000A9
00000071
FFFFFFA5
000001C5
FFFFFF63
FFFFFE5D
FFFFFD2F
0000016A
0000041A
000001A5
00000102
FFFFFD67
000002D4
00000378
FFFFFE65
00000250
FFFFFF4F
FFFFFD3D
FFFFFD57
FFFFFB46
00000302
FFFFFE68
FFFFFEDC
FFFFFC85
FFFFFCE4
0000012C
000001E6
FFFFFFA3
000003EF
FFFFFE6B
FFFFFF1B
FFFFFFF8
000002BE
FFFFFDB9
FFFFFCEE
FFFFFF1B
FFFFFFFA
00000115
000002F2
FFFFFE36
00000102
FFFFFC31
00000080
FFFFFFC9
00000065
FFFFFCED
00000116
FFFFFDBE
FFFFFFFD
0000011C
FFFFFF06
FFFFFF50
000000D8
00000162
FFFFFE80
FFFFFC3F
000000A8
FFFFFFE8
00000407
FFFFFEB7
000001D3
0000005E
00000096
00000261
FFFFFCBB
0000004D
FFFFFFA8
000000FF
FFFFFD69
000000AB
FFFFFFCD
FFFFFFBC
FFFFFFF1
FFFFFE17
FFFFFE0D
FFFFFD64
00000389
0000010F
00000315
FFFFFCE3
FFFFFF2A
FFFFFC17
FFFFFD62
FFFFFF35
000000F6
000000B9
FFFFFBCF
FFFFFD84
0000014C
00000386
FFFFFF02
00000146
FFFFFDFF
000002FC
00000155
FFFFFE29
FFFFFF15
FFFFFFE3
FFFFFE45
00000323
00000262
FFFFFED9
FFFFFFDE
000000FA
FFFFFD82
FFFFFDD7
FFFFFEDF
00000162
00000402
0000018F
FFFFFCEC
0000009E
FFFFFDDB
00000010
FFFFFE65
0000035F
FFFFFFF8
000001FF
FFFFFCFA
FFFFFDF3
FFFFFFAD
000001AB
000000BA
00000344
00000216
000001B7
FFFFFC28
000001D5
FFFFFE20
00000094
FFFFFE52
000002B1
FFFFFF4A
FFFFFF93
FFFFFEA1
00000092
FFFFFEC2
FFFFFE85
FFFFFF23
FFFFFE67
0000015D
FFFFFE94
000001AF
00000014
0000008A
FFFFFEAA
FFFFFE0D
FFFFFEA9
00000418
FFFFFE9E
0000024F
FFFFFEAC
FFFFFCE7
000001B9
00000192
00000338
000003EA
0000011D
0000002B
00000150
000001A8
000001E9
00000455
0000018D
00000041
00000017
0000014A
00000130
00000102
FFFFFE2F
00000226
0000001F
000000C3
FFFFFD4B
FFFFFD7D
00000276
000000A6
0000000A
FFFFFD33
00000030
FFFFFF94
000005DD
0000031D
00000180
0000021A
0000019E
0000002C
000002FB
000001A1
000000C0
00000241
FFFFFD1B
FFFFFE5F
FFFFFDCC
000000F1
000002D9
00000321
FFFFFEC1
00000080
00000048
FFFFFE53
FFFFFDEF
00000169
00000199
00000093
00000223
00000497
00000021
FFFFFE47
FFFFFFEB
00000083
FFFFFD5B
FFFFFEB1
FFFFFE9C
00000376
FFFFFDC4
FFFFFFFA
00000251
00000171
000002B1
000002C0
000002AD
FFFFFE7A
FFFFFC44
FFFFFF6A
FFFFFEB4
FFFFFE12
000001A3
000001DB
FFFFFE7B
0000019C
0000026B
FFFFFFF4
FFFFFE69
0000000D
00000092
000001F3
FFFFFE10
00000210
000000DD
000000F7
00000014
FFFFFEE2
0000019C
FFFFFF83
FFFFFE37
0000014E
00000015
00000305
000002E0
00000415
00000362
00000091
000000E0
FFFFFFFF
000001DD
00000236
FFFFFF23
000000EF
00000002
FFFFFC39
0000020C
0000043C
0000014C
000003FF
FFFFFEB2
00000134
00000093
FFFFFE9B
FFFFFDD3
0000021D
FFFFFEFC
FFFFFF4C
00000215
000000BE
FFFFFC2C
0000014B
0000042D
000001E1
00000199
0000027A
FFFFFDB9
FFFFFF14
00000122
FFFFFEF7
FFFFFFF7
000002C2
FFFFFD35
FFFFFF8E
0000021F
000003F9
FFFFFEC3
FFFFFF98
0000027B
FFFFFD83
FFFFFEBD
FFFFFE60
00000123
FFFFFF5B
00000120
FFFFFDE1
FFFFFEEF
000002FD
00000131
00000207
FFFFFE9F
000001F3
FFFFFDB2
00000113
000000D3
00000058
00000097
00000149
FFFFFC5D
FFFFFF99
FFFFFF3D
FFFFFF71
FFFFFE2B
00000111
00000101
FFFFFA48
0000033F
FFFFFEFB
FFFFFEAA
FFFFFD50
FFFFFC3E
00000208
00000123
FFFFFE72
00000121
FFFFFE72
000003F0
00000170
FFFFFFD6
000003C1
0000034D
FFFFFF81
000001C4
000000CE
000001BA
00000043
FFFFFC54
FFFFFDED
FFFFFE0F
0000011A
000001DE
FFFFFFFE
000002D5
000000BA
00000667
FFFFFFE7
FFFFFE6F
000000F5
000000FF
00000044
00000033
FFFFFE4E
000000DC
FFFFFE1E
000001EB
FFFFFFCB
FFFFFEF8
FFFFFD92
FFFFFEE5
00000255
000001ED
000001D7
FFFFFFB4
000001CA
000001E7
FFFFFE7E
FFFFFD19
FFFFFDC8
FFFFFDA8
FFFFFF6C
00000456
000002B8
FFFFFD40
0000010E
FFFFFE39
FFFFFE46
00000048
FFFFFDB1
0000016F
00000293
0000020F
00000056
FFFFFE4B
00000270
FFFFFF77
000001D2
00000012
FFFFFED1
FFFFFEF0
FFFFFDE6
FFFFFCAE
FFFFFDD4
FFFFFEB7
FFFFFF4B
0000002F
FFFFFEE3
FFFFFBE7
0000009E
00000128
00000115
000000A4
FFFFFF60
000000D8
0000025E
FFFFFED6
000000CF
0000008C
FFFFFFD2
FFFFFD46
000002F4
0000038A
0000017C
FFFFFD67
000002C9
FFFFFEB7
00000306
00000014
FFFFFD61
FFFFFF3B
00000227
FFFFFF99
00000242
000002E4
0000029E
000004A7
FFFFFD96
000002C6
00000370
000001D0
FFFFFD86
0000022C
0000017A
0000046D
00000313
000002FF
FFFFFBA7
0000043A
00000200
FFFFFD26
00000209
000002B8
000000F2
FFFFFD74
000000FF
FFFFFED3
000002B6
FFFFFDA1
0000036B
FFFFFE96
00000238
000000E5
00000332
FFFFFE25
0000019E
FFFFFA75
FFFFFFE8
000000B3
0000018D
000000B2
00000157
0000020C
00000036
00000149
FFFFFE23
FFFFFEA8
FFFFFFE4
FFFFFF88
FFFFFF9D
FFFFFE8F
00000170
00000156
FFFFFE9E
FFFFFF10
FFFFFEFC
FFFFFEE5
000001B2
000000B4
FFFFFC34
FFFFFF61
FFFFFF72
FFFFFF76
00000265
FFFFFCE2
000002A9
00000339
FFFFFE81
FFFFFE8D
FFFFFF9F
00000320
000001F6
FFFFFD12
0000039B
FFFFFE1C
000001C8
FFFFFEA8
FFFFFE56
FFFFFDAA
000000E7
00000135
00000178
FFFFFC74
FFFFFFC9
FFFFFE14
000003ED
000002F9
FFFFFE9D
FFFFFC5B
FFFFFF00
00000168
00000260
FFFFFC1E
0000040F
FFFFFB23
00000218
FFFFFEB2
000000D9
00000772
FFFFFF27
FFFFFEF8
FFFFFDE2
00000232
000000B1
000000BF
00000315
000002FB
FFFFFEA2
FFFFFCCB
0000000C
0000029A
FFFFFDC7
0000044F
000001C0
FFFFFFFD
FFFFFE14
000000C3
FFFFFECD
FFFFFFC9
00000361
FFFFFE32
0000008D
00000190
00000399
FFFFFF1C
FFFFFC26
FFFFFEA0
000002CA
FFFFFE75
0000029C
000002FD
00000093
FFFFFC60
FFFFFFEF
000000F4
00000488
000000E9
FFFFFF93
0000010D
0000015D
FFFFFF86
FFFFFE61
00000089
00000008
FFFFFE5F
00000268
00000153
000002F9
FFFFFDE6
FFFFFE78
0000032C
FFFFFD44
000002DD
000001C2
FFFFFE3C
FFFFFEFA
FFFFFF28
000000F1
FFFFFF80
FFFFFC1A
FFFFFF44
FFFFFF40
00000306
00000034
FFFFFD16
FFFFFF90
00000018
000003DD
FFFFFEC0
000003F5
00000152
FFFFFF17
FFFFFE89
000000E0
00000261
00000223
000002EC
0000015B
FFFFFFB0
FFFFFC62
0000035D
00000002
FFFFFC5F
000001F2
FFFFFEC5
FFFFFD42
000000C1
000000EE
FFFFFF96
0000024A
FFFFFD3B
FFFFFE52
FFFFFFA6
000001A2
0000025A
FFFFFFD6
FFFFFFFE
FFFFFE6A
FFFFFEF4
0000019D
FFFFFF31
00000109
FFFFFF5A
0000043E
0000015E
00000339
FFFFFF83
000001AE
FFFFFF4C
FFFFFE7D
0000025D
0000025C
FFFFFFD8
000005F5
FFFFFE8E
000001A8
00000263
0000032F
000000E2
0000047E
0000013C
FFFFFDDF
FFFFFFF6
00000129
00000344
00000176
FFFFFD7C
FFFFFA6D
00000060
FFFFFF21
FFFFFF83
0000021B
000005F0
00000130
FFFFFDF0
0000023F
FFFFFE5D
FFFFFFF9
FFFFFD41
FFFFFD63
FFFFFF0A
FFFFFFB0
0000015A
0000026D
0000037D
FFFFFF3B
FFFFFCFC
00000346
0000002F
000001CF
FFFFFD09
FFFFFEC5
00000057
FFFFFCDA
0000036A
000000D2
FFFFFCAE
FFFFFE02
FFFFFEE2
000003F0
FFFFFF72
FFFFFF90
FFFFFE5F
00000268
FFFFFEF2
00000143
000001DE
FFFFFF4E
FFFFFEA3
00000152
0000016C
0000045E
000001CB
0000008A
000000BD
0000030D
FFFFFF2B
FFFFFF9C
FFFFFDC6
FFFFFEF9
00000168
FFFFFD68
FFFFFD4D
FFFFFF59
000001F9
00000208
0000039E
FFFFFFD9
0000017E
00000102
FFFFFE9B
FFFFFEA7
FFFFFF9F
00000222
000001C4
FFFFFEC2
FFFFFC93
00000105
00000131
FFFFFF46
FFFFFEF2
00000054
FFFFFCB3
000003B4
00000386
00000138
FFFFFFCC
FFFFFCCB
FFFFFFC2
FFFFFEFC
0000012C
00000021
00000216
000000AE
00000306
0000000D
00000196
FFFFFC1A
FFFFFE8E
000001DF
FFFFFEC1
0000038A
FFFFFC8D
FFFFFD4D
0000028A
000001D4
FFFFFE9B
FFFFFFA1
FFFFFE80
FFFFFE1F
00000216
FFFFFDB8
00000114
00000114
FFFFFFAC
0000002E
FFFFFFE3
00000311
00000008
0000027D
FFFFFBA9
0000038B
FFFFFD84
FFFFFF3D
00000315
00000057
FFFFFC8C
0000003F
000002E4
FFFFFFE9
00000203
FFFFFE7C
00000150
00000091
00000460
FFFFFD78
FFFFFFE8
FFFFFE69
00000283
FFFFFD3F
FFFFFE48
00000048
FFFFFE23
000001F2
FFFFFEA0
000001A9
000002DF
FFFFFEBC
FFFFFCCA
0000006E
FFFFFF69
FFFFFF89
FFFFFC37
00000041
00000071
FFFFFFD4
FFFFFDA5
00000007
FFFFFD8A
000000C2
00000031
0000017D
0000019E
FFFFFE18
00000217
00000147
000000C1
FFFFFE81
000000A8
FFFFFF57
00000002
FFFFFD29
00000231
000000F5
0000015F
00000248
FFFFFFAA
00000025
000002CC
000003A5
00000093
00000187
FFFFFF03
000003B5
000001B1
FFFFFF98
0000022B
0000005B
0000024F
0000004A
FFFFFFA8
0000017A
FFFFFE35
00000122
FFFFFFFB
0000024A
0000006B
00000480
0000008A
FFFFFFA9
00000395
FFFFFD32
FFFFFE8D
000003F7
0000030F
FFFFFDE6
00000193
FFFFFEA5
FFFFFF42
FFFFFB7B
FFFFFD4F
FFFFFE14
000004B3
00000193
FFFFFFF2
000000ED
00000159
000000B6
FFFFFAFA
0000039B
000001A8
FFFFFF18
FFFFFBFE
FFFFFD37
00000333
FFFFFE85
FFFFFF83
FFFFFF9A
FFFFFD89
FFFFFFAA
000001D8
FFFFFCC2
FFFFFD83
FFFFFD8E
00000196
FFFFFBAD
FFFFFF8F
00000150
FFFFFEB4
FFFFFF4F
FFFFFF7E
000000F8
000000BC
00000260
FFFFFECE
000001BE
00000019
000000F4
FFFFFC26
FFFFFE75
00000155
00000161
FFFFFE5A
FFFFFE5D
00000294
000003FD
00000194
FFFFFC20
0000029B
000001E1
000001C5
00000265
FFFFFF27
FFFFFE50
FFFFFF1F
00000258
FFFFFDAD
FFFFFF3F
0000015D
00000111
00000354
FFFFFD08
0000007C
000000DE
FFFFFCCB
0000000F
00000061
000003B3
FFFFFD91
FFFFFE70
FFFFFEE8
FFFFFD97
FFFFFB68
FFFFFE82
FFFFFF5A
000001AE
FFFFFD26
FFFFFD18
FFFFFE90
FFFFFFC3
000001F9
FFFFFBD7
00000115
00000072
FFFFFDD2
FFFFFD47
FFFFFF63
FFFFFEB4
FFFFFBE2
000002F3
000005D7
FFFFFDD9
0000033C
000002A7
FFFFFE84
000001DB
FFFFFFCD
000000A4
00000215
FFFFFFFB
FFFFFF89
FFFFFEC4
FFFFFF8F
FFFFFE57
0000006F
00000228
00000036
000003EE
00000334
FFFFFF3B
FFFFFF8C
000001A3
FFFFFD22
FFFFFFA9
00000135
FFFFFFCE
FFFFFFEC
FFFFFE45
FFFFFD23
FFFFFE5A
FFFFFD28
FFFFFD84
FFFFFDF4
00000286
FFFFFF7C
0000010C
00000045
FFFFFFCB
FFFFFE90
00000120
000001E2
000000E9
000003D8
00000285
00000148
FFFFFBDB
FFFFFD07
0000000B
0000027F
FFFFFC22
FFFFFFED
FFFFFDA9
FFFFFEA2
000001BC
FFFFFF8C
FFFFFF09
000001A3
000000E7
FFFFFE2E
00000385
FFFFFC33
FFFFFE22
0000020E
000000E1
FFFFFF03
0000019B
0000034C
FFFFFEBB
000001C2
00000040
FFFFFE37
00000199
FFFFFF0A
000001AB
FFFFFE4E
FFFFFFB2
FFFFFF6A
00000091
0000012B
0000000B
0000012F
FFFFFF5F
FFFFFE10
FFFFFE3A
FFFFFCB1
FFFFFF63
0000032A
00000051
00000444
FFFFFF63
00000161
00000168
0000019A
FFFFFEAC
FFFFFFBF
FFFFFD6F
FFFFFF5E
000000E9
0000032C
FFFFFCBD
0000020C
FFFFFEC6
00000273
FFFFFEED
00000071
FFFFFFEC
FFFFFEEB
FFFFFD3B
FFFFFFB7
FFFFFDF7
FFFFFB4F
FFFFFD5D
FFFFFD2D
FFFFFE68
FFFFFE3B
00000126
00000303
FFFFFF88
000001DD
00000328
00000322
FFFFFE42
000002C4
000000B2
00000137
FFFFFDED
FFFFFD4C
00000205
FFFFFEA8
FFFFFFCD
FFFFFE3D
0000007F
FFFFFDFC
0000011D
0000005A
FFFFFF19
0000034B
000002D5
000002A1
00000112
FFFFFEEA
FFFFFF9F
00000239
00000255
00000295
FFFFFE18
0000008D
FFFFFDF9
FFFFFCB3
FFFFFDEE
00000306
000002FA
FFFFFD28
FFFFFB6C
000000D1
FFFFFEDD
00000096
FFFFFF9E
FFFFFEDE
FFFFFFDC
FFFFFFAD
00000422
FFFFFFCE
FFFFFF2B
0000015C
FFFFFD4D
FFFFFC1A
00000222
000005B3
000001C4
FFFFFE0D
000001AF
FFFFFE9B
FFFFFF54
000002F8
00000153
FFFFFFFC
FFFFFBFF
000003D1
FFFFFF24
FFFFFDAD
FFFFFDB4
0000006C
FFFFFF9B
000002C4
FFFFFCDF
FFFFFEC0
00000096
000000A0
FFFFFEB2
00000183
0000001B
FFFFFD34
0000047A
000002D8
00000261
FFFFFD51
0000028D
FFFFFD77
0000013F
000003BB
FFFFFDE9
FFFFFE2B
000003F4
00000053
00000005
00000039
00000253
000002B6
FFFFFE17
FFFFFD17
000003B8
00000099
FFFFFD5D
000004B7
FFFFFC29
FFFFFFEF
FFFFFD2B
0000015A
000001EE
000001E5
00000067
00000242
FFFFFD3B
000001F8
000000A7
0000017E
FFFFFCCB
FFFFFD4C
FFFFFE57
00000393
0000023C
000001D9
0000024F
00000296
FFFFFD4A
0000014B
00000243
FFFFFFE4
0000017B
FFFFFF39
0000018C
000000B3
FFFFFF6E
00000173
000001D4
FFFFFFE6
0000000B
00000182
FFFFFF6E
FFFFFEEF
000000EF
000002FA
FFFFFD08
FFFFFB9B
FFFFFFD3
0000029C
0000024B
000002F5
000001D4
00000141
FFFFFD5E
00000328
FFFFFDF8
000001B0
FFFFFD42
FFFFFFCD
00000038
FFFFFD48
0000008F
FFFFFC30
00000203
FFFFFD85
FFFFFACA
000002D1
FFFFFF34
000000EC
FFFFFD79
000001F0
FFFFFF2E
FFFFFE8E
FFFFFF81
00000282
FFFFFFE5
FFFFFDC9
0000003E
FFFFFEA6
FFFFFEC3
FFFFFF4A
00000345
FFFFFF3E
FFFFFECC
00000270
00000236
FFFFFE37
00000216
00000194
0000011E
FFFFFDF3
00000192
FFFFFE9A
FFFFFF90
0000000E
00000031
0000033D
FFFFFDEF
000000EA
000002C3
FFFFFE00
FFFFFFF1
FFFFFE71
FFFFFF37
FFFFFF84
000000E6
000000EE
00000456
FFFFFDC5
00000013
FFFFFD4E
0000010F
FFFFFBF2
00000120
00000021
000001CE
00000225
FFFFFFC3
000001AC
FFFFFE01
FFFFFEA3
FFFFFEE8
00000012
000002A2
00000421
00000388
FFFFFFC7
FFFFFF01
0000017A
FFFFFF5B
FFFFFD39
00000085
000003EF
0000037A
FFFFFEBA
000003B5
FFFFFF72
FFFFFF96
FFFFFE96
000003A0
00000020
0000019F
0000022D
FFFFFDD2
00000376
0000001A
FFFFFDB5
0000015B
FFFFFFD7
0000052D
FFFFFC93
FFFFFF03
0000006A
FFFFFCDE
00000005
FFFFFF6A
FFFFFD19
FFFFFEFA
FFFFFEA5
00000081
0000005B
FFFFFE60
0000019A
FFFFFE9E
00000098
FFFFFF4F
FFFFFD58
FFFFFF65
00000308
FFFFFD3C
00000294
FFFFFDFE
FFFFFE60
0000037F
FFFFFEEB
00000228
FFFFFE5C
00000076
000001B6
0000009C
FFFFFD43
FFFFFDDC
FFFFFD25
00000278
00000570
FFFFFEAF
00000260
00000023
00000185
0000002F
00000185
FFFFFBBC
FFFFFFF9
00000246
0000025B
FFFFFDB9
000001B2
00000103
FFFFFDFC
00000105
FFFFFEBF
FFFFFEBF
00000294
000001DE
FFFFFDE5
00000044
000002A9
FFFFFBCF
00000374
FFFFFE32
00000286
000001A1
0000008B
0000014F
FFFFFEF4
FFFFFDF2
FFFFFE6A
FFFFFF58
FFFFFF25
FFFFFF9A
00000186
00000579
FFFFFE11
000001B1
00000069
FFFFFC4A
0000027B
FFFFFCAF
00000341
FFFFFCE0
FFFFFFE7
FFFFFF63
FFFFFF83
000000E4
FFFFFE49
000002E1
0000018C
FFFFFF70
FFFFFDE4
00000137
0000014C
FFFFFF3B
FFFFFDC0
FFFFFD4E
00000246
FFFFFD9C
FFFFFF2E
00000018
FFFFFCA8
FFFFFC37
FFFFFF34
000000F6
0000018E
00000208
FFFFFDBF
0000001E
FFFFFE27
FFFFFFD7
FFFFFE2D
FFFFFB67
00000008
00000016
000000F4
FFFFFED1
000002EF
FFFFFE99
000001E3
FFFFFD5E
FFFFFF92
00000022
000000E7
FFFFFD92
000001FB
00000241
FFFFFEB3
00000028
000001C2
00000011
FFFFFABF
0000015A
00000072
0000005D
FFFFFF12
FFFFFF1B
FFFFFEC5
FFFFFEFF
00000125
00000125
FFFFFDCD
FFFFFCDE
000002EB
FFFFFE03
FFFFFD33
FFFFFEEC
FFFFFF3B
FFFFFD07
00000048
0000020F
00000270
FFFFFCF1
FFFFFF93
00000111
FFFFFD5C
FFFFFEDF
0000015E
00000432
FFFFFFB5
FFFFFED6
FFFFFF49
FFFFFF7F
0000010D
FFFFFFE6
FFFFFCDE
FFFFFC87
000002AA
00000193
0000004D
00000340
000002DA
00000338
0000000B
0000003F
00000173
FFFFFFE6
FFFFFCF9
00000272
FFFFFCE6
000000E7
00000227
00000146
FFFFFE44
0000007D
0000027F
000000A3
FFFFFD6A
FFFFFEA9
FFFFFE71
FFFFFEA2
0000007C
000001BD
00000277
000001BC
FFFFFDA4
000001BE
000001B3
FFFFFEB2
00000139
FFFFFE81
00000124
0000043E
0000020A
FFFFFF62
FFFFFDF5
FFFFFC6C
00000127
FFFFFF80
000000B8
FFFFFE5B
FFFFFF54
FFFFFED9
000000A8
FFFFFB8D
FFFFFF77
FFFFFE35
0000028A
000000EC
FFFFFF40
FFFFFFB2
00000241
FFFFFE82
00000037
00000214
FFFFFE9E
00000155
FFFFFFA9
FFFFFF0D
FFFFFF6C
00000349
000000BE
00000263
FFFFFCCB
0000030B
FFFFFEF0
000002CB
000002C2
0000037E
FFFFFF9E
00000042
FFFFFD7C
0000040C
FFFFFF85
FFFFFDAC
FFFFFEA1
FFFFFF80
FFFFFFED
00000113
FFFFFFE8
000003F2
0000000A
00000157
FFFFFF3C
FFFFFFE3
000001BA
000000C8
000003C0
000002F9
FFFFFC8C
FFFFFDBA
000001DB
0000017E
00000056
00000288
FFFFFF86
00000123
FFFFFF0D
FFFFFDFD
FFFFFC12
00000233
FFFFFF9B
00000107
000001C1
00000115
00000114
0000011A
FFFFFFAD
00000246
00000113
0000016E
0000002A
0000025C
00000190
FFFFFDBB
00000122
000000F3
000001B4
FFFFFE18
FFFFFE34
00000236
FFFFFC56
00000200
FFFFFB83
FFFFFFB5
000001A1
00000123
00000373
FFFFFDBA
00000439
FFFFFBFA
FFFFFD96
000002A9
00000181
00000085
FFFFFFBB
000001F8
00000331
0000011E
0000013D
0000040C
FFFFFE2E
FFFFFDA0
FFFFFCC0
FFFFFD50
00000094
FFFFFAF8
FFFFFD99
FFFFFF85
00000034
0000018A
00000247
000002DD
FFFFFEBE
FFFFFE6F
0000008A
FFFFFE5C
FFFFFEF7
0000037C
0000027D
00000116
0000005D
00000033
FFFFFF8A
FFFFFD69
000001D5
FFFFFF28
FFFFFF54
FFFFFF3F
00000092
0000004D
FFFFFFE5
00000048
FFFFFEC1
000002A6
00000201
FFFFFD62
0000005C
FFFFFCE2
FFFFFCAC
00000105
00000262
FFFFFE3C
00000170
00000133
FFFFFF8E
FFFFFFA1
FFFFFD4D
0000025C
00000278
FFFFFC76
00000366
FFFFFDFC
FFFFFF6D
FFFFFF54
000001E3
FFFFFF6A
00000378
FFFFFEFA
FFFFFFBD
FFFFFF9F
00000271
00000399
000000E6
FFFFFEFA
FFFFFD1C
FFFFFDB8
000002B3
FFFFFFD5
FFFFFD9D
FFFFFDE6
000004C2
00000146
FFFFFD95
000001C6
0000003D
00000042
000002FA
000002D4
000000D8
00000087
00000156
0000016C
FFFFFF29
000002FB
000000D9
FFFFFF99
FFFFFFB8
000004F1
00000044
000002C4
0000034C
FFFFFEF1
00000531
FFFFFF49
000000D3
0000005C
00000227
FFFFFF9B
FFFFFE0C
000002FE
0000028E
FFFFFD43
00000163
FFFFFD6E
FFFFFCDC
00000158
FFFFFFD4
FFFFFE09
0000009B
000000AE
000002B2
FFFFFF4A
00000141
0000027E
FFFFFDA4
FFFFFD1A
FFFFFE31
FFFFFF0C
00000169
FFFFFFC6
FFFFFE11
FFFFFE6C
00000224
00000040
000000EA
FFFFFD15
FFFFFD70
FFFFFE2C
FFFFFCBC
FFFFFE96
FFFFFC7A
FFFFFD73
FFFFFC31
FFFFFD7A
FFFFFDEE
000001CA
0000007A
FFFFFF2E
00000409
FFFFFC7F
000004AE
00000003
FFFFFECC
00000293
FFFFFBF1
000002B7
00000267
0000012B
FFFFFDBF
FFFFFFB9
000000A4
000003F1
FFFFFE53
FFFFFF6E
0000023F
FFFFFC2D
000002DE
FFFFFF79
00000015
000001CB
000001B1
FFFFFFD0
000001EF
FFFFFD90
0000030C
FFFFFF76
0000028C
FFFFFF54
FFFFFFDB
FFFFFB28
000000F7
00000114
00000269
FFFFFF21
FFFFFF74
FFFFFF45
FFFFFD43
FFFFFDA0
00000043
000002A3
FFFFFF4A
FFFFFF27
0000014B
000003C9
0000017B
00000451
FFFFFE5B
000003A7
FFFFFD2B
FFFFFEB2
FFFFFDD7
000000EE
FFFFFFA3
000000E8
000001C2
FFFFFD91
FFFFFF6E
00000204
0000061E
0000022E
FFFFFF33
FFFFFDDE
FFFFFFBB
0000023B
FFFFFFA6
0000025F
FFFFFE6A
FFFFFD60
FFFFFE33
000000B9
00000229
00000233
FFFFFE05
FFFFFEBB
FFFFFD5F
FFFFFE50
FFFFFE6B
000001B8
0000015E
FFFFFFF2
00000295
FFFFFFFE
FFFFFF74
FFFFFE4B
FFFFFDD6
00000045
0000005A
000001D1
FFFFFC6D
0000003C
000001F4
FFFFFFA6
00000291
0000018A
FFFFFE7F
0000009A
00000207
FFFFFDC4
00000199
FFFFFED4
00000006
000002F2
000002AE
FFFFFCC7
0000013E
00000287
FFFFFFC2
FFFFFE61
FFFFFDED
FFFFFC8E
00000130
000000F5
0000003E
000001DB
000002A8
FFFFFC8B
0000052E
FFFFFE8B
000000C0
00000138
0000016C
00000121
0000030C
00000134
00000474
FFFFFBB7
00000257
00000157
00000175
FFFFFEB8
00000013
0000014D
FFFFFFA9
FFFFFE56
FFFFFD1D
FFFFFE45
00000055
FFFFFD92
FFFFFDEE
0000027A
00000285
000000EB
000000D1
FFFFFC86
0000004D
0000031B
FFFFFF06
000003B2
000000B2
FFFFFEF3
FFFFFCAB
0000012E
FFFFFC25
FFFFFDF4
FFFFFD93
00000182
00000022
FFFFFEE8
FFFFFE4E
000003FB
0000028B
FFFFFCD3
FFFFFFCA
000003E6
FFFFFD06
0000020B
00000112
000000C7
000001FF
00000229
000006F6
000000B4
00000164
FFFFFD6A
00000008
0000019A
FFFFFE42
00000320
0000029B
00000019
FFFFFD22
00000368
00000068
000001AD
FFFFFFB8
FFFFFC04
0000003A
FFFFFE79
00000194
FFFFFF25
00000186
FFFFFFD3
FFFFFDBE
00000308
FFFFFE9D
000000AE
FFFFFE87
000003B5
FFFFFDED
00000235
000002F2
FFFFFFE6
000000CF
0000004E
FFFFFE1F
FFFFFCB7
00000023
000002E9
00000088
FFFFFE5F
00000055
000001A6
000002F1
FFFFFD54
00000457
FFFFFD3C
000001D3
0000012C
00000307
00000158
000004DB
000002CE
FFFFFFDF
0000003A
0000018F
00000271
000001F9
000000F0
FFFFFDE4
FFFFFE4F
FFFFFCEC
FFFFFF9C
FFFFFEEA
FFFFFEE9
FFFFFE6E
FFFFFD26
000004A9
00000114
000001CF
000000F0
FFFFFE99
000001EF
FFFFFFDB
00000009
000002BA
000000A3
0000006E
00000338
00000065
000003B3
FFFFFD0D
00000143
FFFFFFD1
FFFFFBF6
FFFFFCB1
000000E0
0000034C
000001C7
0000004C
0000016B
FFFFFE79
FFFFFEBD
0000003A
000000DA
000001DC
000000C7
FFFFFDDC
000003C7
00000006
FFFFFEF0
FFFFFCC3
FFFFFEA8
0000006F
00000087
FFFFFD05
000000A1
FFFFFE53
FFFFFF7E
FFFFFEB8
FFFFFFAD
FFFFFE65
00000165
FFFFFEBC
FFFFFF52
0000014C
000000C5
00000068
000001E9
FFFFFE6B
00000005
0000011E
00000119
000002C8
FFFFFEE6
FFFFFF69
FFFFFFAA
00000288
0000006B
FFFFFDB7
000002F6
000001B8
FFFFFD81
000000F1
000000E0
FFFFFE83
000002B1
000000E6
FFFFFE0F
0000020F
FFFFFF34
000003AB
FFFFFF54
000000A1
0000019A
FFFFFC82
FFFFFD46
FFFFFF51
0000025B
FFFFFDCD
00000050
FFFFFE68
00000145
0000026B
00000344
000001A9
FFFFFD68
FFFFFF78
FFFFFC9B
FFFFFE53
FFFFFF72
FFFFFDF2
FFFFFF17
0000010A
000003D9
0000034D
00000183
0000000A
00000007
00000134
FFFFFFC1
FFFFFCF0
000003FF
FFFFFF70
FFFFFF33
00000229
00000018
00000259
00000057
FFFFFD6E
00000292
000001F0
FFFFFF0C
FFFFFCF7
0000049A
FFFFFF49
FFFFFF3A
000001A1
000001F4
FFFFFD27
000001CA
000000A8
FFFFFF37
000002E8
000003E3
FFFFFE17
FFFFFE99
000001C1
FFFFFE54
000003E3
00000120
000000F0
0000008A
000001D8
0000011A
FFFFFE1B
FFFFFE9A
0000029F
00000271
00000274
FFFFFEB8
FFFFFC59
FFFFFF02
FFFFFE95
0000041B
00000094
00000128
FFFFFC69
FFFFFED1
00000257
0000030A
FFFFFE11
000000FB
FFFFFEF8
FFFFFDFF
FFFFFF88
00000248
FFFFFD7C
FFFFFF0B
FFFFFC08
FFFFFCF8
FFFFFDC0
000001B9
FFFFFF75
00000110
00000274
FFFFFDBB
FFFFFF90
00000486
000003E6
000000A9
000001FD
0000027C
0000035B
00000155
00000166
00000054
00000058
000001BF
0000032B
00000138
000002A3
FFFFFF65
FFFFFC91
00000170
0000038A
FFFFFF2C
00000378
0000016A
00000032
FFFFFE58
0000000B
FFFFFFD4
FFFFFF01
000001C5
00000189
FFFFFFC9
00000326
00000113
000001D9
0000004B
FFFFFFF1
FFFFFF7C
FFFFFE47
FFFFFE03
00000344
FFFFFCCE
00000040
FFFFFE09
000001EB
FFFFFD58
000002FE
FFFFFD4F
000001C5
000002D7
000001A2
FFFFFFB0
000003F0
0000040D
FFFFFFBD
FFFFFF41
00000268
000000EB
FFFFFCD5
000000AB
FFFFFCA2
FFFFFDC6
FFFFFEF3
000001E0
FFFFFC9D
FFFFFFF6
FFFFFE54
FFFFFFF7
00000018
FFFFFB91
0000010F
FFFFFC0E
000000D5
00000069
000002C8
FFFFFF4B
000002E8
00000272
FFFFFF28
00000259
FFFFFE01
FFFFFF28
00000204
FFFFFF63
0000019F
000002AB
0000018C
FFFFFF49
00000178
FFFFFFC7
FFFFFE0F
00000163
00000222
0000017F
00000058
0000021A
FFFFFCA4
FFFFFD6D
000001D3
00000166
000002E1
0000011B
0000035F
0000010A
FFFFFF1A
FFFFFE48
0000009F
0000019B
0000041C
000000A1
000001F5
000002C6
FFFFFE29
FFFFFF71
FFFFFE5C
000001F9
FFFFFCF1
00000028
0000010D
FFFFFC7C
FFFFFEB3
00000107
00000202
000001A2
00000334
000001E1
FFFFFF16
FFFFFDA0
00000161
FFFFFE96
FFFFFEBF
FFFFFC96
000000ED
FFFFFD95
FFFFFFF6
00000423
0000013D
000001D5
000002C2
0000058E
FFFFFEE0
000001F0
00000258
FFFFFFB6
FFFFFEE5
0000011D
00000155
000000DC
0000006F
FFFFFE5C
FFFFFFB2
000000F5
000002DF
FFFFFECD
000002A5
FFFFFFBF
FFFFFDA0
000002BB
000000D7
FFFFFEF8
0000047B
FFFFFC40
000001CE
000003FB
0000028B
00000171
FFFFFB8B
00000214
000000B9
FFFFFE88
FFFFFFBB
000001C9
0000026C
0000024A
0000025A
00000260
0000000C
0000031B
000004A6
FFFFFEB1
FFFFFFC1
FFFFFD28
0000009E
00000076
FFFFFF0E
FFFFFC97
FFFFFEE4
00000499
FFFFFDBE
FFFFFE25
0000022F
FFFFFFB3
00000284
FFFFFE5C
0000018B
FFFFFC72
0000015B
FFFFFDBE
0000003A
0000000C
0000006C
FFFFFF20
0000015C
00000213
FFFFFF06
000003C3
FFFFFF10
FFFFFDCE
FFFFFF50
00000141
00000234
FFFFFEB3
FFFFFEED
00000212
00000350
00000332
00000367
FFFFFD55
FFFFFCE0
00000085
00000206
FFFFFFC0
00000176
00000380
0000026B
FFFFFCAB
0000023D
FFFFFF02
0000010E
0000020C
FFFFFC3F
FFFFFED1
FFFFFD51
0000018F
FFFFFFB3
000000DD
000002F0
00000069
000001B5
0000011D
FFFFFE2C
FFFFFF0B
FFFFFDAE
0000023F
000003E2
FFFFFE83
FFFFFE82
FFFFFF7A
FFFFFE43
00000188
000000A7
FFFFFDB5
0000007C
FFFFFF44
00000238
FFFFFF4B
FFFFFDDE
0000029E
00000231
FFFFFD6A
00000083
FFFFFE67
FFFFFEB3
FFFFFC0B
000000E1
FFFFFC33
FFFFFE49
FFFFFCB0
000000FD
00000148
FFFFFD3E
FFFFFF73
000002CB
FFFFFD05
000001C2
FFFFFDD3
FFFFFED7
000002A7
000002F0
00000256
FFFFFD73
FFFFFE31
00000317
FFFFFF01
FFFFFF94
000000DC
000000EA
FFFFFF8B
00000269
FFFFFD60
FFFFFCD9
00000159
FFFFFD7D
FFFFFD6D
00000260
FFFFFE2A
FFFFFDC2
0000022B
FFFFFEFC
FFFFFE52
FFFFFF74
000001DA
FFFFFD82
0000017C
FFFFFF15
000002FE
FFFFFD51
FFFFFECF
FFFFFDBD
FFFFFF66
FFFFFE00
FFFFFF02
FFFFFD56
FFFFFE13
00000179
FFFFFDD8
FFFFFFD0
FFFFFCDB
000000E7
FFFFFEA6
FFFFFF8D
FFFFFE06
FFFFFF82
000000AC
FFFFFECE
0000029B
FFFFFE81
00000397
00000206
00000047
000000DB
FFFFFD73
0000000C
FFFFFDCA
000000F8
00000046
00000390
FFFFFFEB
FFFFFEE6
0000004D
000000B4
FFFFFD68
000003C5
FFFFFEBB
FFFFFFB3
FFFFFF67
FFFFFF97
00000340
FFFFFEBF
00000402
FFFFFEC5
000002B8
FFFFFD7D
00000194
FFFFFE8D
FFFFFB07
FFFFFC38
000001E8
FFFFFB87
00000064
FFFFFD29
FFFFFF97
FFFFFC7C
000000A8
00000014
FFFFFD53
00000199
0000009D
00000316
FFFFFFE5
FFFFFC9D
000001A7
000000F7
FFFFFFE1
FFFFFF47
FFFFFAC0
000001AD
FFFFFD72
FFFFFF2F
FFFFFEDE
000001F2
0000000A
FFFFFF84
0000010A
FFFFFCB9
FFFFFF62
00000183
FFFFFB79
00000012
000002B2
FFFFFED2
FFFFFD7F
FFFFFEE7
FFFFFFAB
FFFFFD4E
0000007A
000000B0
0000006B
000001B8
00000203
FFFFFA6E
0000012E
0000046C
0000051E
FFFFFECB
FFFFFAD7
FFFFFE1E
FFFFFF1C
FFFFFE65
00000043
00000255
00000032
00000322
FFFFFACC
000001D2
000001E9
00000055
00000316
FFFFFD22
FFFFFDFC
FFFFFF71
00000008
FFFFFF6F
00000310
00000297
000002CF
FFFFFC73
00000256
0000008A
FFFFFD76
FFFFFF78
FFFFFF62
0000002E
FFFFFE66
000002B6
00000029
FFFFFD8C
FFFFFE52
000001C3
FFFFFE9D
00000010
FFFFFFE5
00000389
000001C1
FFFFFEE5
00000008
000002AD
FFFFFC09
000001FB
0000015F
FFFFFE01
000000C8
0000001D
000003B4
FFFFFF92
0000008A
FFFFFFD9
00000123
FFFFFFE6
FFFFFE69
FFFFFD12
FFFFFF46
FFFFFF61
00000243
FFFFFE2C
FFFFFEA0
FFFFFF81
00000205
000002FE
FFFFFEDA
FFFFFE4A
FFFFFF21
FFFFFDA4
FFFFFEE1
FFFFFF0A
FFFFFE64
000003CF
00000088
FFFFFF10
FFFFFE1D
FFFFFD5D
0000004B
FFFFFE6E
00000269
FFFFFD24
00000337
0000056A
00000037
00000175
FFFFFBAE
FFFFFE03
FFFFFD39
FFFFFE56
00000025
00000458
00000061
FFFFFE69
FFFFFEE7
00000314
00000172
0000002E
FFFFFB64
FFFFFFF7
FFFFFE83
00000106
FFFFFFAE
FFFFFE0C
FFFFFE47
00000281
FFFFFB5D
000000B2
FFFFFCE1
00000307
000000CA
FFFFFF26
FFFFFF79
FFFFFED8
0000011C
FFFFFF94
000000FB
FFFFFC53
000000A2
000002E4
000001C5
00000055
00000169
000000F7
FFFFFE55
0000048A
00000058
FFFFFFB6
00000139
00000155
000002B1
FFFFFB67
FFFFFFCB
00000338
FFFFFFFB
00000249
0000025E
000001D2
FFFFFD00
0000027B
FFFFFC47
000000E9
FFFFFF22
FFFFFF8E
FFFFFF74
00000428
FFFFFFE6
FFFFFFE7
000000CD
0000024C
FFFFFFB0
FFFFFE4F
FFFFFDC6
00000109
FFFFFFC3
0000005F
FFFFFD0D
00000076
00000159
FFFFFF87
FFFFFDD3
FFFFFF8A
00000200
FFFFFFA1
FFFFFFD2
00000082
FFFFFED8
FFFFFFD0
FFFFFDE7
FFFFFD99
0000025E
FFFFFFC0
00000259
FFFFFDE8
FFFFFE81
0000023B
FFFFFEBE
FFFFFD77
00000013
FFFFFFE8
0000015E
FFFFFD27
FFFFFDCE
FFFFFD84
0000006F
FFFFFFF8
00000387
00000298
FFFFFF17
FFFFFF05
FFFFFC6D
FFFFFFC4
FFFFFE28
00000164
FFFFFD8E
000000E5
00000109
FFFFFE92
FFFFFF54
FFFFFE0C
FFFFFB39
0000015C
0000018D
00000264
000000FB
0000027F
FFFFFCFE
00000001
00000217
000000DC
FFFFFD7D
FFFFFFE1
00000297
FFFFFEE4
00000035
0000009A
FFFFFEBF
00000230
FFFFFF0D
FFFFFDDB
00000015
0000004C
FFFFFD23
0000047B
FFFFFEA5
000000A9
000003C8
FFFFFE36
000002D5
FFFFFE51
FFFFFE71
000000F6
00000394
00000176
000001D4
FFFFFE42
FFFFFD2F
FFFFFF81
000002D4
FFFFFF93
FFFFFFEF
FFFFFE5E
00000149
00000262
FFFFFC38
00000137
FFFFFCD9
FFFFFDDB
FFFFFEC0
FFFFFF4F
FFFFFE83
000000AF
FFFFFE8F
00000147
000000A8
000002F8
FFFFFF3D
00000048
000004CE
000001D6
000002EA
00000269
FFFFFD8F
000000A0
FFFFFF86
000000CE
FFFFFF17
FFFFFF16
FFFFFDE9
00000176
FFFFFECB
00000095
00000070
FFFFFEFD
FFFFFE00
000001A4
FFFFFE5B
FFFFFF54
FFFFFD8B
00000206
00000116
FFFFFD70
000000B7
00000037
00000325
00000058
000000AA
000000DF
000003A5
FFFFFFBB
000001CD
00000194
0000015A
000002A9
0000002E
FFFFFF72
000001F2
FFFFFF78
FFFFFDC3
FFFFFFD2
FFFFFF07
00000145
FFFFFF11
FFFFFEAA
0000029D
FFFFFFB8
000001ED
0000036C
FFFFFBB3
FFFFFE88
00000018
FFFFFF89
0000030C
00000263
000000F4
00000058
FFFFFD70
FFFFFF12
000002A3
FFFFFFAC
FFFFFDD5
000000D9
0000010B
00000176
FFFFFC8B
0000017E
00000022
00000127
000000E5
00000066
00000086
000002CF
0000015C
FFFFFDF8
FFFFFDC8
FFFFFDEB
FFFFFE99
FFFFFF08
FFFFFD7B
FFFFFD8D
000001B3
FFFFFF92
FFFFFD94
FFFFFF56
FFFFFE14
FFFFFBBA
0000001C
00000042
FFFFFF0C
0000021A
00000174
0000017D
00000056
000001A0
FFFFFF61
00000310
000002F5
FFFFFDDC
FFFFFDF9
00000139
FFFFFBCD
FFFFFE98
FFFFFD5F
FFFFFDF2
00000099
0000023C
00000431
FFFFFCCE
FFFFFD77
0000004C
00000053
0000030C
000000EF
FFFFFC9D
000001AA
FFFFFE4A
000000F7
FFFFFE50
FFFFFF83
FFFFFF5C
000000F7
000001DF
000001DB
00000150
0000005F
000002A3
000000DE
00000127
FFFFFE90
FFFFFDCC
FFFFFE31
FFFFFFB5
000000D5
FFFFFCDE
FFFFFE99
FFFFFC5D
000001BC
000002A2
FFFFFBD5
FFFFFE37
FFFFFE81
FFFFFF8E
FFFFFE68
000001DE
000000AE
0000025B
000002B2
00000084
FFFFFEED
FFFFFE99
FFFFFB8C
FFFFFDCD
FFFFFEF9
FFFFFF6A
FFFFFEA3
0000009C
0000028D
FFFFFC63
FFFFFE7F
00000192
00000300
0000022D
FFFFFFD3
FFFFFED9
FFFFFFE7
FFFFFB91
FFFFFEB8
FFFFFE70
FFFFFD54
000001C9
FFFFFFED
FFFFFECA
FFFFFE53
FFFFFF38
FFFFFF98
FFFFFFA5
000002C1
FFFFFF8A
FFFFFEE2
000000E8
FFFFFF48
FFFFFC8C
FFFFFBC0
FFFFFE62
FFFFFDE0
FFFFFD2E
000001F0
00000209
FFFFFF76
FFFFFEF7
FFFFFDD1
FFFFFF8F
00000286
FFFFFD7D
FFFFFEB9
0000018D
FFFFFFE1
0000004B
000001B2
000001C2
FFFFFC84
000002DF
00000373
FFFFFE7E
FFFFFD31
00000032
000003C5
0000003E
0000029A
FFFFFDC7
0000019C
FFFFFC35
00000290
000000FA
FFFFFE19
FFFFFE7C
00000102
00000206
000003F0
FFFFFD79
FFFFFF06
0000007F
0000033E
0000008E
FFFFFE02
FFFFFF6B
FFFFFBAA
0000013C
00000388
FFFFFD73
00000355
0000027B
FFFFFDA1
000002AD
00000117
FFFFFEAB
00000105
FFFFFFE2
FFFFFC67
FFFFFE32
000000CD
FFFFFF1F
FFFFFEEF
FFFFFE63
000001A4
000000CF
0000020D
FFFFFBB9
FFFFFF16
000000A6
FFFFFE51
FFFFFE65
0000020C
0000025F
FFFFFE8A
00000086
FFFFFF26
FFFFFF84
000000D3
000001C8
FFFFFEA9
0000025E
00000349
000001F9
FFFFFCDF
0000024D
FFFFFD6E
FFFFFF2C
00000191
00000118
00000444
FFFFFD38
000000B3
000000C7
FFFFFECC
FFFFFC40
FFFFFE2D
000001BF
FFFFFEE0
FFFFFC9C
00000100
00000029
FFFFFF65
000000B4
000000FB
00000349
0000024E
000002D2
00000320
FFFFFD9A
FFFFFF5F
00000270
0000017F
FFFFFEE0
FFFFFFBF
0000000D
FFFFFDA6
FFFFFCB0
FFFFFD66
FFFFFE29
FFFFFF00
0000020A
00000084
00000054
FFFFFCC7
FFFFFFF1
000000B9
00000274
FFFFFEFB
000000B1
FFFFFE33
FFFFFD65
00000203
FFFFFD3D
FFFFFF30
FFFFFFDD
FFFFFDE1
FFFFFDAB
000002CE
00000110
00000081
000000AD
0000024E
FFFFFF9C
FFFFFDDC
00000452
0000023C
0000023B
00000415
FFFFFF72
00000318
FFFFFCAA
00000087
0000000E
000004A1
000004BA
000002BF
0000020F
00000081
FFFFFFD0
00000253
000000ED
FFFFFD2C
00000078
000000CD
FFFFFE35
00000386
FFFFFDF4
000002CA
FFFFFFF6
FFFFFFE7
00000250
FFFFFE4F
00000258
0000022C
FFFFFF62
FFFFFE15
00000090
FFFFFEB5
000002C5
00000423
00000067
0000012B
FFFFFC6F
000001C3
00000416
0000017D
FFFFFB7C
FFFFFD76
000005B2
FFFFFC99
FFFFFDEF
FFFFFEC8
FFFFFF8A
000000F4
000000BF
FFFFFF99
FFFFFF33
FFFFFDAF
FFFFFEA8
FFFFFB61
0000021F
0000026C
00000037
00000177
FFFFFD51
FFFFFF57
FFFFFCC5
0000002C
0000013A
FFFFFF8D
0000014F
FFFFFE80
FFFFFFDA
00000037
00000036
00000380
000001E9
FFFFFF94
000002CE
00000145
000001A7
000002A9
000003A1
00000227
FFFFFE7E
0000030C
0000026A
FFFFFFAF
FFFFFF1F
FFFFFBE9
FFFFFD5A
0000015A
0000011C
FFFFFDB5
FFFFFF2A
00000155
FFFFFF61
FFFFFCE5
FFFFFFAF
000000AA
FFFFFF99
FFFFFC03
00000270
00000212
FFFFFEC0
FFFFFFD9
000000F0
FFFFFD1A
00000009
FFFFFD51
00000027
FFFFFFBF
00000165
FFFFFEA8
0000003B
00000077
000001BA
FFFFFDFF
FFFFFEDB
00000166
00000144
FFFFFD0D
000001C7
FFFFFEF3
00000332
FFFFFF88
000002ED
0000018D
0000025C
FFFFFFFC
00000163
FFFFFDAE
FFFFFC1D
FFFFFEF1
FFFFFFDD
FFFFFDAB
00000342
00000241
000001AE
FFFFFE27
FFFFFD5E
FFFFFB85
FFFFFF9C
FFFFFE45
00000143
FFFFFFBA
FFFFFDDF
FFFFFCD1
FFFFFE88
000001D2
00000042
FFFFFE11
FFFFFDA2
000000AC
00000287
FFFFFE5E
FFFFFC8F
FFFFFBDC
000000E7
00000177
00000133
FFFFFE5D
0000026D
FFFFFD69
0000007D
FFFFFF75
0000007E
00000145
00000014
FFFFFDAA
00000076
FFFFFF62
0000035E
000001C8
00000260
000002E1
FFFFFDE7
FFFFFE78
FFFFFED0
FFFFFF40
000002F4
FFFFFE55
00000474
FFFFFD5E
00000294
000003D5
FFFFFDB6
FFFFFE7C
FFFFFFD7
000002FB
FFFFFEF3
0000008B
00000293
FFFFFE3D
FFFFFC99
00000067
0000019A
FFFFFFB5
00000481
FFFFFE9E
00000533
0000004A
FFFFFFA3
FFFFFF6A
FFFFFECB
00000260
00000004
00000161
FFFFFD30
000000A5
FFFFFEE2
000002BA
FFFFFFEA
000002AD
000001E7
0000023D
00000218
FFFFFD9C
FFFFFEFE
0000003D
FFFFFDB3
FFFFFDA5
000000D8
FFFFFDBB
FFFFFEA9
000001BA
000001D7
FFFFFF0B
FFFFFE22
000001F3
00000305
FFFFFE2C
FFFFFF96
FFFFFF34
FFFFFF81
0000038C
0000026D
00000118
FFFFFFDC
00000220
00000172
0000021E
FFFFFD22
FFFFFD56
FFFFFCBB
000001C8
FFFFFF55
FFFFFEA0
000000DC
00000251
00000108
000001D4
00000144
FFFFFE55
FFFFFF30
0000007B
000000BA
FFFFFF30
FFFFFC81
000003C2
FFFFFDF1
FFFFFF5E
00000188
00000047
FFFFFF62
FFFFFE75
FFFFFDF2
FFFFFCF3
FFFFFFBC
FFFFFE36
00000462
FFFFFDC7
FFFFFDF8
000001A3
FFFFFDEF
000002AE
0000003C
00000289
0000007E
FFFFFCDA
FFFFFE87
00000079
FFFFFE47
0000010C
FFFFFE05
00000065
FFFFFD58
FFFFFCBF
FFFFFEE3
00000198
FFFFFD3B
FFFFFF26
00000166
FFFFFF37
00000310
FFFFFD67
00000209
FFFFFDF0
FFFFFE38
0000005B
FFFFFFCC
000000C4
000000FA
00000235
FFFFFFCF
FFFFFE5D
FFFFFEDA
FFFFFE69
FFFFFD8B
FFFFFCF6
FFFFFE91
FFFFFFBF
FFFFFEBB
00000383
FFFFFF83
FFFFFE41
00000093
000002B4
FFFFFE0D
00000167
000002C3
FFFFFDBC
FFFFFC1D
FFFFFFA7
FFFFFC87
000000C1
FFFFFF76
0000002F
0000004E
FFFFFD31
FFFFFE33
FFFFFF4B
FFFFFF09
000001E4
0000034C
000000B6
FFFFFE52
00000257
00000140
000001C7
00000070
00000007
0000003A
00000312
FFFFFE61
000002F4
000000C8
000000ED
00000218
00000010
000000BE
00000047
FFFFFE0E
FFFFFD38
FFFFFDB5
FFFFFFBE
FFFFFF23
00000257
00000031
0000023E
0000044C
00000017
FFFFFEE3
FFFFFF6C
00000149
00000253
000001B9
FFFFFDBF
00000032
00000078
FFFFFFFB
00000035
FFFFFD2B
00000230
FFFFFF57
00000081
00000252
FFFFFED2
000002E7
000001A4
FFFFFEFD
FFFFFEF4
FFFFFD96
000002B4
000001C6
000000D3
0000023F
000000D9
FFFFFDD1
FFFFFFAD
FFFFFEBF
FFFFFCBC
000001CF
000001F4
0000063E
FFFFFD33
000001DF
0000005A
00000085
000000F0
00000111
FFFFFB78
FFFFFFDE
FFFFFF65
000001C4
00000021
0000012E
FFFFFDDD
00000524
FFFFFDF2
FFFFFFDE
FFFFFC74
00000190
FFFFFC6D
000000C9
0000012B
00000282
FFFFFF65
00000102
00000183
FFFFFA15
FFFFFFC9
FFFFFE84
FFFFFE9A
0000000C
00000206
00000157
FFFFFDD3
000002AD
FFFFFE61
FFFFFEB8
0000006C
FFFFFF8E
000001FA
FFFFFFBD
00000118
000003E3
FFFFFD5B
0000045E
00000115
00000295
00000043
00000238
FFFFFE53
0000039C
FFFFFD63
FFFFFE89
FFFFFE0A
00000219
FFFFFCFA
00000072
FFFFFE90
FFFFFED2
FFFFFE86
00000200
00000287
00000390
000002D2
0000004E
FFFFFDA4
FFFFFD17
FFFFF9CE
FFFFFD82
00000012
00000222
000000A3
00000093
000002FA
000000AF
FFFFFF27
0000035B
FFFFFFF2
FFFFFD49
FFFFFFF0
00000163
FFFFFF86
00000286
0000008D
FFFFFCF5
00000431
000001D4
00000239
0000057C
00000458
FFFFFFCA
00000381
0000021A
FFFFFFA2
00000222
FFFFFD42
0000003F
00000152
00000108
00000433
FFFFFDC5
0000005D
00000657
000002D1
0000002D
FFFFFDF5
FFFFFEBF
000003A1
FFFFFEBB
FFFFFF33
000001DE
FFFFFD1B
00000322
FFFFFCFF
00000350
00000285
0000025A
FFFFFE31
00000001
000001A8
00000101
00000010
FFFFFF22
00000447
FFFFFDFF
000000D4
000001B9
000003D1
FFFFFE83
FFFFFE6F
00000122
000000F1
FFFFFFC5
FFFFFD18
00000335
000001C6
FFFFFF6C
00000056
00000088
FFFFFFD6
FFFFFD1E
00000142
00000185
0000018E
FFFFFFAB
00000208
FFFFFFCE
FFFFFE96
000000BC
00000009
00000101
FFFFFC02
FFFFFF0F
FFFFFFF1
000003FB
FFFFFEF5
FFFFFE38
FFFFFFE8
00000226
0000010D
00000177
FFFFFDF2
0000009B
0000017F
FFFFFCDF
FFFFFE2F
00000115
FFFFFC9A
FFFFFFA2
FFFFFFF3
FFFFFE91
00000081
FFFFFE45
0000031F
0000015B
0000031D
FFFFFD3A
0000033D
000000C0
FFFFFD69
FFFFFF3C
FFFFFF24
00000036
00000271
FFFFFEB6
FFFFFEB6
000003AE
000000D8
FFFFFF7E
000002E8
00000171
00000503
00000014
000003B2
FFFFFCE8
FFFFFEFD
FFFFFED2
FFFFFF05
00000177
FFFFFC63
000004CC
0000011A
0000024B
000000FC
FFFFFFFD
0000019E
000001ED
000000BB
FFFFFFBF
00000160
0000015E
FFFFFF67
00000123
0000037C
FFFFFD2E
0000000B
0000003B
0000020B
FFFFFF71
0000024A
FFFFFFEA
00000029
00000089
000003B4
FFFFFC57
FFFFFF28
0000029A
00000009
0000008E
000002A9
000000E8
FFFFFF8B
FFFFFC8B
0000000C
00000335
FFFFFFB8
00000503
FFFFFFFC
0000017A
FFFFFCC6
000001C9
FFFFFF7D
000001C9
FFFFFF88
FFFFFF27
FFFFFF3A
FFFFFDA2
FFFFFF03
000003F5
00000228
000000AB
00000270
000001FB
0000028F
FFFFFF56
FFFFFFAB
FFFFFF97
FFFFFE30
00000289
FFFFFBCC
0000026B
FFFFFFD6
0000002A
00000009
FFFFFF51
0000021E
00000280
FFFFFE52
FFFFFC34
FFFFFF87
FFFFFDEC
0000021D
FFFFFEAE
FFFFFD9B
00000290
00000086
00000152
0000031B
0000045A
00000157
FFFFFF0E
000000AC
00000039
FFFFFF4A
FFFFFD7D
FFFFFF51
0000003B
FFFFFCCB
FFFFFCE0
000001D4
000000F7
FFFFFFC6
000003E2
0000005B
FFFFFC79
FFFFFDD1
000001D9
000003A5
FFFFFFA2
FFFFFD15
FFFFFE95
00000365
000003F1
FFFFFE60
0000027F
00000006
FFFFFE2B
00000008
00000103
00000053
000000AE
0000026F
FFFFFEB3
FFFFFF96
000002DE
00000241
000000C5
FFFFFE7A
000003F5
00000276
0000050B
FFFFFFB2
FFFFFECC
000000D3
00000041
00000122
000001C4
00000025
FFFFFE92
FFFFFE86
00000468
00000106
000001E0
00000239
00000206
000001F8
FFFFFFB3
0000017A
00000253
00000229
FFFFFDDC
000002B5
0000005F
FFFFFE37
00000343
000002B6
FFFFFB67
FFFFFE35
FFFFFE27
00000254
FFFFFEBD
000003D7
FFFFFFFA
000001D9
FFFFFCC7
00000108
000000C1
FFFFFF6B
FFFFFE15
FFFFFEAC
00000278
00000272
FFFFFD6C
00000000
FFFFFD65
FFFFFB52
FFFFFB23
FFFFFFE3
0000021C
000001C8
0000014B
FFFFFEA0
0000007D
00000012
FFFFFFE6
FFFFFE12
000000C4
FFFFFF46
FFFFFDC8
FFFFFEEC
FFFFFE89
00000156
00000455
FFFFFFE7
FFFFFF3C
00000171
0000009B
00000205
FFFFFE8A
FFFFFE22
00000093
000000C4
0000020C
00000184
FFFFFE82
000000D9
FFFFFE89
FFFFFE98
FFFFFD2B
FFFFFDAE
000002E2
FFFFFF72
FFFFFD51
00000265
FFFFFF3B
FFFFFFF6
000002FB
FFFFFECA
FFFFFDD5
FFFFFFC8
00000280
FFFFFA12
FFFFFDCC
00000352
FFFFFEB8
FFFFFE19
0000018B
00000123
FFFFFD6C
000003C8
000001F1
00000455
0000037B
FFFFFFBF
FFFFFF9E
0000052B
00000067
0000030A
00000179
FFFFFBB8
000001B2
0000005E
FFFFFFAD
0000037B
0000008B
FFFFFDE8
FFFFFC6E
0000011C
0000030C
00000079
000001A8
0000009A
00000237
FFFFFC19
FFFFFF62
0000020E
FFFFFE12
0000022D
0000001C
FFFFFEF5
00000155
00000022
FFFFFDC3
FFFFFDC5
FFFFFE45
000001A9
FFFFFD11
FFFFFCF5
0000048A
000000BD
000001F7
FFFFFF11
00000133
FFFFFEE8
FFFFFFDC
FFFFFFB2
00000295
00000185
FFFFFF61
FFFFFC82
FFFFFF0B
0000007F
000000C3
00000027
00000055
000002D1
FFFFFC14
FFFFFF83
0000013A
FFFFFFDF
00000206
FFFFFF27
FFFFFCC6
FFFFFE9A
00000094
000000F2
000002FF
000001B7
00000223
0000021C
00000124
000000AD
000004C7
00000181
FFFFFEC0
FFFFFFAB
FFFFFE72
FFFFFF74
0000028A
FFFFFE47
000000C9
00000312
FFFFFDEE
00000273
FFFFFCCE
0000005B
0000039D
FFFFFBE2
000000A3
00000420
FFFFFE7F
FFFFFFA8
FFFFFDEB
000003AD
FFFFFFB9
000003E2
FFFFFF90
00000335
00000003
FFFFFFCB
0000028F
FFFFFF35
FFFFFFB0
00000139
FFFFFF83
0000013E
00000108
00000209
0000032E
FFFFFCF1
FFFFFFA9
0000007C
FFFFFCBF
0000041F
000000AA
0000029B
FFFFFE8F
000000F3
FFFFFC52
FFFFFDE7
FFFFFFC0
FFFFFDC0
FFFFFC14
FFFFFF4A
000001C1
000000F6
000002BC
00000069
FFFFFE33
FFFFFBB8
FFFFFF4B
FFFFFF60
00000135
000003A9
FFFFFC30
0000023F
00000497
FFFFFF43
00000023
00000196
00000222
00000045
0000000F
000001E1
FFFFFFC8
000001F5
00000292
000000E9
00000314
FFFFFE58
00000348
FFFFFAAB
FFFFFE8C
FFFFFE38
FFFFFEB5
FFFFFE56
FFFFFFE4
FFFFFFDE
000003F3
FFFFFFEE
0000040C
FFFFFF1E
FFFFFF8D
000000A8
0000008A
FFFFFD7C
00000186
000003A1
FFFFFE90
FFFFFD5F
0000026A
00000049
FFFFFF9B
00000077
00000136
000000A6
FFFFFEA0
FFFFFDDF
FFFFFD97
0000014D
0000002E
FFFFFEE4
00000052
FFFFFE26
FFFFFCE9
00000092
00000382
FFFFFD79
FFFFFCF6
00000473
FFFFFF13
00000043
FFFFFDAD
FFFFFED2
000001F3
0000001E
00000347
000000D5
FFFFFFE0
00000061
0000020D
FFFFFDB4
000005DD
00000340
FFFFFCCF
000001F3
000000EF
0000041F
0000012E
FFFFFCC5
FFFFFF50
000001C9
00000399
000000CA
FFFFFCDD
FFFFFDA4
0000001F
00000387
00000058
000000EB
000000CF
00000269
FFFFFE98
FFFFFC90
000002A6
00000041
00000096
FFFFFD82
00000081
0000031D
FFFFFDAC
0000035C
FFFFFB3C
0000005F
0000001D
0000006A
FFFFFDF4
00000101
FFFFFDF7
000001A2
0000005B
000000AD
0000000D
FFFFFD42
000003D2
00000389
0000018D
FFFFFFDC
00000093
FFFFFCE4
00000241
FFFFFBAE
00000444
00000021
00000242
0000014E
FFFFFEEF
000002A9
FFFFFF0A
000000CF
FFFFFCEC
000003A9
000002DF
00000088
FFFFFD25
FFFFFEF0
00000266
000001E5
FFFFFDFD
00000214
00000233
FFFFFFED
FFFFFF78
FFFFFF0A
00000243
00000203
0000006F
0000046B
0000054F
FFFFFDE0
00000078
000003B0
0000039B
00000199
000002F0
FFFFFCCE
000000AE
FFFFFCB9
FFFFFAA6
0000006F
FFFFFEE6
FFFFFE59
FFFFFD38
FFFFFE1D
000002E4
FFFFFE39
000001D0
FFFFFE55
00000146
0000030C
0000013D
000002D9
0000011A
FFFFFDEE
FFFFFE21
FFFFFFE8
FFFFFFC1
FFFFFD98
FFFFFE67
FFFFFFDB
FFFFFDAC
FFFFFEBB
FFFFFF51
0000005B
0000012D
FFFFFEC1
FFFFFFB6
FFFFFA72
0000006C
000003E5
00000104
00000057
0000035C
00000073
00000124
0000017E
FFFFFE08
000003E0
FFFFFD78
000002F9
000003E6
FFFFFF29
00000264
FFFFFE59
FFFFFF25
000000A1
FFFFFD82
0000026F
FFFFFD1C
0000022A
FFFFFD4C
000003ED
000004D2
00000252
FFFFFE47
000001D0
00000238
FFFFFF65
000002CF
0000014A
FFFFFF56
000003E6
FFFFFF95
00000239
0000007B
000003B2
00000134
00000187
FFFFFE27
FFFFFC67
FFFFFFA2
FFFFFF4A
000000B2
00000002
FFFFFE4F
00000121
FFFFFFB7
00000036
00000058
FFFFFEEE
FFFFFECF
FFFFFFBA
FFFFFF93
00000288
00000392
FFFFFFE3
FFFFFCBE
FFFFFEED
FFFFFEF7
00000390
FFFFFE56
00000122
FFFFFCF9
0000024F
000002B2
FFFFFDED
000000D1
000000FE
FFFFFEF4
FFFFFBFD
000000A7
00000240
FFFFFFF8
FFFFFFC3
FFFFFEFB
FFFFFEC9
FFFFFD86
FFFFFFD9
000003CB
FFFFFF2F
FFFFFF8A
00000169
00000330
000002CC
00000014
FFFFFD00
00000373
FFFFFF12
FFFFFEE2
FFFFFCF5
FFFFFE6B
00000075
FFFFFEB7
00000243
00000289
00000015
FFFFFF10
FFFFFCBE
00000265
FFFFFC1C
0000032D
0000008F
FFFFFED5
FFFFFD20
0000003E
0000033A
00000086
FFFFFD99
0000037B
0000012D
FFFFFDF3
000000C6
FFFFFBFC
FFFFFEF2
00000269
FFFFFE02
FFFFFF04
0000056C
000002A8
FFFFFEC9
FFFFFE30
0000020F
FFFFFDEC
FFFFFF37
FFFFFFD3
000004F4
FFFFFFF0
000000BD
000000AD
FFFFFFD1
FFFFFFBD
000000AB
FFFFFE6C
0000003E
00000184
FFFFFDD0
FFFFFD70
FFFFFEBD
FFFFFEAB
00000097
FFFFFE21
FFFFFC9E
FFFFFEB0
00000279
0000008D
000001B7
0000015C
FFFFFFD9
FFFFFED4
0000020D
000002D7
00000088
FFFFFE5E
0000006C
FFFFFF9E
0000012D
000001E1
000002E6
FFFFFCAC
FFFFFFCD
FFFFFEB0
0000025A
0000015E
00000002
000003AF
00000350
00000150
00000020
0000016E
FFFFFB20
FFFFFD19
0000022B
0000011C
FFFFFF69
FFFFFFC9
FFFFFF3D
FFFFFEF6
FFFFFE74
FFFFFE27
FFFFFF8C
00000015
FFFFFF83
00000364
FFFFFC12
00000192
FFFFFC6B
FFFFFDE2
000003B4
00000409
FFFFFF16
00000202
FFFFFFA3
000003D3
000000BB
FFFFFDF3
000001B8
0000010B
FFFFFDB0
FFFFFA38
FFFFFE26
00000153
FFFFFDD9
000003E2
00000237
FFFFFC0F
000000E9
FFFFFDEE
00000227
FFFFFD38
00000203
FFFFFB2E
00000061
FFFFFE52
00000210
00000438
FFFFFD71
FFFFFED2
00000461
00000124
FFFFFB58
FFFFFCCE
00000333
000001A6
00000308
00000333
FFFFFE65
FFFFFE55
FFFFFFC0
FFFFFCB4
000000A1
0000023D
000001A3
00000042
FFFFFDEE
0000011F
00000086
000000E7
FFFFFF27
00000002
000001F8
FFFFFD1B
FFFFFCF1
FFFFFDB4
FFFFFD15
000002C8
FFFFFFF8
FFFFFF46
00000241
FFFFFFBD
000002FA
0000017F
00000001
000002DB
FFFFFF4F
FFFFFB17
FFFFFE76
FFFFFFFD
000004B9
FFFFFE15
FFFFFE39
FFFFFEF7
000002CF
FFFFFE0E
0000015C
00000178
FFFFFC54
0000025A
00000352
FFFFFDB9
000000B7
FFFFFE8E
FFFFFF1A
00000000
FFFFFB10
00000245
0000003D
FFFFFD98
000001EB
FFFFFEDC
0000020D
000002C1
00000181
000002EB
000000E3
FFFFFF45
0000006E
FFFFFFE2
FFFFFBF6
FFFFFE03
00000295
000000F8
00000217
000001C7
FFFFFD8F
FFFFFF4B
0000015D
FFFFFF1F
00000140
FFFFFECA
000000D0
FFFFFFB7
FFFFFDC7
00000199
FFFFFBAD
00000211
FFFFFB35
FFFFFF53
000003D4
00000037
000000C0
FFFFFFD8
FFFFFEA2
00000091
FFFFFC9E
0000037E
FFFFFC76
FFFFFE98
FFFFFF12
0000007C
000000E2
000000B5
FFFFFF07
FFFFFE72
0000019C
000001E6
FFFFFE39
00000074
0000030B
0000024F
FFFFFAD7
FFFFFF80
00000268
FFFFFFD4
000002C7
0000004E
FFFFFDA6
00000118
00000181
FFFFFCA6
FFFFFEE1
FFFFFF7C
00000327
0000030F
000002C4
FFFFFF91
0000015B
00000014
000001AD
FFFFFCFD
FFFFFD59
FFFFFD24
FFFFFEB1
FFFFFF57
FFFFFEAD
000000CD
FFFFFF70
FFFFFBFA
00000035
FFFFFCDA
0000007A
000002D5
FFFFFE48
0000004A
00000047
00000162
0000022E
00000156
00000245
FFFFFF71
FFFFFF0D
FFFFFF3D
000002B3
00000115
FFFFFC09
00000000
FFFFFBCA
000000BC
0000002C
000001F3
000001CA
000000A8
00000391
0000016F
000000A0
0000001F
0000023F
0000026B
000000C0
000000E2
0000021D
FFFFFBBC
00000159
FFFFFFB1
FFFFFDF0
FFFFFF16
FFFFFFFC
FFFFFCDF
FFFFFC5C
FFFFFEC3
FFFFFE17
0000022F
00000366
00000016
0000003B
00000125
FFFFFE9C
0000037A
FFFFFFBF
FFFFFF9F
0000001E
0000015D
FFFFFF5D
FFFFFFEC
FFFFFC1A
FFFFFCC7
0000001D
000000C9
00000076
FFFFFF56
00000267
FFFFFD14
FFFFFCE2
000001DB
FFFFFFD9
FFFFFD49
FFFFFD06
FFFFFC78
FFFFFC90
FFFFFDE0
FFFFFE2E
0000018B
000001C7
0000002F
000000BF
FFFFFDAA
FFFFFF25
FFFFFF67
00000116
FFFFFFEF
0000010A
FFFFFF4B
000000A7
000000C3
FFFFFE08
0000019E
FFFFFF03
FFFFFEE3
000000BC
000002C0
000001E3
00000076
0000032A
000002EE
00000183
00000005
00000181
00000041
FFFFFF53
000000B7
FFFFFE38
FFFFFFDD
000000BE
0000034B
FFFFFC81
FFFFFE89
000001AA
FFFFFF8D
00000222
00000334
FFFFFCDE
FFFFFEA6
000000F6
FFFFFF2F
FFFFFE2D
FFFFFE70
FFFFFEED
00000015
FFFFFF83
000000D8
FFFFFC33
00000032
FFFFFDC8
00000136
FFFFFDE5
FFFFFF6B
00000017
FFFFFF48
FFFFFF23
0000000A
000003B6
FFFFFDA6
FFFFFD8B
00000405
00000315
FFFFFC86
000001B1
00000141
0000015F
FFFFFDC1
FFFFFF44
FFFFFE6F
FFFFFC24
00000268
00000166
00000079
00000273
00000019
00000123
00000541
00000234
00000237
FFFFFD2F
000000B0
000002A2
00000386
000001AD
FFFFFFD5
000001B2
FFFFFED4
00000055
FFFFFF84
FFFFFD16
00000134
0000008B
00000195
00000112
00000121
FFFFFD1F
FFFFFE5B
FFFFFF62
00000191
FFFFFD86
000000D5
0000026D
00000290
FFFFFEDE
FFFFFE02
0000001F
FFFFFDC1
FFFFFD67
FFFFFE80
FFFFFF87
00000103
FFFFFDC2
FFFFFECA
FFFFFE40
FFFFFF2D
00000038
FFFFFF6B
FFFFFD06
FFFFFE69
FFFFFE83
FFFFFCCA
000001D2
FFFFFBF3
FFFFFE99
00000377
00000085
000002C7
FFFFFF94
00000100
FFFFFFF7
000003C2
FFFFFEE0
FFFFFE69
FFFFFF84
FFFFFFFA
FFFFFD60
0000013A
00000252
000002F4
00000213
FFFFFD91
00000205
FFFFFE4F
00000133
0000010C
0000006F
FFFFFEFD
00000094
0000022F
FFFFFA99
FFFFFF8F
FFFFFFDE
FFFFFF1B
000000A8
FFFFFEA0
000001EC
000004DC
00000230
00000285
FFFFFE2F
0000022E
00000219
0000012F
FFFFFC15
FFFFFD1B
000003EB
FFFFFE2F
00000036
00000002
FFFFFCD0
00000103
000002B1
000002A5
0000022E
FFFFFF73
FFFFFEF5
000002F1
FFFFFD39
00000272
FFFFFD22
FFFFFF79
0000018F
FFFFFF6A
000002B9
FFFFFE2F
FFFFFDDA
FFFFFCF7
000001CE
FFFFFF92
FFFFFDE5
00000149
FFFFFB6E
0000004D
FFFFFF5F
0000020B
FFFFFF91
FFFFFEBC
000002C9
0000024E
000002F6
FFFFFF78
000000A6
00000077
FFFFFD09
00000238
FFFFFC34
FFFFFFC2
0000004B
000000EA
00000109
00000427
FFFFFFAE
FFFFFE53
FFFFFEF0
00000146
000002A4
FFFFFEF2
FFFFFD52
FFFFFC7F
FFFFFE81
0000024C
FFFFFBF3
00000114
FFFFFD93
00000214
000001DE
FFFFFF6B
FFFFFCFA
00000149
FFFFFCE1
FFFFFF28
0000037B
000001CD
00000082
00000223
00000353
000001A5
FFFFFFF3
00000156
FFFFFD8E
00000042
FFFFFD76
000001FF
FFFFFD06
FFFFFC99
FFFFFF0B
FFFFFD0E
FFFFFFDA
FFFFFC5E
0000001C
00000050
FFFFFEA9
FFFFFE8E
FFFFFFFD
FFFFFFF3
00000173
00000062
000002D8
0000030E
FFFFFFA1
FFFFFFD3
FFFFFFBD
00000283
FFFFFD70
000001CF
00000166
FFFFFF5E
FFFFFFCB
FFFFFE97
00000355
FFFFFCA9
FFFFFD83
FFFFFE4F
000001D2
FFFFFDDE
FFFFFE23
FFFFFF02
FFFFFEE5
FFFFFEF6
000000AF
FFFFFFBE
000000F3
FFFFFDCF
0000020F
000001A9
FFFFFE1A
FFFFFC7C
00000138
000000FF
FFFFFDF6
000000FD
FFFFFD6D
FFFFFE14
000000BD
000000A2
FFFFFFBA
FFFFFC34
0000007D
00000246
FFFFFFE4
FFFFFF04
000001EA
00000018
FFFFFD72
00000294
FFFFFFE5
FFFFFE11
000000E6
FFFFFE4F
00000043
FFFFFCD6
FFFFFE9E
00000016
FFFFFDE0
FFFFFDA5
FFFFFE4D
000002FC
0000021A
FFFFFEB6
00000006
00000134
FFFFFEE2
FFFFFE1C
000000F8
FFFFFE12
00000296
FFFFFD92
000000A4
000000A4
00000077
FFFFFDD0
000002B0
000001D5
FFFFFB3F
000002F4
FFFFFF54
FFFFFD07
00000248
0000042F
0000007C
FFFFFD40
00000229
FFFFFEB7
00000080
FFFFFFD1
0000054E
000005A7
FFFFFD9D
000001AA
000002F2
FFFFFED3
0000008C
FFFFFEA8
000000F5
0000033D
FFFFFF9E
FFFFFEA0
FFFFFDEC
FFFFFEB9
0000000B
FFFFFD20
000000AE
0000022A
000000A1
FFFFFF49
000002C5
0000013A
FFFFFEB0
00000205
00000203
0000004A
000002B9
00000100
000000A8
000003C8
FFFFFDF1
0000004C
FFFFFEE1
0000029F
FFFFFE68
FFFFFF4B
000001E8
FFFFFE3D
FFFFFFF6
00000264
FFFFFE79
00000207
000002C6
FFFFFF1C
000003BC
00000200
000002AD
0000002A
000000F3
00000080
FFFFFE35
FFFFFFD8
FFFFFD54
FFFFFD61
FFFFFF35
0000006C
000000BF
FFFFFCE2
FFFFFE50
000001FB
FFFFFE6E
FFFFFCAE
00000221
00000297
00000259
FFFFFF71
000002F2
FFFFFD5E
FFFFFF70
00000236
FFFFFE0B
000000F2
FFFFFDF5
000000D6
000002F3
FFFFFD02
FFFFFD80
FFFFFF46
00000149
0000021D
000002F1
00000071
00000076
FFFFFEC5
0000011B
0000030B
FFFFFBD9
00000186
00000126
00000300
00000093
FFFFFCDA
00000066
000003E0
FFFFFE9F
FFFFFFEF
FFFFFED9
00000226
FFFFFEA5
0000011C
FFFFFE66
000001C2
FFFFFF80
FFFFFDDB
FFFFFF91
000003E9
FFFFFCDA
00000248
FFFFFE9E
00000080
FFFFFDFF
000000C7
FFFFFF3D
FFFFFD77
000002D6
FFFFFE0B
FFFFFF13
FFFFFF73
FFFFFF66
000001A9
00000173
00000099
00000239
FFFFFEB5
FFFFFE05
000001EF
00000007
000000E3
FFFFFACD
FFFFFBD5
00000095
00000032
000002AC
FFFFFF28
00000267
0000004B
FFFFFE57
000002A4
0000029D
FFFFFF3D
FFFFFDAB
00000292
00000048
FFFFFD85
FFFFFF26
FFFFFE85
FFFFFECA
FFFFFF9E
FFFFFE37
00000002
00000178
0000008E
000000C1
FFFFFE22
FFFFFF3E
FFFFFD8C
FFFFFFA6
FFFFFFA0
FFFFFDCA
FFFFFF4E
FFFFFD6B
FFFFFECD
0000002F
FFFFFCED
00000021
FFFFFECA
FFFFFE9A
FFFFFD57
FFFFFBE0
FFFFFD53
00000054
FFFFFCF6
00000045
00000264
FFFFFF89
FFFFFD7A
0000024C
0000013B
0000013C
000001BA
FFFFFF6C
FFFFFDF1
FFFFFF18
000001A7
FFFFFED2
FFFFFF8E
FFFFFD6B
00000080
000001EB
FFFFFD36
00000116
00000577
FFFFFE99
FFFFFF9F
00000245
0000003A
0000043C
00000293
FFFFFDE7
FFFFFF6C
FFFFFCBE
000001FD
0000036B
000001EC
FFFFFE2A
FFFFFFD4
00000376
00000023
00000291
0000017F
FFFFFC9E
00000063
FFFFFE91
000000F4
FFFFFD00
FFFFFB74
00000221
000000D4
FFFFFEE1
FFFFFC1E
000002B6
0000024A
FFFFFE99
00000099
00000069
FFFFFF81
000002FF
000000A6
FFFFFC55
FFFFFE34
FFFFFE62
FFFFFFDB
000002BB
FFFFFFC8
FFFFFF57
FFFFFF76
0000009B
0000002D
0000033E
FFFFFB64
00000178
000000B8
FFFFFDC1
000000C8
FFFFFF60
FFFFFB90
FFFFFD0A
000002C8
FFFFFEED
00000352
FFFFFE9D
FFFFFE0E
FFFFFED3
0000021B
FFFFFE08
000003E9
00000212
FFFFFBBD
FFFFFE24
FFFFFF88
FFFFFEB3
00000058
0000010E
FFFFFD0A
00000017
FFFFFD2B
FFFFFE14
FFFFFEE2
FFFFFD88
000000D3
000001B0
FFFFFC87
FFFFFF0D
00000115
FFFFFE37
FFFFFEBA
FFFFFF45
FFFFFEF5
000001E5
FFFFFDFF
000002D1
FFFFFDC8
0000002F
FFFFFC7A
00000328
00000385
000003B1
FFFFFF2A
000004C4
FFFFFC1C
FFFFFDE9
000003BE
FFFFFE1F
FFFFFEA8
00000306
000001D4
0000006E
FFFFFCF3
00000067
00000032
FFFFFCCD
FFFFFDCE
0000021E
00000141
FFFFFDC1
00000175
00000183
FFFFFD9E
0000000E
00000087
000000A2
00000212
00000185
0000017F
FFFFFD91
FFFFFD94
FFFFFE92
00000215
0000015D
FFFFFE70
00000476
00000354
0000006F
00000183
00000277
00000139
FFFFFFF3
00000235
00000361
00000234
00000102
000001CF
FFFFFFD5
FFFFFEBF
00000218
FFFFFD5E
FFFFFD09
FFFFFEF1
000000EF
FFFFFFDF
FFFFFE96
FFFFFDA8
00000226
000004A8
FFFFFE67
000003C4
FFFFFD5B
0000025A
0000000E
000000BD
00000340
FFFFFFF5
000000DE
FFFFFD9E
00000268
FFFFFDEE
00000007
0000011F
00000354
FFFFFF3D
FFFFFF73
FFFFFE29
000001C2
000003AF
00000250
0000003C
FFFFFCD4
FFFFFFAE
00000388
00000255
FFFFFDED
FFFFFECA
FFFFFF8B
FFFFFC02
0000023D
000001BD
FFFFFDB5
00000074
FFFFFF32
000000DC
000001CF
0000028F
00000129
000001E8
00000184
00000312
FFFFFFFC
FFFFFFEB
FFFFFDB9
FFFFFE6F
FFFFFDD8
FFFFFD30
0000035D
00000338
FFFFFE43
FFFFFDFD
FFFFFD80
0000003D
000001C9
00000274
000003F8
FFFFFF16
FFFFFD9F
000003B7
00000402
FFFFFEF7
00000084
00000162
00000162
FFFFFEC0
FFFFFE41
FFFFFE0F
FFFFFEAC
00000232
0000000C
FFFFFBF2
0000017B
FFFFFF91
0000009A
0000003E
0000019C
FFFFFF61
FFFFFE4E
FFFFFF66
FFFFFDE2
FFFFFE64
00000366
000002D2
00000464
FFFFFDB1
000002F3
000000E2
FFFFFE9F
FFFFFF7B
FFFFFCD0
00000277
FFFFFE0B
FFFFFDEB
00000147
FFFFFF7C
00000125
FFFFFFDE
00000099
FFFFFE9C
FFFFFB54
00000054
FFFFFFA8
00000016
FFFFFF9C
000001D3
FFFFFEFE
FFFFFEBE
0000023C
FFFFFD65
FFFFFE5E
00000124
0000021E
FFFFFDCF
FFFFFFD8
FFFFFC0A
00000082
FFFFFB5D
000002A0
FFFFFDD8
0000024C
00000314
FFFFFD4D
000001D4
000002B1
FFFFFD5B
00000170
FFFFFF5D
000001CB
00000415
00000116
FFFFFC8E
FFFFFE9C
FFFFFE3A
0000010A
FFFFFF26
FFFFFFFB
FFFFFE08
00000143
00000165
000000E7
FFFFFEF8
FFFFFD8E
000000CA
00000399
00000281
00000019
00000108
00000259
000000D2
000001A6
FFFFFEF6
000000E7
0000048C
FFFFFD68
FFFFFEB6
FFFFFF56
000000E2
00000336
FFFFFEAE
000002F7
FFFFFF8E
000000D4
FFFFFE51
00000291
FFFFFE6D
000000AA
FFFFFD5D
000000D8
FFFFFFCF
FFFFFD48
FFFFFFA0
00000153
00000012
000000BA
FFFFFD11
FFFFFFED
FFFFFFCF
0000028A
0000009F
FFFFFF38
FFFFFF96
FFFFFFE6
0000015F
00000321
00000028
FFFFFD69
0000061E
FFFFFFD1
FFFFFDDB
FFFFFEFF
FFFFFCBA
FFFFFF12
FFFFFE55
FFFFFB8A
00000238
FFFFFEF5
000002D5
FFFFFDB2
FFFFFD67
FFFFFF64
FFFFFF6C
000001C5
0000031C
FFFFFF7D
000001A0
000000F0
FFFFFFB9
00000157
FFFFFECF
0000014B
FFFFFDC3
000001F3
FFFFFE48
FFFFFF21
FFFFFD16
000000B6
FFFFFF35
FFFFFFE4
FFFFFF23
0000016E
FFFFFED0
00000026
000000AA
000001C5
000003A3
FFFFFD4D
0000009F
FFFFFED5
FFFFFCFF
0000029D
0000018E
FFFFFD7B
000000DA
FFFFFC6A
00000000
00000036
FFFFFDF0
000001C1
FFFFFFED
FFFFFEB4
0000004D
FFFFFEE7
00000185
0000013C
FFFFFD8D
0000025C
00000048
FFFFFDA0
000001D0
00000123
FFFFFCF4
FFFFFDDF
000001B4
00000158
FFFFFF70
0000032A
0000017A
FFFFFD5D
0000021E
00000305
000001A2
00000082
FFFFFCD4
FFFFFE1A
00000036
FFFFFD8D
FFFFFCC6
00000344
000001E4
FFFFFDC4
00000119
FFFFFE84
FFFFFD72
FFFFFEB9
000001DC
FFFFFEC2
FFFFFF50
FFFFFEE7
FFFFFEB9
0000011E
00000367
0000024C
00000142
FFFFFF73
00000391
00000050
000001E8
00000152
FFFFFE24
0000008C
FFFFFD81
00000284
FFFFFFAD
FFFFFED6
FFFFFD5F
FFFFFF51
00000442
FFFFFF12
FFFFFD83
FFFFFDE0
FFFFFDAA
0000042B
00000191
FFFFFF6F
FFFFFF5A
FFFFFF9F
FFFFFE0F
000000C7
FFFFFCCD
FFFFFD16
FFFFFDDE
0000000E
00000248
FFFFFDB3
000001F3
00000160
0000025B
FFFFFDD3
000001C5
FFFFFDB1
00000071
FFFFFECC
FFFFFF06
FFFFFE5A
000001E4
FFFFFDB5
FFFFFCD3
FFFFFE43
FFFFFDA5
FFFFFF6C
FFFFFED3
00000008
FFFFFC48
FFFFFD35
00000096
0000038F
000001E5
00000267
FFFFFE26
FFFFFE9D
0000024D
FFFFFF67
FFFFFF10
0000034F
FFFFFFF5
000001C7
00000042
FFFFFBCC
00000310
000002AB
000001A3
FFFFFEF7
000000C1
FFFFFD3D
00000319
000000AA
FFFFFD1E
FFFFFE32
000002AF
000000E6
00000352
FFFFFF4B
00000121
0000021F
FFFFFFE3
000001EE
00000260
00000120
00000252
FFFFFCE8
FFFFFE3E
000001AA
FFFFFE60
FFFFFE0F
00000045
0000008A
0000032D
FFFFFEED
000000E4
000000B5
FFFFFF78
000001C5
00000276
FFFFFD57
FFFFFC00
0000003A
FFFFFEFF
00000047
000005C4
FFFFFFE8
FFFFFD11
FFFFFF48
00000020
FFFFFFA1
FFFFFD5D
FFFFFE30
FFFFFF5A
FFFFFDBC
000002FF
FFFFFDD8
00000184
000003ED
000000D4
00000032
FFFFFD06
FFFFFE0A
FFFFFF88
0000013A
000000CF
000002B5
00000039
FFFFFE09
FFFFFF8F
FFFFFF12
000000F5
FFFFFD18
00000159
FFFFFF10
0000011C
FFFFFE08
0000050F
000000D0
00000253
0000033D
FFFFFCFD
0000008F
000003A3
FFFFFF54
00000096
000001CA
FFFFFE36
FFFFFF0C
FFFFFF4C
FFFFFE89
0000035A
000002AA
00000079
00000109
0000014B
0000033D
FFFFFF56
00000179
FFFFFE5F
0000006A
00000028
FFFFFF85
000003EB
FFFFFE50
000001CC
FFFFFC7D
000000FD
000001AA
00000328
00000056
000001E8
FFFFFED1
FFFFFD35
FFFFFEAA
0000004B
00000027
FFFFFEA0
FFFFFE59
00000103
FFFFFBE6
FFFFFE84
0000032B
FFFFFF4D
FFFFFF87
0000001E
000000CE
FFFFFFE4
000000BB
00000259
FFFFFF86
00000355
FFFFFD02
000002D4
FFFFFDD2
000001B4
FFFFFE19
FFFFFE14
000001B8
00000199
FFFFFE15
FFFFFF31
FFFFFEDB
000002F6
FFFFFE96
FFFFFF45
00000295
00000461
FFFFFE29
000002C1
FFFFFE0F
FFFFFFCE
FFFFFE65
FFFFFECA
000002F0
0000004B
FFFFFD34
FFFFFF58
FFFFFE85
00000091
FFFFFFDC
000002E5
FFFFFD93
00000148
00000012
FFFFFCE1
000000E8
00000318
FFFFFD6B
00000266
0000048C
FFFFFFC0
00000042
FFFFFFD8
FFFFFE9E
000000EA
FFFFFDAE
FFFFFF5A
00000153
000000DB
FFFFFE21
000000B4
000002AD
FFFFFD5B
FFFFFF2D
FFFFFF2C
00000333
000001FD
FFFFFB22
FFFFFFD8
000002EB
FFFFFFED
000003BD
FFFFFFE2
FFFFFE51
FFFFFEEE
000003BC
FFFFFC68
0000010D
FFFFFE3A
00000086
00000245
000000C3
00000300
FFFFFF2F
FFFFFEB2
0000013B
FFFFFF75
FFFFFDB6
FFFFFE58
000000FB
000002E2
FFFFFDA4
FFFFFF7D
00000249
FFFFFED3
FFFFFEED
FFFFFB9E
FFFFFFFD
FFFFFEE2
FFFFFE5E
00000296
00000229
FFFFFD94
000002FA
00000252
00000059
0000038F
FFFFFE0F
FFFFFF55
FFFFFB54
FFFFFF21
FFFFFFAB
FFFFFD78
00000070
FFFFFC58
00000211
FFFFFD5F
FFFFFBE9
FFFFFC21
0000023D
FFFFFC21
00000237
000000D2
000000D1
00000296
0000026C
FFFFFF79
00000078
000000EF
000002BA
FFFFFF14
FFFFFFAF
00000243
000002A4
000001A7
FFFFFF3A
00000370
00000311
FFFFFFA0
00000273
0000014A
FFFFFD72
FFFFFDF9
00000011
00000034
FFFFFECB
00000240
FFFFFFBC
FFFFFCA6
FFFFFE24
000000BF
FFFFFF58
FFFFFDED
0000018B
FFFFFEA0
FFFFFFA8
0000030C
0000025F
FFFFFFED
FFFFFDA3
00000429
0000026A
000001E7
FFFFFEA5
FFFFFD7D
00000269
00000282
FFFFFE77
FFFFFCF3
FFFFFE9F
00000093
000000F0
FFFFFE3F
FFFFFFDC
FFFFFEF3
00000274
FFFFFD91
FFFFFBCD
FFFFFE4F
FFFFFF2E
FFFFFF08
FFFFFFE0
FFFFFF40
FFFFFE48
FFFFFFBB
000002AC
FFFFFEA3
00000218
FFFFFFA4
000000E2
000001A0
FFFFFEFA
0000021D
000003D8
FFFFFDAB
FFFFFD3C
FFFFFD89
FFFFFFDD
FFFFFEE4
FFFFFDCA
FFFFFD3E
FFFFFFE4
FFFFFCB3
0000027B
FFFFFE52
0000000F
FFFFFEE0
FFFFFE86
FFFFFF7A
FFFFFC4B
000000DE
00000158
FFFFFBD6
FFFFFFC4
000000A4
00000228
0000001D
FFFFFEF9
FFFFFF8C
0000013E
000000EE
FFFFFF8C
000002F3
FFFFFEDC
000000AC
00000162
FFFFFE0B
FFFFFBF0
FFFFFE57
00000039
FFFFFDEA
0000008A
FFFFFE1B
FFFFFE89
FFFFFC70
FFFFFCFC
FFFFFBCB
0000008D
FFFFFB59
FFFFFF7C
FFFFFD3E
FFFFFE5C
00000412
000000BA
FFFFFBAB
00000144
FFFFFE1E
FFFFFD38
FFFFFC28
000000EA
FFFFFF18
000001E8
FFFFFC57
FFFFFFB5
00000290
FFFFFC78
FFFFFDAD
FFFFFDAE
FFFFFE11
FFFFFD5C
00000305
00000256
000002BD
FFFFFFA0
FFFFFE68
00000198
000000C2
00000179
FFFFFCE1
00000357
000001C6
00000110
00000276
FFFFFF20
000001FB
FFFFFD1C
FFFFFF26
000000CD
0000036A
0000020E
0000014C
0000018A
FFFFFEBB
FFFFFF6F
FFFFFF35
00000239
FFFFFD30
000000B8
0000010F
FFFFFDFC
00000424
000002F0
0000026F
FFFFFF60
0000009E
000000D5
00000053
FFFFFFDA
FFFFFD9E
00000147
FFFFFD1C
FFFFFD34
00000138
00000019
00000191
00000141
FFFFFE4D
0000012F
0000027F
000000A0
00000274
0000029A
00000041
FFFFFF1B
FFFFFC0D
FFFFFD5D
00000345
FFFFFDE6
000000EE
FFFFFE76
FFFFFFB4
000001F6
00000050
FFFFFE5E
0000028F
00000056
00000237
FFFFFEA7
00000085
FFFFFDDC
00000434
FFFFFE42
000001D8
FFFFFFD7
00000231
00000274
FFFFFD11
FFFFFFC9
FFFFFE3F
FFFFFEE5
000001C2
FFFFFEF4
00000193
00000195
FFFFFF85
FFFFFDA7
FFFFFEA9
FFFFFD26
FFFFFE7F
FFFFFD05
00000081
000002B1
FFFFFE3A
FFFFFE6C
FFFFFF6D
0000003B
FFFFFDE2
00000090
FFFFFF0E
FFFFFE63
FFFFFCAC
00000207
FFFFFA03
FFFFFF27
FFFFFE2A
FFFFFE68
FFFFFD74
00000299
00000344
FFFFFF96
000002A2
0000006A
00000075
000000F2
FFFFFD00
000002B5
00000210
FFFFFD64
0000028B
0000023E
00000504
FFFFFCDA
FFFFFF87
000001AF
FFFFFFCD
00000292
00000291
FFFFFC71
FFFFFE06
FFFFFE85
FFFFFFB0
0000013F
FFFFFE8E
FFFFFD8D
0000010B
FFFFFDD0
FFFFFE5A
FFFFFF83
000000EC
FFFFFF3C
FFFFFFCE
FFFFFD01
FFFFFFB4
FFFFFC90
00000055
FFFFFF07
000002D6
FFFFFF4C
0000042A
FFFFFD78
FFFFFD73
FFFFFCE5
00000032
00000391
00000154
FFFFFD76
000003ED
FFFFFEDD
00000186
FFFFFEA4
00000179
FFFFFE50
000001D6
FFFFFD8F
FFFFFFD7
0000028C
00000193
FFFFFC33
FFFFFC2C
FFFFFC63
0000021F
FFFFFE12
FFFFFE5F
FFFFFFFE
00000034
FFFFFEEC
FFFFFBCD
00000081
0000002C
FFFFFD0F
000000E4
0000002C
00000029
FFFFFDB0
FFFFFE39
000001EE
00000099
000000E3
00000013
FFFFFEA0
FFFFFEF5
FFFFFF9A
0000014A
00000247
0000031D
000001AA
FFFFFDBF
000001D0
000000B8
FFFFFE3E
FFFFFCD0
000002F2
00000052
FFFFFDA8
00000161
000002C6
FFFFFF93
000002A7
0000029B
FFFFFF24
FFFFFE23
FFFFFEB2
0000006F
000002D3
FFFFFF33
000001ED
FFFFFD6B
00000030
0000039E
00000274
000000CF
FFFFFF40
0000013C
FFFFFD99
00000284
0000004C
0000019A
00000048
FFFFFEBB
000000F5
FFFFFCAA
FFFFFE4F
0000025E
FFFFFE23
FFFFFFE6
000002F3
FFFFFCEA
00000299
FFFFFD23
FFFFFE8D
FFFFFCA9
FFFFFDB4
FFFFFEE3
FFFFFE97
0000017A
FFFFFDB2
00000273
FFFFFE0D
00000206
FFFFFE0A
000000CC
FFFFFC7A
00000029
000002B0
00000150
00000012
000000C4
FFFFFCF7
000003BD
00000043
FFFFFE16
0000014C
00000210
00000171
FFFFFD6C
00000034
FFFFFE03
0000000D
00000157
FFFFFE6B
00000265
FFFFFEE0
FFFFFC05
00000279
FFFFFF0B
FFFFFB43
FFFFFD4B
FFFFFE5B
FFFFFE0B
FFFFFEF3
FFFFFF01
FFFFFEA3
0000025F
000001C9
0000011C
0000016B
00000243
FFFFFD8F
0000015F
0000029F
FFFFFC6A
000001FA
FFFFFCE5
FFFFFF5B
FFFFFECA
00000078
FFFFFE5A
FFFFFF2A
00000038
00000277
000002C6
FFFFFDC4
00000178
000000A7
000002C1
FFFFFED4
000003B4
000002D0
00000162
FFFFFFF4
00000057
FFFFFFF1
FFFFFEF6
0000013B
0000011F
FFFFFCCF
FFFFFF79
000002CE
0000003C
00000036
0000025A
0000029E
00000198
FFFFFF4F
FFFFFEBB
FFFFFCD7
000002D2
0000002E
FFFFFBE4
00000382
00000100
000003E5
FFFFFF27
00000138
0000018B
0000002D
0000020F
FFFFFF27
FFFFFBD9
0000021D
FFFFFE44
00000250
FFFFFF85
FFFFFEB1
FFFFFE06
0000001E
FFFFFF33
00000057
00000169
FFFFFE6A
000002F0
FFFFFD79
FFFFFE1A
00000256
FFFFFE0B
00000372
FFFFFDAB
FFFFFE02
FFFFFE97
0000002A
000002BD
FFFFFFE9
FFFFFD3D
FFFFFDFD
FFFFFFEA
FFFFFE8D
0000024D
0000020D
000000F7
00000331
FFFFFC40
FFFFFD91
000000FE
FFFFFFE2
000000C6
FFFFFE16
00000196
FFFFFB70
FFFFFF52
FFFFFE1D
00000221
00000270
00000131
FFFFFE32
FFFFFF91
FFFFFEC0
00000191
FFFFFF6D
000002F8
FFFFFE33
0000008A
FFFFFDE7
FFFFFE22
0000009B
0000008C
FFFFFD40
FFFFFDF4
FFFFFED7
FFFFFF1E
FFFFFE9F
FFFFFA7B
FFFFFEF6
FFFFFE16
0000018B
FFFFFD2D
0000020C
00000228
0000039D
0000021C
FFFFFE05
00000161
00000249
FFFFFCD5
FFFFFDBA
000002A6
00000285
FFFFFEB6
FFFFFF40
FFFFFF37
0000028C
FFFFFF7B
FFFFFCC3
FFFFFFD8
00000007
000001AC
FFFFFC84
000001B2
00000514
FFFFFEE2
00000067
FFFFFDD9
00000027
FFFFFF55
FFFFFE7F
00000271
000001B4
00000128
FFFFFD13
FFFFFAE7
0000013D
FFFFFF8E
FFFFFDB8
FFFFFC1C
FFFFFDC1
FFFFFDE5
0000029A
000001CD
0000000B
00000259
00000484
FFFFFFB5
FFFFFE5D
00000015
00000011
00000421
00000298
00000398
00000463
FFFFFFA5
FFFFFE6A
0000036F
FFFFFF10
FFFFFDD8
FFFFFCE6
FFFFFC21
FFFFFF88
00000108
00000160
000000F4
0000000A
0000025C
FFFFFE4B
00000168
FFFFFDE4
00000505
000004F8
FFFFFEE9
0000025B
FFFFFD10
FFFFFF41
000000BD
000002C2
00000102
FFFFFF70
FFFFFCE0
0000012D
000000DC
00000255
FFFFFFD9
000003DB
FFFFFBEE
000000EB
000000C7
0000001B
FFFFFF58
000001A6
FFFFFED8
00000079
000001D0
00000493
0000054F
FFFFFD51
FFFFFEDE
FFFFFE38
0000011F
000000D3
000000F8
00000315
FFFFFD64
00000179
FFFFFE98
FFFFFF8C
FFFFFE94
0000019B
FFFFFE72
000002C9
000001CB
000003E1
00000351
00000000
000003B9
00000276
000001FA
0000000E
00000191
0000045F
00000348
FFFFFAD8
00000413
0000035B
0000020A
00000323
00000191
FFFFFFF4
FFFFFE58
FFFFFD5A
FFFFFEAF
0000016E
FFFFFF58
FFFFFF7F
FFFFFE32
000002A2
FFFFFCFF
FFFFFDFD
FFFFFB12
00000121
FFFFFFE0
FFFFFFA6
FFFFFD55
FFFFFE03
FFFFFC90
000000CC
000001E2
000001AF
000000F4
000005A1
FFFFFF9F
FFFFFFA2
00000083
000002E0
FFFFFFCD
FFFFFDBC
00000005
000001F8
000001A5
0000019F
FFFFFE26
FFFFFECA
000000C0
FFFFFD25
0000018E
FFFFFF17
FFFFFE36
00000271
FFFFFED8
FFFFFD16
FFFFFF5A
00000236
FFFFFEC9
FFFFFB10
00000104
00000080
FFFFFC8C
FFFFFCFC
FFFFFF6C
FFFFFDFB
0000018A
00000131
FFFFFDFF
00000302
FFFFFCF9
000001EA
FFFFFC76
00000036
FFFFFE6E
FFFFFD78
FFFFFDA3
FFFFFFCA
0000005A
000000C3
FFFFFED6
0000009A
0000013A
0000041F
0000018D
00000270
FFFFFD85
000002ED
FFFFFF00
0000018F
00000013
FFFFFF3D
FFFFFE35
FFFFFDA2
FFFFFFB3
FFFFFC92
000000EF
FFFFFCF5
FFFFFD5D
000000EE
FFFFFF04
00000230
000000DA
000000A3
000001B7
000002BB
000001B7
000002F2
000000B5
FFFFFC62
FFFFFF69
FFFFFC49
FFFFFE2F
FFFFFF4B
000001A0
000002EE
00000256
000001BF
000000F8
FFFFFE5D
FFFFFC27
0000026A
FFFFFEDD
00000218
FFFFFEFC
FFFFFC22
0000021B
FFFFFFA8
00000031
000001D5
FFFFFFE6
000001C8
FFFFFF88
00000026
FFFFFF48
FFFFFDB5
FFFFFFA6
0000002D
FFFFFD9C
00000438
FFFFFF87
FFFFFE5E
FFFFFD8C
00000276
FFFFFFB9
0000021F
000000AB
FFFFFF77
00000318
FFFFFD24
FFFFFD69
FFFFFDC3
FFFFFE38
FFFFFD81
FFFFFF09
000000A7
FFFFFFA6
00000063
000002B5
00000046
00000258
FFFFFDE8
000004D2
0000012A
FFFFFB70
000001B3
00000286
0000003B
FFFFFEDA
FFFFFFBF
FFFFFE9B
FFFFFC38
00000053
00000382
000000D8
000000B2
FFFFFE6A
0000010F
00000007
000000DC
0000007E
FFFFFFCF
FFFFFE95
000000FE
FFFFFDB1
000000DD
0000007B
0000011F
FFFFFFC1
00000196
FFFFFF65
FFFFFD0E
000000E2
00000148
FFFFFDD2
00000130
0000004D
00000125
000004A7
FFFFFEA1
FFFFFE5C
FFFFFE69
000002BA
00000376
00000123
FFFFFF87
00000117
00000292
00000066
00000077
FFFFFF17
FFFFFBA3
000001C1
00000099
FFFFFE87
000001CD
00000289
FFFFFEFD
FFFFFF63
00000532
FFFFFEAB
00000229
FFFFFC61
FFFFFBEE
FFFFFEEB
000000B5
00000165
FFFFFF20
000002F8
FFFFFFF1
00000234
FFFFFCAA
000001CA
FFFFFDED
00000358
FFFFFCC2
00000354
FFFFFE80
000001E8
0000032A
00000210
00000237
00000344
00000107
FFFFFCF7
FFFFFF83
00000112
000001E3
00000193
00000218
00000054
000001A0
FFFFFFF8
00000161
FFFFFFCC
00000148
00000064
000000B8
FFFFFF5D
000003D1
FFFFFE97
FFFFFEB3
00000229
FFFFFBD6
000001D1
00000023
FFFFFFD9
FFFFFACF
00000038
FFFFFD05
0000034F
FFFFFE1A
FFFFFDA6
00000233
FFFFFE60
FFFFFF5C
FFFFFFAE
0000004B
000002C2
FFFFFDD4
00000278
FFFFFE77
0000006D
00000245
FFFFFFDB
FFFFFDFB
000001E6
000001CD
000002DC
FFFFFF23
FFFFFF6E
FFFFFF52
FFFFFEC2
FFFFFF8F
FFFFFCC2
FFFFFC49
FFFFFF92
FFFFFE78
0000006E
FFFFFFBE
00000105
00000014
FFFFFF8D
FFFFFD9C
00000360
00000113
FFFFFEC5
FFFFFFF9
000002DF
00000428
FFFFFF34
FFFFFFD7
000000FD
FFFFFF82
FFFFFFBC
FFFFFFFC
FFFFFF86
00000437
000002D6
000001CF
FFFFFC48
FFFFFF41
00000214
FFFFFD93
00000424
FFFFFFB5
FFFFFCC6
000000D8
FFFFFE99
FFFFFC00
0000005D
0000023A
000000E9
FFFFFFCA
FFFFFE4D
FFFFFC6C
00000257
FFFFFE52
00000338
FFFFFBF1
FFFFFF78
FFFFFDF1
FFFFFEBD
FFFFFF81
FFFFFFFF
FFFFFDBB
00000224
FFFFFE32
FFFFFED7
0000025F
FFFFFEAA
00000093
FFFFFE8F
00000274
0000028E
FFFFFE71
0000001A
FFFFFAED
000001A0
0000041D
FFFFFD18
000000EE
00000274
FFFFFF54
0000028A
000001F5
0000035E
00000357
FFFFFCC0
000000ED
0000021F
FFFFFF8B
FFFFFCE3
00000333
FFFFFEA5
0000044F
FFFFFF31
000000CC
FFFFFFC6
FFFFFD6E
FFFFFD7F
FFFFFD25
00000037
FFFFFF6E
FFFFFF73
FFFFFF38
000002C4
00000144
FFFFFE1C
FFFFFD44
00000184
00000205
00000168
FFFFFF54
0000032B
FFFFFE09
FFFFFE0D
FFFFFE66
000001D2
FFFFFDBA
0000008D
00000244
00000008
0000002F
0000015F
000002FA
FFFFFE8F
0000013B
FFFFFE80
0000031C
000002BD
FFFFFFD3
FFFFFD10
0000006E
FFFFFF22
0000005A
FFFFFCD8
FFFFFD56
FFFFFFFD
00000038
000000A9
00000138
0000020D
FFFFFDD3
FFFFFE24
FFFFFE9D
00000184
FFFFFD7F
FFFFFE19
FFFFFEBF
00000333
FFFFFEE1
FFFFFFB0
00000175
FFFFFE4C
0000030B
FFFFFD59
FFFFFFAB
FFFFFDBA
0000023F
FFFFFF86
00000355
FFFFFF35
000000C0
00000136
0000002E
FFFFFC78
FFFFFF19
000001E9
FFFFFE9F
00000069
000003E6
FFFFFE08
FFFFFDEC
FFFFFF83
FFFFFDFD
0000033C
FFFFFFC1
FFFFFF13
FFFFFC62
00000172
00000070
FFFFFFBA
000000C7
FFFFFFEB
FFFFFE4E
00000010
FFFFFD2C
FFFFFEA5
00000201
000000A3
FFFFFF37
FFFFFF3D
FFFFFF2F
FFFFFE14
0000026A
000002EF
000001EC
FFFFFE15
FFFFFF36
FFFFFEB8
00000161
00000057
FFFFFFDC
000003CE
FFFFFE25
FFFFFF18
000000AC
FFFFFCD4
FFFFFFB1
00000139
FFFFFF02
FFFFFE0E
FFFFFC21
00000227
FFFFFFB7
FFFFFFFF
000002B6
000000EC
FFFFFDBA
000001E4
000001BC
000000EF
0000027A
000004D4
FFFFFD61
0000003A
FFFFFBA1
FFFFFDD4
00000100
000001E4
00000167
000002C3
FFFFFE9B
00000348
000000A4
FFFFFCA4
FFFFFDB7
FFFFFF92
000001CE
FFFFFB9F
00000092
000004A8
000000DA
0000012D
FFFFFE8E
00000370
00000065
0000000C
FFFFFD6B
0000036D
00000244
000001E7
000000CA
FFFFFEE2
00000249
00000477
FFFFFEA9
000001DF
FFFFFFC2
00000179
000004A4
FFFFFF9E
000000F0
FFFFFDC4
0000010F
FFFFFC62
FFFFFEF7
FFFFFF4D
000000C9
FFFFFF5B
FFFFFF27
00000377
000000BB
00000026
00000054
FFFFFEA8
00000303
FFFFFEF1
000000E9
FFFFFDEE
00000183
FFFFFF38
FFFFFD60
00000135
000001F0
000000E5
0000032F
00000185
00000080
FFFFFCD7
00000269
FFFFFF58
FFFFFFDB
FFFFFFA6
0000018C
FFFFFF3E
000002C9
FFFFFE96
000001DE
FFFFFE14
00000151
FFFFFDE9
00000082
FFFFFE11
00000252
0000028C
00000447
000000ED
FFFFFFCF
0000032F
FFFFFDFC
00000154
000000B1
FFFFFCDB
00000006
FFFFFE6D
000001FC
FFFFFF29
FFFFFF34
00000123
FFFFFD0F
FFFFFF0B
FFFFFC86
FFFFFF85
FFFFFE95
0000032D
00000247
FFFFFF60
0000035C
FFFFFBFD
FFFFFD7A
FFFFFFD0
FFFFFEF9
FFFFFECC
FFFFFCA7
FFFFFD22
FFFFFF96
00000122
FFFFFED0
000002D0
000002CF
00000161
FFFFFDD7
00000138
00000270
FFFFFE23
FFFFFB79
000000A2
FFFFFD66
FFFFFE0A
00000388
000002ED
FFFFFF5F
FFFFFF1F
FFFFFED3
FFFFFDB5
FFFFFE08
FFFFFDA9
0000019F
FFFFFD0B
FFFFFCEA
00000324
0000032C
FFFFFCF7
000000B2
0000027C
00000109
FFFFFD1F
00000304
FFFFFD15
000002BC
FFFFFDFC
FFFFFD22
00000329
00000161
FFFFFEB8
00000020
00000079
0000016A
000000A7
FFFFFD02
000001F7
000001FD
FFFFFF27
0000026C
FFFFFD0B
0000023F
FFFFFF13
FFFFFDDF
000001D9
000002C9
0000000C
00000499
000001F8
FFFFFD66
00000263
FFFFFFC0
0000054D
000001DA
00000151
FFFFFDD7
00000392
00000102
FFFFFF55
FFFFFD81
FFFFFBCC
000000C7
00000258
000000B3
00000293
FFFFFD51
00000323
0000029C
FFFFFF27
FFFFFF4E
FFFFFC68
FFFFFFC6
FFFFFF4E
00000052
000001CC
FFFFFFD5
00000159
000001EC
00000327
FFFFFC84
FFFFFEA8
FFFFFB2F
0000023A
00000284
000001B0
FFFFFDF6
FFFFFEF8
FFFFFECD
000000EE
FFFFFCC1
0000016A
FFFFFF56
00000214
FFFFFF9C
FFFFFF69
000001B1
000001CA
0000033A
FFFFFF9C
00000223
FFFFFE16
00000054
00000289
FFFFFD17
0000021A
0000025F
000000E6
000000C3
0000022D
000000CC
000001A1
00000023
FFFFFD88
FFFFFE35
FFFFFFF2
00000035
FFFFFDCC
000000D2
FFFFFDA9
FFFFFE2B
00000282
00000132
00000100
00000285
FFFFFDEC
FFFFFED1
00000285
FFFFFD6E
00000042
000001B7
FFFFFE2E
FFFFFE3E
FFFFFDB6
FFFFFFE8
0000018E
FFFFFFD7
000002FB
FFFFFE1D
000001CD
FFFFFE83
000003A8
0000023E
0000016F
00000107
FFFFFE4F
00000411
00000045
FFFFFDE1
000001E0
FFFFFD60
FFFFFE36
FFFFFC62
00000129
00000267
FFFFFD00
FFFFFFD1
0000015A
00000417
00000316
00000511
0000001F
00000302
FFFFFF2A
FFFFFFF7
000000C9
FFFFFC2D
0000005F
FFFFFE02
00000361
FFFFFD7F
FFFFFDB9
FFFFFE4A
FFFFFCA4
000002EC
00000223
000000D8
FFFFFF72
00000003
0000012F
FFFFFDA2
00000353
00000017
00000436
FFFFFD42
00000160
000000CD
FFFFFE07
FFFFFEAA
00000277
FFFFFFF2
000000EC
FFFFFDC8
FFFFFFE2
FFFFFFCF
FFFFFD9C
00000277
FFFFFDF1
FFFFFE23
000000E2
00000271
0000020C
FFFFFEC3
000002B0
000001D9
00000221
0000023A
00000169
FFFFFD7E
0000050F
0000017D
FFFFFD19
000001A8
FFFFFC51
00000169
000001F9
00000081
00000394
FFFFFD89
FFFFFF6D
FFFFFEB4
FFFFFE52
FFFFFE30
FFFFFF45
000001FB
000000CB
000000E8
000000F1
00000008
000002BB
00000102
FFFFFD28
000002E2
FFFFFF8C
FFFFFEDD
FFFFFCE4
000002A2
00000004
FFFFFCFA
00000270
00000001
FFFFFE3D
FFFFFF31
000001F1
FFFFFCE3
0000007B
000002F9
000000B6
FFFFFD08
000001AA
000000F8
FFFFFEC6
FFFFFF5E
0000031A
FFFFFC0E
FFFFFF9D
000001C9
FFFFFE1F
FFFFFFE3
0000016D
FFFFFFD2
FFFFFF4E
000001FD
FFFFFE90
00000465
FFFFFE60
000000AB
0000018A
FFFFFEBE
0000028C
FFFFFF24
FFFFFEED
00000089
FFFFFDC7
0000045E
FFFFFD9D
FFFFFE8F
FFFFFF5D
FFFFFDEB
000003AF
00000187
000000F0
00000079
0000029F
FFFFFD99
00000286
000002D5
FFFFFFAD
FFFFFE89
FFFFFFEC
FFFFFDE2
00000335
FFFFFF62
FFFFFD68
FFFFFD46
00000198
0000017D
FFFFFE7F
0000006A
00000069
FFFFFE50
00000471
FFFFFD7B
FFFFFDE6
FFFFFD4D
FFFFFFC7
0000017C
000000AA
FFFFFF19
FFFFFE4C
FFFFFBBC
00000028
0000030A
00000331
00000141
0000009F
00000361
000004AF
000002C6
FFFFFD52
000003E0
FFFFFD90
0000036B
FFFFFC56
0000022A
0000017E
00000244
FFFFFF1B
000003C1
0000005F
0000036E
FFFFFEF1
FFFFFF6F
FFFFFE5D
0000001D
FFFFFC99
FFFFFD78
00000003
FFFFFED3
00000096
00000209
00000129
FFFFFD9D
FFFFFF59
0000003C
0000038F
0000022A
FFFFFE0F
000000E9
FFFFFC5A
00000270
FFFFFEA2
0000031B
00000063
FFFFFDF1
FFFFFFD0
00000350
000001D9
00000247
FFFFFF8B
0000014C
FFFFFF1F
FFFFFF75
FFFFFD74
0000004C
000001D3
FFFFFF0D
00000193
FFFFFC35
0000006E
00000060
0000020A
00000049
FFFFFCE5
FFFFFF57
FFFFFF62
FFFFFFFD
00000175
FFFFFBEC
0000029D
FFFFFE2D
00000151
FFFFFD15
00000101
00000195
0000000A
FFFFFF76
00000215
FFFFFF0C
000002B7
0000028F
00000078
FFFFFE8F
0000012F
000003B3
00000095
FFFFFD26
000001F4
FFFFFFD7
FFFFFF92
00000279
00000252
000001A3
FFFFFF4B
0000015A
00000336
000001D5
FFFFFBBF
00000143
FFFFFCF5
FFFFFFA3
FFFFFF86
FFFFFE0B
FFFFFCD3
0000019E
FFFFFE72
FFFFFD57
FFFFFF8A
00000120
FFFFFF7A
00000097
FFFFFD8A
FFFFFDA6
000000AE
FFFFFEFF
FFFFFF7F
0000015F
0000025E
00000086
000002AB
0000017B
FFFFFEB0
000002D8
000003F8
0000024F
FFFFFEA4
00000012
00000169
FFFFFFC4
FFFFFEA7
FFFFFEC3
00000038
000001CF
0000014A
FFFFFF83
FFFFFBD2
000003FD
FFFFFDAF
0000002C
FFFFFEA5
00000321
000000B1
0000010F
FFFFFFFD
000003FF
FFFFFE7E
00000210
FFFFFF46
FFFFFD38
FFFFFCAF
FFFFFD39
FFFFFD73
FFFFFE0B
FFFFFE6D
FFFFFC12
FFFFFF3C
00000216
FFFFFDA5
FFFFFE74
00000239
FFFFFFFB
FFFFFFE2
FFFFFF27
0000011A
FFFFFDC3
FFFFFFD6
FFFFFEE5
00000189
00000157
000002C5
000002BD
FFFFFFE5
FFFFFC5F
000002C6
000001FC
0000029D
FFFFFE5D
FFFFFE8B
0000006E
00000193
FFFFFFBE
0000000E
000000EE
FFFFFC98
FFFFFD18
000000BD
00000338
FFFFFC35
000002B3
FFFFFEAB
FFFFFEDD
FFFFFDEE
00000094
00000120
FFFFFDCC
FFFFFD90
FFFFFE39
FFFFFEA7
00000023
00000311
0000024A
FFFFFFA7
00000191
000002EF
000002E7
FFFFFE60
000002AC
000001A8
0000011C
0000001D
00000036
FFFFFBC5
FFFFFF45
000002D4
000002F3
FFFFFDBE
FFFFFE74
0000014C
FFFFFDA2
00000158
FFFFFF31
0000019B
FFFFFEC6
FFFFFFCC
FFFFFE8C
FFFFFE7C
00000155
FFFFFEB3
00000010
000000F4
FFFFFF9C
0000021E
00000211
FFFFFDAE
FFFFFDF5
FFFFFEAE
00000153
000000A4
000002E0
00000028
000001FC
00000183
FFFFFDF5
FFFFFF9B
FFFFFFAD
00000033
000003F1
00000419
FFFFFFAF
00000134
000001E0
00000068
000001AB
00000116
00000349
00000192
FFFFFD29
0000025D
00000251
FFFFFED2
00000227
0000028E
FFFFFFDD
0000021F
000000BD
00000313
00000184
00000488
FFFFFCFB
FFFFFF21
FFFFFBBD
0000001A
FFFFFEDF
FFFFFF20
FFFFFD0C
00000120
FFFFFF99
000001E6
FFFFFEF7
FFFFFEF6
FFFFFFDC
FFFFFE26
00000156
FFFFFD23
00000018
FFFFFC6E
0000019F
00000270
FFFFFEAD
FFFFFE51
00000200
0000030C
FFFFFCC4
00000189
0000009A
0000017E
0000021D
FFFFFD94
00000273
0000009E
0000023D
00000134
FFFFFDD0
FFFFFEB9
00000223
FFFFFEEB
000001D4
0000017D
0000012A
000000B2
0000000E
FFFFFF15
000000F9
0000034D
00000459
00000504
FFFFFE49
000002EB
FFFFFFA9
FFFFFF8B
FFFFFD9A
000000D9
000003F7
FFFFFCB8
FFFFFD04
000002F0
000002DC
FFFFFDDE
000002A0
000000B7
FFFFFFEE
000003F0
000002F1
000001BF
FFFFFDB3
FFFFFF0C
00000449
FFFFFB3B
FFFFFFA6
0000021D
000001A2
000001C0
0000001D
00000132
00000211
00000181
00000498
FFFFFEF9
0000032D
FFFFFFC0
FFFFFEB5
00000155
FFFFFED0
FFFFFEA3
0000017F
FFFFFE3D
0000002A
00000190
000000A8
FFFFFF39
00000312
FFFFFFEA
FFFFFE05
00000024
FFFFFFD8
00000325
000000AF
00000300
00000288
FFFFFE66
0000041C
FFFFFF4B
FFFFFE69
FFFFFF99
FFFFFC27
FFFFFFFC
FFFFFDAB
FFFFFE76
FFFFFE9E
0000027E
0000000F
000001BF
0000037C
FFFFFF5F
FFFFFEE1
FFFFFEF1
FFFFFC95
FFFFFC8F
0000012A
FFFFFE98
000001D4
FFFFFF52
000000D6
FFFFFD41
000003CE
000002E8
0000018B
FFFFFD04
0000020A
FFFFFC53
00000077
000000C3
FFFFFEB8
FFFFFDBF
0000003F
FFFFFC88
00000164
FFFFFE7A
FFFFFDB4
FFFFFE12
0000010B
0000018B
FFFFFFDB
FFFFFD08
00000271
000001C6
FFFFFEF1
FFFFFC08
FFFFFECB
000000C2
00000217
FFFFFFC9
00000124
000001EF
00000276
FFFFFD13
0000026A
FFFFFE3D
000002CF
FFFFFFA9
FFFFFD85
FFFFFE5C
FFFFFF9B
FFFFFFA6
FFFFFF19
FFFFFF3E
0000004C
FFFFFFFA
FFFFFF3A
FFFFFF51
00000310
00000143
FFFFFF23
000004DE
FFFFFF22
FFFFFE32
FFFFFD82
FFFFFCBD
FFFFFB67
FFFFFE60
FFFFFB33
FFFFFF66
0000040F
00000172
FFFFFC88
000003AD
000000F5
FFFFFC48
FFFFFFA9
0000000A
FFFFFC5F
000003A5
000000A3
FFFFFD5B
FFFFFDA6
000002A6
FFFFFD29
0000007D
FFFFFE40
FFFFFD5D
FFFFFC11
00000128
000002C6
000000A0
000001A8
FFFFFFCE
0000046B
000000A0
FFFFFCF2
000002CB
FFFFFFD6
000003C3
00000066
0000004B
FFFFFDA4
FFFFFE19
00000019
FFFFFF52
00000224
FFFFFFAC
0000016E
000000C3
FFFFFB99
0000027A
0000002B
FFFFFE8E
00000024
FFFFFD53
FFFFFC49
000003D6
FFFFFBFC
0000045F
FFFFFD4E
00000296
0000017B
FFFFFE80
00000319
00000287
000001EE
FFFFFCDA
000000B5
00000256
0000045D
FFFFFD99
FFFFFD6B
FFFFFD4E
000002DC
FFFFFDF6
FFFFFBF1
FFFFFF24
FFFFFF93
000001C2
FFFFFF92
FFFFFBBB
FFFFFF85
FFFFFF9D
00000263
000000B5
000001FE
FFFFFF57
FFFFFF58
00000048
FFFFFE15
00000268
000000C6
00000078
00000279
FFFFFF09
00000340
000001EB
000001F0
00000270
FFFFFFF0
FFFFFE25
000000A2
0000001F
000000A1
00000193
00000115
000001DC
0000014C
FFFFFDB3
FFFFFFB7
0000020B
00000281
00000347
FFFFFC7E
000000C2
00000206
00000100
FFFFFECE
000000DC
FFFFFD73
FFFFFE2F
0000006F
FFFFFD38
FFFFFE44
000003C0
00000064
FFFFFCD1
FFFFFDD5
FFFFFF47
000001F8
FFFFFD54
00000085
0000025B
000000F8
0000019F
0000027C
0000013E
00000332
000003F9
0000017E
FFFFFDA1
00000205
000000A1
00000015
FFFFFFEF
FFFFFF48
FFFFFE4B
00000310
FFFFFE17
00000095
000000E3
0000008C
0000010F
FFFFFFD0
000002BA
000000BB
FFFFFE41
00000281
00000116
FFFFFC8A
FFFFFFF0
00000181
FFFFFDD1
FFFFFE3E
FFFFFFDE
000000F3
000000D1
000002F4
00000249
0000016D
000000A0
FFFFFD37
000001D8
FFFFFDF3
FFFFFF62
FFFFFF50
00000062
FFFFFBAF
000003DD
FFFFFF9F
FFFFFD7B
FFFFFF74
FFFFFE78
0000037B
000003BF
FFFFFE98
FFFFFCE0
0000000C
FFFFFE16
000001CF
FFFFFFA2
00000238
0000011B
FFFFFF29
FFFFFE40
000005BB
FFFFFDA8
FFFFFE37
FFFFFF71
000001FA
FFFFFCFF
00000022
000002BE
FFFFFEAA
0000041F
000003D1
FFFFFF56
000002A9
FFFFFFFC
000002E5
FFFFFFEA
000000CA
FFFFFD60
FFFFFDF9
00000088
FFFFFE5B
0000003E
0000014D
0000014C
FFFFFE5F
0000024B
00000489
0000004C
FFFFFDA9
FFFFFF00
00000402
0000022C
FFFFFF3F
FFFFFE60
00000185
0000040D
000000B7
FFFFFE39
000002D7
00000087
FFFFFE9C
0000014F
000001F9
00000030
FFFFFF3A
FFFFFF47
00000183
FFFFFC83
00000286
FFFFFF32
FFFFFF06
FFFFFFC6
0000033E
00000226
FFFFFCAD
FFFFFF38
FFFFFF25
FFFFFCB8
00000217
FFFFFD1B
00000100
00000232
000000A1
FFFFFFB5
FFFFFD4E
00000343
00000040
FFFFFFE8
000000FF
FFFFFE42
000003B3
FFFFFFB5
FFFFFF2F
FFFFFE70
FFFFFDC8
FFFFFF89
FFFFFF58
FFFFFFD6
FFFFFDB5
00000042
0000013B
FFFFFE6B
00000434
000001E1
00000281
FFFFFF3F
00000319
0000009A
0000025A
FFFFFD0A
FFFFFEB0
FFFFFE60
0000000B
FFFFFF0F
000000DA
FFFFFDDD
00000014
FFFFFCC9
FFFFFCD2
000002F9
0000016E
FFFFFE86
FFFFFBFF
0000026B
FFFFFFAE
FFFFFEE0
00000201
FFFFFEBB
00000177
00000312
000002A5
FFFFFD6E
0000016A
0000032F
000004AB
FFFFFDA8
00000095
00000274
000001A8
FFFFFF6B
00000436
FFFFFFC1
00000105
00000287
FFFFFDE4
000004BF
00000400
00000124
FFFFFE1E
FFFFFE79
000001B8
000000DA
FFFFFE8C
00000051
0000014C
00000306
000001BA
FFFFFE12
FFFFFEDF
00000273
00000345
FFFFFF6A
FFFFFEE4
000001F8
00000496
FFFFFD57
FFFFFE95
00000290
FFFFFB60
00000040
000000D7
FFFFFFC0
FFFFFB76
00000026
0000025B
000000EF
00000150
FFFFFC9D
0000033D
FFFFFF35
00000319
0000027C
FFFFFF20
00000458
000000B0
0000040B
00000400
00000523
FFFFFF23
00000436
FFFFFF02
FFFFFD38
000002E5
000000F6
000001E9
000001CA
FFFFFEC8
000001EC
0000025D
FFFFFD3A
FFFFFD17
FFFFFFDE
FFFFFD31
000001EE
FFFFFD69
00000130
0000013F
FFFFFF62
FFFFFFA4
000004EB
00000003
FFFFFDFF
FFFFFCF8
FFFFFCB9
FFFFFF91
FFFFFB5A
FFFFFEF5
00000041
0000029B
FFFFFF96
FFFFFD92
0000014D
000002C7
0000033D
FFFFFFAF
00000029
00000593
FFFFFDC1
00000132
00000193
0000020B
FFFFFCFA
FFFFFE42
00000073
FFFFFEF4
0000030B
0000047E
0000014F
00000066
FFFFFD2D
FFFFFF30
0000019B
000002EB
000000B5
00000140
0000014E
0000017F
FFFFFDE1
FFFFFE5B
00000030
00000199
0000015D
00000259
00000124
0000031D
00000131
FFFFFDD9
FFFFFE2B
FFFFFD52
FFFFFFE5
000003AB
FFFFFECD
000001AB
000001DE
FFFFFF19
000002D7
FFFFFFA5
00000070
FFFFFF13
FFFFFF18
00000262
FFFFFF88
FFFFFEA3
000001C4
000000A4
FFFFFEB9
FFFFFCF2
FFFFFE22
FFFFFF8D
0000004B
FFFFFE97
FFFFFE3A
FFFFFD49
FFFFFF4F
0000017D
000002A3
0000007A
FFFFFEA0
000002C1
000002AD
00000082
FFFFFDEF
FFFFFDDF
FFFFFEE2
FFFFFF4A
000001C8
FFFFFD99
FFFFFF8A
FFFFFCC3
00000008
FFFFFE07
FFFFFE97
FFFFFD9D
FFFFFBED
FFFFFF1C
FFFFFE4A
FFFFFE48
FFFFFB56
FFFFFF7B
000001B7
000001F3
FFFFFD40
FFFFFFCD
FFFFFF93
FFFFFF74
FFFFFEAC
00000005
FFFFFF67
FFFFFE26
000000C3
000000BD
FFFFFF36
FFFFFDC9
00000445
FFFFFECB
00000047
FFFFFF64
FFFFFC63
FFFFFE46
00000190
0000002F
FFFFFE9B
FFFFFCE3
FFFFFE45
0000013C
00000151
FFFFFDB6
FFFFFCBA
000001FA
FFFFFDDA
0000006D
FFFFFC91
00000008
FFFFFF92
000000A3
FFFFFF9A
FFFFFE51
00000347
0000007E
FFFFFE4F
FFFFFE05
0000049D
00000082
FFFFFDF6
000001B0
00000381
00000309
FFFFFFA9
0000004E
FFFFFF5A
00000238
00000098
000001B1
FFFFFDD1
00000070
FFFFFFA3
FFFFFE59
FFFFFFB7
FFFFFE96
000001DB
00000027
000000B0
000000F6
FFFFFF1D
00000140
00000149
FFFFFC77
FFFFFD27
0000034A
00000041
0000028E
FFFFFFFB
0000036D
000001D1
FFFFFF9A
FFFFFD52
00000401
FFFFFE48
000000F4
00000086
000000B4
00000163
FFFFFF86
00000299
FFFFFDB6
000000F0
00000302
FFFFFF1F
FFFFFE28
00000136
00000268
0000007F
00000027
000000B0
FFFFFC90
0000003C
FFFFFF4B
000001E6
00000206
0000006F
000000E6
FFFFFD6E
FFFFFD2B
FFFFFD5B
0000002E
FFFFFC12
000001F7
000002F7
000000BF
FFFFFFCC
00000185
00000156
FFFFFFE8
FFFFFF6D
FFFFFECD
00000009
FFFFFD8F
FFFFFE69
FFFFFC80
000002A9
FFFFFD10
FFFFFEB9
0000026D
00000073
00000258
FFFFFCC8
00000235
FFFFFF1C
000002B4
FFFFFB84
0000039F
FFFFFBF0
0000002A
000002E8
000001E4
FFFFFC80
0000015A
0000004D
000003D8
00000121
000000E0
0000004D
00000102
00000154
000001F3
FFFFFCC2
00000157
000000A4
000000C2
FFFFFD0F
000000AB
00000193
000003D9
FFFFFDAC
000004B1
00000005
FFFFFEAA
FFFFFE25
00000288
00000030
00000136
00000143
000002D7
FFFFFDB2
00000216
0000028D
FFFFFFA6
00000237
FFFFFCFD
00000143
FFFFFEEE
FFFFFE98
000004C9
0000023B
FFFFFD7E
FFFFFD85
FFFFFF94
00000152
FFFFFB6B
000000DF
000000D0
000000F5
000000D1
FFFFFC6E
00000069
00000093
FFFFFD90
0000014F
0000066E
000002F6
000001D0
FFFFFEC3
FFFFFE00
FFFFFE94
FFFFFE4B
00000331
FFFFFDAF
FFFFFDFB
000001C6
FFFFFFDC
00000423
00000117
FFFFFF94
FFFFFEE2
FFFFFE9A
FFFFFC96
FFFFFEBE
FFFFFF9E
00000025
FFFFFFCB
0000017A
00000103
000000AD
FFFFFEB8
FFFFFE59
00000137
FFFFFF6C
FFFFFF8D
FFFFFD0C
00000120
000000CD
FFFFFEA6
00000426
FFFFFCDE
00000188
0000011C
FFFFFDD7
FFFFFEF8
000002AB
FFFFFEB4
FFFFFD7D
FFFFFEF9
FFFFFDC8
FFFFFF78
FFFFFEF6
0000005F
FFFFFEB9
FFFFFF1D
000002F1
0000023D
0000001F
0000007F
000002B9
FFFFFF34
0000007D
FFFFFF59
FFFFFF6B
FFFFFE42
00000280
00000310
00000076
000003A9
000000EC
00000045
FFFFFF21
FFFFFED6
000002B8
00000244
FFFFFFC2
00000504
FFFFFDC5
0000013F
0000011A
FFFFFF3C
FFFFFF95
FFFFFF6B
FFFFFD72
00000268
0000019D
FFFFFE61
FFFFFFCF
FFFFFC60
FFFFFD38
00000221
FFFFFE39
0000018B
FFFFFC78
000000CF
00000188
0000024B
FFFFFF94
00000013
FFFFFFDA
FFFFFD98
0000014C
00000175
FFFFFF75
FFFFFFD7
FFFFFDA1
FFFFFF7E
FFFFFE26
FFFFFFD3
000002AA
0000005B
00000252
000002AC
FFFFFE32
0000007F
FFFFFF4C
FFFFFEAD
FFFFFE7B
FFFFFF19
0000014E
FFFFFDC2
FFFFFD37
FFFFFEE7
0000021D
FFFFFEC1
000002B9
00000378
0000021C
FFFFFE7D
000001D7
0000010A
FFFFFF03
000002FC
00000122
000003E4
FFFFFD12
FFFFFF09
FFFFFFED
000001FC
00000331
00000242
FFFFFF53
000000BF
FFFFFCB3
00000391
FFFFFDFB
FFFFFE96
00000282
00000317
FFFFFF4A
00000136
0000012D
0000022D
000000C8
FFFFFEBA
FFFFFDF4
000002D4
FFFFFC72
FFFFFE5E
000002CC
FFFFFDBE
FFFFFF7C
FFFFFF01
FFFFFA58
00000177
000002AE
000002CE
FFFFFC31
00000102
000000B1
FFFFFF51
FFFFFE09
FFFFFBDF
FFFFFF8C
FFFFFD3B
FFFFFF6E
00000380
000002AB
00000061
000002C6
00000431
FFFFFD46
0000041F
00000392
00000231
FFFFFD56
000002D0
00000257
FFFFFF73
FFFFFFC5
FFFFFD13
FFFFFE9D
FFFFFD75
00000188
FFFFFCAE
0000014F
0000016B
00000069
FFFFFD9F
0000025D
0000017E
00000197
000001F8
00000103
000002C9
000002D8
000002D8
FFFFFD6B
00000051
FFFFFC71
FFFFFE47
00000213
FFFFFF42
00000019
FFFFFE18
00000208
FFFFFF2F
00000163
00000023
FFFFFE5C
0000014F
0000031A
FFFFFE21
FFFFFDC8
00000185
FFFFFC90
FFFFFC7C
FFFFFFE7
00000163
FFFFFF4C
000002A9
00000221
00000037
00000163
0000037D
FFFFFF3D
00000040
0000008E
0000010E
FFFFFD06
00000090
FFFFFF27
FFFFFDC3
FFFFFC47
00000189
FFFFFC52
FFFFFFE6
000001F3
FFFFFFF4
000000AD
FFFFFF59
0000048D
FFFFFDA8
000002FF
FFFFFF0F
000003E1
000000C6
000002DE
00000243
00000261
FFFFFDEC
FFFFFD67
FFFFFF4E
00000139
FFFFFD17
000003C4
000000B4
FFFFFE45
00000226
0000030D
000003B1
00000095
00000350
0000050E
00000189
FFFFFEC8
000001B7
FFFFFE0C
FFFFFC4A
FFFFFC67
000000D5
FFFFFF6A
0000031F
00000431
000000C7
FFFFFBD0
000000A7
00000284
FFFFFE17
FFFFFF14
FFFFFC5B
FFFFFFFC
FFFFFD51
0000001A
000002A3
0000052F
FFFFFDD8
0000024C
00000117
FFFFFDDD
00000064
FFFFFF0F
0000010A
0000045A
FFFFFDFF
FFFFFF1A
FFFFFE0A
FFFFFD99
0000040B
000004DA
000002AB
00000020
FFFFFD9C
FFFFFDEF
FFFFFD0B
00000003
FFFFFF96
FFFFFC9D
FFFFFBCE
FFFFFFA0
00000238
FFFFFE73
00000305
FFFFFE02
FFFFFCB4
00000322
00000048
0000000D
0000005E
000000A7
FFFFFE5A
0000007A
FFFFFF12
FFFFFF7A
00000103
FFFFFEBF
0000023A
FFFFFD27
00000369
FFFFFE03
FFFFFCF4
FFFFFBCD
FFFFFBCC
00000358
00000070
FFFFFE4C
000003BC
000001D8
FFFFFE5D
00000182
FFFFFEF6
FFFFFCDE
0000023B
00000007
00000265
00000099
000004AF
000002CE
00000406
000000F8
0000019B
0000034D
00000132
00000084
FFFFFE18
FFFFFF18
0000022E
000000C1
FFFFFFC1
FFFFFF05
000001E8
00000165
FFFFFEDC
000000EB
000001EE
FFFFFDF2
000001FA
00000451
00000248
FFFFFE01
FFFFFF31
FFFFFE59
FFFFFF2A
FFFFFA7D
FFFFFF82
FFFFFF38
FFFFFFD5
00000078
FFFFFF95
FFFFFE9E
00000271
0000013D
0000013C
00000285
FFFFFE30
000001D0
00000161
FFFFFDC2
FFFFFCE6
FFFFFC53
FFFFFE4E
0000000B
00000140
FFFFFE1E
00000176
0000013A
FFFFFE6B
0000029B
FFFFFE0C
00000438
FFFFFF85
000000AE
FFFFFFCD
000003E0
FFFFFC96
FFFFFD95
FFFFFF2A
FFFFFD64
00000082
FFFFFE4A
00000041
0000014A
0000031C
FFFFFFE4
000001C3
FFFFFDCC
000004CB
0000023F
000002BC
FFFFFD19
000000B4
000002B0
FFFFFE9E
FFFFFC94
0000014B
FFFFFF99
FFFFFCEE
000001C0
00000374
0000000E
00000263
FFFFFCCC
0000017A
FFFFFD22
FFFFFF7B
000000CD
000003B7
00000194
0000015C
000000F3
0000002F
000001A9
000001DE
00000014
FFFFFFD5
000001E6
0000002F
FFFFFDEF
0000048B
FFFFFFC1
000000CC
FFFFFF75
FFFFFEF9
0000007A
FFFFFFDF
FFFFFFF9
0000020A
0000028A
000001BF
0000001C
FFFFFF49
FFFFFF70
FFFFFED1
00000221
00000395
0000011B
FFFFFEE6
FFFFFE0C
000001B6
FFFFFFEB
FFFFFF9B
FFFFFB82
FFFFFDBE
000002DE
FFFFFE12
FFFFFE2A
00000290
FFFFFD9B
000000A6
FFFFFE67
FFFFFF2B
FFFFFD55
FFFFFB89
FFFFFF58
FFFFFE25
FFFFFE52
FFFFFDAC
FFFFFDF4
000000BA
FFFFFD20
FFFFFE61
FFFFFDC7
FFFFFE0B
FFFFFF4F
FFFFFD08
000000A5
FFFFFE66
00000131
FFFFFE0C
FFFFFDD2
FFFFFE48
0000009C
FFFFFEDD
FFFFFE69
FFFFFE82
00000122
FFFFFE8B
00000215
FFFFFF7C
FFFFFE8B
FFFFFDB0
00000091
FFFFFEEB
FFFFFDF3
000002B0
FFFFFE24
00000257
FFFFFE94
00000298
FFFFFC99
00000310
FFFFFD45
FFFFFD91
FFFFFB9A
000002EF
FFFFFC40
FFFFFF33
00000512
000002B9
FFFFFF7E
FFFFFE8D
000001A0
FFFFFE93
FFFFFD82
0000015E
000002DC
000002AF
00000222
000000A6
000000CE
0000027F
000000CA
00000192
FFFFFF0B
FFFFFDD7
000001E7
FFFFFDB7
000002B6
00000256
000001AA
FFFFFE34
FFFFFD80
000000F5
0000008C
00000299
00000251
FFFFFDAE
000001B1
FFFFFEC0
0000023A
0000029A
FFFFFE75
FFFFFE27
000001FF
0000032A
00000356
000002D4
FFFFFEAB
FFFFFEC6
FFFFFEA1
000001F9
FFFFFEB9
0000035E
000002B4
FFFFFCA9
FFFFFCC9
FFFFFCDD
0000016C
000000D1
FFFFFE42
000000AB
000002F0
0000026A
00000098
000002E4
FFFFFCDB
FFFFFEA4
FFFFFDC7
FFFFFE10
FFFFFF52
00000005
00000187
FFFFFC75
FFFFFE65
FFFFFE23
000002CE
00000125
FFFFFE76
0000067A
FFFFFF88
0000002A
00000110
00000065
000003B0
000000FC
0000045A
0000021B
FFFFFFBB
FFFFFE35
0000005F
000002FA
00000361
FFFFFFD7
00000159
0000031A
FFFFFCEE
FFFFFE84
000002EB
000002A2
00000057
0000010D
FFFFFF1A
00000335
FFFFFE0A
000000CB
FFFFFCEF
000001C5
000000DC
FFFFFF49
000000E2
FFFFFDB8
FFFFFE3F
FFFFFF02
FFFFFFB3
000002DF
000001E4
FFFFFFD5
FFFFFD9F
FFFFFD5B
0000021A
FFFFFCA9
FFFFFFF3
0000020B
00000392
FFFFFFD0
FFFFFFC4
000000B1
0000011C
0000032D
FFFFFFC3
00000193
00000148
FFFFFCE4
000002E3
FFFFFFF5
000000D4
FFFFFFDF
FFFFFFC7
00000192
FFFFFF4F
FFFFFFAA
FFFFFFCF
FFFFFD7E
00000134
000002F5
00000325
FFFFFEA5
0000007D
000000E6
0000007D
FFFFFDAA
0000003C
FFFFFC5F
FFFFFDD8
FFFFFFE8
0000012D
0000013A
0000006E
000003C9
0000005B
00000209
00000339
FFFFFB6D
FFFFFEF2
FFFFFFA6
000003A3
00000348
FFFFFD8A
FFFFFD92
FFFFFFA9
00000083
000000BE
0000035D
FFFFFF17
0000002E
0000009B
0000013B
FFFFFF0C
00000027
0000034E
FFFFFCEF
FFFFFF9A
0000026D
00000218
0000010E
FFFFFEA9
FFFFFBD8
FFFFFDBB
FFFFFC30
FFFFFF2D
0000005E
FFFFFF4F
00000043
FFFFFD8C
FFFFFD86
FFFFFCFF
FFFFFF70
FFFFFF64
FFFFFFB9
FFFFFE52
00000234
00000098
FFFFFF3B
FFFFFE77
000000B3
FFFFFD85
FFFFFF1C
FFFFFE6E
0000004F
00000281
FFFFFF51
00000267
FFFFFC98
FFFFFF03
FFFFFFA6
FFFFFBAC
FFFFFF37
00000197
000002EA
0000039F
00000057
00000014
FFFFFE32
00000218
FFFFFCF7
0000030D
0000008F
000001C7
FFFFFE9F
00000050
FFFFFF81
00000199
FFFFFE96
00000273
FFFFFEDB
0000048B
FFFFFDFE
FFFFFFDE
0000001E
FFFFFBD9
0000022A
FFFFFE52
0000032E
000004BD
000000E4
FFFFFFBD
FFFFFD07
00000069
00000202
FFFFFF55
FFFFFDFA
00000232
FFFFFC17
FFFFFDE9
00000052
000001CB
FFFFFFB2
FFFFFC5A
0000006F
00000306
FFFFFE4D
00000089
00000060
FFFFFE8B
FFFFFE4C
000000B8
FFFFFF46
FFFFFF7E
FFFFFEBA
FFFFFA2B
0000005B
00000155
FFFFFF59
00000184
00000036
FFFFFF2F
000002E0
FFFFFCA7
FFFFFEDB
000002B0
FFFFFD3D
FFFFFD33
000001E6
000001BD
00000122
000000A7
FFFFFFA3
FFFFFDEB
0000012C
FFFFFD7B
FFFFFF54
00000116
0000030D
00000032
FFFFFCD6
FFFFFFDE
FFFFFFA9
00000105
FFFFFF04
FFFFFDE1
000000F7
000002CD
00000436
FFFFFF3C
FFFFFF43
FFFFFE4C
000002B0
0000001F
FFFFFD9D
000000FF
FFFFFFC4
00000321
0000049B
000000FF
000001E4
FFFFFF90
0000004F
FFFFFDFD
000000D4
0000018F
FFFFFC0A
FFFFFCD3
0000028E
000001FC
FFFFFDD5
000000C5
FFFFFF0D
FFFFFEFA
00000192
0000000C
FFFFFECF
000000B2
FFFFFDAE
0000003B
FFFFFE1F
FFFFFF28
000001E8
FFFFFE30
FFFFFDEC
FFFFFD5C
00000000
FFFFFEC7
000000A0
000002E0
000002B1
FFFFFF53
0000013D
FFFFFD21
000001D4
000000B9
FFFFFEA9
000000B7
FFFFFD64
000003B3
FFFFFDE7
00000185
000001E3
FFFFFD4A
0000019E
000001E1
000001B7
000002EA
00000104
00000098
FFFFFF6C
FFFFFB91
FFFFFEB5
FFFFFD0A
FFFFFFED
000000E0
FFFFFDDF
FFFFFF1A
0000022E
FFFFFE53
FFFFFE79
FFFFFE04
FFFFFDF6
FFFFFF9C
000002BF
00000181
0000027C
FFFFFF74
000001F7
00000181
000001CE
000000B4
000001B8
00000398
0000012C
000002C6
0000029E
FFFFFECF
FFFFFD9A
FFFFFF63
FFFFFF21
000000F5
000003A8
FFFFFFF2
00000122
FFFFFD52
0000013E
FFFFFFE2
FFFFFF90
FFFFFE7C
FFFFFE5E
FFFFFE90
FFFFFE31
FFFFFEBF
000001AC
000001AD
000000F3
000002CA
00000024
00000141
FFFFFEF0
0000024C
00000140
00000184
FFFFFFCA
00000162
000001C1
0000040A
FFFFFDB2
00000301
000001B4
0000013C
FFFFFEE6
FFFFFF37
FFFFFE51
00000040
FFFFFE6D
FFFFFD4A
FFFFFFC4
00000334
0000016C
FFFFFBEB
00000301
FFFFFE1C
FFFFFD25
00000141
FFFFFF39
00000238
FFFFFF1E
FFFFFD81
FFFFFCAC
FFFFFFEB
00000051
FFFFFE00
00000351
00000288
000000B8
00000206
000001FD
0000005D
0000028B
FFFFFFFB
000002AB
FFFFFC5D
000001F2
FFFFFE5D
FFFFFF58
FFFFFF98
0000009E
0000001C
FFFFFE5C
FFFFFE89
0000013D
FFFFFF87
FFFFFC8A
FFFFFFBD
000003B2
0000031F
FFFFFB2E
000000B4
FFFFFF87
FFFFFEC9
FFFFFF6E
FFFFFE4E
FFFFFF0A
00000060
FFFFFF3B
000000C0
FFFFFEBB
FFFFFD97
000001B6
000000E4
00000079
0000003A
FFFFFD7B
000003A8
FFFFFD40
00000222
0000021E
0000018D
FFFFFE49
000000D6
FFFFFF2C
FFFFFE95
00000227
00000185
00000049
FFFFFF51
00000173
00000150
FFFFFF05
00000032
00000193
00000047
FFFFFE79
000002E9
000000F2
000002AA
0000036A
FFFFFCCF
0000007A
FFFFFC5F
FFFFFE61
FFFFFD98
0000023F
FFFFFC3A
FFFFFEB9
000002B7
FFFFFCCC
000000D1
FFFFFDBE
FFFFFFFD
FFFFFE42
00000007
00000036
0000039F
FFFFFF21
FFFFFEB9
000002C3
FFFFFE08
FFFFFD9C
00000198
000001A0
FFFFFC8C
FFFFFD96
0000028B
FFFFFEA8
FFFFFF11
00000125
FFFFFF91
00000011
FFFFFEA5
00000013
000001B9
00000140
FFFFFD0D
0000004E
00000173
FFFFFE5A
FFFFFDA9
FFFFFD07
00000465
0000000C
FFFFFEDC
FFFFFF24
00000311
FFFFFD84
FFFFFC1B
00000005
FFFFFC72
FFFFFF1D
0000013E
FFFFFEB5
FFFFFDD3
00000190
00000092
FFFFFE8C
FFFFFE55
FFFFFD1E
00000299
FFFFFE70
FFFFFDA0
FFFFFF15
FFFFFED8
00000066
000002AF
FFFFFF84
00000137
FFFFFECB
000001D7
FFFFFCEF
0000027B
FFFFFF4B
000001B0
FFFFFF99
000002DE
FFFFFF8A
FFFFFCD2
FFFFFE1C
FFFFFE86
00000131
00000045
0000030F
000000AE
FFFFFED0
FFFFFE45
FFFFFE15
FFFFF9F1
0000009E
FFFFFE39
000002BE
FFFFFCF2
FFFFFF61
FFFFFEC9
FFFFFDDF
FFFFFE22
FFFFFE6A
00000339
00000093
00000058
00000213
FFFFFDCF
00000067
00000160
FFFFFFAB
FFFFFF33
FFFFFF61
FFFFFED6
0000035C
FFFFFD3C
00000495
000002B7
0000026F
0000012D
FFFFFE5E
FFFFFEAB
FFFFFE19
00000054
000001C7
0000034D
00000157
FFFFFE41
FFFFFE2C
00000362
000003E5
FFFFFDD1
000001C2
00000057
000002EC
00000235
FFFFFE79
FFFFFF71
FFFFFE04
FFFFFDB8
00000190
0000046D
000001E1
000002C3
FFFFFFDA
000002F4
000000E8
0000027C
FFFFFD4D
FFFFFEF0
00000106
FFFFFEAB
00000093
FFFFFCD8
00000259
00000430
000001DC
FFFFFCEC
FFFFFD73
0000033C
FFFFFED0
FFFFFF45
000002EF
FFFFFE10
FFFFFD01
FFFFFFE4
000001BA
FFFFFF62
FFFFFD54
000002C9
FFFFFE35
00000183
0000002F
FFFFFF1E
00000297
FFFFFFCA
0000028D
FFFFFFD9
FFFFFDAB
00000421
000002E4
000001BC
000003EF
000000C4
000003FF
0000005F
00000285
000001D8
FFFFFFD4
FFFFFEAE
00000082
0000030F
FFFFFEA3
FFFFFDA4
000000F6
FFFFFEBF
000000BC
00000276
00000273
000002B9
000001F0
FFFFFDE8
FFFFFCF6
00000067
00000112
FFFFFF5F
FFFFFFE4
000000C5
00000543
000001D2
0000019E
00000044
00000177
FFFFFF81
FFFFFE17
00000259
00000142
FFFFFE36
FFFFFB7C
00000043
0000033B
00000257
00000447
000000E6
000000D2
FFFFFE41
FFFFFC8A
FFFFFFE1
FFFFFEF6
0000051E
0000022A
00000090
FFFFFF30
000001DD
00000126
000002A9
FFFFFC77
FFFFFCB0
00000135
000000FB
FFFFFDA4
000000DB
FFFFFD63
FFFFFEAD
FFFFFF65
FFFFFE8B
FFFFFF49
FFFFFEC4
000000B1
0000004E
00000144
FFFFFFB6
FFFFFC72
FFFFFF59
FFFFFDB3
0000000B
FFFFFD36
0000027C
00000164
FFFFFF87
0000016D
FFFFFF38
FFFFFF2D
000001B2
000001A4
0000022D
00000081
0000029C
0000006E
00000291
FFFFFF41
00000251
00000140
FFFFFFEB
000002E8
FFFFFFE2
0000014A
0000007B
FFFFFF97
0000010A
000001DC
FFFFFFA5
000001D2
FFFFFFD3
FFFFFDBA
FFFFFD14
0000014D
FFFFFD5B
000002AE
FFFFFED4
FFFFFE6D
FFFFFE04
FFFFFD8F
000000FB
FFFFFF57
00000167
FFFFFD85
FFFFFC77
FFFFFD69
000000D5
00000002
000001EC
FFFFFE3D
FFFFFFF6
000003DF
00000372
FFFFFDD3
FFFFFF21
FFFFFE9C
FFFFFDB5
00000338
00000152
00000141
00000002
FFFFFF58
FFFFFF53
000000E3
000002FE
FFFFFD36
00000193
00000552
FFFFFC15
FFFFFF71
000000E3
FFFFFDBA
FFFFFE61
FFFFFC16
000000A8
000002E9
FFFFFFA0
0000028C
FFFFFDB3
FFFFFDAA
FFFFFD5E
FFFFFD0C
FFFFFF9E
FFFFFE0F
000002A6
FFFFFB0A
FFFFFECE
00000096
000003A6
0000005D
FFFFFDFF
FFFFFDFD
FFFFFBBF
FFFFFF1E
000003B8
FFFFFCE8
FFFFFFE7
FFFFFE4B
FFFFFE77
00000107
FFFFFE89
0000028A
00000195
00000400
00000076
FFFFFEAA
00000113
00000216
00000144
0000016D
FFFFFC2D
FFFFFF79
FFFFFE04
00000148
00000429
FFFFFED4
FFFFFD4C
000002F8
0000019E
000001B0
FFFFFEE6
FFFFFFC7
00000428
FFFFFE4B
FFFFFF4F
FFFFFEA2
0000017C
FFFFFD9E
FFFFFD51
0000027D
000002AD
FFFFFCA6
000000E4
00000276
FFFFFEEC
FFFFFD97
FFFFFD7E
000000A0
00000006
000002DB
FFFFFF25
0000002A
FFFFFE9B
FFFFFDF3
000000F4
000000D9
FFFFFFB2
FFFFFE23
FFFFFDE0
FFFFFB83
000000F4
00000237
000003BE
000000CA
0000007E
00000217
0000007A
FFFFFBCC
0000003F
00000284
000000B5
FFFFFD55
000001EA
0000036D
FFFFFEFB
0000019E
00000078
FFFFFE7D
000000F5
0000025A
FFFFFC24
0000013C
FFFFFE50
00000169
000001C1
000000F4
00000263
00000008
FFFFFE11
0000034B
FFFFFEFC
00000003
FFFFFD5C
000001FF
00000281
00000106
FFFFFDAA
FFFFFE97
FFFFFE96
FFFFFBFF
00000168
00000139
0000011E
FFFFFE36
00000217
FFFFFDB8
FFFFFD42
FFFFFF12
FFFFFCD1
FFFFFD55
FFFFFFFC
00000082
FFFFFFF8
FFFFFE02
FFFFFDDD
FFFFFE21
FFFFFFD0
000002AD
FFFFFCA0
00000111
00000141
FFFFFE62
00000193
000001A4
0000020E
000000C4
FFFFFEE9
000001EE
00000241
00000004
000001E5
000000F6
000001FF
0000009D
00000316
FFFFFF2A
000002C9
FFFFFDA8
000000A7
FFFFFFE1
FFFFFFA5
FFFFFF71
FFFFFE77
0000031C
00000304
0000004C
00000271
FFFFFEE3
000001C0
FFFFFF0E
00000521
00000205
FFFFFE21
FFFFFE44
000003A5
FFFFFEDE
000003C0
FFFFFD58
00000001
FFFFFF5F
FFFFFE64
FFFFFF6A
FFFFFDB4
FFFFFE94
00000011
000002BB
0000017E
FFFFFFCD
FFFFFF3A
FFFFFF14
00000304
000000A0
000001B5
FFFFFF7A
000000DA
FFFFFDAF
00000114
00000114
0000019D
000001FE
000000EC
FFFFFEC7
FFFFFD46
000000A1
FFFFFEBD
000002D0
000002BD
FFFFFD91
00000048
FFFFFC43
00000403
00000265
00000013
FFFFFF8A
0000026B
FFFFFEA8
00000256
00000249
FFFFFC89
FFFFFFD1
FFFFFF15
00000045
0000026C
000001A4
00000179
FFFFFE99
FFFFFCCC
0000032A
0000018A
000003BC
000001B9
FFFFFFF3
00000176
FFFFFD29
0000030D
00000082
FFFFFD48
FFFFFF79
FFFFFE60
00000426
FFFFFE03
00000469
000001C0
FFFFFFEE
FFFFFF66
00000143
FFFFFFE5
FFFFFC3A
0000008E
FFFFFD14
0000036E
000002BE
FFFFFFE6
FFFFFC2B
FFFFFF7F
FFFFFFCA
00000307
000000EA
000000AA
000000C7
0000031E
FFFFFE82
FFFFFF8D
000000F9
FFFFFD34
00000292
FFFFFE9B
00000220
FFFFFBAE
FFFFFF65
000002B1
FFFFFC5C
FFFFFF1B
FFFFFEE5
00000209
000003A1
FFFFFCF7
FFFFFD37
FFFFFDA6
FFFFFE5E
FFFFFD7C
FFFFFF8A
000002DF
000003E6
000001D0
0000014C
FFFFFECA
FFFFFEF5
FFFFFCFC
FFFFFF02
0000005E
00000163
FFFFFE65
FFFFFFFD
0000022C
00000260
00000325
00000258
FFFFFF7F
00000006
00000148
00000221
00000068
FFFFFD26
FFFFFEC7
0000013B
FFFFFFCD
FFFFFF12
00000070
00000373
00000313
0000003E
FFFFFEB2
000000F7
FFFFFD4F
0000038A
FFFFFFA0
00000099
00000047
FFFFFE00
FFFFFEF0
00000127
FFFFFE97
00000422
000002CE
0000003E
FFFFFC30
00000134
000003E5
000000F3
FFFFFDA1
FFFFFCF4
0000010C
FFFFFFCF
FFFFFF3F
FFFFFEBB
000001E2
0000024F
00000052
FFFFFCF4
000001A0
00000054
FFFFFD47
000001B9
00000105
000003B7
000000B5
0000016B
FFFFFDE1
FFFFFDAE
0000021A
FFFFFD6B
FFFFFE4B
000000A1
FFFFFC60
0000016D
FFFFFECA
00000158
FFFFFFD9
000002BA
FFFFFE01
FFFFFEE0
FFFFFE04
000000DE
00000338
0000011C
000002F0
00000128
00000077
FFFFFF77
FFFFFC00
00000267
FFFFFFEF
FFFFFBE4
FFFFFDEF
00000308
FFFFFCCA
FFFFFDB6
FFFFFF32
0000016D
FFFFFDFA
00000525
000002CB
000001E1
00000055
0000018C
00000306
FFFFFFE0
0000018C
000001D0
FFFFFE0E
FFFFFFB4
FFFFFF5A
FFFFFDCE
0000004C
00000195
FFFFFC88
00000020
0000003A
0000005B
FFFFFFF1
FFFFFDC0
0000038C
FFFFFF21
000001C2
FFFFFE6B
FFFFFC03
00000472
0000015C
FFFFFEDA
FFFFFBBC
00000094
FFFFFFD5
000001D4
00000028
FFFFFEF9
FFFFFE27
FFFFFDE5
FFFFFE19
00000256
FFFFFC96
000000DE
0000029C
FFFFFDB9
FFFFFC59
FFFFFEA6
0000027D
00000210
00000322
FFFFFA18
000001D8
FFFFFF34
FFFFFBF9
FFFFFF54
00000276
FFFFFF7A
FFFFFDDC
0000036C
000000A6
FFFFFFBB
FFFFFFF3
FFFFFE7A
FFFFFCF8
000001D0
00000069
00000039
FFFFFE2F
FFFFFCD0
FFFFFF89
00000014
FFFFFEE7
0000023E
00000571
00000100
000000E0
FFFFFFD0
